96
69
A8
A5
86
A4
99
66
A5
52
02
55
02
56
42
96
A2
51
A2
52
6A
65
59
56
64
04
19
15
86
A1
48
90
90
9A
99
15
46
28
88
66
82
9A
02
25
16
60
94
21
A8
82
A0
A8
50
98
92
99
92
49
21
A9
49
69
1A
51
66
2A
6A
6A
51
29
4A
6A
89
25
8A
A4
1A
19
12
A6
51
64
66
2A
A9
68
61
51
58
9A
9A
A6
24
19
56
40
1A
52
4A
65
22
84
A1
65
12
90
42
12
59
1A
49
18
12
AA
44
8A
A1
8A
49
AA
2A
69
64
A5
90
61
60
58
64
56
80
46
62
42
69
A5
51
6A
55
64
92
AA
98
52
6A
65
A9
A2
66
61
16
69
16
59
4A
90
40
A5
42
6A
AA
8A
28
10
29
05
46
96
95
51
46
5A
A0
8A
99
52
94
66
41
90
69
58
59
54
58
5A
1A
62
69
09
95
84
8A
29
95
82
A2
59
85
29
02
15
46
A1
94
0A
60
90
A5
24
5A
42
98
16
55
14
28
62
45
9A
A5
66
12
86
28
95
50
81
29
08
91
96
26
54
49
20
18
A0
69
92
12
66
62
80
2A
82
24
55
10
94
48
8A
59
51
26
51
81
A5
82
99
69
46
94
A2
A9
99
82
19
A6
41
99
A0
42
59
45
89
49
94
90
24
45
51
20
45
81
55
21
22
65
AA
84
82
A6
88
8A
5A
94
A0
96
62
65
A5
64
41
54
09
8A
A9
26
09
68
8A
96
1A
9A
04
AA
89
94
A5
62
9A
42
A1
A5
81
0A
56
1A
2A
A6
A9
29
99
25
52
AA
22
44
A8
A0
51
42
95
24
95
61
51
96
59
21
A9
46
14
49
98
15
2A
A8
18
85
85
92
44
16
8A
64
98
28
66
42
90
A4
99
15
66
85
19
88
04
10
44
60
05
95
55
00
5A
A0
4A
28
99
AA
54
42
81
08
95
18
10
26
16
A2
99
62
61
69
69
18
95
08
42
55
14
52
58
29
41
4A
42
84
54
95
5A
09
9A
86
65
AA
14
9A
8A
9A
0A
50
54
8A
AA
A9
56
80
45
2A
58
19
55
89
A0
66
94
92
14
42
56
01
92
95
19
86
94
A8
28
55
61
88
56
01
26
45
21
55
50
A0
98
66
54
50
95
18
82
66
82
09
62
89
A6
26
A6
90
58
9A
12
21
45
15
26
85
91
99
0A
22
96
2A
51
5A
A9
A9
65
95
69
92
54
06
65
54
11
A1
64
95
92
60
24
20
46
05
16
09
A9
95
24
52
88
61
8A
99
96
95
26
1A
2A
A2
82
02
81
09
15
58
95
86
55
68
44
05
54
5A
AA
AA
56
6A
AA
65
9A
62
06
50
A8
82
A2
65
98
61
44
61
99
51
98
20
54
60
64
29
5A
2A
98
52
90
58
19
A2
51
99
59
89
00
2A
95
04
A5
21
50
25
98
92
68
51
A1
61
98
61
24
64
19
48
59
04
86
08
89
46
5A
82
99
4A
9A
29
A6
06
90
66
1A
98
54
14
96
68
A6
A2
95
06
29
16
65
89
A6
55
89
95
65
81
25
A8
59
56
0A
86
89
91
4A
94
68
19
65
55
64
28
A8
16
A9
18
A0
80
94
98
55
1A
69
59
82
9A
55
29
9A
68
A5
11
1A
A2
98
08
58
54
96
21
6A
44
56
45
28
15
26
81
A9
28
14
59
5A
59
16
56
60
A6
4A
58
A2
09
0A
26
62
69
29
85
68
05
60
1A
54
AA
84
99
5A
A1
26
A9
24
10
59
90
21
92
24
21
8A
0A
20
90
A5
55
90
52
A5
85
04
84
6A
25
26
89
56
0A
89
65
5A
11
45
56
96
65
95
9A
42
55
9A
41
95
48
A9
AA
46
86
62
51
45
24
26
64
49
29
29
22
66
A2
1A
6A
9A
15
46
99
00
99
41
98
A1
21
46
01
8A
AA
60
54
A6
09
8A
62
20
86
65
45
19
54
1A
42
16
6A
A6
9A
A9
A2
25
A8
55
49
18
16
01
2A
65
92
52
04
6A
24
49
24
A1
A6
85
09
A8
41
A6
52
24
8A
26
16
52
22
24
50
68
96
A4
25
40
95
96
85
51
12
96
52
5A
14
95
01
15
96
24
24
00
9A
02
68
55
56
A9
A5
66
69
00
4A
82
68
8A
45
AA
14
69
89
AA
94
A4
80
54
09
48
95
1A
68
62
49
AA
9A
49
6A
0A
58
00
19
62
50
26
96
51
54
44
61
96
89
8A
46
2A
65
A2
90
2A
64
24
28
01
68
11
2A
6A
A2
A8
A5
A5
48
98
96
92
12
50
15
98
54
99
90
99
09
12
96
45
A6
1A
94
89
18
19
4A
51
88
98
65
99
28
58
A2
91
AA
59
A5
4A
86
56
99
01
55
44
49
59
45
51
58
91
56
AA
62
88
68
A1
A5
A9
91
2A
A6
5A
A5
05
68
8A
5A
51
02
66
89
99
99
69
84
94
A9
A4
25
99
AA
A6
16
A0
94
80
69
15
05
AA
14
41
19
56
05
45
1A
95
42
81
12
A2
21
60
66
59
12
84
18
14
45
15
9A
A8
54
95
5A
45
06
96
A8
4A
99
4A
95
55
A4
50
66
91
84
10
92
25
A1
A9
85
A2
A6
56
A6
26
14
16
16
AA
18
59
62
0A
64
65
65
28
50
29
99
96
09
65
60
14
A1
99
A4
A9
6A
29
65
10
88
58
A1
92
94
45
28
14
9A
25
82
44
14
15
A1
48
AA
A8
68
89
6A
94
95
88
28
96
A4
06
56
A2
65
29
02
65
66
25
01
56
A5
52
14
A2
68
A5
41
44
61
66
99
0A
06
96
64
8A
0A
55
24
56
92
16
A2
6A
A1
AA
A6
68
2A
66
10
58
0A
85
96
49
5A
A0
00
90
41
26
85
55
00
A2
98
92
61
A0
92
95
65
04
8A
50
42
82
96
04
A9
09
0A
21
AA
A4
29
92
41
99
51
9A
05
65
14
65
99
96
22
41
49
92
54
92
15
58
46
80
19
A9
49
A5
10
26
95
8A
12
A0
26
A0
64
40
A4
99
0A
6A
52
25
A1
90
69
1A
88
81
6A
65
09
14
50
91
8A
88
69
95
5A
61
94
91
49
64
AA
64
28
09
9A
29
52
60
55
A4
45
20
0A
09
60
55
11
29
88
52
01
62
0A
51
4A
96
44
16
16
AA
18
A6
20
A6
A6
92
25
6A
45
22
16
96
A6
42
55
A0
58
12
65
A9
A2
88
26
25
42
92
61
00
48
6A
15
65
56
88
09
02
65
A0
26
8A
91
A8
46
19
88
24
65
A8
19
84
60
12
05
A8
1A
AA
89
26
89
25
2A
91
22
46
60
04
25
19
48
90
98
1A
24
92
24
A6
69
45
65
9A
94
84
25
AA
05
56
52
66
90
99
88
2A
A4
6A
82
9A
61
1A
9A
6A
92
25
9A
94
44
62
9A
A6
29
15
11
A8
04
85
86
65
14
A9
48
50
02
66
A9
89
66
16
89
15
A9
25
50
95
16
90
10
54
AA
81
21
9A
42
52
66
95
A5
28
06
50
59
15
65
A8
0A
54
19
5A
66
58
15
9A
88
85
01
A8
0A
A5
09
96
9A
60
8A
62
90
26
96
46
60
15
45
5A
1A
98
25
09
A9
66
92
51
15
51
56
92
82
66
25
2A
A8
46
10
68
40
09
A1
5A
99
55
A1
21
A4
25
95
AA
55
55
58
A9
6A
6A
90
48
98
0A
16
56
05
1A
68
54
1A
55
9A
65
05
52
91
10
45
15
65
05
62
95
50
81
20
69
A8
61
19
12
66
86
9A
55
A5
55
55
55
66
88
12
46
64
64
16
61
58
56
A5
66
96
61
40
46
99
98
6A
44
AA
00
91
90
40
49
91
12
98
94
59
11
66
68
01
02
A9
68
6A
4A
86
60
9A
21
09
95
54
12
12
59
65
81
A1
25
95
94
A5
92
16
A2
A2
52
89
66
62
6A
95
81
58
66
88
AA
54
52
A4
66
0A
A5
60
66
A8
A1
89
85
29
6A
A2
A1
69
A2
01
69
55
00
61
44
64
66
95
08
84
A9
8A
A9
46
A2
94
96
A5
92
09
41
A5
A1
69
11
A0
62
60
92
81
A0
9A
11
46
66
18
AA
A1
8A
19
45
18
85
04
29
65
59
04
A6
AA
68
9A
A8
99
50
98
AA
66
95
A5
69
AA
41
A2
14
4A
52
16
A6
24
A0
54
A1
9A
41
22
96
62
02
18
55
19
25
15
20
05
01
9A
50
5A
59
88
66
58
85
8A
25
6A
4A
95
51
66
65
98
50
29
99
A2
96
99
9A
98
68
16
8A
A0
0A
46
92
66
AA
40
AA
15
16
42
49
6A
60
AA
64
85
56
99
81
90
96
29
50
51
AA
1A
9A
94
99
26
51
64
65
99
A4
A1
54
AA
8A
15
06
A5
51
55
6A
9A
18
A9
06
66
94
69
90
68
A6
25
66
26
49
86
A6
55
AA
99
A8
84
94
96
A5
21
42
A8
84
55
62
16
59
A9
52
AA
94
24
96
9A
26
46
15
50
82
59
89
54
99
65
05
A1
A9
42
56
69
A4
95
25
A6
58
26
A6
69
49
61
89
06
2A
96
86
46
94
46
A9
61
56
51
A4
54
22
92
68
5A
85
09
5A
A6
99
86
05
A6
96
85
96
A5
A8
48
58
10
66
05
56
85
56
25
A2
5A
A6
95
2A
62
99
A1
26
15
06
68
96
59
41
18
49
A1
A6
65
A9
6A
46
A8
54
6A
18
9A
62
16
04
45
16
9A
80
61
58
4A
26
25
59
A6
88
2A
4A
54
91
59
55
50
51
22
62
11
69
08
A6
0A
AA
91
25
45
92
68
51
88
11
49
49
40
41
9A
6A
42
29
A1
46
09
62
66
64
55
95
10
A2
1A
96
28
A9
80
4A
46
54
61
22
96
69
15
56
49
6A
50
44
2A
54
A1
6A
61
99
AA
59
68
99
84
99
19
15
65
25
A9
24
54
80
4A
08
8A
52
19
81
88
5A
85
96
54
55
A8
65
60
44
58
AA
61
1A
68
55
99
10
18
58
45
A9
04
21
00
00
10
56
96
0A
54
8A
62
89
92
59
8A
98
66
66
26
05
21
62
08
55
81
A4
08
26
42
18
08
12
6A
02
9A
29
88
59
A4
52
69
19
5A
A2
25
25
01
28
06
6A
99
86
A9
19
59
48
50
89
64
19
66
90
5A
99
4A
8A
55
89
45
05
0A
24
A5
05
26
60
95
99
11
62
9A
1A
99
96
26
15
8A
1A
6A
9A
29
A6
68
26
89
09
58
94
A8
98
61
A9
56
A1
95
9A
65
A8
58
06
A6
65
91
98
09
69
1A
55
A2
A2
69
62
A9
66
60
A9
28
45
84
84
59
26
29
95
62
56
A9
8A
19
91
A2
AA
60
64
99
80
82
14
99
68
1A
91
92
59
AA
09
01
28
40
66
1A
98
61
49
A8
45
19
16
15
56
6A
25
52
2A
25
86
90
0A
94
99
A6
90
AA
89
66
56
98
49
5A
A5
16
6A
61
94
95
85
62
AA
16
84
55
98
90
95
44
11
41
1A
18
28
00
29
64
A5
56
A5
28
16
14
58
22
90
42
2A
56
5A
A4
26
05
52
00
49
9A
05
48
45
A6
26
9A
64
94
99
49
45
52
A6
42
A4
28
01
5A
49
44
29
60
40
25
69
15
44
40
42
90
94
60
2A
01
45
A2
8A
A5
24
6A
11
AA
51
19
56
62
85
12
56
41
52
92
68
80
15
69
45
21
24
46
58
A2
80
91
09
12
09
AA
4A
90
52
84
9A
A2
24
24
95
69
21
00
66
12
98
60
45
65
65
9A
54
51
89
52
58
A5
24
46
04
1A
A4
04
99
84
A5
1A
59
82
AA
9A
68
8A
94
06
2A
95
89
A9
A5
29
84
29
24
99
18
55
AA
18
98
91
AA
65
8A
AA
2A
2A
42
62
9A
99
2A
08
52
24
61
52
91
88
A1
06
41
86
AA
95
09
A6
90
06
46
69
86
61
A1
5A
54
48
41
51
54
01
05
16
6A
48
69
81
45
55
50
44
56
26
A8
A2
92
85
80
A9
89
58
55
95
92
A2
9A
25
10
69
99
A4
A4
42
28
08
49
18
52
59
A9
08
15
A5
65
60
80
26
2A
66
9A
92
94
51
89
28
5A
84
96
A8
A8
9A
84
56
56
9A
46
AA
61
89
A9
09
56
AA
A5
95
A9
14
28
44
68
A4
AA
A9
5A
50
A1
AA
98
A8
A8
46
1A
55
18
84
80
A6
20
18
02
82
A9
56
56
A1
AA
25
50
15
2A
26
65
5A
65
84
50
58
A5
AA
66
2A
96
44
29
A9
8A
62
61
28
A4
05
A6
66
44
90
18
6A
4A
A2
09
1A
19
58
90
46
80
A5
51
A2
25
69
90
82
58
56
44
69
25
A4
12
A5
2A
0A
11
29
66
48
54
51
46
A6
15
99
08
60
80
92
2A
5A
14
59
69
85
92
42
95
12
21
88
50
A8
8A
AA
A5
08
65
42
05
55
86
A5
50
A4
16
41
68
60
64
2A
9A
A4
6A
5A
A1
20
52
25
26
56
18
14
88
28
1A
01
A1
62
A4
6A
55
45
51
66
66
AA
41
06
64
A9
86
06
82
49
41
6A
9A
24
46
49
51
69
65
91
45
91
45
52
96
29
A9
64
AA
8A
44
24
66
2A
A8
56
58
A5
A9
49
09
99
4A
8A
69
09
96
59
88
19
88
92
61
64
A2
46
96
95
99
A9
66
AA
15
A9
6A
94
0A
92
6A
08
8A
04
58
52
59
5A
15
48
84
55
25
51
94
94
A8
65
29
59
58
81
58
1A
96
65
54
19
26
A0
8A
91
69
6A
80
04
59
22
08
92
25
6A
06
41
A9
12
56
52
2A
10
19
66
9A
A1
A5
54
48
8A
69
62
56
60
66
A9
A4
14
56
66
12
84
46
58
16
A8
69
99
68
0A
45
5A
46
18
91
62
99
91
18
61
45
55
AA
4A
50
01
26
89
55
65
A9
91
26
52
64
8A
42
91
65
48
01
86
A0
52
9A
64
55
55
A9
90
81
48
42
6A
90
6A
44
64
11
58
62
85
8A
48
AA
A8
2A
90
21
64
92
25
66
62
98
55
14
A0
86
8A
61
6A
64
99
A0
89
85
91
19
15
61
69
65
96
A2
52
18
88
44
42
2A
96
4A
19
04
58
2A
44
09
1A
28
94
A2
91
52
84
42
22
81
55
94
A6
09
1A
11
A6
A6
5A
96
64
A6
A4
9A
46
29
84
59
96
A0
5A
9A
56
AA
28
98
8A
51
24
6A
28
58
A2
4A
40
6A
69
25
12
40
5A
A5
49
99
8A
05
AA
86
95
45
45
65
08
A6
42
59
95
68
5A
88
96
64
54
A1
A0
41
1A
96
8A
A8
96
52
64
A6
40
5A
69
59
45
A1
52
18
8A
A9
95
09
A9
91
45
94
20
55
A4
6A
15
44
1A
56
91
94
09
28
A9
69
18
56
09
41
56
4A
69
86
AA
84
A6
18
59
21
84
9A
86
86
69
09
84
16
54
A4
56
69
02
56
58
A9
02
84
0A
A9
A5
21
8A
55
1A
61
A0
AA
65
A8
2A
26
A2
52
91
5A
95
40
A8
90
A9
A4
5A
91
AA
A0
48
98
9A
15
96
66
A6
45
5A
81
82
98
82
A6
92
1A
0A
89
56
A5
22
18
96
A4
86
25
49
96
90
5A
99
5A
04
15
28
84
96
01
4A
64
50
4A
99
09
A9
05
8A
5A
24
40
85
A5
A9
69
95
56
5A
86
59
04
10
A5
58
28
20
A9
A0
99
9A
18
28
85
96
68
58
24
98
41
91
96
9A
40
10
92
A6
90
26
16
5A
62
9A
AA
9A
14
85
95
6A
6A
9A
61
4A
A0
19
8A
8A
65
56
69
88
55
25
46
45
09
85
65
60
A8
45
92
A2
69
A8
89
94
52
54
62
99
11
45
9A
61
A5
14
AA
12
10
55
80
16
94
55
A5
A1
20
A6
69
26
69
89
89
82
26
84
98
95
58
A2
06
49
8A
15
40
84
A0
A6
26
54
65
15
69
A9
86
92
48
2A
21
50
55
0A
06
59
69
1A
5A
68
21
99
96
A2
62
11
19
96
56
92
52
26
86
49
2A
48
94
22
9A
A6
AA
4A
25
25
A9
05
16
56
50
60
95
65
11
96
46
2A
24
69
58
19
1A
00
52
99
58
11
46
50
00
2A
8A
95
22
65
6A
49
66
48
2A
6A
54
8A
A9
54
05
A4
95
A9
55
64
20
48
A8
99
55
48
0A
4A
68
64
92
25
91
28
25
A0
66
85
4A
62
66
5A
05
64
56
46
0A
A9
15
12
58
18
42
09
56
94
86
A5
58
AA
11
5A
A4
58
18
55
54
95
19
65
59
51
19
AA
A4
24
8A
94
A5
4A
8A
89
60
2A
AA
92
56
44
99
29
66
66
2A
55
54
69
AA
68
48
58
20
90
26
41
20
59
6A
56
66
A4
26
19
19
95
58
89
A2
48
91
68
55
61
94
A9
69
94
96
2A
65
20
A6
14
09
86
49
5A
69
A2
55
92
66
18
65
5A
66
82
A9
16
86
5A
50
55
84
59
A0
22
19
A5
8A
4A
42
25
59
00
9A
00
0A
91
22
08
AA
A4
85
19
16
50
98
46
96
46
69
42
01
19
08
A2
49
88
28
16
A2
4A
60
91
A9
95
96
98
61
40
46
16
69
98
50
A9
04
85
25
42
95
52
98
62
A5
AA
A2
9A
8A
A5
66
9A
55
01
86
64
56
A8
84
5A
84
69
85
56
60
91
24
A0
0A
18
89
04
18
42
25
51
62
94
99
05
81
49
01
99
14
99
56
41
02
6A
01
12
42
94
41
6A
9A
29
22
15
10
89
9A
19
45
60
54
96
69
A8
21
52
A2
5A
68
21
0A
88
8A
82
29
A8
04
09
A5
05
91
0A
59
21
06
94
85
89
50
69
56
62
AA
95
AA
85
92
24
22
9A
12
16
1A
A4
09
52
02
05
45
49
18
81
44
55
5A
66
88
10
56
A8
62
8A
26
69
50
65
A2
A0
26
A5
96
92
91
81
66
86
5A
19
46
59
15
A5
02
69
99
64
90
15
49
44
6A
55
66
4A
06
66
14
01
9A
12
44
51
5A
85
6A
89
55
98
09
9A
86
58
11
84
15
69
16
90
0A
52
6A
12
45
01
A5
28
19
8A
59
19
4A
50
80
A6
05
06
A9
45
A6
09
51
28
A8
5A
A5
49
69
91
45
26
11
AA
1A
56
69
65
A6
65
91
A2
A9
19
14
26
4A
49
A9
A8
64
A4
5A
05
AA
64
59
A9
A6
45
A9
59
55
A6
48
65
22
54
9A
64
A6
92
68
65
A2
54
A5
6A
68
6A
61
65
40
51
19
66
0A
4A
95
A5
98
A9
40
A9
80
66
66
08
9A
21
05
A6
AA
56
4A
A5
68
16
A0
99
96
A4
08
56
86
8A
68
46
A4
9A
AA
19
58
A1
A2
59
12
28
66
4A
46
65
A9
88
98
96
56
06
0A
89
55
26
A8
89
96
96
29
6A
06
86
A8
02
51
40
10
15
16
55
29
59
15
10
15
1A
49
4A
6A
08
81
A9
65
A9
44
86
65
9A
A6
12
6A
16
8A
6A
4A
51
46
25
19
96
68
16
69
48
15
A9
95
A5
19
66
2A
86
64
9A
68
89
96
5A
46
6A
66
A0
A2
11
46
54
48
86
A6
82
A9
4A
98
A8
90
45
98
49
96
24
A5
61
46
01
89
58
A8
A6
AA
29
4A
80
44
A0
A9
01
0A
62
A5
46
65
29
25
94
6A
02
49
61
1A
94
AA
05
64
60
A2
24
84
85
09
12
55
4A
16
A9
51
95
69
96
54
22
5A
11
65
19
05
48
1A
65
09
55
6A
A5
A6
29
50
54
85
2A
A6
18
02
06
41
40
56
91
5A
A6
54
61
65
69
65
65
2A
A9
50
A2
4A
80
88
21
98
A4
48
85
A1
64
96
62
50
92
05
18
A2
41
A9
AA
19
41
26
A8
91
41
95
40
06
99
16
A6
56
95
99
18
28
14
40
40
A2
A6
92
8A
A9
96
08
86
99
92
49
A4
69
95
5A
06
56
5A
02
88
25
25
01
58
55
A6
10
AA
98
16
9A
A6
64
56
29
46
41
46
84
A9
64
29
52
A5
12
55
51
52
52
4A
29
69
29
56
51
09
19
96
29
65
18
86
A2
46
10
10
96
A1
84
02
9A
92
82
9A
29
21
46
25
15
25
90
2A
81
89
6A
A0
A8
AA
8A
29
6A
89
6A
01
1A
52
40
56
A4
54
A0
4A
44
8A
05
01
12
82
28
48
29
10
6A
A5
AA
84
40
4A
21
60
65
A4
A6
8A
59
85
61
A2
98
65
14
51
09
19
A4
58
16
5A
A0
69
52
52
58
60
96
5A
10
94
21
48
95
99
A2
14
A5
51
9A
46
5A
82
49
99
5A
56
52
92
84
4A
65
04
6A
46
19
18
21
02
98
21
69
54
21
AA
96
66
46
99
61
54
A9
58
25
19
16
AA
16
64
65
08
65
65
AA
22
25
25
6A
15
16
95
1A
68
99
A9
25
60
91
4A
96
99
58
A0
29
AA
98
82
0A
66
92
06
4A
54
46
49
06
45
24
8A
65
28
18
62
88
86
88
96
44
90
2A
95
A2
55
59
85
29
AA
99
59
58
A9
59
A5
A6
56
69
10
22
A4
66
4A
91
82
A2
A9
51
90
01
56
69
91
29
64
A2
62
62
60
A5
5A
68
82
94
24
61
96
5A
6A
5A
65
14
58
25
01
AA
55
A1
68
81
80
49
65
29
12
A0
19
95
99
44
28
28
6A
25
52
16
40
65
46
A5
99
58
99
28
5A
09
65
A2
2A
64
29
62
52
5A
22
1A
59
A4
46
68
96
84
A1
49
68
94
60
65
A6
A4
56
2A
85
A5
11
5A
A5
09
A5
18
54
55
41
46
96
94
29
69
80
6A
61
60
92
98
0A
65
29
2A
68
A2
59
14
4A
85
86
A5
41
A6
24
58
18
52
1A
52
61
A2
21
81
45
6A
2A
96
54
68
90
96
94
25
81
84
89
18
A4
29
4A
99
40
29
61
25
55
20
66
19
6A
85
61
A0
95
68
95
91
A8
55
A0
59
62
58
14
56
55
84
89
A6
92
88
12
96
A6
2A
29
95
52
22
51
98
2A
16
10
2A
69
92
25
6A
29
19
84
06
91
15
04
54
A6
65
5A
48
68
99
A4
50
05
16
48
96
96
AA
48
21
51
28
68
49
86
49
96
A5
98
86
A5
44
2A
91
59
A6
1A
A9
95
54
18
28
54
5A
69
A9
54
84
46
82
65
08
26
24
84
A8
29
59
52
51
9A
55
16
26
0A
21
65
98
96
98
89
21
95
1A
58
A9
99
18
86
8A
09
2A
49
65
A4
65
05
51
5A
A1
26
09
64
1A
99
62
4A
69
A6
95
29
18
59
82
68
56
86
22
A8
6A
21
91
51
66
52
65
49
98
A5
48
66
46
65
94
A9
15
64
AA
45
01
4A
96
94
41
84
48
A1
64
41
29
A4
21
56
08
49
0A
65
58
92
26
50
56
50
26
60
12
24
14
A0
66
99
A2
91
4A
15
95
62
8A
84
81
A5
15
88
98
9A
A6
66
A9
48
66
15
A6
85
6A
6A
98
06
50
80
65
A6
24
58
62
1A
48
98
19
A9
88
80
60
44
4A
20
82
A0
A2
55
A2
59
92
10
90
A0
59
69
91
9A
9A
2A
98
88
10
91
24
69
55
11
58
59
6A
95
AA
58
5A
A8
A0
65
40
8A
4A
65
22
95
A9
84
51
66
65
20
52
51
60
99
62
96
66
81
94
11
92
10
69
51
9A
69
A5
14
22
55
45
04
42
46
2A
A4
28
41
60
92
96
84
51
89
92
25
00
0A
66
91
1A
95
45
68
45
A6
05
84
08
99
54
66
55
5A
A0
5A
A4
24
19
59
6A
48
59
69
56
A1
99
91
A2
A9
12
2A
68
96
50
59
46
51
A5
65
86
80
08
A6
4A
08
45
29
A4
46
02
6A
51
84
96
24
2A
05
91
62
28
A2
59
86
65
96
5A
95
11
A6
A2
16
A9
52
48
52
54
56
58
44
26
94
19
25
5A
65
4A
48
81
86
56
85
65
89
25
54
50
58
5A
9A
A1
44
82
85
6A
66
15
96
58
1A
49
58
98
A8
54
44
A9
48
89
96
81
8A
92
94
16
84
A5
11
A4
61
AA
46
A8
42
2A
96
41
A6
04
8A
98
64
68
26
A9
21
29
52
96
61
54
A4
45
A5
46
08
64
AA
96
A8
64
46
01
84
55
98
04
54
08
95
A4
69
45
40
A4
86
2A
88
A9
16
4A
94
A4
60
1A
89
9A
08
A1
2A
6A
A9
6A
40
AA
26
89
42
65
8A
10
48
65
88
29
44
AA
59
86
29
AA
26
54
95
A9
92
25
21
16
A8
5A
21
2A
66
A5
04
98
6A
20
A5
8A
A1
15
51
62
95
05
86
84
92
A9
14
66
21
A4
59
58
45
62
22
95
05
21
95
58
69
26
5A
40
28
8A
45
51
46
19
99
26
A0
6A
26
66
46
45
26
4A
55
8A
A2
86
46
99
81
A6
49
84
A1
85
15
A8
95
52
86
6A
A9
9A
21
A5
09
45
14
91
40
04
94
18
A9
21
55
9A
90
A9
00
91
09
55
26
1A
08
25
59
12
82
60
A2
12
58
85
A2
58
91
62
56
91
15
6A
01
A9
A6
65
92
14
1A
A5
54
99
51
69
00
56
29
8A
66
80
04
56
29
59
56
26
64
06
91
14
16
29
9A
98
66
44
2A
28
A2
25
0A
05
1A
5A
56
55
16
66
05
1A
88
29
85
60
61
21
05
A0
81
84
0A
51
95
16
22
16
19
19
69
A4
90
62
A1
A5
69
58
45
61
26
65
18
04
5A
15
62
40
8A
69
04
A9
21
5A
66
29
55
AA
9A
AA
69
52
29
96
09
49
91
9A
88
AA
56
95
A9
A5
2A
11
6A
40
68
94
44
25
82
95
16
9A
98
28
A0
02
82
A5
A5
62
95
51
8A
45
46
2A
96
06
6A
98
0A
00
55
06
41
56
6A
4A
99
44
41
99
5A
09
16
81
A6
96
2A
AA
51
A9
26
85
A1
99
96
16
65
A5
52
05
58
04
29
98
56
5A
19
A9
59
40
65
98
4A
64
9A
56
92
61
61
66
6A
A5
1A
68
A2
A8
65
89
59
81
06
96
5A
26
A1
96
58
5A
9A
55
9A
41
8A
A6
AA
A1
AA
56
A2
8A
58
9A
92
12
46
AA
96
16
15
0A
64
14
10
99
14
A5
56
84
55
56
68
51
AA
2A
00
88
51
58
60
69
86
54
2A
25
14
6A
18
98
56
19
A1
A5
49
40
26
A8
11
45
86
10
A1
66
22
A8
88
5A
A2
95
9A
52
59
41
94
19
54
49
61
50
26
62
16
29
1A
10
A6
68
54
04
9A
A1
91
59
4A
95
98
A5
51
96
2A
81
80
A9
46
A8
48
8A
86
51
55
9A
59
50
28
46
14
A6
55
41
2A
A1
88
A2
61
40
A0
5A
15
26
A5
65
42
16
AA
92
A5
80
42
24
A2
AA
51
A5
56
28
42
44
89
54
91
A5
45
01
2A
50
11
49
95
08
18
16
A5
59
5A
58
95
98
94
06
6A
94
00
A9
49
11
94
2A
68
A0
54
21
92
46
51
85
85
A5
06
15
A5
04
55
25
A8
65
94
04
29
A6
59
AA
59
10
AA
60
AA
11
10
45
AA
0A
21
12
95
19
A9
A6
1A
9A
28
51
A1
4A
09
6A
44
69
05
19
45
19
1A
1A
52
95
6A
16
A6
A1
8A
9A
51
04
A5
4A
06
02
A4
14
16
21
54
51
99
48
24
98
59
86
88
59
95
41
04
56
9A
AA
89
22
94
61
55
64
51
56
66
96
16
51
18
61
86
15
99
18
16
25
80
46
55
12
8A
6A
08
A5
98
49
41
5A
40
A5
60
69
92
59
15
25
08
99
81
41
95
51
59
22
14
98
A6
21
59
09
50
40
85
19
49
AA
A6
95
8A
94
6A
A1
56
2A
48
96
A5
02
6A
26
14
AA
AA
65
A2
92
95
A8
40
68
99
1A
44
49
99
95
45
91
A4
61
0A
86
19
61
42
58
1A
48
20
58
4A
46
45
85
2A
58
02
91
99
19
84
60
8A
5A
A2
60
66
65
4A
95
28
61
AA
05
09
05
14
24
16
A5
A9
96
28
21
A5
00
55
A8
91
2A
88
99
91
10
66
66
20
61
10
58
54
5A
15
12
14
9A
20
56
66
58
12
A0
11
95
65
69
66
16
86
2A
91
A0
16
01
19
06
5A
29
95
24
A8
96
61
89
96
60
44
58
A5
04
10
85
5A
91
21
89
04
AA
A5
65
49
84
46
64
52
28
5A
52
9A
58
6A
29
45
51
54
44
15
1A
65
15
50
01
28
59
61
96
96
61
62
44
12
64
90
A1
A8
9A
41
A5
49
88
18
64
56
95
5A
61
29
91
28
A6
A5
09
A4
14
56
20
68
28
A6
08
85
62
6A
45
52
65
51
21
66
64
11
64
46
15
12
65
96
46
84
98
06
08
01
82
21
66
59
90
58
A4
50
9A
A0
14
29
19
82
55
54
92
2A
29
40
2A
96
5A
52
92
64
28
A2
21
89
A0
52
85
22
A1
01
98
6A
61
18
61
24
2A
8A
A8
54
42
15
01
6A
88
26
A8
02
45
86
56
66
64
20
28
01
51
45
66
25
46
64
89
16
62
44
A9
AA
05
26
55
25
22
20
45
A0
49
65
62
6A
68
92
92
45
49
99
68
22
04
50
04
16
92
59
0A
A6
14
11
2A
59
15
A6
A4
68
69
26
5A
A9
19
6A
82
94
25
99
20
91
A5
1A
46
84
A1
A0
40
95
58
10
68
5A
8A
A8
21
90
6A
04
9A
52
6A
2A
29
65
82
66
6A
22
24
04
16
91
86
A0
84
94
11
A9
46
05
15
8A
88
19
A4
0A
A9
49
59
40
26
95
A5
A2
61
26
94
82
84
68
44
2A
A5
AA
1A
05
A5
49
58
99
A1
1A
6A
66
12
99
26
10
98
12
4A
91
A1
A6
88
88
A1
64
19
A2
A6
AA
20
26
91
42
85
58
A5
59
22
42
06
06
54
14
62
AA
55
1A
58
51
6A
52
8A
96
26
46
AA
15
4A
A5
4A
62
A6
A6
55
86
40
A0
A4
96
59
28
14
A9
02
4A
A8
66
A2
18
69
AA
12
A9
66
A5
01
26
65
50
51
A9
66
09
A0
6A
58
A1
02
24
09
81
84
61
64
96
1A
02
25
11
46
80
42
A6
66
24
88
24
51
80
60
A1
96
AA
46
94
95
A1
A5
AA
91
A6
95
16
18
05
4A
95
69
06
56
56
04
85
40
54
81
A5
50
5A
9A
65
99
66
5A
98
A9
05
25
56
48
99
58
19
62
18
95
69
56
46
9A
84
25
60
95
A5
A8
A9
26
49
22
06
99
89
16
05
61
54
80
22
46
65
59
58
52
6A
88
4A
8A
A4
48
51
06
5A
28
99
94
65
69
A1
A4
6A
29
64
22
A5
A9
19
A2
99
28
62
A8
A2
41
52
89
25
A5
09
54
26
99
01
2A
5A
58
41
6A
96
96
54
55
52
80
89
55
51
A6
59
8A
56
62
59
5A
68
4A
62
26
94
69
45
45
6A
08
A9
95
85
09
50
54
A9
15
A9
61
A8
10
40
66
96
68
00
96
49
52
AA
90
69
56
2A
84
A2
89
46
18
61
61
82
8A
54
0A
A9
85
11
59
A6
A4
A4
18
A2
4A
59
8A
91
82
86
A6
69
51
96
59
45
A8
96
10
55
11
12
18
16
29
A9
56
96
55
44
59
59
A6
01
20
A4
99
52
15
14
56
22
59
11
55
6A
22
29
21
21
44
18
6A
49
A6
49
82
26
86
45
51
99
25
82
00
29
19
29
50
9A
92
69
A1
1A
A9
29
12
42
11
65
88
A5
8A
65
84
52
11
98
6A
A5
29
64
45
65
22
59
82
85
66
91
68
42
25
99
99
64
A0
A8
21
55
25
29
99
A8
09
A2
99
25
8A
1A
65
A6
90
26
91
08
40
96
90
66
54
A8
15
54
06
0A
59
11
20
19
29
9A
98
5A
A1
A1
15
AA
06
41
9A
18
1A
65
6A
61
5A
AA
24
26
55
4A
A9
66
94
A8
89
95
25
96
51
46
50
56
12
65
41
92
54
68
95
AA
62
12
64
A5
60
86
58
84
86
86
88
A8
0A
65
69
89
15
42
A0
18
A4
25
55
09
19
6A
56
98
59
14
21
66
18
06
66
46
59
AA
16
95
A1
25
16
A1
4A
69
18
26
A9
64
48
AA
68
12
09
8A
50
16
9A
5A
1A
90
6A
20
56
09
61
1A
80
2A
41
A5
29
69
19
55
96
49
99
22
15
54
9A
52
60
68
25
41
98
51
A9
A2
48
55
56
85
88
49
AA
65
94
91
96
92
0A
96
26
68
85
62
26
9A
29
81
21
24
42
6A
49
61
16
45
58
69
A5
80
45
0A
65
01
81
2A
00
94
96
51
A6
68
80
48
62
52
48
AA
80
19
A4
88
8A
15
0A
5A
9A
A6
60
94
90
16
12
99
54
99
96
A0
5A
8A
55
46
AA
56
99
98
44
5A
AA
46
A6
69
69
84
40
65
01
96
66
54
5A
59
A5
92
A4
00
92
96
15
4A
62
28
62
A9
50
65
40
64
15
A6
26
A8
1A
66
A6
86
62
25
52
14
05
90
21
41
06
19
4A
42
A1
12
44
91
96
A9
0A
52
40
25
68
99
A6
49
A4
92
48
66
02
59
99
96
62
45
54
25
05
25
2A
A6
22
69
09
49
58
24
99
95
25
82
A9
AA
25
96
29
85
02
48
05
51
54
26
5A
01
A6
55
1A
50
50
99
04
89
12
29
84
95
62
16
69
05
9A
44
05
5A
9A
12
50
96
56
66
A0
A6
15
60
94
12
5A
26
69
98
AA
01
59
5A
55
11
84
88
54
62
55
68
28
09
59
86
21
60
6A
95
12
89
21
59
46
26
90
15
16
26
49
02
29
58
02
48
29
54
29
A9
99
96
95
A9
A1
88
25
85
96
25
01
A5
68
68
99
99
A6
9A
52
A5
48
46
91
20
40
05
84
66
52
46
14
94
59
A2
90
A5
26
85
99
99
44
99
14
6A
26
22
65
99
16
5A
10
65
A9
68
51
8A
24
29
A9
69
58
09
A9
69
84
80
86
55
95
58
AA
96
64
89
66
85
65
A5
1A
AA
A5
25
86
12
11
2A
A5
A0
6A
91
52
8A
41
50
11
09
A8
54
22
92
81
95
68
92
58
58
21
8A
A6
6A
22
0A
52
1A
22
16
14
2A
91
29
41
0A
9A
24
A0
25
59
A5
55
46
29
9A
15
65
29
98
92
69
A2
65
45
86
4A
A5
04
08
5A
A8
00
09
08
A8
92
29
5A
A1
62
9A
95
46
62
9A
92
5A
18
85
A9
1A
02
1A
96
A5
55
59
95
69
15
A2
18
12
16
69
96
56
89
86
10
95
16
16
10
56
A1
10
90
44
88
99
29
25
40
9A
95
26
42
55
4A
91
55
11
58
26
60
84
24
80
4A
42
80
86
56
48
AA
65
91
84
89
42
56
65
42
58
59
49
40
9A
56
8A
62
18
99
15
09
28
A4
92
50
A5
5A
A2
08
52
10
02
49
65
85
05
A9
A8
A6
2A
A1
26
0A
90
16
66
A8
28
58
19
61
64
16
10
86
A1
45
95
89
45
56
46
00
82
6A
4A
24
66
68
56
96
19
49
99
AA
A6
99
94
51
28
89
95
69
52
9A
68
65
66
41
5A
49
64
99
42
AA
81
62
59
90
5A
6A
51
94
4A
52
86
59
29
49
A9
A5
14
45
92
51
42
42
A5
52
96
52
58
61
85
99
80
94
98
12
88
86
28
A9
16
86
62
A4
98
55
15
52
19
96
59
56
68
1A
06
66
9A
96
18
14
9A
49
64
52
20
15
51
58
9A
5A
00
01
AA
09
26
25
66
99
16
66
64
18
90
20
12
15
81
A6
8A
A5
01
99
29
69
A2
66
46
61
51
82
A9
80
68
A8
49
46
A1
46
69
69
26
90
A8
51
1A
A4
A1
4A
25
44
08
51
60
55
19
24
49
85
A4
A5
09
20
A5
55
91
45
82
85
88
20
2A
69
64
A4
10
61
98
61
2A
A5
85
19
50
84
65
52
A8
69
24
46
A1
05
1A
09
A2
44
52
52
09
1A
A0
4A
14
A5
46
41
29
29
41
69
56
59
51
11
5A
2A
69
96
86
A1
1A
A9
28
09
99
60
62
A9
01
A9
5A
66
4A
29
58
56
49
A0
6A
42
06
61
46
0A
86
AA
65
99
60
28
69
56
A5
99
18
18
58
1A
19
56
61
15
9A
94
0A
59
AA
81
90
10
1A
4A
05
AA
82
28
05
26
42
66
55
26
16
89
64
95
41
62
A6
99
AA
21
90
5A
85
66
5A
82
2A
6A
A1
A4
A1
89
26
54
A5
18
A4
5A
86
9A
58
99
22
A5
59
60
4A
69
20
54
89
62
65
49
96
18
66
45
84
66
A9
9A
5A
8A
6A
A6
2A
40
49
20
45
49
51
A5
85
25
65
A9
9A
A5
54
29
16
94
61
A1
26
04
66
A0
9A
62
8A
18
25
69
29
AA
95
99
A6
4A
44
AA
42
11
10
18
92
69
99
92
52
A6
29
A0
A5
69
9A
68
96
A0
65
00
59
66
A2
89
58
4A
80
88
5A
00
16
4A
81
84
08
86
A2
A5
64
19
51
A6
29
58
98
59
41
A1
95
69
0A
98
A9
1A
A6
66
46
28
01
21
16
05
69
11
6A
90
11
51
96
04
19
55
58
42
91
52
16
15
A8
A8
56
80
2A
9A
68
54
69
92
86
09
94
14
54
50
41
19
66
0A
52
25
6A
99
96
A1
AA
21
A9
89
99
65
49
91
A6
A5
55
99
20
95
58
A6
29
4A
46
0A
24
42
98
94
6A
16
69
18
A6
AA
54
85
00
AA
A6
65
95
58
2A
09
56
95
12
28
12
A4
68
25
15
06
09
06
A2
99
AA
22
62
A8
26
22
A0
12
A2
AA
96
6A
64
A8
66
A9
A6
A6
05
66
65
95
A5
A0
45
A1
85
44
44
26
01
65
51
68
52
91
05
AA
22
81
55
99
69
64
AA
80
19
48
2A
5A
01
62
69
12
46
19
95
09
AA
A5
26
59
26
05
A6
29
2A
51
86
5A
80
82
02
54
64
84
82
94
91
95
96
25
A4
92
A5
88
62
04
60
19
1A
A9
56
82
58
1A
06
60
85
54
A6
56
00
40
88
A0
95
A9
66
61
A5
5A
46
21
96
AA
59
60
52
01
90
18
55
56
51
A6
56
89
55
02
96
96
96
6A
42
66
A9
8A
89
45
A8
69
90
A1
8A
52
AA
16
9A
69
A1
8A
94
91
0A
28
62
A2
98
A6
A0
95
85
96
50
42
49
4A
58
2A
96
01
14
86
92
21
A5
04
64
A1
2A
2A
52
29
85
16
21
86
99
A0
95
88
18
95
66
98
94
9A
90
A9
51
26
80
88
55
66
12
66
85
96
89
04
06
90
0A
61
26
61
68
55
82
A9
09
94
95
65
85
42
59
48
22
55
94
28
10
45
16
A5
58
A9
4A
64
99
8A
66
69
19
A1
40
99
2A
26
A4
6A
19
19
24
84
A8
68
95
A9
62
59
A6
42
54
55
85
89
01
66
A9
85
6A
42
46
40
28
AA
59
A6
86
A8
95
09
52
52
25
89
A0
88
48
59
26
88
91
81
59
11
49
6A
A4
2A
90
46
A2
A5
02
86
40
A4
54
12
5A
A9
48
96
65
16
16
9A
46
04
1A
2A
A4
48
A8
69
22
0A
86
54
9A
10
64
89
94
02
48
44
56
54
A6
69
81
28
95
52
96
02
28
A4
61
69
22
8A
48
9A
55
A5
82
A9
65
99
40
41
66
A1
8A
49
60
A6
11
05
59
A9
80
A9
19
A4
A2
A2
46
42
68
85
26
01
14
64
62
84
08
82
61
09
66
95
52
65
01
2A
99
91
66
96
A0
19
06
58
21
5A
04
10
A2
69
51
29
05
20
4A
01
95
91
86
64
41
56
A8
46
1A
66
2A
9A
95
A5
80
55
65
66
65
A9
65
A6
58
59
28
95
A6
5A
96
82
0A
02
A9
A6
A1
02
18
96
54
0A
46
4A
50
28
14
14
5A
A0
8A
96
92
65
68
2A
8A
46
95
69
42
60
AA
A5
09
A6
2A
61
65
48
04
55
66
66
9A
20
50
91
11
85
46
10
19
4A
61
81
51
21
09
20
16
25
99
84
90
25
50
11
44
AA
8A
AA
19
A9
96
5A
29
A2
48
51
6A
2A
00
86
69
2A
09
29
AA
54
AA
59
19
16
94
60
A9
65
54
91
16
26
92
16
A6
69
68
59
58
A8
52
A6
2A
A6
08
A1
94
0A
62
02
05
48
96
69
22
94
49
99
48
25
6A
08
65
68
61
45
99
96
69
AA
66
29
8A
A9
56
12
56
65
45
51
9A
A1
6A
11
69
64
21
41
94
4A
58
56
99
42
AA
44
A6
25
1A
40
19
A6
66
A6
96
56
95
28
85
66
48
A2
98
50
9A
A4
45
20
A9
51
A1
A5
60
9A
6A
98
45
A2
91
11
A9
40
45
25
A9
24
96
A6
90
24
59
66
51
62
85
61
25
45
0A
81
15
95
80
A1
19
96
9A
69
92
89
64
2A
88
82
64
55
A2
49
28
55
46
24
15
A5
56
84
62
AA
24
96
62
91
51
49
6A
49
59
2A
94
88
95
16
59
19
51
91
95
44
62
49
55
15
2A
A0
68
02
61
95
45
58
91
96
64
50
48
42
A5
88
06
99
05
68
5A
A8
05
44
90
A4
98
94
1A
99
85
92
60
A2
01
52
15
24
95
A6
A0
A5
98
44
40
56
A4
15
42
95
46
46
89
62
A5
51
0A
90
A5
46
61
96
69
64
1A
49
AA
05
69
12
A0
40
15
8A
55
A5
62
94
08
AA
88
12
48
4A
A8
A9
85
40
55
96
A4
88
59
65
58
A8
6A
0A
91
05
16
69
1A
8A
26
54
16
21
4A
42
A0
A0
8A
18
A5
14
82
A9
96
A6
1A
69
94
9A
A8
11
16
A9
5A
09
A4
4A
1A
AA
24
64
94
A4
66
65
28
A9
56
A1
45
A6
54
A8
12
19
A5
21
42
A5
88
26
AA
88
40
84
6A
58
8A
65
10
28
6A
1A
11
90
4A
05
90
48
82
62
09
68
85
86
44
55
68
55
96
86
A5
42
65
91
24
94
AA
2A
A6
A1
49
88
18
45
56
56
A2
45
41
51
64
9A
50
86
5A
96
A1
58
29
8A
95
98
86
59
66
6A
12
49
A9
68
56
88
80
90
55
AA
2A
01
A2
1A
25
A1
95
19
A0
88
64
AA
86
42
25
98
26
65
90
65
62
82
84
22
26
14
65
56
1A
91
92
6A
0A
8A
66
05
22
82
86
2A
85
02
91
A8
8A
26
51
04
45
60
51
20
80
06
45
29
46
60
91
54
42
11
51
99
60
6A
4A
5A
81
94
46
69
91
52
29
60
68
04
A0
89
1A
52
A1
54
59
56
92
A9
01
51
A1
61
90
25
82
95
09
A6
59
18
05
59
56
10
6A
41
45
96
95
55
09
95
96
26
6A
19
61
12
85
04
89
52
95
12
21
14
45
46
84
59
11
15
A5
84
9A
44
16
A1
19
12
2A
54
A9
06
22
06
94
42
16
85
95
95
49
98
42
69
86
A4
A8
82
46
AA
42
86
A2
91
08
82
0A
8A
10
61
51
68
29
AA
90
90
85
1A
A5
09
68
28
A4
54
89
66
91
55
65
26
24
02
A8
59
46
94
51
50
54
55
98
12
A8
42
88
26
98
12
98
02
96
A5
55
20
40
55
5A
56
55
65
5A
24
94
45
40
58
29
09
A9
65
16
09
54
8A
0A
61
28
20
A5
5A
59
21
52
56
99
99
92
65
68
6A
02
68
A5
A0
12
AA
26
09
81
96
18
0A
60
99
95
66
08
64
66
89
10
66
68
8A
9A
51
66
62
45
48
15
A4
9A
25
8A
A9
A6
92
66
10
89
8A
19
55
09
22
29
04
A0
48
85
AA
56
51
4A
56
6A
80
5A
02
A4
9A
6A
14
A9
9A
19
A9
A5
25
29
86
81
0A
9A
24
56
59
48
91
92
8A
46
99
81
59
A5
A9
9A
A1
41
5A
25
92
1A
84
60
A6
26
A5
46
A8
92
12
66
56
A0
91
6A
94
58
06
69
9A
40
95
15
66
A5
2A
02
65
AA
19
4A
60
45
82
42
96
89
19
10
64
89
96
50
54
52
26
01
5A
A1
4A
A0
21
69
05
A6
98
8A
9A
99
09
26
6A
25
14
80
A8
29
59
86
49
A8
51
04
98
9A
A8
65
45
02
41
14
55
99
26
56
58
48
66
41
A6
2A
A2
42
91
28
94
1A
1A
86
25
65
41
6A
A5
64
91
0A
94
45
96
AA
A5
2A
96
A2
55
21
05
98
55
25
25
21
89
66
0A
05
52
84
54
92
5A
91
50
44
A1
58
29
68
81
04
52
55
A1
A6
26
28
9A
18
81
69
94
49
96
96
A5
59
92
AA
0A
8A
A1
51
49
AA
61
59
91
16
60
10
15
01
A2
99
44
18
6A
60
96
82
50
46
56
9A
28
A6
29
96
6A
A5
98
28
49
82
69
AA
AA
56
94
68
6A
19
45
58
01
62
99
99
51
41
A6
AA
55
95
99
44
A9
66
95
A5
28
A6
90
45
94
25
20
96
29
48
4A
85
94
50
4A
6A
56
95
61
25
81
51
52
44
89
15
99
16
95
64
18
81
84
1A
84
AA
54
81
59
58
29
A8
01
56
A6
A4
06
28
65
8A
68
95
59
19
6A
21
20
66
58
6A
18
16
48
91
58
45
54
59
91
08
52
59
08
26
49
04
41
86
98
55
22
99
95
59
81
10
64
22
88
42
20
82
62
90
65
91
88
A1
15
96
A6
55
6A
6A
AA
6A
88
62
A2
6A
AA
49
26
1A
24
14
44
86
55
21
64
8A
85
16
65
49
06
05
92
52
64
A9
2A
86
06
A8
8A
8A
A9
4A
01
91
62
89
62
A9
A0
69
51
41
92
99
56
98
84
46
A5
01
22
A5
44
AA
16
05
61
45
60
8A
04
91
85
69
92
2A
61
6A
A9
69
2A
16
54
40
A0
A2
60
24
8A
14
12
08
8A
88
25
60
98
25
01
56
A4
58
86
A2
6A
89
16
15
92
90
AA
18
25
89
16
90
A1
69
50
A5
A1
52
A2
64
49
AA
98
A2
49
A8
90
55
64
15
64
18
24
46
A5
46
A8
59
9A
59
0A
54
69
0A
A8
55
66
48
55
04
96
55
98
99
A5
91
90
09
90
49
68
4A
28
4A
21
55
99
19
61
A6
A4
95
65
86
A9
2A
84
99
89
19
16
11
2A
12
06
56
56
1A
06
41
18
04
58
A8
A6
61
6A
69
95
A4
06
96
69
A1
10
55
54
9A
56
A2
90
94
56
A1
62
02
26
96
08
08
81
A8
52
40
8A
56
A9
66
A1
18
A9
48
98
51
AA
68
18
98
99
99
A5
65
08
85
55
65
29
1A
51
09
99
A8
88
88
95
A9
28
1A
29
26
6A
1A
0A
A2
0A
54
29
20
8A
45
29
2A
8A
18
12
A6
01
29
99
14
65
4A
66
8A
90
91
59
1A
49
84
9A
69
88
96
82
16
0A
A1
64
45
95
64
42
98
6A
11
9A
69
4A
25
60
A9
1A
54
A8
4A
29
09
96
A9
41
12
15
90
99
98
44
A9
A0
11
A8
99
6A
A2
98
A2
09
2A
A6
A9
99
24
12
14
65
96
98
20
5A
86
58
98
64
91
51
60
51
95
55
5A
65
99
1A
2A
56
4A
24
91
06
54
64
05
81
49
86
81
82
92
88
51
A5
2A
91
51
61
50
62
80
22
08
24
55
55
91
9A
58
A8
29
00
22
54
91
15
4A
05
98
56
14
8A
49
65
50
64
61
14
45
04
96
26
94
62
28
91
05
69
2A
18
62
99
02
55
68
65
99
66
00
A4
A1
96
45
84
61
20
55
A4
54
69
64
92
95
01
59
2A
45
24
A4
95
69
48
28
24
A1
80
84
26
A4
11
54
58
A0
19
52
A1
94
58
56
29
60
82
51
99
25
94
8A
12
4A
AA
A2
50
64
86
69
66
9A
81
50
99
56
46
44
66
14
16
85
92
99
86
99
40
65
85
4A
52
19
A4
AA
95
9A
29
96
94
9A
82
08
64
64
41
28
5A
01
2A
02
1A
41
61
86
54
96
A4
15
04
66
95
56
08
68
59
9A
65
59
06
A5
19
95
42
58
04
62
8A
45
82
61
12
16
60
0A
A4
81
65
25
50
41
92
99
45
84
A5
AA
66
86
A6
9A
82
58
90
59
15
66
6A
A5
56
2A
64
61
09
26
A9
51
69
6A
56
65
6A
56
A5
A5
21
A5
96
65
12
98
15
25
61
85
91
16
11
24
15
09
52
0A
6A
2A
40
AA
A8
91
A9
69
50
88
99
60
25
55
96
86
96
0A
21
11
A4
68
98
5A
85
59
59
2A
19
A2
6A
11
90
59
56
66
A0
56
A6
14
59
A6
8A
85
96
69
12
65
55
A4
28
26
50
A0
45
61
94
09
91
60
5A
19
59
9A
28
46
96
66
52
92
11
55
80
05
09
64
6A
A6
02
44
8A
9A
85
06
15
A9
56
10
12
A5
92
65
02
96
04
88
98
14
24
85
49
64
A6
A6
85
A9
0A
14
64
61
85
91
40
A5
9A
A6
65
09
10
08
91
64
41
08
05
6A
26
26
69
AA
82
68
AA
54
08
54
94
85
22
92
60
68
22
A2
85
05
69
21
46
65
04
5A
95
88
8A
55
00
24
01
11
21
29
50
65
26
81
42
AA
62
0A
8A
86
A1
A0
84
12
6A
A0
96
49
A6
56
28
49
82
69
82
45
82
A4
AA
19
18
58
22
19
89
06
82
1A
A6
96
58
28
0A
66
41
69
55
99
45
22
56
62
60
65
58
91
69
01
55
28
45
98
15
10
54
29
60
62
A4
5A
2A
92
01
A6
98
9A
46
61
96
05
28
50
26
01
8A
04
84
66
19
16
92
A6
99
05
A5
16
8A
4A
14
42
12
20
9A
0A
A6
A5
55
54
AA
64
44
51
A2
69
65
25
65
08
52
56
45
84
62
04
96
11
9A
99
9A
18
85
60
8A
89
59
22
A0
91
06
58
16
A5
98
28
48
2A
A2
44
6A
A9
24
58
24
28
55
15
16
54
58
61
92
29
54
68
59
A6
96
AA
46
68
26
29
69
A4
A4
84
59
08
68
9A
66
89
56
64
1A
85
60
26
66
A1
96
68
94
46
A1
A2
80
A1
80
40
86
8A
04
A1
95
2A
55
94
1A
6A
1A
42
65
86
20
56
14
04
A5
A1
A5
80
4A
26
08
4A
58
99
56
1A
A0
29
85
66
05
04
88
8A
88
68
05
A9
A6
64
9A
24
56
94
68
8A
5A
58
9A
48
85
A8
48
20
54
88
A5
55
85
42
18
65
90
A9
A0
66
26
58
61
9A
10
61
68
64
95
44
15
92
44
1A
5A
44
50
94
69
96
56
19
45
85
55
61
A1
18
28
55
05
68
29
15
22
64
55
50
16
58
20
95
65
8A
A2
42
58
91
5A
62
98
62
19
08
68
1A
56
92
58
26
95
68
48
6A
89
45
A2
11
86
16
18
A2
08
05
62
28
45
52
99
A4
8A
52
46
66
60
46
64
A9
51
08
16
06
89
A6
55
94
5A
A6
02
62
25
08
96
56
52
A4
48
A2
96
A2
44
A4
19
68
A8
90
80
9A
55
89
24
54
85
52
69
21
41
95
51
28
44
04
91
19
40
54
98
5A
10
25
A4
AA
44
54
02
A9
98
1A
61
04
81
46
1A
5A
11
59
91
91
29
81
42
14
86
25
54
64
A5
60
64
05
69
16
69
4A
69
08
4A
90
A1
5A
56
46
26
AA
15
16
81
42
64
84
06
02
65
6A
05
98
21
A9
96
A6
6A
02
09
56
89
82
19
48
2A
29
66
66
54
69
A1
51
51
86
59
52
95
68
61
96
81
A2
14
85
62
66
66
62
9A
04
A5
44
66
29
24
41
5A
56
65
02
6A
05
24
84
9A
52
64
96
14
82
69
92
56
2A
00
42
56
61
85
88
26
66
51
46
66
5A
26
49
98
5A
A5
22
92
66
90
80
62
28
00
94
14
59
26
56
69
65
0A
5A
69
06
8A
64
50
99
48
46
26
A4
A9
A8
95
26
AA
9A
A6
69
A5
21
2A
62
6A
54
A5
69
90
9A
59
52
09
5A
2A
A1
69
A6
55
A1
81
66
12
06
90
26
69
1A
82
58
A0
09
A5
61
91
16
A9
A9
AA
16
45
99
44
88
54
62
45
A5
56
A9
02
44
8A
56
25
29
95
8A
62
46
9A
51
29
29
69
88
88
68
16
15
62
98
10
59
1A
98
91
86
61
18
19
16
41
98
90
A2
06
65
65
1A
92
25
69
46
A9
49
56
98
96
60
56
14
54
50
4A
65
90
6A
92
01
14
96
69
46
69
25
66
16
59
96
95
16
49
51
50
A6
90
5A
A8
96
96
12
55
60
A1
61
24
A8
50
A0
5A
91
A6
92
16
6A
41
66
56
88
65
60
19
48
28
92
1A
58
29
A9
42
A1
41
9A
98
65
02
68
65
A0
29
54
15
01
A0
44
A2
09
98
A6
04
11
01
08
09
2A
4A
24
A9
81
65
00
99
51
85
00
59
5A
95
A5
81
46
54
A9
A6
4A
92
9A
94
92
A6
26
64
9A
19
86
98
82
61
94
69
50
21
09
56
98
62
69
65
65
4A
66
55
4A
56
A5
44
26
56
59
98
95
65
24
55
21
66
95
AA
A5
22
94
65
52
01
60
99
50
19
04
95
94
96
9A
A6
84
49
51
A5
A1
56
91
00
88
64
05
66
05
21
29
68
52
89
52
59
1A
85
29
20
80
94
21
19
95
61
A2
45
22
0A
A0
96
9A
41
89
00
88
61
55
94
64
44
9A
AA
A2
54
A6
94
55
66
51
98
46
65
25
12
A8
90
49
50
6A
89
45
8A
AA
A4
51
A0
61
A9
64
02
46
58
00
09
1A
12
51
99
AA
51
1A
24
96
28
99
52
61
22
A9
A9
66
9A
09
96
46
85
89
24
28
95
92
A4
98
96
68
A5
68
AA
56
59
10
26
01
85
56
62
6A
1A
55
25
AA
55
99
5A
52
56
59
95
99
95
15
65
61
91
65
91
41
86
59
84
16
59
A9
26
68
9A
5A
40
64
90
29
95
54
16
89
90
06
A5
48
59
64
65
24
61
59
59
66
21
59
22
01
61
A2
56
A1
90
51
65
49
48
49
55
86
99
99
55
46
81
80
15
45
02
AA
26
54
80
A2
85
AA
81
19
45
A4
16
21
02
A5
88
11
19
84
88
6A
AA
12
84
15
8A
80
65
64
A1
29
29
8A
09
20
49
40
96
46
66
4A
A5
55
11
11
62
99
54
19
8A
58
28
16
95
86
A6
61
59
40
5A
19
A6
55
8A
1A
4A
25
26
06
08
59
94
59
9A
80
21
81
65
24
68
58
6A
1A
9A
0A
16
A9
26
26
15
98
81
A4
14
94
24
61
14
12
28
44
98
62
24
62
94
89
56
8A
94
66
49
0A
24
48
49
98
65
59
62
86
A6
81
0A
A1
A9
58
14
55
A8
95
94
A2
52
51
51
2A
51
81
51
A4
92
15
48
8A
49
54
A8
89
2A
65
95
61
28
59
A2
42
68
94
66
45
69
2A
61
65
59
05
50
41
15
55
96
41
88
1A
28
92
60
12
A6
92
56
69
A5
44
65
11
A9
A0
66
14
96
92
28
24
2A
28
5A
29
4A
52
14
62
68
04
60
96
69
61
0A
81
4A
A9
45
10
A0
9A
A6
64
58
98
42
84
66
64
A2
69
08
88
88
A5
58
2A
69
9A
95
65
05
82
6A
99
44
95
60
65
1A
25
9A
A9
85
81
AA
58
19
9A
51
A8
68
1A
81
42
60
26
66
16
98
40
85
22
68
A8
AA
99
26
99
85
21
52
50
84
09
9A
16
6A
69
94
84
18
95
9A
98
02
66
26
18
26
22
41
20
40
66
99
55
96
2A
55
66
60
50
48
2A
85
94
26
16
9A
04
1A
2A
04
99
06
81
61
45
59
84
2A
6A
A5
42
65
48
6A
1A
15
26
98
61
60
60
64
A1
88
01
8A
1A
91
54
A5
5A
18
12
19
09
91
94
28
64
56
66
19
49
64
96
86
86
10
08
A1
8A
8A
21
56
66
65
25
09
A4
AA
65
51
14
26
18
82
05
09
96
A5
99
60
A8
15
5A
14
54
85
68
99
94
1A
91
64
59
A2
65
21
5A
49
60
06
48
66
55
95
9A
51
62
48
48
96
14
9A
91
41
08
A8
A0
5A
69
95
54
95
89
9A
96
66
41
98
21
22
59
04
25
A9
81
66
26
09
59
9A
56
11
85
16
84
92
96
9A
61
91
61
A9
62
8A
62
12
46
5A
45
19
A8
41
01
A5
55
55
92
96
A5
01
46
6A
5A
19
9A
01
8A
96
01
6A
AA
12
40
90
99
96
9A
61
A6
29
14
AA
92
58
98
45
04
54
99
94
48
51
49
11
59
98
82
55
49
A1
60
51
A6
99
5A
65
12
98
55
82
A5
12
45
19
05
99
9A
65
96
4A
89
90
46
8A
15
29
8A
49
A4
AA
51
14
A1
98
06
62
52
24
26
95
64
92
02
4A
05
14
65
0A
16
69
04
60
26
11
64
15
A5
49
68
66
54
26
46
99
9A
90
84
45
22
99
1A
88
A4
62
66
64
28
4A
11
90
06
A2
A9
9A
19
0A
68
88
68
90
A5
A8
6A
48
65
A8
12
A5
95
59
10
09
00
24
96
A9
A5
25
A0
46
15
00
98
52
82
10
90
8A
96
44
49
12
82
56
A4
A9
59
85
69
05
55
60
AA
A8
59
16
1A
65
04
10
9A
42
56
9A
44
21
12
65
99
A9
68
5A
88
4A
25
54
92
A8
60
4A
14
09
56
46
89
16
15
4A
90
18
25
42
55
2A
84
A1
54
28
55
54
62
44
55
88
9A
95
60
61
A9
A9
29
86
59
94
AA
95
04
46
99
42
59
96
02
20
42
46
56
69
64
85
46
95
26
20
A5
55
05
94
69
68
0A
11
A9
60
46
59
26
86
55
10
69
24
4A
60
22
16
25
51
A9
66
10
56
52
94
11
14
AA
49
21
02
01
41
56
AA
AA
9A
51
6A
59
96
1A
90
59
10
59
41
65
26
12
60
4A
A8
15
58
20
86
65
62
46
94
85
22
61
28
59
2A
6A
96
40
42
66
95
91
24
06
04
95
AA
A2
65
14
86
15
A1
06
22
85
25
A6
88
15
94
A6
46
42
26
82
62
61
46
16
49
66
15
5A
51
9A
41
86
65
54
99
A0
55
04
1A
25
02
12
58
14
56
54
61
80
8A
A6
95
51
19
55
95
69
5A
46
89
A1
49
55
88
9A
90
14
59
26
51
45
65
50
5A
55
52
59
91
5A
56
15
45
66
10
6A
19
11
16
4A
5A
92
89
98
65
40
86
A5
94
02
54
69
55
15
62
16
A6
42
5A
44
19
8A
69
91
28
66
44
61
20
19
62
86
56
45
54
80
AA
15
26
A0
09
69
92
42
6A
05
55
94
6A
45
99
25
68
68
22
26
46
0A
19
01
5A
A0
91
05
14
45
44
96
56
A6
15
00
94
56
15
68
86
56
52
44
29
A1
54
A8
A8
AA
61
41
90
48
40
82
55
44
24
A8
60
61
89
18
85
66
86
29
61
69
02
99
96
89
A9
52
94
56
99
29
62
60
1A
26
56
95
A5
99
A5
29
AA
96
50
61
54
60
66
96
69
08
52
20
59
11
AA
54
95
58
66
66
62
56
A9
69
94
92
05
66
2A
94
95
51
98
A1
11
2A
96
51
1A
A6
96
69
A5
10
51
A9
96
A8
6A
91
09
55
02
9A
6A
68
AA
86
54
68
42
24
14
59
4A
11
6A
42
16
A6
A1
8A
41
66
95
42
26
20
88
84
05
89
1A
22
55
1A
51
8A
8A
A5
29
A8
A9
59
99
00
55
AA
96
25
56
80
A8
96
86
8A
42
14
A1
49
29
99
45
50
65
1A
61
48
55
94
41
16
A2
4A
28
A1
94
AA
12
55
10
A6
61
8A
28
45
1A
45
AA
5A
A1
A9
65
96
62
45
05
12
4A
05
6A
4A
29
16
56
A4
24
18
28
6A
85
02
59
51
54
15
95
90
66
51
22
15
54
22
A9
26
2A
16
A2
9A
25
81
64
99
15
68
86
85
48
44
66
20
66
61
19
4A
49
12
8A
A6
21
29
9A
96
4A
A6
19
A5
8A
A9
00
91
60
91
68
05
21
4A
52
88
52
A2
9A
62
69
AA
15
A4
A6
A1
A1
6A
8A
25
64
15
9A
96
1A
09
42
69
92
9A
49
15
A9
55
60
92
68
48
91
22
91
55
A5
69
26
29
A9
95
04
44
96
A4
A9
A6
49
98
A5
91
08
05
81
90
92
AA
88
94
A2
48
65
A9
19
45
60
29
5A
9A
65
10
61
15
19
19
AA
46
A1
68
AA
58
09
85
20
A2
22
66
64
A5
98
58
50
1A
19
94
06
14
42
51
AA
11
46
65
1A
AA
5A
2A
62
96
11
19
08
80
A8
82
4A
5A
65
48
59
48
99
A2
11
64
98
5A
04
4A
15
4A
95
41
21
24
46
4A
A4
15
9A
64
2A
9A
AA
9A
0A
16
AA
64
42
00
99
26
96
40
89
1A
11
A6
16
A5
56
69
AA
54
69
18
44
A9
46
A8
25
19
A6
91
05
65
41
89
09
51
00
5A
65
98
A0
A6
55
20
29
60
21
44
A6
15
4A
A2
01
65
A9
06
95
55
94
05
15
96
64
28
11
29
2A
A9
99
85
1A
18
A9
19
95
56
56
46
A2
59
66
86
A6
98
10
91
15
A1
50
16
18
41
22
A6
02
68
69
9A
8A
54
88
22
82
6A
A4
A5
61
90
A8
96
96
69
95
62
01
12
48
94
15
41
A8
A2
15
99
54
26
59
12
95
AA
94
66
85
2A
91
56
41
6A
11
69
09
92
A8
25
90
64
48
91
9A
49
21
18
41
56
65
52
19
41
46
A2
24
15
AA
69
86
46
96
AA
66
69
66
46
20
10
41
55
99
51
09
6A
06
18
1A
95
52
59
85
95
A6
56
08
96
29
49
85
12
6A
91
4A
58
A5
66
6A
42
49
04
12
69
A1
56
9A
A0
64
48
54
9A
65
62
61
61
68
58
01
45
2A
96
29
85
48
82
16
5A
54
69
44
2A
86
84
14
55
6A
49
A2
51
95
05
64
59
AA
24
56
40
86
65
56
05
94
42
82
6A
2A
64
6A
56
55
A6
08
62
64
65
15
01
A8
95
26
91
94
8A
85
16
62
62
69
55
52
96
65
92
A2
69
A2
5A
95
62
01
11
05
5A
46
29
A6
21
16
AA
6A
44
A2
61
46
41
11
12
A8
52
89
16
21
A5
9A
04
89
59
99
A6
8A
64
16
95
58
18
AA
02
60
14
06
69
94
58
18
A8
58
16
0A
29
65
62
AA
54
5A
8A
60
66
66
84
89
A9
65
46
54
8A
08
4A
A2
A8
99
84
A9
A6
90
15
21
A6
04
6A
08
11
99
66
66
69
50
02
69
55
99
A0
A4
89
19
62
45
0A
A2
60
A9
92
95
64
82
5A
5A
25
85
56
56
96
98
9A
09
94
99
4A
46
65
85
94
AA
0A
81
46
55
1A
A1
02
85
A8
15
69
94
29
55
5A
68
65
59
A4
04
61
16
41
99
A2
51
24
66
95
81
A4
15
A9
25
99
6A
69
54
25
16
96
40
56
51
21
94
48
A6
54
62
29
98
49
88
26
21
26
58
2A
0A
56
86
25
66
14
55
A9
25
09
88
55
16
80
8A
91
69
06
02
26
94
18
81
A5
52
91
62
01
A2
22
64
95
9A
51
91
58
82
2A
19
A6
55
15
85
6A
A8
69
91
15
11
55
A5
46
25
26
A2
69
44
50
02
59
58
84
4A
6A
4A
6A
55
51
41
A6
55
91
49
A6
50
59
A5
62
82
8A
41
50
59
85
26
A9
28
26
49
68
16
16
29
98
A5
16
12
5A
46
50
A9
59
45
44
AA
80
29
24
42
A6
18
88
5A
00
69
55
54
56
A4
16
69
6A
85
40
A2
04
02
49
62
44
86
20
98
61
22
24
94
45
54
05
9A
50
12
55
44
26
22
24
22
90
99
24
0A
49
86
66
26
58
6A
52
A6
82
69
69
80
44
99
45
1A
52
9A
66
82
95
16
8A
65
69
59
24
80
02
95
58
98
92
52
84
40
26
88
12
66
69
55
91
0A
89
60
A9
49
29
46
68
92
A0
69
56
A9
59
45
96
22
65
00
10
14
AA
84
0A
62
96
19
12
94
A4
42
A8
1A
9A
2A
95
24
59
96
20
55
A2
96
54
A5
A8
AA
92
42
A2
42
44
5A
18
28
2A
58
00
19
5A
58
52
A6
95
46
52
85
A9
A8
A9
22
09
05
96
69
96
A2
95
91
26
9A
19
55
2A
22
96
40
89
91
66
40
11
88
56
12
18
16
8A
92
52
55
15
50
58
80
06
2A
49
84
14
92
A5
94
08
25
82
8A
06
AA
25
95
AA
91
95
89
A5
50
95
88
69
60
56
9A
85
95
41
55
44
95
29
6A
09
99
12
A1
0A
1A
94
A6
61
96
A0
45
94
54
58
15
06
69
52
62
11
9A
A2
81
69
82
50
48
58
55
41
91
86
99
60
56
29
51
04
99
64
62
80
5A
28
62
65
95
A4
68
66
84
59
64
A5
65
92
29
59
55
51
A9
9A
8A
26
29
A9
2A
49
AA
20
90
15
A4
A5
59
16
9A
A2
A4
A1
4A
81
A5
12
A8
46
68
49
40
69
1A
26
42
6A
A6
02
5A
6A
29
51
45
60
21
8A
68
55
19
A5
06
6A
84
A9
52
49
95
16
06
19
64
A0
62
81
90
49
84
60
58
4A
68
15
55
50
60
40
66
24
12
26
A0
A2
0A
18
61
80
AA
19
21
65
64
45
8A
15
05
54
19
A9
9A
62
A1
24
AA
44
64
81
94
84
55
48
19
48
2A
16
11
04
15
26
1A
90
29
12
56
AA
66
A0
84
02
42
88
59
8A
A5
95
50
99
94
99
6A
58
92
66
49
91
42
A5
98
68
AA
8A
44
AA
6A
58
AA
A1
65
99
A2
94
84
26
94
16
02
99
59
89
46
56
49
19
6A
A2
82
51
95
A5
88
10
49
09
66
69
A2
A9
24
5A
89
41
69
94
99
44
59
A0
89
64
8A
64
59
A6
55
08
25
95
5A
A9
44
26
56
A6
59
5A
56
8A
18
88
6A
94
66
25
86
52
20
95
09
0A
54
58
56
AA
85
66
AA
26
06
95
66
A6
A5
69
6A
A4
66
16
95
85
A9
66
1A
09
A8
66
50
28
66
92
A4
A0
62
86
A1
56
12
92
05
5A
2A
A6
A2
A2
A2
45
A1
5A
18
5A
89
66
65
A9
61
96
4A
26
99
08
A2
89
5A
18
64
AA
86
9A
04
06
91
0A
45
42
62
81
50
06
82
AA
6A
05
88
AA
95
59
14
42
68
11
49
24
28
9A
8A
58
59
8A
99
55
91
58
65
92
90
65
94
64
2A
11
91
19
18
A8
99
A5
A5
29
46
A4
46
61
06
45
19
4A
45
A2
A6
42
66
64
95
98
8A
66
48
59
41
29
92
58
05
2A
48
69
55
96
6A
05
82
60
40
82
96
12
28
04
08
84
A0
20
08
4A
56
54
64
A5
AA
18
16
A0
6A
A5
6A
51
A9
06
21
59
A2
96
80
69
6A
45
6A
92
85
58
A8
25
92
69
8A
06
98
A2
69
42
94
55
24
50
95
60
22
4A
16
66
94
52
98
89
8A
99
99
26
A8
61
56
81
69
62
91
61
52
45
22
1A
01
20
26
45
0A
55
51
45
64
90
62
19
6A
18
92
19
91
8A
A6
96
50
85
86
82
46
04
92
64
89
4A
22
99
6A
1A
A1
64
00
54
19
80
AA
A8
99
5A
55
5A
84
41
16
42
55
91
A5
55
65
94
2A
A9
96
95
A6
52
19
46
A0
51
12
98
0A
46
25
92
A1
60
94
A5
45
05
66
60
91
96
99
42
22
80
69
04
89
5A
A1
98
A4
92
A5
2A
44
68
2A
19
1A
A8
95
44
24
85
68
48
98
AA
59
94
82
98
40
65
A0
65
AA
41
9A
AA
A9
55
01
69
08
21
85
10
89
51
9A
15
86
9A
09
01
58
91
96
A2
26
69
91
68
94
69
5A
96
A4
0A
2A
0A
6A
82
69
02
59
AA
8A
9A
2A
52
41
9A
10
52
99
9A
66
11
A9
A9
49
A0
64
98
2A
A8
84
64
10
AA
06
9A
69
10
86
29
A9
65
46
25
58
84
61
60
90
66
99
6A
1A
04
05
95
65
91
49
22
4A
58
A9
96
84
49
48
2A
46
9A
8A
99
A1
55
A4
1A
56
01
58
62
16
99
99
50
1A
28
A6
49
69
49
59
82
51
99
18
65
A9
64
A5
49
46
A1
41
54
06
94
65
56
A6
A5
91
06
16
60
A2
96
84
1A
01
05
69
29
86
65
88
55
56
58
5A
61
29
05
60
52
A4
89
A9
69
04
54
A5
59
48
16
49
19
45
16
55
9A
5A
86
15
81
48
56
96
A0
52
44
A9
0A
56
55
06
62
66
59
59
A2
15
05
19
51
18
25
5A
A2
08
A8
54
25
85
69
A1
55
45
6A
46
59
22
0A
11
05
A1
AA
29
5A
21
4A
11
51
15
5A
1A
96
26
6A
A6
62
59
A6
69
29
55
14
48
20
6A
51
02
A2
66
86
A2
65
44
6A
95
5A
2A
29
65
94
A6
88
22
85
58
94
04
55
1A
45
58
19
59
19
56
44
6A
19
81
A9
42
02
54
A2
85
92
22
16
69
55
A4
2A
95
54
86
A1
8A
92
58
20
11
5A
24
6A
A1
A8
60
80
A1
95
58
56
09
04
0A
81
A2
8A
66
A9
A6
02
95
85
6A
94
66
6A
81
A2
25
94
15
6A
2A
95
06
55
62
A6
2A
AA
25
96
49
15
49
A1
41
82
0A
15
92
6A
25
0A
A6
95
92
86
65
28
6A
60
A8
02
46
96
65
98
21
41
55
AA
22
58
9A
14
A6
94
4A
91
84
58
44
64
16
AA
A5
55
14
A9
66
89
85
45
A2
2A
68
95
66
24
88
98
62
48
A6
66
88
64
9A
4A
AA
92
A9
42
52
54
52
A6
68
56
6A
55
A6
00
28
22
80
41
08
81
02
96
06
99
85
1A
22
52
14
82
16
91
6A
82
69
09
60
94
59
5A
6A
14
95
94
01
88
A2
92
45
8A
08
19
66
45
4A
88
06
A0
6A
55
61
14
58
06
66
56
6A
56
80
42
05
A5
65
99
91
22
89
24
94
A0
84
99
A9
96
68
A6
25
4A
82
45
48
16
6A
60
4A
18
95
41
89
49
45
28
20
05
51
A4
6A
48
25
2A
46
66
12
1A
5A
95
86
AA
65
8A
22
A9
08
52
95
28
66
84
58
26
94
69
A1
64
A1
11
26
09
80
29
A8
65
12
04
A6
81
08
29
6A
9A
56
26
08
A4
06
A8
80
94
69
09
99
18
8A
14
41
24
5A
A5
59
A8
A8
66
16
86
4A
58
66
66
14
9A
66
25
26
49
A1
41
A6
29
68
12
45
81
A6
10
56
2A
48
59
92
16
92
21
66
26
18
61
64
24
18
82
46
89
0A
12
55
A2
25
45
A5
49
A9
09
A5
01
9A
56
A1
98
4A
20
65
95
06
02
18
68
51
2A
28
15
19
9A
16
99
56
96
16
A5
52
A2
1A
A6
62
11
91
A1
28
44
04
94
A8
61
A9
55
0A
50
62
58
58
66
5A
A2
58
18
5A
42
64
A5
A5
18
A0
41
A4
15
49
14
88
91
12
64
0A
06
A8
A1
90
12
59
4A
12
11
45
51
A6
81
59
A5
66
16
21
08
21
19
AA
94
40
15
88
58
50
09
66
8A
A1
54
25
59
95
A5
0A
A5
56
14
19
50
88
28
5A
46
08
95
86
22
52
12
46
A0
4A
66
84
81
04
66
8A
26
1A
86
4A
48
89
98
A4
24
92
AA
59
66
5A
29
A9
12
62
61
9A
1A
59
46
19
90
29
49
A6
81
98
82
85
46
09
48
55
05
24
02
48
06
82
85
26
45
06
8A
29
A1
44
A2
96
98
66
69
45
54
9A
55
66
85
91
9A
50
15
52
66
12
66
09
68
85
46
96
9A
80
52
12
86
95
26
26
8A
05
81
49
5A
88
94
8A
54
8A
A4
52
54
94
65
AA
15
21
55
A5
2A
91
59
8A
6A
1A
16
A2
2A
94
66
99
15
96
5A
58
98
46
48
80
45
16
AA
62
6A
56
26
AA
26
41
61
68
0A
85
89
58
42
21
28
86
81
29
85
89
20
AA
09
64
5A
99
A5
99
4A
1A
82
49
21
51
65
8A
A9
4A
A6
46
90
04
98
89
4A
04
66
96
6A
59
05
66
84
65
90
89
5A
41
54
A9
42
60
92
4A
A5
AA
5A
95
86
46
4A
62
AA
84
92
8A
86
55
05
86
62
11
99
A9
A6
48
A4
69
05
28
95
46
84
92
68
5A
65
9A
94
06
65
06
29
1A
42
9A
15
54
95
50
05
66
69
A0
A2
96
61
55
58
25
A1
92
52
8A
15
60
41
85
84
A5
2A
44
41
6A
59
89
A6
49
05
15
1A
52
40
90
85
55
50
9A
96
2A
46
69
59
62
56
55
46
16
51
88
A2
AA
64
62
A8
A1
24
49
21
58
19
A5
4A
49
85
60
12
52
68
12
94
9A
96
95
A9
62
06
65
88
19
8A
22
82
69
92
95
46
66
56
64
8A
91
A2
54
A9
6A
A6
69
24
A4
A6
65
A9
98
24
0A
59
49
A0
65
19
12
20
A2
5A
00
A0
95
24
26
AA
41
46
16
85
98
29
2A
4A
18
6A
14
19
04
A8
65
26
11
22
91
55
9A
56
2A
95
95
89
66
64
12
5A
98
A9
81
A9
95
4A
6A
8A
6A
58
66
A0
80
61
AA
18
66
80
46
06
68
0A
69
A9
2A
99
60
10
0A
44
8A
44
2A
4A
99
58
9A
84
52
60
55
52
29
40
65
05
A2
A9
52
59
15
24
29
A6
15
65
68
A1
51
95
8A
91
55
89
45
6A
A9
44
81
92
55
95
96
66
65
64
89
92
51
62
04
49
2A
05
A0
96
42
A1
5A
2A
48
A2
9A
66
62
64
01
95
09
11
AA
A6
0A
61
92
96
A2
A1
16
AA
01
21
15
62
59
49
64
A9
54
18
86
95
81
AA
61
68
24
85
16
A6
69
A2
9A
40
25
A6
A6
A8
62
95
95
59
4A
55
28
09
45
05
A8
A4
61
59
52
19
91
A0
86
4A
8A
51
96
22
51
95
80
A5
41
55
15
9A
49
A6
66
29
59
68
41
02
41
41
21
4A
66
58
59
62
54
44
06
85
15
40
86
8A
98
85
59
6A
1A
00
09
A2
AA
21
48
16
56
69
21
94
21
65
05
A2
91
16
2A
46
A5
96
61
88
62
41
68
89
42
89
8A
25
98
4A
66
98
99
A4
59
26
A4
54
6A
66
11
19
11
9A
96
59
11
A4
58
28
5A
5A
46
56
56
6A
62
89
A9
AA
28
19
62
66
56
04
45
62
A2
81
62
01
01
62
1A
19
52
12
A0
81
65
0A
02
A9
AA
A0
88
60
96
5A
85
A1
A6
68
09
A1
9A
5A
62
68
86
A4
50
46
58
A2
85
A4
06
81
96
51
AA
85
29
25
69
06
08
A5
85
95
21
9A
45
44
54
50
4A
42
55
40
61
0A
91
8A
A6
94
56
21
51
64
96
2A
2A
12
95
A2
59
99
99
21
05
22
59
59
24
6A
00
01
89
11
55
52
96
81
99
0A
46
26
88
29
1A
AA
55
49
9A
51
82
04
58
46
11
A5
95
64
05
84
94
18
61
92
84
A2
24
22
95
A9
4A
28
81
81
20
A6
0A
50
46
A2
90
A9
55
69
94
22
51
52
4A
99
85
24
99
55
96
55
5A
10
9A
6A
A4
A6
9A
44
01
54
96
94
99
45
04
90
95
59
58
09
56
19
90
9A
AA
A8
25
68
55
19
51
51
58
96
49
81
99
41
5A
48
A6
54
59
90
A5
A6
6A
68
51
44
A5
66
96
51
90
5A
55
09
A9
6A
8A
64
90
04
86
A9
69
26
96
66
50
5A
18
48
AA
15
9A
54
41
96
A8
58
11
05
64
94
A2
51
45
1A
99
26
55
54
95
96
16
A4
61
45
29
22
19
AA
68
09
15
25
68
28
4A
A0
59
29
AA
51
95
96
41
26
A9
85
59
84
50
69
92
14
60
A5
22
16
56
02
A9
00
A8
19
44
69
46
96
68
A2
62
A9
44
19
25
98
9A
59
16
16
8A
05
85
41
A2
11
88
99
5A
AA
45
41
64
2A
16
86
42
A5
4A
46
96
18
6A
A5
22
1A
69
42
AA
25
64
A2
16
AA
14
28
19
29
A1
52
86
14
88
15
98
11
05
6A
49
95
61
59
A6
4A
49
A5
86
46
51
10
02
6A
A1
64
48
8A
60
A4
96
25
51
A1
22
8A
A0
66
49
66
50
66
A1
AA
50
62
89
1A
19
92
56
AA
95
01
84
95
16
59
25
A6
56
89
54
16
96
56
49
12
86
68
66
A9
A2
02
49
64
69
60
69
55
08
54
59
49
52
19
AA
61
45
88
05
4A
8A
A6
45
24
68
82
9A
14
69
69
96
44
24
11
66
6A
0A
1A
50
90
A4
15
18
8A
92
5A
06
A2
66
6A
66
16
A8
88
64
94
11
00
85
25
0A
62
98
A2
91
56
99
69
94
54
02
91
59
AA
81
A1
62
62
62
54
A9
06
64
59
A9
86
A2
08
6A
19
09
A2
46
6A
40
56
88
45
65
95
59
59
95
82
80
95
69
81
AA
65
51
98
A0
81
19
A9
A5
51
A0
15
59
25
11
A9
A6
A1
15
66
58
58
92
A8
5A
A6
19
21
6A
92
29
85
69
96
A4
54
AA
54
29
29
AA
92
59
64
28
81
58
98
1A
24
85
46
A0
45
81
AA
58
81
5A
10
51
82
85
58
64
91
19
8A
A1
28
12
5A
A1
2A
A6
62
95
40
94
59
6A
94
45
60
2A
56
6A
98
8A
59
6A
66
A5
21
58
21
49
28
5A
98
21
66
65
96
25
99
1A
9A
5A
95
95
26
04
15
A1
26
88
21
29
A0
AA
66
16
06
22
26
29
A4
99
61
92
89
60
58
81
58
49
80
24
99
1A
96
11
42
88
48
82
98
0A
41
89
96
62
AA
A0
96
01
01
22
91
19
86
91
14
81
86
95
94
40
88
A6
96
86
60
49
A6
28
69
55
1A
82
52
15
6A
04
29
A8
69
24
46
66
94
91
01
91
84
98
48
24
A8
26
26
A4
44
A6
65
08
50
1A
AA
A8
56
61
65
18
05
14
00
66
56
44
56
68
A9
59
62
A6
AA
A1
6A
59
24
58
16
95
51
A8
41
89
41
04
20
82
64
0A
29
AA
8A
A6
2A
66
24
56
62
85
8A
09
45
14
61
11
66
62
61
85
12
96
A9
92
08
96
55
A5
A2
1A
95
85
06
91
05
86
04
52
29
82
54
6A
45
A5
62
60
5A
26
69
04
89
28
1A
06
44
69
82
25
66
22
69
88
90
85
A6
21
1A
41
AA
19
62
59
25
59
A4
2A
A9
81
56
41
89
5A
0A
15
5A
99
16
95
94
46
81
1A
29
4A
96
96
44
99
11
6A
54
15
62
A0
5A
25
85
A5
A9
A4
A6
18
2A
AA
29
95
69
28
54
91
55
26
92
95
11
95
86
A9
86
99
0A
46
6A
59
04
90
45
10
A5
99
54
A9
06
04
5A
92
61
89
AA
A2
22
A2
49
A9
A8
A6
49
92
2A
A8
82
90
10
66
01
A2
44
59
09
56
6A
29
65
86
66
A0
0A
60
AA
69
44
A0
29
98
68
45
59
6A
95
59
A2
5A
4A
09
8A
88
64
09
01
16
A6
58
66
A2
56
69
A9
56
A1
80
11
AA
69
56
56
45
82
65
A6
64
66
5A
A5
62
85
88
91
16
95
A1
84
19
86
21
A0
55
01
1A
44
65
98
16
90
A4
90
55
55
56
95
6A
66
2A
50
48
AA
29
26
49
40
68
5A
65
56
54
AA
09
61
60
66
86
A9
59
94
5A
18
19
58
A5
44
98
90
10
82
09
28
92
55
2A
49
98
16
A9
80
5A
62
66
A6
A1
99
6A
88
52
55
A4
44
82
14
94
AA
5A
54
4A
58
51
55
96
A4
29
19
AA
55
69
55
48
84
84
A5
AA
46
40
6A
19
94
68
09
44
41
91
62
9A
14
15
45
16
58
06
A8
86
1A
95
A6
99
A6
66
90
69
5A
06
65
95
5A
68
25
85
21
25
84
A5
1A
5A
A1
8A
6A
96
84
56
2A
60
65
90
A9
59
A4
6A
92
A0
44
52
65
58
6A
15
45
A6
16
25
A9
A8
98
80
69
41
64
AA
54
5A
50
24
86
A0
86
88
52
62
06
48
65
AA
45
44
AA
25
68
85
A5
2A
91
99
69
65
A9
45
09
2A
86
15
08
29
A5
98
A5
A4
A9
49
15
92
99
60
95
09
89
59
22
41
86
96
89
02
58
4A
59
92
A8
59
65
24
45
41
94
95
90
01
49
8A
A1
4A
08
10
55
8A
84
AA
82
14
65
11
91
62
09
52
60
A4
59
42
86
11
5A
02
04
59
41
95
2A
62
14
A6
40
55
98
11
99
09
06
26
0A
90
A4
20
94
88
56
11
04
48
52
61
99
46
19
85
06
A8
54
91
88
82
9A
81
89
AA
A5
69
15
99
11
68
64
A9
66
42
81
A8
5A
62
05
94
88
AA
41
58
A5
49
6A
96
41
18
A9
A6
51
96
52
A5
55
06
45
60
91
26
6A
66
51
04
08
89
21
54
4A
61
81
04
68
54
9A
9A
52
91
24
19
9A
01
02
9A
28
A9
46
4A
A1
45
A0
65
5A
48
84
15
62
26
A1
49
69
80
2A
54
4A
A9
40
02
55
55
2A
28
1A
45
58
8A
58
82
94
A1
56
55
92
04
1A
AA
A9
98
54
A8
18
49
59
69
99
22
91
51
89
66
05
51
59
6A
29
5A
AA
85
98
A1
0A
26
96
04
95
46
A8
A1
61
2A
A0
42
95
50
99
55
12
95
28
AA
19
56
4A
18
22
89
86
58
26
65
4A
26
02
94
18
8A
AA
05
64
86
92
94
46
2A
68
A5
69
81
15
64
69
81
49
16
6A
46
51
2A
51
68
18
A4
28
14
4A
65
86
A9
61
48
00
20
56
28
84
A4
29
1A
42
48
92
AA
52
65
85
16
46
88
2A
09
9A
24
10
50
15
12
60
28
11
92
65
48
06
25
19
6A
A9
95
26
94
95
62
94
06
89
54
14
46
5A
A8
46
41
46
AA
AA
11
AA
60
58
95
16
86
06
94
AA
61
52
62
85
9A
09
A8
9A
A0
61
6A
89
A4
54
A8
86
6A
A9
6A
66
A8
62
58
96
2A
91
51
62
68
88
91
A5
86
58
12
A9
85
65
68
54
88
04
61
94
10
48
55
59
99
88
44
A5
89
2A
42
04
20
56
49
05
AA
A2
5A
45
A8
AA
21
56
16
62
AA
48
24
56
89
A4
00
19
6A
58
25
50
51
0A
98
A4
A2
65
A6
99
44
A1
14
10
2A
58
69
92
AA
81
66
55
62
48
85
91
62
9A
6A
40
56
28
52
2A
82
94
29
64
92
52
55
44
82
06
46
82
59
15
95
22
6A
0A
20
A4
89
69
56
01
09
91
14
84
5A
85
AA
86
18
A8
8A
88
0A
45
29
11
56
90
99
55
20
54
41
49
A6
49
9A
AA
AA
80
46
69
69
A8
15
44
A1
80
55
58
95
44
19
A2
29
5A
96
92
A6
45
61
8A
29
44
50
64
91
15
26
40
52
04
19
69
91
15
9A
15
A4
49
05
96
86
54
59
56
9A
19
A8
20
46
84
A6
52
58
45
62
9A
58
24
46
41
56
19
16
91
08
25
21
0A
29
68
62
40
46
52
95
01
5A
96
66
59
0A
A4
06
55
15
91
15
42
58
99
9A
A9
8A
02
95
89
59
90
8A
22
59
6A
5A
A1
98
44
5A
99
85
8A
26
02
65
4A
9A
1A
24
5A
5A
A5
A9
2A
24
51
98
51
26
42
4A
06
52
54
66
1A
64
1A
52
46
85
15
65
04
88
A0
AA
A4
25
85
42
95
86
8A
99
66
55
12
56
95
29
68
9A
AA
A1
96
54
4A
A4
68
94
0A
55
98
59
1A
46
AA
96
22
46
45
A0
21
45
94
1A
65
96
56
45
59
A8
82
16
95
AA
52
81
04
09
20
29
51
0A
66
82
0A
46
AA
5A
1A
85
2A
15
11
55
95
A4
66
28
02
61
22
66
85
A6
52
8A
12
26
98
96
6A
95
15
86
58
89
66
42
84
40
20
98
56
69
64
8A
86
54
55
A5
06
94
96
9A
0A
49
95
A6
89
61
51
81
A1
06
54
69
29
55
9A
11
9A
11
90
11
A5
4A
65
09
66
A4
98
28
AA
69
9A
56
69
5A
11
29
89
22
89
10
AA
56
06
A1
85
9A
51
88
88
96
91
59
09
96
9A
68
24
80
96
4A
98
9A
91
90
16
61
12
A1
29
A8
12
AA
10
96
65
85
89
A4
84
89
51
5A
06
18
41
42
AA
56
44
5A
51
41
55
24
88
94
92
12
44
65
21
46
64
5A
06
46
55
A6
40
10
2A
64
96
62
4A
12
45
66
85
08
42
12
26
99
12
41
50
A6
89
82
69
94
15
59
42
55
69
59
14
5A
A9
21
98
60
98
26
45
41
A1
24
94
6A
4A
AA
98
84
96
AA
A4
A4
86
98
69
26
49
95
28
99
21
AA
A9
45
06
55
60
22
6A
20
80
68
99
80
58
98
20
42
46
52
40
58
62
12
6A
55
69
24
98
6A
88
61
29
42
25
41
54
98
45
54
5A
9A
52
96
52
14
94
59
2A
21
A1
61
A8
95
28
14
0A
15
10
0A
AA
05
19
81
4A
92
A4
69
64
41
95
61
AA
52
68
91
44
69
54
A9
A4
55
95
04
4A
A5
52
89
54
49
58
6A
54
80
16
AA
52
9A
45
68
A4
90
91
04
09
29
A6
18
A6
6A
00
05
16
22
09
11
8A
59
60
46
16
01
08
A2
A9
51
61
29
56
A6
25
8A
0A
A9
66
98
26
54
A1
49
41
A1
A4
25
92
94
99
29
A6
69
A9
25
29
92
8A
A5
64
55
68
64
45
26
10
4A
6A
58
01
84
48
1A
41
48
55
58
29
55
60
20
98
A0
29
A9
28
84
56
4A
A4
88
46
85
92
99
02
59
64
95
98
14
49
22
55
AA
18
55
19
94
96
02
22
28
A9
92
A9
68
6A
A8
64
16
68
1A
84
42
9A
05
56
4A
AA
60
2A
20
A9
81
AA
5A
5A
A9
A4
A1
21
62
64
25
22
94
22
91
55
64
AA
42
98
24
68
59
55
69
98
92
55
51
12
99
64
46
9A
1A
A2
85
56
65
98
AA
A1
56
59
5A
45
0A
52
05
94
46
14
59
90
28
59
64
14
99
55
81
18
A9
48
0A
50
95
AA
05
45
56
86
86
18
16
65
A2
85
65
29
8A
51
99
01
50
89
A9
50
55
61
AA
60
50
95
18
A1
65
92
18
91
02
46
29
19
26
46
24
92
65
49
05
88
A4
46
22
A2
41
05
19
66
02
61
15
06
52
94
A1
18
29
05
61
96
68
55
9A
A9
98
21
88
A5
4A
98
A6
A2
55
5A
95
55
01
84
25
94
62
64
26
15
8A
A8
81
59
A6
6A
A4
2A
95
89
16
8A
86
58
64
51
24
5A
59
86
94
08
50
15
60
24
96
95
55
48
69
42
95
24
4A
69
99
18
A0
1A
99
6A
62
1A
A1
AA
52
55
A1
26
A5
51
0A
56
AA
64
92
A6
16
A4
41
99
29
55
A9
28
41
99
00
62
A4
98
A2
98
68
44
A9
42
20
64
45
96
A8
26
85
68
06
18
AA
51
19
42
A0
A9
68
42
59
05
6A
80
05
61
A5
A0
04
42
09
00
65
86
92
98
61
51
A0
11
96
19
51
99
98
19
28
56
60
62
99
12
01
6A
44
55
A9
24
80
16
96
A4
92
61
92
8A
52
25
86
92
65
45
62
68
6A
49
66
46
6A
95
10
98
41
46
42
69
12
A9
61
1A
69
A9
25
96
A5
98
50
AA
1A
69
8A
46
AA
5A
40
04
45
A2
1A
8A
66
96
02
14
28
58
A5
98
59
6A
16
A5
41
85
49
21
66
85
45
56
40
65
94
56
AA
52
28
56
84
18
1A
69
46
AA
98
92
95
44
66
95
11
95
66
66
14
A5
84
69
04
04
05
4A
A8
20
55
15
15
55
92
96
A1
49
84
41
59
18
65
54
20
81
44
80
1A
5A
A6
52
45
99
66
55
A4
84
1A
58
58
08
52
1A
A4
59
69
22
A4
55
55
26
86
49
81
92
4A
A4
84
98
A8
01
2A
81
55
A5
99
2A
48
95
95
40
45
2A
49
45
19
96
59
59
56
00
96
85
99
44
AA
56
A6
96
A5
82
62
56
52
16
16
19
68
AA
12
81
25
21
06
58
26
56
66
55
86
A9
55
66
5A
96
5A
9A
A4
19
4A
95
14
A8
02
A9
28
86
62
A2
02
21
62
95
55
60
0A
25
A4
56
9A
46
6A
14
05
61
55
9A
64
A6
15
46
A8
20
4A
19
54
54
06
9A
02
AA
21
98
16
A2
58
A0
05
14
59
56
86
98
16
5A
A8
51
94
09
55
64
65
9A
58
A9
69
65
54
66
04
86
A5
51
62
65
14
08
1A
45
56
A6
42
52
18
56
15
10
A8
4A
8A
2A
55
11
A8
2A
20
24
A5
91
21
96
15
16
A1
40
6A
A2
58
51
42
99
62
1A
25
45
64
A5
91
5A
80
58
9A
14
9A
59
98
55
A8
A5
15
06
59
A5
92
46
11
0A
95
59
69
62
41
59
8A
69
A6
51
A5
41
45
55
8A
88
86
62
A5
51
81
54
91
5A
05
22
A4
56
82
90
6A
85
90
9A
28
69
25
51
01
92
25
8A
29
5A
86
96
51
A6
6A
A6
96
61
A6
54
6A
50
86
22
A2
22
19
85
86
51
40
16
55
12
09
AA
95
42
8A
9A
A8
5A
0A
60
A5
A0
95
91
95
29
69
66
A8
45
A8
69
89
59
9A
55
2A
0A
92
A1
4A
04
6A
AA
15
59
95
86
90
81
15
91
59
A6
45
90
4A
6A
19
8A
A0
65
A9
96
62
AA
2A
66
58
49
12
A6
2A
AA
91
65
18
65
26
02
96
95
6A
A5
A0
A8
AA
4A
21
81
48
89
98
28
68
40
50
59
99
50
44
85
56
44
A8
A8
A5
49
A1
6A
51
5A
85
4A
A8
A8
66
16
40
86
85
26
55
AA
55
6A
A2
54
44
99
54
56
05
64
50
24
29
29
60
15
A8
95
02
85
62
26
95
1A
82
68
96
18
12
A8
66
96
AA
15
28
98
4A
1A
52
44
62
A1
A1
86
A2
55
84
59
AA
16
A5
5A
9A
22
45
59
48
69
18
90
42
58
29
A9
9A
26
26
11
52
81
60
A5
18
44
9A
40
24
A4
90
66
AA
A5
52
29
91
51
89
4A
64
44
98
59
8A
98
50
92
49
19
84
28
A4
40
A5
05
A1
94
9A
A5
64
89
44
8A
62
62
10
81
68
22
61
90
15
54
A6
45
0A
64
86
48
25
91
59
28
1A
4A
95
58
2A
4A
64
88
19
4A
65
16
15
A8
85
8A
60
51
96
68
86
A9
18
5A
15
85
18
99
05
55
1A
A2
A8
26
96
69
99
02
A6
AA
0A
22
2A
59
15
62
64
21
21
8A
1A
40
81
9A
98
12
50
5A
66
61
60
8A
A1
14
9A
96
A2
11
45
A4
49
48
4A
85
9A
66
92
29
4A
88
96
46
11
41
54
26
98
96
25
A8
16
A1
80
A5
49
66
99
A4
5A
89
91
A1
90
92
89
49
15
02
99
AA
54
20
A9
40
64
4A
16
41
9A
04
15
52
64
A5
11
A1
68
6A
41
A6
59
98
81
A9
44
42
05
16
A1
02
08
61
22
2A
A6
09
42
5A
82
68
84
05
29
9A
A8
69
40
90
50
55
65
1A
25
A5
99
26
45
AA
60
64
6A
99
96
09
66
98
46
59
A1
16
16
6A
29
8A
14
96
88
15
44
51
94
90
9A
4A
66
0A
89
6A
A9
6A
29
69
44
69
01
46
52
A2
99
15
05
00
95
90
2A
86
65
96
55
50
91
80
44
05
8A
94
A6
A1
A5
4A
98
26
26
94
A2
28
26
91
18
18
24
05
8A
42
65
8A
90
42
1A
19
4A
22
82
4A
85
84
80
81
4A
A6
5A
54
68
99
4A
A1
54
44
64
62
15
54
66
21
09
19
96
96
04
8A
99
49
0A
98
95
66
8A
9A
1A
45
89
1A
A5
05
85
66
A4
59
69
86
59
94
26
51
29
51
55
65
24
85
60
66
19
99
14
A5
82
A5
29
26
54
24
45
26
66
61
A6
41
A5
09
28
55
60
10
11
2A
94
06
26
A1
14
64
55
61
94
6A
4A
9A
AA
6A
05
6A
05
42
68
1A
85
AA
85
46
40
92
41
45
8A
66
64
5A
45
95
85
8A
10
16
19
A2
1A
A5
62
26
50
25
59
18
89
80
29
09
25
56
A9
08
95
2A
94
0A
21
99
08
85
59
84
82
9A
4A
29
22
58
6A
02
22
15
9A
6A
02
91
00
9A
51
9A
82
8A
66
5A
A5
20
85
99
A4
69
A5
45
20
84
AA
A6
A5
64
14
5A
5A
12
51
16
6A
66
98
5A
44
2A
A2
0A
92
2A
54
29
01
08
1A
64
69
00
25
98
69
98
A8
54
6A
82
59
65
90
24
84
80
62
45
62
69
12
56
51
6A
94
15
95
59
89
16
6A
84
90
8A
41
AA
5A
84
41
A5
88
66
A0
9A
99
20
16
62
96
AA
60
89
8A
82
41
A8
99
A1
66
42
20
8A
05
A4
18
6A
69
6A
65
98
21
9A
85
51
A1
08
1A
88
91
01
1A
54
A4
A1
94
95
24
06
0A
4A
A2
62
A6
5A
62
90
81
16
A8
86
46
5A
A1
59
26
22
5A
80
5A
09
96
58
82
54
89
A9
16
AA
51
A4
82
42
16
56
15
A5
4A
28
0A
15
58
0A
66
2A
69
50
64
84
81
58
04
16
56
89
56
19
66
00
25
14
56
88
54
5A
88
44
21
12
99
22
56
95
90
46
08
A6
1A
25
19
58
11
4A
18
05
59
5A
16
64
A4
61
09
08
18
46
85
59
91
A6
86
42
05
56
A4
16
14
68
58
10
84
56
22
28
A6
86
81
51
9A
48
91
9A
55
22
29
01
16
5A
99
85
19
88
92
52
A5
AA
46
49
66
A0
46
54
69
9A
26
55
AA
12
20
04
54
86
48
94
56
56
50
20
52
22
58
19
82
62
8A
92
25
96
54
92
A0
A5
06
98
A9
98
84
25
A5
68
6A
66
9A
59
58
4A
A9
10
45
90
19
A8
04
98
91
9A
9A
25
A4
A8
29
25
80
58
61
A5
88
4A
25
2A
95
54
A9
0A
68
56
88
A0
5A
9A
54
91
86
A9
01
6A
A9
56
82
60
99
42
90
A9
62
05
92
96
95
12
8A
9A
A1
8A
91
15
61
62
28
9A
A1
A6
58
65
64
92
44
AA
99
99
60
A9
A1
84
12
15
14
01
06
A1
29
45
80
6A
A5
46
49
A4
A5
88
65
56
06
98
06
26
46
89
54
82
42
A5
64
A4
62
26
42
2A
61
5A
A8
61
11
92
11
49
A1
61
21
19
A9
5A
55
94
91
A8
25
42
65
A6
20
92
55
56
62
51
08
11
1A
91
11
45
A4
96
A2
24
A4
15
48
2A
68
64
59
55
86
A4
10
A0
10
55
02
82
58
A5
66
6A
A5
96
56
A2
8A
85
4A
88
85
6A
44
85
96
24
AA
98
0A
29
1A
52
65
9A
60
A1
82
1A
96
14
48
20
94
A9
1A
60
28
91
55
50
66
60
45
65
6A
A6
50
16
91
56
A6
65
A9
14
A8
91
16
08
95
42
29
85
A9
60
05
48
64
52
81
9A
64
55
82
55
18
56
A8
54
92
6A
56
86
A6
A5
99
A6
62
86
49
82
20
60
A6
6A
56
16
2A
95
96
A8
15
6A
41
1A
26
99
56
19
62
56
42
22
99
52
1A
19
24
64
9A
8A
2A
A4
4A
88
15
49
4A
6A
25
24
19
4A
82
06
A6
59
45
69
55
98
48
10
A5
95
92
51
58
98
1A
42
11
95
98
52
69
16
80
59
A6
A4
55
54
29
A9
96
59
65
48
8A
5A
A4
56
52
AA
84
86
5A
2A
82
09
96
48
91
55
91
88
95
29
58
95
88
1A
42
55
54
AA
45
4A
92
60
45
65
16
52
95
A2
44
A1
08
99
60
A1
A2
86
20
65
59
A2
51
52
66
02
49
86
45
08
A1
16
90
60
20
8A
11
8A
0A
55
51
46
6A
46
18
0A
A1
A9
A1
18
1A
92
04
A6
55
59
A6
A2
6A
51
29
6A
20
59
55
65
42
96
69
52
89
AA
A5
69
01
98
26
96
45
9A
A2
2A
6A
A6
28
50
96
6A
6A
58
2A
A5
AA
62
56
64
66
62
16
96
10
AA
61
94
58
66
29
62
28
8A
A6
41
6A
14
55
48
10
18
59
06
55
95
51
AA
A1
22
66
92
5A
81
18
05
58
9A
85
06
8A
45
20
85
21
99
A8
80
88
64
92
AA
21
69
96
58
8A
62
92
A9
2A
84
90
A0
82
96
51
68
A6
A0
A9
50
59
84
52
96
96
45
A9
56
A9
58
11
41
24
A6
48
48
82
96
2A
A4
55
91
2A
25
95
AA
4A
98
A6
45
5A
12
90
04
25
52
56
A2
59
A2
60
54
40
55
A6
9A
A5
55
5A
24
61
15
49
A0
52
A9
69
A5
55
58
24
5A
0A
A4
AA
91
48
96
69
A8
61
21
65
05
06
5A
21
52
A6
09
19
96
A1
81
52
A5
A9
16
66
56
5A
52
68
19
40
99
66
99
60
29
61
69
05
29
68
A5
12
95
29
90
02
8A
94
69
16
69
64
54
99
55
48
21
95
49
21
85
61
15
59
84
98
40
56
8A
56
55
49
9A
51
20
A1
51
69
65
A2
56
61
04
4A
68
00
21
AA
91
52
5A
54
18
49
A2
89
58
52
96
61
24
6A
59
A5
61
62
15
A5
02
58
14
12
0A
22
8A
94
92
92
6A
16
12
A9
16
AA
A1
58
00
45
64
14
A0
61
0A
4A
A5
44
1A
56
68
18
94
56
89
68
05
51
91
44
99
A8
65
45
25
68
82
19
9A
21
9A
AA
99
80
52
A5
A9
29
95
25
92
62
51
19
26
65
0A
64
A8
4A
56
59
24
11
60
9A
55
59
5A
26
91
06
55
A1
96
56
AA
56
21
94
42
A4
51
44
64
88
A9
89
19
14
10
94
94
4A
A2
24
A1
18
69
88
AA
5A
51
54
8A
85
59
02
11
92
29
2A
85
19
45
60
A8
26
24
5A
94
21
40
95
24
85
99
02
05
81
05
59
06
82
22
81
99
60
92
08
96
01
0A
59
56
18
51
22
99
96
89
96
68
01
A4
92
95
86
0A
45
42
6A
A9
50
19
09
02
6A
61
52
82
A1
AA
AA
22
21
8A
14
85
A4
4A
90
A0
96
94
22
1A
41
A5
22
85
5A
14
42
59
AA
86
25
2A
15
84
61
A8
6A
AA
46
89
68
82
49
02
99
16
16
99
A1
52
58
90
A8
22
52
48
59
55
AA
98
48
A6
92
96
96
42
45
2A
65
29
6A
1A
AA
86
4A
95
06
99
16
A5
45
64
62
A5
85
21
81
9A
A8
56
45
44
8A
50
21
55
A8
01
A9
52
41
29
98
A2
99
22
66
A8
18
55
59
A9
AA
62
60
81
52
25
22
9A
12
8A
18
4A
18
22
18
60
28
60
4A
85
8A
95
5A
06
52
65
0A
99
8A
95
59
95
AA
99
65
52
20
9A
69
51
28
51
A5
0A
41
61
66
61
8A
40
45
1A
51
95
65
99
55
A0
9A
8A
28
1A
9A
16
A8
42
6A
A8
A2
56
51
24
25
A4
15
A6
44
09
22
09
08
82
26
02
00
15
11
5A
58
15
A6
2A
16
22
26
62
69
68
29
26
8A
62
46
A9
66
0A
55
26
58
91
55
98
08
09
20
00
2A
55
88
59
15
85
81
6A
85
61
91
04
26
64
52
99
66
01
AA
14
94
A2
00
A4
A6
6A
06
A6
41
99
56
A2
04
42
26
AA
19
A8
5A
A1
44
59
81
16
08
56
45
69
48
6A
55
65
19
56
88
95
48
45
51
68
65
28
24
86
22
05
51
19
20
62
2A
A5
29
26
A4
16
92
21
15
18
66
68
A6
69
51
05
64
64
A9
69
48
60
8A
05
8A
A8
54
4A
54
49
0A
64
42
A0
95
06
54
6A
A5
15
09
50
5A
18
85
56
55
66
85
A2
21
15
98
88
86
86
64
14
98
A9
88
00
9A
66
A6
25
55
9A
99
14
26
09
A9
45
40
A2
15
A5
45
2A
91
98
18
58
22
45
69
9A
59
81
96
4A
96
29
88
21
5A
68
8A
58
12
64
69
4A
59
55
A4
62
62
92
21
46
59
66
85
51
02
46
05
41
5A
A8
90
98
54
54
95
55
42
56
42
12
65
91
06
55
A8
8A
59
10
55
95
09
6A
AA
84
86
02
A4
19
A5
06
4A
52
2A
4A
56
6A
58
06
68
91
9A
50
55
22
85
21
62
69
98
59
16
A9
98
09
A0
54
11
25
56
49
65
59
25
A0
55
26
95
52
AA
8A
25
95
65
56
50
A8
A9
91
14
45
15
91
46
66
61
96
AA
A5
90
4A
05
29
9A
82
62
86
68
01
45
65
A4
69
46
92
95
98
9A
64
95
94
84
52
48
A1
A0
91
AA
94
85
A2
A0
AA
22
89
06
42
49
04
81
A9
AA
18
58
5A
26
49
16
05
06
68
60
10
99
65
62
A2
51
51
18
55
A6
25
89
49
85
A2
59
05
A5
45
62
91
08
54
59
06
94
85
25
06
A9
6A
91
94
69
62
08
94
4A
65
14
81
26
A5
69
58
55
55
A9
12
A9
89
42
55
A1
52
12
45
58
41
45
5A
69
08
96
28
84
09
12
A2
28
95
A2
59
69
A5
06
55
A5
68
90
9A
59
AA
19
21
58
81
98
62
94
8A
45
68
61
15
45
1A
95
28
90
A5
15
1A
A6
56
46
A9
A5
A8
22
AA
A6
16
69
05
65
A9
95
62
2A
A2
25
61
91
AA
48
90
60
54
66
66
50
90
59
89
6A
84
06
0A
95
61
94
91
1A
84
44
18
51
28
4A
62
51
94
A5
29
2A
14
4A
81
02
49
A9
59
99
62
52
1A
A9
06
49
68
6A
86
A1
98
49
68
06
5A
6A
A2
46
5A
01
59
51
14
06
02
8A
94
04
A9
56
6A
15
05
A9
94
05
04
29
65
A1
68
A2
15
52
45
12
2A
95
15
A5
99
29
1A
90
52
A9
A4
85
58
AA
06
26
A6
98
A4
AA
0A
10
29
42
A1
15
22
9A
85
68
66
16
86
6A
51
A5
9A
A9
59
56
64
82
09
1A
99
55
59
62
9A
11
25
99
41
64
06
95
60
82
85
6A
A2
5A
85
99
A4
45
46
25
A2
A1
5A
6A
6A
AA
62
A0
5A
42
4A
69
16
A5
54
21
0A
A9
A6
99
24
9A
55
5A
41
58
4A
41
0A
81
28
92
19
44
29
96
46
19
92
56
94
50
A6
A5
15
80
A0
06
A4
16
94
6A
45
AA
98
69
29
12
56
5A
5A
A0
95
2A
62
62
45
69
69
90
12
28
AA
99
96
01
5A
15
A1
99
9A
98
86
45
50
2A
5A
86
45
26
20
00
19
5A
86
51
95
5A
21
84
06
66
92
56
92
64
59
44
A1
06
98
54
48
10
9A
06
58
5A
2A
21
25
16
45
51
99
16
89
82
A6
A4
5A
06
64
60
65
96
5A
A6
54
5A
11
88
56
92
98
A6
92
A5
99
84
10
9A
61
A8
51
55
26
50
98
19
9A
95
51
10
55
28
66
A0
04
20
2A
5A
8A
81
09
40
60
41
10
69
60
81
94
09
A1
26
51
12
50
4A
01
20
26
92
95
28
86
6A
60
46
65
16
94
20
68
65
42
91
A4
25
0A
50
06
81
66
19
94
66
A6
61
52
49
88
58
92
99
85
9A
29
05
40
92
91
85
16
A4
22
86
42
85
9A
45
89
50
46
AA
65
49
49
59
58
9A
21
80
88
55
91
A6
1A
95
19
89
89
00
0A
26
86
95
9A
56
54
10
4A
62
16
25
1A
41
62
89
92
95
A1
66
A2
12
65
11
48
44
25
12
26
A1
99
51
52
29
48
99
A5
A9
45
99
82
86
AA
65
66
96
26
19
59
99
AA
12
65
60
04
A8
91
5A
49
64
A5
A2
95
A6
91
5A
50
9A
A6
59
18
86
25
9A
45
64
88
99
20
06
49
14
95
69
90
49
90
A8
64
45
A6
94
A4
05
29
66
52
95
A5
A1
24
8A
A1
28
29
09
A2
81
A2
4A
82
54
65
28
58
42
51
6A
AA
54
91
92
99
46
9A
A9
24
25
48
AA
96
59
49
52
29
64
28
1A
66
46
A6
A9
A1
85
86
A4
62
85
24
01
24
66
59
15
54
6A
90
51
69
50
4A
AA
45
92
29
49
65
54
90
45
25
06
90
9A
A8
1A
28
88
01
55
1A
06
51
A9
2A
A6
AA
91
04
60
26
92
11
08
5A
65
89
4A
5A
16
46
26
68
6A
69
2A
52
A4
AA
99
58
52
66
98
88
44
A6
15
40
91
45
20
9A
5A
10
5A
A1
54
59
58
94
69
42
85
A1
96
A0
41
20
09
2A
18
45
A1
52
19
61
AA
A9
22
55
A0
0A
10
60
2A
69
6A
96
54
04
84
44
15
19
6A
AA
A9
48
2A
9A
21
62
56
48
8A
20
59
4A
80
91
A4
81
64
A9
99
92
11
61
90
48
8A
2A
A9
8A
28
49
8A
19
50
2A
69
12
9A
68
99
99
55
58
A5
A1
06
66
15
90
A5
8A
24
29
44
A6
09
64
A6
A5
0A
91
8A
AA
56
01
94
84
60
52
55
29
96
09
05
A8
0A
60
6A
A6
82
85
55
50
54
22
09
0A
1A
0A
0A
58
A2
26
86
99
95
54
20
9A
A0
04
94
59
16
89
61
49
62
08
14
65
A2
60
56
95
55
65
A8
66
61
18
81
A6
59
41
12
21
0A
85
09
28
64
59
88
84
51
A9
94
91
20
59
99
5A
1A
26
08
9A
01
99
89
28
64
04
55
51
02
94
16
2A
21
4A
AA
58
49
A5
59
5A
25
62
44
55
94
22
90
85
9A
29
66
52
46
11
49
65
08
95
8A
19
01
55
A9
48
05
98
59
1A
24
A5
95
16
90
96
41
0A
89
61
2A
19
90
96
25
AA
55
69
49
91
14
2A
10
24
61
81
46
62
86
82
84
95
96
84
AA
92
69
42
46
01
95
A5
94
58
49
88
A1
51
9A
5A
01
48
99
91
92
AA
24
20
80
49
40
62
19
52
AA
90
6A
88
A8
A9
0A
54
46
29
AA
86
48
11
A6
91
A0
64
65
01
18
4A
19
50
15
56
A2
A1
61
85
52
29
24
88
6A
A9
14
56
91
96
A2
46
62
5A
A1
8A
98
40
62
46
15
1A
9A
99
98
05
54
55
66
5A
91
44
89
8A
5A
26
00
A8
1A
01
4A
05
A8
25
04
90
51
49
15
26
96
66
09
66
16
42
A5
8A
69
56
A5
A8
55
64
59
60
96
6A
41
51
59
05
95
94
14
99
66
61
25
65
AA
A5
99
96
A5
5A
02
29
A1
92
45
46
04
22
80
0A
65
5A
98
52
19
14
A2
0A
55
8A
88
60
24
A9
16
14
A5
26
19
12
50
AA
9A
88
22
86
9A
A0
69
18
58
19
55
15
90
A2
46
A5
46
A5
60
A6
22
6A
8A
09
44
65
21
2A
58
65
16
A9
A8
46
26
01
15
A6
18
92
9A
A4
25
19
16
80
52
A5
06
6A
2A
4A
A5
59
25
0A
12
00
04
80
42
96
90
A9
A8
A5
45
82
6A
6A
66
9A
12
04
15
55
65
15
A9
88
A8
25
29
A0
A5
98
14
5A
A5
46
66
01
61
49
80
84
54
99
A1
5A
6A
AA
90
49
A1
12
89
54
9A
56
85
09
25
61
61
58
8A
66
19
60
6A
2A
20
45
90
54
96
60
66
A6
90
26
48
61
96
66
14
64
A6
01
19
24
81
20
82
6A
09
54
40
01
94
69
2A
0A
60
28
25
A4
A8
54
21
2A
5A
18
11
61
60
51
A5
42
65
95
49
20
18
86
81
02
21
82
91
96
68
A6
68
40
9A
64
59
A9
86
59
58
89
61
41
26
59
52
92
14
11
60
5A
22
2A
26
0A
86
26
22
01
8A
68
29
A5
88
26
66
48
81
A8
A6
55
95
66
A9
45
85
55
95
86
9A
96
19
61
85
96
A6
A4
16
19
21
56
94
68
82
06
56
06
A2
64
42
18
AA
2A
09
22
14
A6
A6
96
56
25
09
59
64
0A
A9
41
0A
08
04
22
88
A5
29
4A
05
52
14
64
41
8A
02
25
68
95
12
29
28
AA
96
A6
A6
64
86
A8
49
50
96
24
59
61
88
55
55
25
61
85
99
AA
50
5A
95
9A
56
55
86
89
81
56
A9
A5
04
90
66
9A
A0
26
2A
18
95
60
4A
15
45
A5
A6
84
51
A5
22
A5
94
94
58
58
64
55
65
6A
29
86
51
48
42
66
52
68
85
16
99
2A
98
14
95
29
19
AA
15
A1
84
8A
49
81
A9
85
62
55
6A
40
69
46
16
10
9A
51
22
05
A4
5A
44
A0
65
A5
A8
4A
66
66
92
15
99
69
69
01
98
25
61
82
08
12
26
A9
91
84
4A
14
89
16
2A
51
12
41
AA
49
28
55
55
58
64
19
AA
89
44
62
01
24
4A
A0
46
99
56
28
68
06
58
51
05
55
99
89
22
82
64
42
A0
96
52
25
25
19
96
56
19
18
A8
A0
44
9A
66
22
59
62
42
29
A1
82
28
46
A4
59
8A
91
5A
62
11
9A
28
60
A6
69
62
88
A6
69
96
4A
69
50
A6
29
49
A8
42
A6
99
1A
55
14
59
59
AA
69
18
66
12
58
64
2A
29
64
62
56
49
04
81
92
92
95
96
AA
A5
95
95
88
51
04
25
9A
A6
85
24
98
19
A0
25
56
66
85
24
55
52
45
56
95
A4
59
15
26
02
A4
55
85
18
05
56
9A
89
0A
24
41
14
80
1A
61
2A
14
5A
A2
54
95
AA
A1
86
64
64
91
94
A6
A8
44
91
A6
08
58
99
52
A5
56
A9
68
9A
52
19
6A
98
A9
11
22
55
96
4A
96
55
05
54
41
6A
6A
59
28
11
6A
11
54
58
A9
16
54
5A
42
61
5A
A6
50
95
98
4A
A5
48
98
26
62
6A
A4
0A
16
96
99
89
19
49
14
56
65
46
00
A2
49
11
19
45
2A
2A
A6
28
82
21
55
25
61
60
68
21
45
48
49
69
85
49
56
69
65
21
98
60
45
94
25
15
A0
02
A6
66
59
4A
59
15
02
6A
A5
8A
62
85
92
01
96
44
98
9A
A5
A2
44
6A
81
AA
AA
66
82
89
62
28
92
A0
58
6A
9A
96
26
69
15
94
49
45
A9
29
61
9A
91
A2
24
65
46
59
A6
62
56
26
54
66
14
54
46
80
56
55
56
00
95
6A
88
0A
66
56
26
91
14
96
11
15
A2
80
52
6A
25
A8
05
99
62
68
0A
A5
1A
92
58
48
66
9A
A2
95
A0
66
90
22
91
95
12
A6
A6
A4
20
48
12
5A
AA
99
61
06
9A
4A
62
02
58
50
6A
6A
46
64
4A
A6
84
19
66
9A
A2
05
A2
88
A5
08
4A
6A
25
14
2A
89
92
59
10
42
A8
0A
51
46
9A
54
56
66
95
62
55
52
90
A2
65
9A
6A
A8
AA
95
1A
96
64
06
11
55
A5
AA
82
26
90
55
21
59
58
5A
94
A0
A6
4A
29
A4
65
85
42
96
05
A6
A9
64
9A
18
68
1A
96
21
91
5A
60
61
10
AA
29
4A
A6
18
05
62
40
89
88
84
60
21
2A
95
06
65
89
95
98
16
26
62
49
02
19
96
56
98
62
04
54
56
29
5A
40
51
55
91
29
98
62
28
A5
A0
56
4A
A2
65
88
59
45
98
60
A4
01
24
99
1A
55
A4
08
01
0A
62
9A
98
81
24
6A
95
5A
25
A8
A4
02
92
49
85
90
91
4A
41
28
45
46
84
A9
29
58
29
51
15
28
28
66
8A
92
A2
16
0A
68
A0
59
65
06
49
84
96
95
A2
1A
65
A1
52
88
09
AA
A9
6A
86
A5
66
89
22
95
2A
94
21
26
85
A8
59
89
88
08
25
A5
11
8A
19
AA
99
94
68
00
A5
89
2A
20
86
91
55
96
42
A6
28
22
52
16
9A
56
69
95
19
69
28
06
55
1A
25
12
49
80
42
25
A6
65
20
41
90
61
19
AA
49
90
98
16
52
69
69
02
98
90
62
A0
41
89
88
45
92
94
22
AA
61
98
50
51
42
08
15
41
2A
59
AA
04
AA
9A
46
88
45
25
45
A2
22
62
20
59
1A
A1
25
84
15
90
84
94
80
85
5A
6A
A4
09
49
02
28
55
A0
6A
40
A1
64
55
85
81
00
82
25
54
95
85
49
60
5A
56
8A
54
81
44
A1
92
69
28
66
25
96
A6
62
A6
85
A2
86
52
20
92
69
9A
A9
9A
46
84
96
64
54
69
A4
99
A6
60
9A
A9
A9
54
66
66
5A
A6
46
19
92
21
44
A9
19
62
84
58
92
A1
6A
29
A9
46
AA
45
99
96
68
28
25
9A
4A
A6
A0
19
55
59
49
50
A1
19
A6
A6
50
5A
51
29
14
22
59
59
88
55
A2
96
55
A4
04
29
29
82
A8
14
61
40
95
90
A2
26
41
96
A5
85
9A
19
25
94
19
89
89
95
8A
11
50
18
88
09
8A
61
4A
6A
69
56
12
94
A5
96
6A
A8
25
56
A2
86
95
86
12
5A
89
91
80
20
61
92
25
96
85
A0
99
45
0A
05
A2
18
15
55
10
10
68
95
11
42
95
9A
16
69
68
69
02
25
98
48
55
06
68
15
58
90
61
19
14
16
48
68
A9
85
54
45
62
24
8A
94
11
58
1A
A1
64
24
82
44
60
45
2A
A0
5A
A5
20
16
01
28
91
2A
5A
A6
65
92
4A
44
60
28
86
4A
26
59
A6
64
4A
15
29
29
96
20
1A
09
66
52
A5
65
18
99
A8
96
A6
60
A4
85
86
69
A5
88
11
20
55
48
40
09
16
69
6A
16
90
45
60
28
48
9A
99
81
51
65
51
A1
58
41
90
95
1A
44
98
A5
69
90
95
42
A2
51
04
88
52
1A
29
01
91
55
64
A8
92
88
15
18
92
40
56
A5
15
48
86
11
52
65
91
A5
41
81
55
09
40
6A
92
59
65
86
AA
11
66
96
92
89
58
92
91
66
68
11
85
06
2A
64
94
51
60
58
85
29
19
6A
16
A4
99
59
96
01
98
59
1A
05
59
A6
55
55
85
02
99
06
58
69
05
54
14
21
81
00
45
2A
54
02
85
20
9A
95
A8
1A
4A
98
54
56
09
AA
41
54
A4
96
11
85
58
41
56
89
19
81
A2
20
94
16
91
A2
28
AA
96
08
65
65
15
A9
9A
0A
99
A5
60
98
54
40
64
59
69
85
55
45
4A
56
A0
41
A1
16
94
61
68
99
86
2A
66
94
48
4A
A0
A9
99
A5
12
21
16
55
A6
96
A9
18
65
1A
44
29
60
50
61
60
24
A9
2A
02
11
68
61
58
04
09
A2
69
AA
52
95
95
25
14
A9
82
51
8A
96
96
4A
90
20
A5
49
28
10
52
59
88
A6
25
A0
26
66
1A
AA
9A
92
26
22
9A
65
29
1A
A6
25
05
02
A8
A6
92
49
91
42
45
61
09
5A
A0
91
9A
A4
55
11
96
58
95
19
64
59
29
55
10
81
92
16
66
25
54
86
80
01
95
25
10
90
15
4A
16
26
65
24
94
15
81
49
55
95
4A
66
9A
45
50
11
2A
44
8A
69
A6
60
98
52
12
44
56
49
54
A6
65
52
95
A8
19
A6
88
A4
5A
49
55
65
49
99
96
65
91
0A
AA
5A
A2
19
89
90
91
A6
59
81
A1
50
20
85
6A
5A
A1
9A
65
A9
89
88
60
4A
9A
49
26
59
8A
46
06
A2
45
9A
A5
A1
59
A5
19
5A
A1
04
11
28
A1
89
40
95
A4
42
18
A9
A9
06
80
89
A4
15
A5
A4
8A
9A
6A
85
15
94
11
50
55
99
49
A6
A6
1A
62
69
86
05
58
69
89
A5
A4
09
52
00
9A
0A
56
16
5A
94
54
15
86
62
5A
51
50
A6
62
58
41
A5
19
12
89
69
81
01
6A
A2
59
99
55
92
95
62
09
8A
8A
80
50
A9
51
21
26
21
68
A8
A9
69
19
95
98
59
56
92
62
16
45
22
08
08
96
82
44
98
15
6A
61
4A
92
91
91
92
5A
22
1A
69
66
AA
49
69
18
61
26
65
91
02
45
28
44
56
02
66
41
26
59
29
88
A5
5A
29
16
41
64
90
6A
A8
A5
28
A0
49
0A
56
65
A5
96
95
18
90
09
54
55
12
40
5A
A4
15
05
22
28
A5
4A
55
A8
A5
A9
90
19
12
9A
25
11
29
2A
24
91
29
64
25
59
89
19
04
06
A8
6A
29
54
A6
A2
96
45
50
92
60
44
00
46
0A
2A
A9
A6
19
9A
99
05
29
0A
06
49
2A
62
81
40
95
49
48
56
59
9A
A8
24
96
09
A1
49
A2
A6
94
51
2A
49
64
65
A6
59
49
62
A4
A0
06
0A
8A
45
66
18
99
22
29
85
99
10
1A
22
65
95
05
AA
A1
19
08
65
46
81
46
42
89
91
96
86
6A
10
65
25
66
24
29
59
59
18
89
51
A5
45
55
55
25
96
A6
15
9A
6A
64
A2
26
99
A8
10
44
A5
54
68
26
8A
54
A5
A2
2A
52
65
6A
5A
28
25
99
86
82
44
91
10
69
5A
A2
26
80
41
60
49
A8
26
96
25
06
91
14
62
44
0A
4A
A8
18
45
96
9A
82
55
05
59
5A
16
6A
91
46
41
9A
66
59
62
4A
2A
10
5A
46
96
28
A6
95
16
81
29
29
09
85
95
24
55
91
A9
2A
61
86
46
55
84
96
58
1A
A8
1A
A4
52
11
10
69
82
40
A4
66
60
18
A6
16
56
94
48
4A
A2
20
95
8A
84
A4
80
49
69
12
19
88
86
20
18
21
19
94
65
A8
A9
20
68
55
04
96
09
91
A2
59
A1
2A
61
A0
64
95
12
98
48
4A
66
A9
85
21
94
11
59
18
26
26
45
65
46
99
95
21
82
54
99
45
49
2A
9A
96
19
55
A6
64
01
5A
46
59
16
54
48
61
41
40
42
AA
29
25
26
A4
65
2A
A4
91
21
00
56
25
85
85
6A
95
89
68
66
A1
A8
95
56
26
62
21
04
8A
51
82
64
41
41
11
28
A4
84
55
2A
89
68
48
6A
56
26
64
29
94
9A
98
28
19
22
9A
64
2A
51
52
6A
45
21
06
19
00
66
42
A2
96
9A
51
42
49
69
89
54
A9
65
A4
29
0A
10
69
99
99
A0
56
85
54
04
29
04
AA
15
09
92
99
85
6A
A1
62
42
65
98
A8
A6
28
18
29
96
25
A9
40
65
90
56
94
98
A1
A9
90
59
A9
A1
9A
A6
62
94
66
04
8A
A6
1A
12
61
59
A9
52
49
85
A2
66
05
59
65
69
A6
11
1A
12
99
4A
A6
28
64
5A
9A
9A
8A
65
65
59
21
64
19
69
45
A8
81
82
20
A1
A5
95
96
08
64
48
61
6A
8A
8A
08
12
91
84
65
98
12
A9
95
22
69
1A
50
68
88
0A
19
20
91
49
56
54
56
58
16
28
88
98
84
0A
A6
51
68
08
24
58
58
A8
4A
A9
55
06
16
91
16
81
86
88
16
1A
08
68
02
68
66
22
96
56
A2
80
66
25
95
15
AA
68
59
65
81
A2
96
62
26
52
58
45
29
1A
52
4A
89
42
21
51
66
99
50
A5
02
85
66
00
15
66
A1
A5
65
9A
98
26
11
1A
66
44
25
24
20
09
92
40
49
01
A9
81
4A
9A
96
06
82
99
85
A0
16
6A
92
54
29
02
66
64
91
1A
21
85
99
09
95
A6
66
49
98
26
A1
A9
A8
99
16
91
44
66
AA
98
55
06
A9
69
26
A1
44
85
25
1A
14
29
59
85
56
29
A5
42
40
A5
A6
05
12
22
62
66
58
61
05
12
44
26
22
A5
29
6A
05
99
AA
56
96
16
1A
69
25
19
2A
58
46
5A
9A
5A
A8
14
56
65
51
5A
A2
46
92
85
65
86
29
2A
91
86
49
81
96
A9
54
A2
A4
66
04
82
A5
89
11
04
88
65
25
05
14
69
5A
26
25
6A
62
9A
55
A6
45
10
1A
11
41
61
64
16
59
60
50
84
2A
89
28
5A
02
68
26
19
46
90
A8
99
89
96
A9
10
22
29
A5
92
29
99
9A
8A
52
96
12
62
19
16
81
56
66
16
26
90
48
1A
56
51
98
68
A9
08
4A
69
14
65
20
19
8A
88
16
46
44
28
A6
06
29
99
51
59
05
91
44
21
52
15
A5
29
44
4A
91
4A
AA
92
59
A1
89
A1
68
15
56
40
A4
48
AA
59
01
18
02
8A
2A
A4
99
05
52
49
04
49
98
46
98
69
9A
9A
94
88
2A
06
94
58
06
A8
04
49
25
A1
28
8A
A9
18
02
86
66
A4
58
8A
6A
86
A4
00
0A
A1
84
85
99
59
58
51
66
6A
56
65
5A
44
A2
26
62
55
A1
14
61
56
95
68
46
AA
A5
56
86
16
55
50
52
99
6A
25
14
0A
AA
28
68
48
AA
82
52
A5
8A
AA
06
A5
55
58
44
A8
91
52
26
81
8A
96
65
1A
89
50
29
44
68
A2
55
56
20
91
68
4A
96
59
91
85
19
14
45
21
52
11
99
99
54
91
A9
A5
59
94
12
64
81
91
66
90
A0
82
A5
44
22
46
49
9A
24
A9
24
86
94
44
16
A2
A1
49
26
5A
A1
42
44
9A
14
92
56
45
96
89
8A
44
56
AA
A9
19
22
A4
68
92
12
66
52
61
54
08
86
18
25
6A
8A
60
82
81
05
56
11
09
96
52
89
05
8A
1A
A8
22
19
A2
19
A9
46
49
58
44
12
22
99
0A
A9
91
29
46
15
19
41
A2
9A
42
15
54
49
95
0A
12
58
59
56
A5
6A
1A
65
21
62
A8
68
09
16
98
69
55
A4
54
48
A4
6A
9A
98
95
A0
8A
55
46
64
41
99
95
8A
15
A8
95
18
99
40
68
22
A1
96
96
45
24
48
61
08
59
56
14
09
89
5A
94
15
A6
19
A4
12
09
51
A6
80
90
29
6A
45
26
65
59
45
66
4A
15
60
84
66
48
60
99
68
40
0A
A4
85
91
96
26
69
62
56
9A
26
99
98
A1
41
A2
49
A5
16
05
25
45
88
96
55
A9
8A
16
59
6A
06
09
A1
62
22
28
A5
2A
26
16
06
9A
88
44
25
15
66
65
61
68
44
12
4A
9A
2A
4A
24
48
85
86
A6
40
A4
86
A6
0A
98
86
45
21
14
68
19
42
6A
6A
A8
04
2A
19
49
98
A1
96
98
19
A9
14
91
55
99
55
62
45
21
29
26
66
09
86
A8
56
21
AA
62
64
42
82
14
A9
9A
50
4A
61
55
00
66
95
2A
81
19
12
24
A9
14
85
1A
44
51
49
A0
8A
59
12
90
48
A4
A5
6A
65
65
60
65
9A
48
8A
24
99
5A
94
62
16
05
04
4A
26
9A
5A
8A
40
65
64
66
5A
A1
A6
45
A1
9A
AA
A9
61
96
2A
40
22
22
54
84
85
68
55
A8
9A
A6
96
A2
88
94
29
96
29
86
1A
61
90
A1
11
16
AA
15
65
18
A5
09
56
92
9A
69
66
55
92
54
61
94
69
85
18
21
29
A9
12
81
18
59
A1
06
A1
58
16
81
A1
98
41
52
A2
A6
5A
65
9A
52
9A
66
26
15
55
99
59
98
45
18
54
8A
25
89
59
A0
55
A6
20
92
95
55
5A
9A
AA
81
5A
86
AA
65
A1
49
A8
68
50
86
96
A9
69
42
1A
54
90
16
59
19
A2
10
89
95
9A
21
01
00
96
A5
06
84
85
22
88
51
62
65
A6
45
94
99
9A
55
9A
55
95
16
25
18
41
A6
18
66
15
52
95
69
85
A1
05
20
48
8A
20
89
61
1A
95
56
14
01
08
68
60
54
49
69
A6
18
56
4A
58
99
4A
89
18
88
59
66
45
62
59
91
92
56
52
A9
98
68
24
85
14
A2
99
45
A9
66
9A
9A
58
A0
44
59
48
65
25
26
51
94
A1
59
94
99
46
A6
2A
64
52
51
95
A0
69
A6
15
00
45
A4
96
52
94
40
50
91
22
A2
A5
AA
45
06
24
2A
60
08
08
00
89
66
15
1A
41
A1
96
66
A8
A1
12
A9
66
64
A8
A5
52
12
5A
A5
59
AA
40
46
56
0A
2A
90
99
96
15
60
20
68
82
51
18
A4
69
98
69
1A
52
9A
6A
12
A1
54
52
A5
45
16
65
68
94
11
1A
56
86
58
A1
44
81
66
46
86
29
12
61
99
62
94
4A
5A
8A
58
6A
08
6A
61
A0
68
59
6A
61
98
65
81
85
64
69
A9
8A
91
A9
95
50
96
94
50
8A
80
50
15
04
9A
51
96
66
86
A0
59
48
68
AA
51
5A
08
29
90
85
65
29
A6
14
15
91
05
A6
86
61
91
29
52
26
AA
16
A4
55
29
11
16
55
65
19
89
45
A8
59
51
9A
66
69
19
65
1A
94
45
55
66
AA
65
05
46
05
60
19
56
01
95
A4
80
18
98
5A
55
64
86
8A
96
A5
59
92
61
69
19
90
66
65
51
50
99
92
8A
A1
05
52
6A
96
A1
95
52
AA
58
20
89
09
05
A5
89
58
41
65
24
84
19
92
88
55
4A
62
A0
86
55
A9
21
89
29
91
89
05
86
56
15
24
A1
59
A2
68
29
61
6A
62
68
16
90
48
95
4A
54
59
89
88
2A
58
98
28
95
6A
80
A9
54
49
11
2A
04
49
6A
55
24
24
A8
A6
A5
A9
95
85
9A
12
96
62
69
68
5A
18
64
5A
49
A6
48
16
68
86
88
44
99
A2
45
00
A0
56
04
5A
19
92
69
56
15
82
15
82
10
82
89
09
26
A8
A6
89
65
64
04
15
86
69
86
46
89
A5
A5
69
AA
0A
2A
45
91
85
42
A1
9A
26
64
05
20
05
10
14
98
85
48
4A
82
1A
55
91
96
52
20
46
60
94
05
A9
45
15
85
54
95
5A
A5
50
66
8A
99
40
62
15
59
06
55
40
A5
A6
60
66
95
85
48
9A
65
19
8A
40
9A
0A
A5
89
26
66
A5
29
A9
12
98
0A
95
95
06
19
52
9A
1A
96
55
42
A6
44
4A
52
56
56
99
A9
88
66
A9
94
62
15
68
86
41
82
AA
A6
68
64
08
66
48
96
44
85
19
56
20
AA
95
68
A2
00
95
4A
56
98
86
64
46
25
6A
50
12
15
6A
6A
22
16
21
12
21
49
15
56
95
25
41
24
A6
86
45
80
59
A2
25
41
86
A6
00
6A
61
04
51
56
22
24
44
AA
80
46
66
95
A2
5A
2A
26
86
5A
99
8A
65
8A
59
65
6A
59
25
62
11
89
95
14
66
42
68
16
29
54
58
A8
86
51
96
2A
69
91
8A
54
A5
9A
54
90
56
6A
64
91
52
5A
09
56
84
A5
A9
25
0A
22
15
58
21
96
A1
50
52
89
5A
45
98
65
08
5A
94
95
09
09
A8
46
80
95
96
9A
46
11
6A
44
42
11
1A
A8
56
8A
14
28
65
2A
58
50
6A
45
96
99
52
69
49
4A
25
45
29
28
A2
84
98
A5
5A
A8
A0
A4
05
60
AA
62
6A
84
9A
04
66
16
96
22
65
88
09
95
A5
A5
94
54
52
10
49
26
56
99
0A
99
45
18
81
60
99
A1
A1
A4
8A
89
60
95
82
99
A9
15
4A
25
55
42
95
26
02
6A
58
56
64
65
22
A0
94
64
69
6A
08
AA
25
9A
15
95
94
82
A2
55
19
16
84
55
90
A1
A1
14
28
6A
46
14
A6
A8
84
65
A1
5A
56
AA
24
56
40
65
A8
A6
16
A4
A5
80
4A
56
08
61
A2
42
24
2A
54
92
41
02
A0
1A
54
19
25
A8
52
46
21
50
2A
A8
4A
4A
45
58
A1
46
55
60
84
89
51
A6
45
1A
6A
A8
5A
9A
58
1A
5A
66
A9
85
AA
41
85
62
91
51
62
69
09
8A
A1
A0
A6
5A
8A
A0
A5
61
AA
15
06
92
00
85
15
65
15
6A
A6
56
9A
04
12
41
66
91
99
95
8A
6A
A0
68
18
41
59
A9
46
00
64
69
4A
94
54
80
19
48
A8
24
9A
90
49
A6
56
52
26
69
A0
64
52
59
55
91
69
51
28
16
64
66
82
98
58
26
AA
A8
89
95
69
41
18
94
88
A2
A2
64
90
41
28
66
80
48
81
12
50
5A
89
A2
9A
8A
8A
A0
15
69
56
52
52
95
54
66
99
19
18
60
22
AA
86
29
28
A5
96
69
04
19
92
56
A9
25
19
95
66
69
18
21
55
09
51
56
A6
5A
29
08
00
91
50
8A
A9
56
62
86
15
A9
04
95
20
A2
11
A6
A2
15
A0
62
AA
56
92
58
95
42
12
51
64
46
12
06
5A
54
18
11
46
41
A6
09
A2
49
08
68
A6
9A
A9
11
98
12
A4
AA
24
41
16
66
41
40
95
68
4A
A5
81
02
10
59
5A
20
98
55
15
21
54
80
95
05
59
96
A9
A1
9A
49
69
66
92
89
64
90
98
AA
4A
88
11
9A
A0
81
5A
8A
A8
21
84
89
1A
A5
89
99
26
04
02
A2
95
96
4A
48
64
20
19
86
59
40
A8
A4
11
96
25
A2
54
91
92
5A
A1
59
46
94
66
45
60
2A
69
9A
66
A6
95
A2
A8
90
66
92
5A
28
61
89
29
A2
28
54
A4
25
40
65
24
A9
54
65
44
29
60
9A
16
62
92
A5
95
51
24
45
69
16
AA
92
42
91
54
85
94
AA
61
19
A9
66
99
A9
4A
5A
00
58
66
16
92
18
09
54
60
6A
8A
95
06
19
48
AA
6A
12
A9
6A
25
95
95
11
55
90
59
50
5A
81
10
15
62
A0
96
6A
9A
85
61
08
61
86
66
26
96
60
49
56
95
98
58
10
AA
15
11
20
40
64
46
42
54
51
96
A2
86
19
28
A4
A5
88
19
A5
85
49
48
55
89
44
A5
16
1A
82
19
42
55
69
82
66
96
2A
A4
51
96
49
06
A9
95
26
A8
29
59
A4
41
2A
14
40
45
96
A8
56
60
89
48
84
A0
62
A9
16
96
A5
89
21
64
08
20
96
69
54
9A
52
98
50
56
65
65
55
99
65
58
55
21
A8
26
60
50
14
12
0A
15
56
61
84
16
05
04
49
94
1A
99
56
6A
1A
69
26
A9
22
A2
02
AA
90
A2
40
92
0A
99
42
44
46
A6
8A
61
A9
92
95
98
44
54
51
01
65
60
92
55
50
51
2A
86
A8
A6
98
25
15
65
AA
44
1A
66
98
56
96
49
19
55
85
A6
40
58
42
8A
96
48
A9
15
65
02
95
56
25
46
54
1A
62
86
01
A6
41
89
44
11
66
5A
54
0A
88
84
21
68
42
A9
06
21
42
88
A8
94
12
5A
18
19
52
12
40
55
A0
01
86
A4
98
06
28
14
44
A6
10
59
10
24
52
12
12
04
46
92
52
22
06
59
84
2A
90
64
82
51
19
46
09
15
50
54
6A
56
49
26
A2
88
9A
9A
52
9A
10
5A
51
12
16
22
65
81
19
44
AA
A6
92
AA
5A
10
0A
51
26
95
0A
89
15
45
88
14
66
A8
18
10
96
15
65
94
4A
85
54
09
91
01
52
94
56
04
94
A5
06
0A
A9
16
59
91
A8
51
65
49
99
00
40
96
21
99
11
90
80
88
1A
8A
A1
2A
49
16
0A
12
15
6A
04
25
92
56
00
29
12
84
49
A8
A9
19
A5
92
18
1A
94
84
56
09
A5
6A
80
16
91
56
81
44
41
81
40
85
69
AA
12
A0
A5
09
98
91
91
5A
18
66
08
46
58
85
19
41
29
18
A6
0A
55
A6
28
69
A0
A9
69
02
99
49
01
44
12
55
18
69
A0
01
A5
22
05
28
26
60
AA
2A
96
80
22
06
A2
10
AA
64
69
55
12
92
59
62
0A
15
40
2A
41
86
89
26
9A
AA
90
94
01
4A
90
A1
58
95
A4
80
69
8A
82
12
84
84
9A
99
A0
41
A1
21
94
56
A2
91
95
55
66
24
65
95
88
A1
04
89
08
52
89
99
85
2A
98
55
62
12
91
04
5A
99
49
55
11
51
44
9A
11
45
A1
49
9A
45
69
62
68
20
A1
60
64
22
20
5A
25
92
59
51
A5
66
44
89
81
89
A2
2A
A8
86
95
69
80
95
68
55
90
2A
44
22
A5
20
59
56
92
69
45
29
28
AA
66
04
24
0A
54
A9
0A
48
8A
2A
58
51
69
4A
84
92
45
18
86
0A
9A
98
56
80
96
59
88
00
18
55
62
11
92
A5
50
15
5A
02
41
A1
49
69
86
59
81
01
5A
08
29
AA
65
54
16
44
06
62
05
95
A9
95
60
2A
15
5A
91
6A
29
6A
52
48
66
28
9A
81
0A
81
06
21
58
16
16
94
2A
89
55
62
59
92
4A
92
18
89
8A
89
82
9A
4A
28
A8
96
00
91
59
18
46
96
42
A0
89
44
9A
55
A6
88
60
19
2A
99
A2
A5
52
58
A2
54
5A
80
44
2A
98
A6
08
65
54
64
A6
A0
66
51
1A
00
06
21
AA
55
A0
54
46
24
49
4A
A1
22
04
02
94
A9
05
85
A6
51
09
64
6A
A4
68
89
64
5A
16
A9
4A
88
4A
96
21
8A
52
49
59
21
A8
62
61
8A
A1
A5
04
55
60
A4
55
62
15
54
98
94
89
55
85
25
46
A1
A2
96
4A
2A
02
85
90
66
6A
10
A1
91
02
11
96
44
69
99
A4
40
55
18
50
A4
55
A1
14
15
4A
A0
44
89
A5
4A
81
45
AA
94
59
49
6A
51
68
55
98
11
62
11
52
95
52
26
89
9A
52
16
4A
05
06
04
21
A1
6A
22
69
59
15
01
AA
01
45
46
49
96
56
04
18
42
95
22
64
88
61
24
A5
12
98
60
56
95
52
14
24
68
04
21
24
58
81
89
62
64
5A
1A
58
56
55
59
84
90
9A
04
61
9A
95
62
00
A9
6A
22
89
A6
A5
56
5A
85
46
2A
6A
6A
A6
12
19
56
A8
1A
49
91
69
29
86
55
69
9A
56
0A
6A
25
02
96
A6
44
56
19
A2
11
2A
11
A5
44
A5
A9
85
28
12
42
2A
15
A9
56
68
A2
9A
94
AA
45
25
8A
A8
A9
1A
55
A0
52
49
8A
AA
85
82
91
69
58
42
45
44
54
81
20
91
6A
52
56
9A
21
90
61
A9
61
A9
94
62
15
22
65
01
49
2A
A9
96
11
50
95
65
42
68
01
90
99
AA
46
65
21
5A
21
69
A0
04
21
28
16
A6
08
9A
91
15
29
40
99
28
62
A5
0A
05
9A
68
45
14
49
20
A9
84
54
41
95
A6
99
A9
21
48
6A
A9
92
25
19
0A
9A
29
66
85
90
A6
A4
88
96
6A
95
85
12
66
49
46
5A
25
A9
66
51
96
41
A1
2A
99
89
66
1A
14
68
66
82
91
16
A2
54
41
05
69
52
A4
6A
21
50
62
15
02
98
99
84
62
48
20
14
9A
A5
55
98
69
1A
42
A5
66
24
10
18
90
04
68
16
48
6A
68
A6
89
60
A8
15
98
99
24
A6
59
62
26
0A
4A
25
99
54
46
84
66
99
9A
A6
06
88
08
2A
84
96
A8
59
85
68
52
19
58
62
19
45
59
49
94
59
86
05
A1
99
25
59
96
01
55
0A
19
66
89
09
6A
48
62
A5
98
82
61
6A
59
A0
66
16
2A
54
55
81
85
60
A4
90
54
A5
89
69
92
9A
84
46
A9
A9
2A
90
59
5A
11
95
10
28
54
98
56
50
A6
45
86
92
52
95
84
60
4A
69
21
A5
90
14
A1
29
92
AA
A2
26
91
69
6A
5A
99
1A
48
88
66
21
42
AA
0A
82
96
10
08
61
65
A4
42
24
06
05
45
95
98
06
62
0A
28
15
A0
2A
98
AA
00
0A
48
5A
59
91
52
68
64
0A
25
14
A5
59
46
A6
86
69
54
6A
19
5A
49
65
52
42
64
15
A8
59
05
69
58
56
95
4A
46
02
A1
2A
A5
96
29
92
A0
06
46
15
54
44
42
49
A6
4A
91
59
59
A2
25
01
68
89
50
5A
A1
68
6A
41
52
28
29
95
50
6A
55
99
16
69
99
19
05
11
91
68
25
29
99
64
14
92
99
52
A4
A2
AA
66
56
02
69
59
60
62
2A
59
56
68
22
65
69
6A
4A
69
10
41
9A
0A
26
44
A2
A1
A2
41
AA
A6
69
96
91
81
1A
06
01
6A
56
85
6A
26
25
A5
15
5A
16
15
65
56
10
26
68
49
14
2A
64
22
22
5A
85
05
A6
50
60
05
15
15
A1
A9
61
45
99
06
94
A5
A9
A8
94
64
5A
99
91
66
64
94
68
4A
08
46
A1
55
49
99
51
94
60
68
54
81
1A
99
82
92
49
68
55
59
24
45
61
95
68
14
A0
01
65
59
65
A5
50
95
90
18
94
59
25
49
44
49
91
52
9A
55
61
62
29
29
68
14
6A
56
09
6A
A8
45
98
84
86
62
56
04
68
A1
A9
5A
58
90
96
60
16
18
66
5A
44
59
56
19
66
08
4A
A1
18
08
19
41
20
20
8A
81
18
2A
65
55
95
4A
22
89
19
81
59
A0
90
5A
54
56
5A
50
56
08
46
21
88
A4
91
1A
56
64
5A
A2
98
91
24
59
A0
A2
56
62
61
A1
64
58
A9
2A
96
A2
68
46
48
42
98
24
A8
A5
05
98
66
05
90
95
10
10
A6
28
68
0A
24
66
A5
96
5A
49
12
01
95
A8
96
96
09
A6
51
54
59
92
54
AA
42
59
44
6A
00
94
66
50
96
52
84
52
59
26
94
68
A9
66
4A
A6
11
56
A9
25
65
AA
45
A6
2A
12
A9
66
4A
14
56
89
09
49
A4
A9
A8
21
9A
26
00
01
60
A6
55
61
24
22
65
52
A8
98
A8
1A
52
11
1A
A5
88
65
19
06
96
10
04
11
65
19
45
55
A0
46
5A
81
AA
5A
85
26
42
96
55
66
99
65
92
42
5A
26
8A
99
4A
29
6A
99
08
41
92
55
64
16
14
89
A5
52
24
12
48
05
24
A5
98
94
4A
24
91
46
65
25
65
AA
86
49
90
5A
89
52
5A
91
65
92
15
98
66
50
51
81
45
95
01
82
90
A6
A6
89
56
06
68
51
55
51
A5
05
86
55
16
88
A0
A5
56
00
9A
A2
69
2A
A4
44
9A
94
52
10
AA
AA
59
49
80
16
81
9A
5A
A4
22
A2
26
62
46
54
55
A5
65
09
59
59
99
64
A4
50
A1
6A
40
69
A8
98
84
2A
10
91
26
A5
28
1A
05
60
6A
55
29
65
91
64
62
16
25
29
54
A6
59
68
00
A0
89
19
6A
A5
49
A2
49
5A
55
54
64
6A
18
41
89
69
68
59
06
A8
4A
66
A4
9A
25
02
A2
40
AA
A9
09
45
59
85
A6
06
58
51
A1
96
AA
95
5A
21
81
1A
26
19
A9
88
00
15
18
51
16
51
56
59
09
05
2A
90
A0
15
91
48
68
29
26
4A
19
65
25
80
A8
4A
40
9A
9A
A1
2A
89
45
69
58
55
61
A6
69
18
A4
65
AA
10
91
96
96
A9
26
42
51
AA
15
96
18
4A
06
49
66
64
54
62
99
49
99
59
0A
61
A6
64
88
40
52
60
60
A5
A1
59
64
5A
91
66
59
24
52
98
94
51
AA
4A
49
A6
12
1A
54
86
50
8A
64
18
A4
1A
11
A0
61
AA
96
92
5A
90
24
59
94
59
54
28
90
25
14
48
15
4A
50
18
65
16
04
44
49
19
A5
26
50
9A
64
A0
A8
20
64
94
68
98
22
80
A9
56
59
19
68
04
44
42
A8
AA
8A
12
A9
96
A9
29
9A
69
54
20
69
89
14
59
00
AA
A2
24
61
89
A4
98
60
82
68
AA
49
06
64
A6
84
85
A2
42
45
96
52
95
84
A8
46
02
88
04
15
91
A2
40
AA
A4
18
48
56
42
58
A9
91
66
58
9A
64
45
58
16
46
25
50
52
AA
90
49
11
58
6A
55
81
AA
12
06
99
91
05
16
26
58
26
5A
21
41
25
46
16
56
A5
9A
42
55
24
90
A2
91
06
60
A5
05
90
A0
22
21
95
A4
56
A9
A9
06
85
49
81
64
96
AA
91
29
1A
50
A1
51
50
69
66
19
AA
A9
85
46
95
99
A0
44
2A
62
2A
24
46
98
99
55
55
89
45
10
84
50
29
88
05
8A
4A
AA
69
91
19
29
44
99
94
25
98
9A
41
4A
15
59
1A
A2
91
49
A8
A2
A8
25
A1
51
29
26
86
98
92
09
06
9A
06
A8
91
42
AA
00
84
A5
65
84
9A
A5
06
56
64
9A
95
66
62
59
40
58
21
54
84
10
46
15
1A
24
45
60
18
A0
46
61
58
60
08
A6
62
A0
A6
29
24
68
85
95
A4
06
00
66
8A
80
85
10
15
45
58
45
20
26
51
64
65
5A
A1
52
A1
49
65
12
1A
19
45
42
15
45
51
52
15
A8
95
99
40
10
85
4A
68
66
A2
06
95
51
9A
69
62
94
69
28
95
95
12
44
8A
0A
A1
9A
4A
28
80
68
A8
18
60
9A
49
92
64
61
51
15
82
68
04
12
99
AA
42
48
15
99
56
56
95
68
00
84
96
8A
A8
52
A9
99
66
96
06
55
52
8A
20
68
92
58
56
6A
58
68
85
46
80
19
86
99
54
85
91
94
44
5A
05
95
65
19
51
96
92
62
AA
64
96
9A
9A
62
48
29
48
62
69
95
60
99
98
86
A0
19
11
8A
10
06
2A
98
65
88
01
95
66
55
19
4A
54
6A
A8
4A
98
69
84
AA
05
98
52
86
66
66
42
82
94
28
69
89
64
80
06
28
18
29
82
AA
15
22
64
6A
12
85
89
6A
24
A6
19
58
A9
24
A9
9A
62
69
A0
64
66
05
2A
01
52
0A
95
88
18
56
05
46
94
91
1A
10
26
55
64
64
56
15
99
56
84
88
10
52
09
92
94
A9
A2
52
64
19
96
55
5A
41
1A
64
5A
A8
A9
A6
94
61
0A
91
99
80
81
08
68
A1
9A
90
A1
49
89
84
51
92
60
A1
41
1A
45
A6
A6
95
A9
96
60
48
46
91
98
A4
55
92
69
55
52
A0
2A
86
59
A0
5A
9A
8A
A0
50
68
58
5A
52
62
06
95
08
81
64
86
94
45
95
6A
92
A5
01
54
16
69
81
14
50
A6
46
69
46
A6
80
54
04
41
19
55
49
19
19
99
14
5A
90
59
95
54
95
AA
54
A5
94
29
66
11
19
55
18
89
51
64
59
58
A0
45
14
9A
11
A0
69
29
85
62
29
6A
51
5A
19
69
68
64
56
56
01
21
92
00
26
40
59
09
A4
A9
61
A5
85
61
86
AA
64
AA
66
66
A9
52
69
5A
58
AA
A8
50
88
91
10
29
92
28
91
25
4A
05
AA
2A
15
54
26
48
22
0A
19
11
18
52
55
A6
89
58
69
91
86
A2
A2
05
45
59
91
85
46
1A
09
46
65
98
5A
25
82
95
A2
92
A2
00
A8
AA
99
5A
85
56
64
89
AA
66
A4
1A
A5
66
28
54
A5
52
16
26
14
84
21
99
05
88
02
22
59
A9
AA
68
90
56
59
95
66
09
82
86
85
19
18
69
1A
A1
AA
19
81
99
6A
92
51
91
A6
89
A8
25
92
82
66
5A
20
88
AA
56
5A
A9
60
28
89
59
25
25
9A
2A
92
05
45
A2
49
11
51
A5
4A
51
9A
1A
41
65
8A
25
95
20
62
80
69
68
A5
09
26
9A
A0
A5
91
09
55
25
2A
1A
22
60
84
6A
94
26
A6
92
16
A2
A2
22
22
AA
58
16
85
06
96
14
A5
46
28
88
42
A1
29
55
88
90
15
08
18
A0
88
56
29
9A
14
46
48
09
0A
51
96
9A
48
2A
22
86
11
56
06
A9
A1
64
A4
4A
19
01
91
2A
68
26
0A
22
94
15
9A
96
25
86
41
59
91
06
6A
6A
5A
5A
8A
51
A9
28
19
96
19
52
81
55
59
99
65
29
51
09
66
64
A0
96
AA
19
48
61
08
A8
A1
18
24
61
60
90
91
28
66
5A
A4
48
68
08
5A
62
40
59
99
66
51
A8
AA
40
96
89
90
85
05
19
A6
01
59
41
52
58
19
68
59
A6
2A
96
51
62
A6
55
56
2A
42
95
51
62
28
AA
A5
59
A4
06
42
41
54
59
1A
49
96
18
96
11
69
56
90
84
64
11
1A
19
58
A6
99
91
90
95
95
5A
52
96
02
80
09
44
06
44
24
99
59
A9
89
64
18
45
4A
10
59
A8
6A
44
5A
81
64
8A
94
99
55
99
28
A2
2A
6A
A8
42
49
28
44
12
46
05
29
5A
92
55
50
59
60
52
09
95
9A
86
94
04
65
66
65
21
86
A8
25
94
A6
16
50
82
6A
00
66
44
AA
66
61
64
09
A8
16
68
89
66
92
51
29
05
55
A9
01
22
00
04
86
94
05
08
A8
9A
28
44
45
86
96
9A
91
80
56
66
15
5A
65
92
52
A5
55
85
82
51
54
66
61
99
1A
A1
56
0A
96
A2
4A
21
14
59
9A
95
01
95
60
A5
A9
A9
1A
24
25
42
9A
46
6A
24
19
A5
A9
0A
20
6A
15
14
6A
8A
44
85
91
82
8A
2A
92
95
94
8A
86
0A
15
05
22
61
A5
A2
9A
94
86
56
45
A2
11
A5
06
65
50
AA
85
62
A4
59
0A
84
A6
55
69
08
90
92
21
25
66
16
91
86
60
65
A2
95
5A
1A
95
65
41
A6
69
85
29
25
64
AA
A9
5A
A8
2A
89
65
61
56
8A
65
8A
56
60
22
99
95
51
84
A1
8A
45
8A
9A
92
06
95
18
90
26
12
84
A4
2A
0A
AA
0A
9A
6A
21
90
AA
A4
AA
62
26
89
A5
95
19
15
49
19
8A
12
96
64
98
51
A5
26
5A
A0
2A
1A
A1
59
1A
1A
9A
14
A2
AA
91
59
22
58
01
25
69
52
88
AA
6A
91
85
9A
09
51
46
5A
5A
0A
42
48
A5
82
06
14
A9
42
49
22
15
41
A9
26
99
89
A9
52
6A
64
84
98
64
65
19
89
92
62
18
24
22
56
55
4A
58
A0
55
95
8A
96
26
69
50
96
00
49
99
12
21
98
19
08
AA
92
A5
52
A2
92
A4
A0
96
94
88
66
18
95
65
90
59
2A
92
15
41
A6
28
69
54
91
A9
45
96
98
68
15
55
29
9A
A1
0A
05
42
10
96
11
40
18
18
11
A5
6A
25
A8
8A
25
A8
61
96
2A
A9
44
16
8A
65
8A
1A
8A
59
25
22
09
55
89
AA
69
A0
65
22
12
69
A2
65
11
51
A9
5A
18
95
A1
95
61
41
9A
69
44
86
16
04
42
98
A2
56
29
A1
52
A2
19
A1
99
01
A0
50
61
65
A0
A1
51
85
45
61
99
A2
48
6A
94
66
A0
6A
A5
61
66
8A
52
A6
60
94
19
06
66
29
02
95
A2
61
86
08
85
22
1A
92
01
A2
A8
66
01
A0
A6
40
A1
95
8A
8A
96
A5
18
A6
85
94
04
46
42
49
98
85
A6
69
82
58
42
9A
5A
52
A4
99
69
51
16
56
99
A4
AA
86
4A
AA
01
19
49
2A
55
A9
62
1A
5A
A6
0A
21
59
8A
49
11
96
65
AA
9A
62
28
24
AA
90
64
AA
54
A1
46
2A
04
A5
9A
5A
20
65
6A
1A
22
AA
2A
65
52
60
69
96
19
65
19
55
AA
A6
2A
21
00
A5
46
55
44
25
01
90
69
19
55
21
00
99
60
86
6A
A4
91
45
29
52
A2
59
16
91
62
58
66
26
28
21
96
89
59
44
05
69
81
66
45
69
60
56
65
59
A9
42
95
40
89
54
96
65
66
55
4A
45
66
84
69
A6
16
64
46
99
54
95
09
45
05
85
19
48
91
42
6A
41
50
68
48
29
55
69
48
A2
9A
59
98
A8
22
A4
00
81
66
16
48
66
A5
A6
69
9A
A1
88
88
18
8A
95
2A
A5
2A
10
65
18
19
85
08
62
99
68
2A
91
5A
65
1A
56
26
19
69
A6
12
49
60
50
86
15
65
A9
96
19
86
A9
42
62
92
20
A5
2A
1A
42
A2
94
5A
A4
22
AA
A5
81
44
21
1A
51
6A
AA
85
66
A8
90
68
10
85
AA
89
A8
88
6A
24
66
66
40
95
25
91
1A
85
82
A0
9A
64
55
6A
49
4A
98
1A
12
A4
96
A1
21
22
40
AA
64
15
52
94
89
1A
89
45
4A
90
68
A0
A9
69
28
01
28
52
AA
95
52
55
08
AA
26
85
85
44
00
50
69
21
56
A9
01
56
89
4A
41
96
18
A8
85
59
26
A4
A9
52
42
61
5A
58
64
62
59
94
85
51
AA
A2
90
AA
64
51
09
04
0A
89
88
15
60
15
45
66
A8
5A
04
16
22
55
84
49
55
24
81
92
98
88
91
A8
60
65
11
69
64
54
6A
58
10
0A
85
09
16
A4
19
AA
09
49
55
92
41
14
66
15
49
42
65
28
19
54
56
65
15
58
58
89
68
85
65
44
21
28
5A
21
22
84
4A
09
56
2A
85
09
AA
91
6A
26
21
91
92
64
A1
65
18
60
08
54
A8
A4
92
A5
99
64
55
A9
64
A6
68
89
6A
65
25
96
99
08
61
40
92
A6
11
92
68
56
55
41
46
A2
1A
20
96
12
24
41
2A
89
2A
22
A1
65
A5
06
AA
59
4A
99
05
19
80
29
45
51
11
18
95
45
42
65
2A
98
15
99
56
26
2A
99
65
14
46
96
94
64
49
49
90
4A
09
89
02
AA
52
45
29
44
69
A1
28
04
1A
20
51
26
65
58
82
21
4A
64
16
00
15
A9
65
95
A8
40
50
59
02
59
99
02
02
45
1A
51
A6
66
4A
A4
91
89
11
90
2A
A5
24
A1
92
64
A2
84
A5
65
21
A5
16
AA
06
5A
66
A9
89
55
A9
61
06
91
95
89
96
99
10
55
12
59
25
60
06
9A
86
29
60
61
49
92
44
66
94
81
56
85
90
49
20
81
5A
46
94
AA
40
44
A8
60
AA
59
42
A4
55
08
24
9A
25
56
85
8A
4A
89
42
A6
86
86
49
96
2A
64
1A
20
5A
48
A5
90
96
A4
44
6A
84
A8
2A
61
81
1A
94
44
0A
A6
45
AA
40
80
66
29
96
44
96
61
96
2A
11
11
05
19
26
15
6A
85
59
2A
95
AA
6A
45
15
5A
25
A1
48
51
96
46
60
85
2A
11
9A
95
65
54
01
40
A9
AA
06
19
86
A4
61
64
66
51
A2
6A
86
99
18
A9
A9
55
A5
4A
8A
25
68
9A
59
6A
65
86
59
69
82
5A
19
45
19
02
62
41
A5
59
86
06
92
56
05
95
96
55
66
A8
41
29
9A
49
08
91
04
11
01
A6
90
21
A6
52
26
98
62
58
A4
5A
0A
41
50
54
24
52
25
52
01
94
41
52
98
98
84
16
1A
99
66
49
66
99
62
99
60
AA
22
86
48
A9
41
8A
89
02
18
48
56
59
60
84
A8
68
2A
42
81
42
51
69
16
A5
25
92
15
16
12
59
59
90
96
A9
A6
56
4A
91
90
11
26
56
54
54
2A
29
91
26
90
41
4A
28
A6
94
96
40
89
A2
42
05
28
89
9A
A1
51
85
A6
A2
A4
56
8A
A2
52
0A
06
51
4A
00
51
48
6A
64
98
08
26
59
86
08
A8
A5
51
06
6A
45
20
41
59
68
54
A5
64
A6
41
A2
96
A2
29
55
A1
54
82
A6
62
A9
44
A1
85
44
88
A0
88
82
26
61
41
96
51
25
24
64
25
20
11
45
AA
52
95
62
A5
A5
09
9A
94
56
66
96
2A
18
96
0A
99
A6
A5
92
9A
98
2A
48
45
66
14
82
92
80
24
49
52
22
44
95
48
2A
66
AA
41
45
52
04
66
69
51
94
A9
4A
95
96
9A
8A
25
19
15
62
A0
A6
59
62
11
61
9A
50
4A
8A
99
51
66
58
96
20
1A
A5
A9
A9
5A
2A
22
6A
04
2A
90
21
54
A4
56
AA
41
89
A2
86
85
88
58
61
55
5A
AA
2A
A6
99
69
04
55
08
59
85
54
86
0A
46
99
29
9A
95
91
90
6A
16
05
19
50
60
82
58
19
A6
99
61
A6
91
41
A6
29
A2
81
16
29
52
11
85
16
96
49
89
6A
24
58
68
46
45
66
09
61
00
11
0A
A6
91
19
94
A1
A5
A6
96
AA
82
26
42
29
64
45
4A
21
82
48
04
21
51
A9
26
22
09
56
64
64
1A
51
54
51
90
56
49
04
29
60
92
19
61
69
94
92
65
21
96
26
19
A1
4A
45
98
42
10
A2
A9
9A
81
62
11
20
60
98
A0
2A
20
89
A5
65
68
88
95
5A
25
A6
19
94
A5
62
26
69
48
19
59
48
41
2A
A0
98
A5
10
65
44
98
59
68
52
10
A9
A4
21
26
59
40
A4
A4
99
A9
68
64
99
6A
AA
69
65
42
40
41
5A
6A
68
21
56
65
6A
69
A0
64
25
2A
61
99
41
9A
54
12
99
96
61
52
28
91
51
09
26
96
96
94
22
89
45
22
A6
98
85
A0
4A
9A
65
14
58
12
81
25
98
16
49
A4
92
66
65
A1
26
46
98
91
AA
A9
55
1A
22
41
94
85
59
18
59
92
A6
5A
96
5A
24
A2
08
A1
49
08
22
5A
22
56
81
09
95
58
A5
55
A6
A0
85
8A
6A
0A
59
45
19
12
62
15
1A
99
84
62
65
41
52
28
A8
64
56
09
06
18
AA
1A
51
51
55
A6
49
4A
45
56
29
62
1A
66
65
82
0A
42
A9
94
88
85
91
84
95
14
22
A6
40
28
19
A2
91
A1
A9
82
62
62
A6
24
65
28
20
A2
61
A2
24
26
24
2A
56
98
29
95
96
14
52
A6
A4
24
65
A2
5A
64
66
62
04
66
64
9A
60
41
66
99
69
AA
25
5A
24
94
45
19
64
54
45
55
1A
86
A1
49
58
2A
16
69
2A
98
A6
85
81
14
62
60
95
01
25
25
91
51
98
46
96
55
05
41
6A
89
91
A1
19
18
41
56
81
92
A0
AA
91
99
A2
84
18
6A
95
1A
A4
80
54
8A
42
62
54
8A
2A
49
8A
19
8A
19
16
92
99
69
68
19
66
A1
99
96
44
2A
58
54
A4
46
A1
65
49
01
59
52
A8
9A
59
69
59
50
64
58
AA
52
A2
60
42
68
55
A6
52
02
92
1A
69
A6
95
18
09
58
69
92
21
62
09
55
56
A4
51
95
41
68
6A
2A
91
66
19
55
46
52
A2
A2
56
26
58
61
89
19
AA
4A
02
66
56
9A
6A
1A
8A
29
95
55
6A
01
AA
AA
55
A9
25
14
69
89
26
1A
55
91
65
59
AA
06
65
5A
51
86
61
66
0A
45
88
84
A4
51
A2
22
44
26
59
A6
44
62
55
14
AA
19
46
65
61
26
A6
A9
55
45
68
96
56
96
50
8A
5A
94
88
A5
69
92
00
86
59
45
44
9A
89
A5
15
20
28
69
60
29
A6
90
6A
A5
01
69
29
69
06
A0
16
96
05
52
2A
56
64
2A
56
96
00
9A
A4
20
22
52
55
42
06
95
82
26
55
AA
59
62
41
68
09
66
16
18
69
62
AA
19
A6
19
12
5A
66
88
61
90
69
90
81
61
89
96
04
16
59
25
0A
82
A0
90
52
A2
96
9A
A6
26
86
4A
86
42
48
A9
2A
90
92
A5
A9
29
59
55
98
A6
A5
56
54
14
68
A6
69
A4
96
89
64
4A
6A
44
A5
88
65
89
AA
06
5A
89
50
95
92
26
A5
29
84
25
A5
0A
56
95
4A
A2
56
54
6A
98
22
90
58
89
29
58
6A
49
60
91
98
26
65
5A
92
28
A9
52
58
22
9A
15
64
59
89
12
A9
06
00
12
62
A2
95
A6
22
68
A8
09
52
49
49
85
64
65
86
14
29
66
55
29
64
65
AA
A9
A2
61
45
54
21
86
01
AA
48
85
19
56
AA
9A
82
A8
5A
A6
A5
A2
A9
95
A4
05
A6
85
2A
69
65
65
59
58
50
A1
09
61
21
80
61
9A
91
64
62
84
14
A4
01
A4
0A
A1
5A
44
9A
29
41
60
96
1A
54
41
A1
98
09
A1
58
64
55
95
65
69
94
A6
86
09
A1
62
95
16
52
66
90
69
65
9A
95
16
24
49
92
92
9A
54
90
A6
99
18
61
69
92
99
05
55
5A
16
48
A6
62
04
56
9A
16
A0
96
A6
A4
41
56
60
58
8A
8A
A8
A8
94
85
94
52
69
A4
68
05
56
91
99
82
AA
66
6A
29
99
88
A8
01
98
85
56
A9
64
66
99
62
21
65
55
52
26
10
55
9A
91
25
59
AA
15
54
06
64
40
66
21
96
65
14
85
85
90
29
5A
60
96
58
A8
66
11
02
86
84
88
44
61
49
AA
26
85
51
12
45
91
2A
85
A9
15
56
56
41
01
56
56
54
68
56
A9
25
06
49
92
60
42
40
8A
46
56
26
52
46
A0
10
58
26
A1
66
52
50
69
06
05
02
66
6A
59
66
61
16
29
A4
50
1A
59
9A
08
58
85
89
26
25
4A
58
69
2A
64
65
8A
92
96
40
A8
45
98
A0
95
09
AA
45
A1
58
59
A6
81
55
41
6A
69
08
40
85
65
99
62
A1
98
20
69
4A
59
6A
0A
56
45
51
A8
88
65
10
49
58
45
81
5A
18
60
65
25
51
45
69
9A
9A
06
24
5A
81
A1
88
6A
58
68
A6
A5
45
66
55
A6
88
85
5A
11
9A
05
91
42
94
49
14
0A
A1
A0
21
49
45
96
06
06
51
64
69
21
91
25
15
98
86
56
8A
A5
50
2A
99
21
A5
5A
16
64
06
96
A9
AA
42
56
95
64
0A
05
86
5A
AA
01
A4
12
59
A2
95
85
21
42
58
15
22
46
28
89
A6
85
44
49
51
81
56
89
9A
5A
A1
26
A8
19
40
65
91
12
99
49
A2
94
95
41
6A
69
6A
6A
49
45
00
68
06
68
04
66
2A
2A
45
49
46
94
52
A6
15
09
14
61
00
1A
20
40
48
A8
58
69
1A
81
19
65
56
A2
19
28
0A
66
29
0A
50
65
11
96
49
05
59
95
10
18
A9
A8
19
AA
89
48
85
56
59
65
80
19
25
A4
55
99
20
24
90
62
55
89
88
A8
68
09
65
11
98
90
66
14
A2
64
69
29
94
96
52
59
91
A9
A6
A2
65
96
89
59
48
15
28
69
18
68
90
80
A5
52
68
96
12
8A
64
A5
0A
68
80
61
16
59
2A
58
50
AA
A4
9A
48
55
59
A8
51
9A
61
99
A5
94
99
60
91
99
85
99
42
40
94
44
56
8A
56
A6
85
A6
10
81
56
25
A1
60
0A
4A
89
25
84
46
11
96
A6
51
85
2A
60
54
56
99
09
59
A8
91
A1
85
65
56
06
10
45
61
44
A8
90
55
44
0A
69
55
A1
59
51
61
90
A5
A8
95
08
66
A5
41
21
54
62
85
1A
A1
56
99
22
94
94
20
85
95
81
42
6A
91
A1
86
A5
48
69
94
85
16
A8
55
9A
92
55
55
06
24
0A
88
40
58
91
48
54
86
15
52
89
90
96
85
2A
6A
19
19
98
61
45
42
8A
95
66
49
08
22
12
21
94
48
A4
92
59
99
92
28
88
40
02
A6
69
81
96
92
5A
16
51
50
80
61
84
6A
29
28
55
26
51
89
28
26
8A
66
1A
82
18
AA
92
42
A5
61
61
62
00
A2
25
60
25
55
56
19
55
89
8A
85
69
61
29
5A
05
84
2A
A8
16
92
96
5A
15
49
66
04
2A
69
56
A2
94
11
02
61
81
90
A8
29
1A
10
09
94
0A
19
18
52
84
14
90
81
64
56
50
46
54
42
55
82
51
69
94
96
A5
AA
25
A2
A9
99
11
98
55
21
15
A9
99
55
11
59
25
90
86
22
12
28
A6
85
A6
8A
49
15
9A
2A
52
58
24
19
29
16
56
10
94
06
A5
28
00
A9
16
55
0A
A5
A9
22
A2
11
1A
24
68
81
A9
84
59
5A
