02
09
05
45
88
62
09
92
01
69
69
25
14
08
2A
9A
25
82
A8
A2
45
0A
8A
99
9A
AA
58
A6
92
54
A4
66
98
05
18
24
68
64
89
05
18
82
A4
61
61
66
15
00
41
A1
66
A9
25
06
10
66
A0
2A
04
86
5A
42
22
04
99
AA
0A
19
42
18
92
99
09
1A
2A
5A
69
02
10
88
88
9A
61
26
25
21
16
A5
68
41
99
66
25
00
82
A2
00
65
82
A8
01
16
50
90
A4
80
56
66
29
69
56
55
84
81
26
9A
40
86
18
68
95
45
95
24
49
AA
A9
46
16
41
42
46
01
59
22
AA
04
21
A0
5A
AA
42
09
25
85
95
12
4A
28
56
AA
86
11
55
68
A1
4A
2A
64
49
29
A9
A2
A0
66
24
A9
A6
49
42
84
42
16
49
49
A5
1A
50
51
58
45
29
98
9A
44
51
92
19
96
56
64
A2
5A
20
A4
05
24
54
84
80
58
24
14
80
5A
8A
4A
51
0A
09
58
20
68
56
26
19
80
51
84
44
02
54
04
02
12
26
22
98
40
4A
44
A0
54
61
AA
86
51
82
10
61
51
26
A5
0A
22
00
4A
26
10
26
09
9A
98
A0
60
00
22
40
00
9A
61
40
A0
44
29
99
28
12
94
21
01
A2
28
55
02
40
80
00
82
21
90
15
82
40
12
88
15
00
89
2A
09
81
54
9A
92
86
15
29
81
50
62
41
56
50
6A
16
26
14
A5
14
6A
66
6A
86
60
48
81
96
99
94
59
09
60
86
92
A6
52
A2
55
2A
68
44
98
2A
51
62
95
05
42
95
02
22
95
95
49
16
92
99
A1
29
61
A1
56
18
21
59
A9
10
68
82
98
2A
05
A5
62
19
18
A9
85
A9
29
59
54
A4
4A
52
55
22
26
16
98
92
A1
AA
A1
4A
A4
01
2A
95
50
68
A5
81
AA
20
99
40
16
48
69
51
08
96
85
4A
69
41
4A
0A
8A
61
82
49
04
95
50
08
25
50
A5
85
5A
89
41
18
20
25
0A
40
09
15
A5
09
42
11
A4
41
05
4A
A6
68
42
51
A1
5A
82
0A
A0
5A
01
06
2A
09
98
68
60
9A
02
A5
A0
4A
A0
50
04
A4
80
42
52
09
92
A4
94
85
25
14
66
0A
11
96
06
52
69
24
10
24
84
04
50
A4
A0
94
00
5A
A2
9A
10
62
68
99
10
84
45
40
A6
18
42
A0
25
28
A4
58
A0
26
8A
A4
45
08
09
25
24
A4
84
A0
92
92
5A
A9
40
28
1A
94
90
A0
10
05
41
14
40
1A
4A
04
98
80
85
04
62
04
61
A0
58
21
16
12
85
8A
61
9A
4A
04
91
55
15
AA
A6
58
92
41
A4
55
92
49
6A
69
55
58
85
40
49
A4
04
14
5A
44
81
A4
91
90
A6
48
45
80
59
90
11
88
81
0A
A5
52
41
01
04
58
09
61
40
92
11
40
84
A5
81
81
54
81
92
91
50
12
05
42
80
20
58
5A
A5
98
22
01
5A
01
A6
58
64
85
40
59
62
85
48
50
40
81
92
A4
41
0A
22
A5
80
A0
80
00
08
A6
20
41
92
20
60
06
20
18
5A
60
58
00
25
A2
88
21
94
A1
48
52
02
04
A2
81
0A
46
05
A2
1A
00
89
20
82
8A
48
00
11
81
40
00
81
02
00
12
98
19
06
84
05
81
8A
56
80
41
14
46
01
00
A6
00
48
68
24
46
28
24
04
18
05
12
A5
50
80
58
45
48
9A
64
40
00
4A
A2
00
80
A2
40
22
82
84
42
04
04
00
88
05
09
00
02
40
A0
89
2A
91
11
01
14
51
52
14
04
44
20
56
80
40
42
05
06
81
82
10
00
00
01
20
02
00
00
19
11
00
01
20
02
01
20
11
05
52
90
08
22
61
44
80
81
89
66
49
12
46
A5
59
A8
A6
86
A8
A1
19
89
A8
09
80
10
44
02
0A
01
02
08
14
05
10
10
22
02
02
09
02
55
11
00
01
10
21
02
A4
08
29
02
40
A2
22
01
A6
A5
2A
28
5A
A8
88
8A
A4
46
18
66
A5
46
11
0A
25
50
54
92
68
0A
A1
98
A2
08
06
1A
A5
04
1A
64
16
65
9A
9A
A5
16
64
6A
45
9A
05
55
62
19
11
90
02
80
A6
24
69
95
66
82
A5
6A
65
A5
82
A6
05
01
A5
4A
4A
69
64
62
96
A1
6A
82
65
20
0A
65
58
50
5A
29
22
59
14
68
A0
19
66
44
4A
84
6A
85
25
90
18
41
08
84
19
A1
15
96
6A
6A
56
45
56
A0
21
88
12
91
1A
0A
88
21
56
05
10
4A
5A
AA
99
25
66
A6
A6
21
24
88
88
14
52
24
50
0A
50
A5
05
62
62
44
96
5A
9A
1A
8A
29
A4
15
10
68
51
96
68
A9
24
02
61
5A
1A
62
1A
21
92
20
11
68
5A
28
22
56
05
15
58
29
10
A6
96
45
AA
10
68
21
A9
51
A2
64
46
14
6A
5A
92
45
58
56
82
69
90
A9
65
29
82
51
AA
66
00
81
25
02
08
44
60
22
25
89
81
50
92
A0
4A
59
5A
22
88
AA
50
22
24
52
A8
48
59
15
1A
04
0A
1A
A0
15
62
09
A9
81
52
2A
0A
18
A2
96
A2
05
08
66
96
45
61
84
49
06
59
14
58
22
04
16
82
16
26
49
22
8A
99
00
10
AA
A9
A4
08
A4
99
AA
28
44
A6
51
10
8A
A5
90
55
80
94
1A
A1
44
00
01
59
24
A2
22
29
15
A9
A0
1A
1A
69
89
0A
54
49
21
55
50
A1
42
46
45
51
24
1A
A6
19
4A
6A
49
15
82
86
88
95
A5
49
66
69
99
04
85
91
08
49
64
94
A4
52
6A
81
98
2A
10
2A
A6
12
12
0A
06
26
85
0A
94
21
52
02
A1
02
A1
59
20
60
04
15
85
56
01
45
54
01
82
14
40
54
44
06
AA
99
9A
04
5A
A8
99
A9
61
98
20
56
66
69
85
09
A8
8A
2A
26
92
86
6A
04
08
08
88
25
09
60
50
9A
08
11
82
25
2A
02
40
10
58
66
68
14
51
42
15
06
0A
01
25
2A
95
A6
51
91
60
16
60
64
04
00
98
65
16
62
02
44
80
46
95
29
41
66
90
85
24
05
28
51
98
90
06
00
A0
08
14
64
04
55
41
28
08
21
11
90
29
28
60
86
A2
90
95
24
14
01
50
A5
11
14
55
44
50
24
40
42
62
45
58
06
91
22
28
99
51
48
54
01
49
A4
A1
29
26
88
46
6A
56
24
25
04
20
52
A5
89
82
24
84
4A
19
48
0A
A9
82
50
99
81
21
10
25
81
24
40
48
46
AA
62
41
96
0A
54
56
14
68
98
65
68
92
61
51
54
8A
25
14
14
A6
AA
A6
48
21
44
60
14
0A
4A
84
2A
42
54
21
01
12
A9
99
08
A4
50
86
10
61
26
04
04
84
91
01
28
80
10
40
25
10
A8
A1
66
10
45
98
19
80
94
08
66
90
00
41
55
24
2A
54
41
A0
6A
91
94
49
51
40
09
94
52
08
80
90
1A
54
18
40
02
66
61
04
80
12
01
00
58
00
00
05
01
00
10
62
2A
65
85
12
68
46
18
10
52
01
A4
85
94
98
51
60
2A
68
18
10
81
8A
90
60
5A
49
94
00
46
58
92
11
6A
60
96
24
66
92
94
08
96
69
58
99
10
02
82
95
65
29
41
2A
69
16
6A
51
4A
15
65
09
02
44
45
44
41
A2
5A
10
AA
6A
98
A6
4A
96
90
60
84
65
42
41
61
88
A2
95
99
6A
98
40
28
91
20
66
52
64
59
A9
11
59
49
2A
58
88
22
0A
56
50
19
45
66
16
05
65
92
22
56
86
60
91
64
56
A4
29
94
49
09
A8
45
99
28
18
12
98
82
91
22
66
A1
25
60
60
42
25
66
86
60
A0
89
A9
5A
22
21
2A
61
09
62
69
A9
85
89
56
56
2A
95
5A
68
91
80
A1
6A
44
69
69
91
80
60
20
82
16
A9
80
25
64
45
AA
40
56
AA
15
6A
55
1A
89
4A
A8
09
2A
A9
55
20
98
06
6A
86
56
56
A6
56
01
08
AA
29
16
69
61
95
98
59
0A
A9
02
24
65
00
98
81
00
98
40
09
69
82
10
06
89
48
06
84
00
29
80
44
19
21
10
92
90
04
2A
52
90
80
82
85
20
1A
90
00
11
4A
18
02
61
19
AA
28
19
21
98
60
A8
94
40
90
96
40
51
49
82
0A
01
2A
50
29
14
60
A0
20
25
61
08
10
08
10
92
40
12
08
08
49
21
05
06
62
60
00
91
A2
64
26
11
A0
92
00
64
00
10
59
64
6A
99
84
69
42
61
62
51
1A
12
2A
68
90
18
04
15
12
29
A8
20
81
5A
A8
14
90
25
88
55
59
29
0A
40
9A
80
65
95
4A
A4
06
40
66
66
11
A0
40
42
96
94
99
95
54
5A
40
A5
A0
40
A5
94
41
88
16
59
89
44
2A
9A
92
A9
89
96
55
28
A1
98
61
02
1A
60
62
61
09
91
10
88
91
9A
A5
25
9A
AA
82
9A
26
91
26
81
96
62
02
4A
54
4A
06
5A
26
40
5A
5A
04
28
99
65
80
06
28
09
14
9A
09
49
00
99
24
84
14
22
14
01
A5
09
91
68
64
80
88
15
2A
08
64
44
68
0A
98
09
85
1A
40
90
02
24
45
18
19
04
42
A6
68
02
24
02
88
88
20
0A
A6
09
15
60
44
A0
49
0A
90
22
54
AA
69
9A
A6
50
28
65
96
28
29
61
42
A4
18
04
41
0A
01
59
02
20
08
95
14
01
08
24
88
2A
15
84
0A
51
68
11
46
92
A2
16
18
51
26
8A
54
28
65
98
0A
94
51
51
29
41
10
85
05
66
82
58
96
59
12
2A
49
52
20
46
18
48
40
44
12
86
A4
10
01
94
94
11
46
11
04
11
51
80
89
94
98
90
2A
8A
86
15
65
68
41
80
00
19
A5
16
15
59
02
A9
4A
82
60
88
55
50
06
54
40
65
81
04
A1
85
A4
29
21
90
56
1A
0A
49
14
08
0A
80
21
62
29
08
65
12
98
45
A2
84
44
50
91
44
41
46
20
5A
19
88
62
22
01
16
96
26
04
A0
44
81
81
50
46
0A
64
80
40
28
21
1A
A5
16
9A
56
24
41
01
A5
50
54
01
40
1A
95
40
29
09
80
20
49
18
20
20
40
12
59
A0
09
81
40
91
5A
68
56
04
42
00
21
09
24
00
41
80
40
40
09
88
46
02
21
21
20
20
84
04
20
92
81
40
60
40
A6
09
92
28
08
56
4A
A8
82
48
12
9A
6A
01
09
A9
40
66
14
01
A0
98
06
24
90
69
90
01
45
90
96
22
18
98
50
02
21
26
28
59
29
28
82
4A
2A
66
80
82
04
18
82
A4
22
81
10
55
0A
01
40
A0
98
1A
40
00
00
60
08
64
90
81
10
29
01
10
00
60
00
00
80
20
20
08
19
08
42
00
04
02
40
00
00
01
50
44
50
11
55
91
A0
82
A9
54
44
95
28
06
A0
4A
54
14
58
51
19
26
84
80
44
02
44
00
80
A8
90
24
02
00
00
00
0A
01
04
20
00
90
02
00
42
14
24
00
40
22
80
50
81
52
82
A0
68
62
04
51
51
A2
15
94
A6
44
A2
41
6A
60
51
45
A8
84
56
05
24
8A
95
41
12
58
89
5A
26
85
09
41
51
62
2A
92
1A
90
29
AA
4A
A6
52
41
14
40
96
A2
A2
A9
21
96
89
0A
A1
18
54
11
59
24
44
65
96
80
5A
88
41
91
98
62
91
28
22
A5
52
2A
A4
65
48
96
51
05
20
91
62
25
19
A6
A8
11
20
40
AA
98
92
1A
A4
A8
8A
88
86
46
58
60
A0
59
64
21
89
64
82
9A
61
20
12
41
2A
92
14
0A
24
A0
61
89
1A
A6
1A
82
96
25
09
A8
51
14
9A
40
86
92
26
86
48
60
14
05
11
2A
9A
45
0A
09
29
09
94
A4
2A
00
5A
92
5A
29
81
A0
85
A6
80
18
24
A8
41
84
8A
5A
65
98
11
15
90
44
A2
5A
A9
16
11
58
16
50
41
90
A1
A1
54
49
54
A8
02
15
14
68
68
55
1A
58
A9
48
46
45
28
2A
2A
11
26
42
65
62
02
61
24
A4
4A
40
08
00
61
00
41
49
41
80
64
92
09
65
11
26
98
68
21
54
A8
14
15
65
90
14
04
92
A1
A1
19
A8
26
65
95
94
9A
56
14
92
44
92
82
48
0A
82
14
89
91
10
18
21
21
A8
15
08
64
29
59
50
18
18
58
58
45
18
86
21
21
80
12
56
68
26
8A
45
A9
9A
10
16
5A
14
60
05
61
68
00
56
92
18
26
20
58
58
98
46
49
10
16
A6
98
5A
99
16
AA
10
66
86
85
96
11
59
A5
51
55
60
84
85
69
69
90
94
91
55
59
A8
85
80
00
64
0A
94
15
94
29
86
06
80
69
0A
08
62
88
10
19
82
12
86
42
1A
98
84
50
14
A4
55
A1
9A
A0
29
8A
91
A2
56
91
94
54
82
18
91
88
09
49
59
05
81
96
99
45
14
65
8A
24
92
92
62
01
61
22
AA
60
48
90
01
11
20
40
26
90
11
69
05
22
84
20
85
04
45
12
68
1A
28
9A
0A
10
18
50
A4
65
88
68
58
51
91
45
19
6A
51
A5
86
24
98
82
62
24
59
92
9A
91
95
18
5A
09
21
18
01
21
61
40
64
69
46
01
18
A2
A5
44
60
98
90
4A
16
61
6A
42
60
94
58
80
64
0A
91
94
01
55
A8
16
49
22
62
A9
94
A1
22
04
61
A8
42
86
81
88
58
24
1A
A8
44
26
55
99
14
40
99
91
29
89
55
AA
58
2A
45
84
22
66
44
14
68
2A
80
99
26
12
58
42
95
02
90
08
18
28
28
28
06
08
28
88
4A
52
29
94
64
02
96
A8
A8
5A
64
42
11
42
94
58
46
91
61
64
2A
56
01
68
94
21
11
18
24
98
92
66
92
A0
06
A5
68
A1
AA
42
62
00
15
02
12
92
A0
0A
01
84
0A
00
1A
20
51
6A
00
15
11
60
12
82
20
20
04
69
62
2A
8A
0A
A2
84
14
44
84
96
12
64
84
19
69
A8
28
28
98
A1
65
09
80
04
48
15
55
50
01
95
00
01
88
15
00
4A
0A
12
91
42
A6
80
10
85
A2
21
20
14
26
02
18
60
00
54
A0
66
22
29
22
09
44
62
21
18
01
22
80
9A
A5
19
56
A1
02
52
29
01
29
21
01
98
08
16
10
A9
A4
98
05
11
29
88
A2
05
49
6A
86
10
A2
28
19
62
A1
A6
29
94
6A
4A
89
11
84
65
55
58
52
51
90
AA
65
26
96
A8
59
88
88
18
81
55
88
99
15
08
46
8A
91
45
08
28
25
A6
A2
40
16
A0
12
99
46
20
51
55
12
82
89
A8
68
5A
81
00
A6
86
6A
19
58
44
A8
A8
4A
12
98
A8
64
25
48
55
68
45
A6
58
46
82
81
8A
50
45
69
2A
05
12
98
02
59
12
29
54
69
5A
21
98
A8
A2
8A
86
55
16
92
A5
42
69
51
56
51
84
A6
A1
05
86
28
45
52
16
52
60
44
4A
AA
19
99
05
96
68
44
2A
15
50
A6
28
2A
55
20
69
A6
86
21
61
51
65
6A
59
22
98
A9
5A
62
98
45
60
A4
05
88
A5
A1
5A
6A
99
85
98
08
40
16
14
01
08
86
54
50
05
50
80
10
2A
28
A0
24
A1
52
89
50
12
51
AA
02
0A
16
06
21
06
0A
22
64
02
46
65
52
0A
60
A1
80
00
88
51
94
16
14
95
10
A1
25
22
22
88
44
40
40
10
12
2A
84
A0
18
8A
2A
60
00
01
11
80
A5
44
85
94
81
22
25
56
A2
48
12
22
98
10
0A
55
AA
92
52
10
68
28
05
80
22
14
14
98
91
54
94
62
92
40
46
A9
15
51
86
6A
96
05
24
66
99
A1
A4
94
25
A0
90
29
A0
64
81
AA
24
8A
25
1A
A6
86
98
59
2A
42
66
54
68
08
82
6A
9A
80
40
14
64
90
8A
96
12
2A
45
4A
58
55
29
55
29
A9
82
4A
96
15
85
01
68
16
86
46
15
54
65
6A
A1
A4
60
6A
51
68
20
A6
92
8A
69
61
89
65
62
85
A9
64
10
40
45
82
26
90
89
14
9A
A1
69
51
82
25
46
A0
49
04
24
08
A5
20
8A
80
24
44
18
A0
50
A9
A9
08
08
6A
49
08
96
95
42
09
50
84
52
04
88
66
82
81
10
80
00
51
02
80
18
46
A2
12
41
95
11
11
85
4A
49
41
19
AA
19
24
42
28
A0
00
54
41
49
89
44
40
90
09
A4
49
2A
8A
28
5A
96
06
50
52
85
0A
09
25
10
44
02
65
52
02
05
60
56
50
40
16
28
64
44
82
A0
4A
68
40
41
12
00
01
62
59
96
21
85
80
81
94
05
91
A6
95
A6
15
11
A1
69
50
62
10
4A
A4
04
25
51
26
5A
24
29
52
54
0A
06
09
A0
51
A5
21
82
02
81
54
21
42
54
00
64
81
09
86
19
28
60
A4
62
9A
98
24
91
95
68
0A
69
01
09
96
86
60
55
4A
18
18
8A
50
09
00
45
62
41
00
A1
A0
16
82
92
00
09
48
12
6A
11
45
01
10
01
A0
A0
10
11
00
41
55
0A
25
40
8A
0A
08
84
89
21
40
01
91
40
AA
86
41
98
98
48
52
45
98
0A
82
AA
A8
96
09
64
29
54
02
80
20
44
40
10
00
68
1A
66
55
A1
82
14
A4
11
10
40
40
00
92
A2
10
59
04
42
41
20
88
00
94
10
80
1A
58
A4
86
25
86
05
68
01
2A
60
90
10
28
14
21
42
61
06
22
01
51
82
19
90
24
61
A1
40
58
81
05
82
80
05
24
81
9A
10
64
25
21
04
02
01
11
06
59
50
40
0A
14
94
02
14
12
50
50
56
02
00
06
12
50
5A
40
AA
01
92
05
11
91
A9
19
90
21
00
19
80
45
00
86
06
15
41
90
00
6A
A5
4A
15
62
0A
80
00
02
18
02
12
11
10
00
00
45
05
00
08
20
00
44
01
00
90
00
02
00
90
11
46
50
08
80
14
10
48
19
19
1A
09
A0
59
64
68
84
24
15
4A
69
51
51
56
20
2A
68
04
00
00
50
10
01
40
02
42
80
01
00
05
00
10
10
40
05
00
01
10
08
21
00
28
80
20
04
48
04
14
A4
A6
11
50
50
A0
59
04
A4
58
29
54
26
2A
90
18
54
0A
26
19
A5
A0
06
12
14
29
41
09
A6
65
56
58
A6
A9
66
89
96
1A
58
5A
15
06
A1
69
29
46
69
96
18
14
00
95
89
95
55
16
9A
64
A5
06
19
69
2A
48
16
AA
AA
86
55
54
20
21
19
01
89
49
42
06
86
86
24
22
65
55
26
56
4A
28
44
68
52
4A
A4
98
46
41
1A
90
59
48
86
0A
46
48
59
A0
94
1A
15
A6
A6
54
A1
2A
94
2A
66
95
90
68
60
11
90
50
A0
60
86
A6
04
81
A2
00
52
A4
54
94
A5
88
A0
19
08
58
56
A9
40
56
05
09
95
69
11
14
28
24
8A
24
44
A2
09
05
46
45
54
4A
14
62
00
08
24
10
A1
00
19
46
29
94
54
A9
88
A2
A6
28
10
09
25
25
15
09
29
24
68
25
96
00
10
46
91
02
52
19
09
60
16
09
11
60
46
89
41
96
19
08
69
68
15
00
2A
19
58
40
02
A4
68
46
26
1A
60
26
04
60
48
A8
88
5A
62
49
85
90
44
56
44
18
80
A1
48
80
82
0A
84
41
55
84
95
12
A1
98
A1
15
11
91
20
98
91
80
88
81
25
45
59
42
08
61
45
81
99
69
42
84
0A
49
59
50
1A
51
42
96
49
A6
42
20
49
50
50
6A
24
A5
46
8A
5A
4A
A0
AA
11
80
A0
52
44
24
08
A2
58
46
05
16
11
82
18
84
58
82
59
25
15
69
95
46
24
A6
06
A5
88
50
16
18
02
66
21
44
69
49
96
59
49
86
5A
A5
55
AA
21
88
66
16
85
A2
28
55
01
54
95
A8
15
91
81
12
86
52
1A
99
62
80
65
00
9A
64
5A
96
55
84
9A
80
62
69
16
50
08
65
A8
49
04
18
66
A2
56
24
50
24
09
98
65
65
8A
52
50
A2
20
08
A0
05
A8
64
98
45
62
98
44
29
40
58
6A
A0
66
25
08
28
54
05
28
96
86
42
60
94
60
84
00
56
52
11
01
89
8A
09
24
86
28
98
A6
99
96
02
00
A5
91
00
05
20
00
50
90
19
98
A4
48
54
10
01
44
61
24
54
15
14
56
48
85
4A
62
80
05
26
24
28
05
50
A0
91
46
20
92
92
AA
2A
80
52
64
9A
11
68
A2
28
04
88
5A
9A
92
16
68
49
1A
1A
58
A9
85
19
10
0A
10
25
55
99
80
A0
05
01
64
91
1A
50
98
A8
1A
95
60
05
0A
41
6A
10
95
A8
64
81
60
9A
91
16
14
01
15
A6
01
66
90
56
50
02
80
24
40
28
4A
42
81
85
10
61
19
48
91
98
41
20
96
99
15
6A
54
5A
8A
A9
8A
5A
21
42
22
58
00
99
A5
24
56
99
99
28
2A
04
28
40
00
01
42
94
29
6A
28
04
40
62
41
90
04
28
88
10
11
80
60
20
69
15
54
12
46
88
11
99
00
65
26
A6
58
62
06
11
52
81
44
8A
68
29
12
20
A1
80
00
22
00
14
11
65
05
00
81
20
82
42
90
04
41
05
21
11
04
24
42
08
46
92
8A
26
11
66
21
18
08
06
21
58
68
12
42
14
98
8A
08
81
A8
26
99
81
59
62
10
10
99
80
95
52
0A
46
49
84
16
81
52
65
19
42
0A
58
49
88
85
80
51
6A
A9
A8
A9
62
40
96
62
20
91
92
26
16
52
51
64
2A
19
20
85
24
AA
19
66
81
46
60
A4
A1
95
24
A1
00
02
91
22
19
1A
58
50
11
86
19
5A
99
48
14
0A
41
99
95
A9
46
68
04
9A
68
68
24
66
59
62
59
54
81
95
20
08
65
18
AA
06
59
66
28
12
56
46
58
A0
4A
02
95
96
24
AA
21
68
2A
A5
46
59
06
05
45
68
46
42
A5
5A
55
6A
0A
0A
5A
88
62
55
21
51
54
92
54
8A
A5
85
5A
80
46
55
58
8A
10
A4
94
A2
6A
68
99
91
16
98
A2
4A
25
A1
94
84
88
52
19
AA
84
62
A5
82
A1
95
14
18
AA
2A
1A
6A
15
44
99
94
56
26
60
19
A5
A2
44
09
82
48
4A
05
65
81
04
91
00
20
48
28
6A
20
54
48
51
21
04
80
52
99
04
11
49
05
66
02
04
42
04
04
84
20
A0
24
95
15
81
04
65
90
22
61
18
21
11
82
4A
91
60
18
84
A8
12
66
11
42
08
99
55
08
14
28
44
4A
21
91
81
90
60
18
41
05
6A
84
6A
58
4A
60
80
16
A9
00
06
64
81
98
81
06
14
96
55
00
65
20
62
81
A8
84
4A
5A
49
44
46
85
09
48
05
4A
99
4A
66
15
89
48
65
05
46
64
54
A8
94
28
96
19
26
A5
11
46
08
29
06
81
4A
86
15
59
99
09
49
22
2A
55
62
66
10
6A
81
94
2A
44
45
A2
55
24
A2
0A
20
A9
29
99
25
60
96
51
62
65
85
08
58
94
59
6A
5A
50
51
61
62
41
49
41
2A
25
61
46
52
61
98
55
96
09
A1
A0
68
64
28
58
80
80
69
6A
65
00
9A
91
52
4A
6A
1A
60
0A
00
92
89
02
96
6A
21
A0
46
44
22
21
48
68
12
44
58
80
95
89
81
54
69
84
41
A8
56
86
68
88
15
50
A5
00
42
A5
05
A2
85
56
80
68
14
88
2A
86
81
02
40
61
50
2A
92
16
94
26
98
61
10
A8
96
82
22
A0
21
09
90
42
AA
15
92
6A
86
84
06
92
90
50
60
55
66
62
8A
20
A5
02
86
02
58
84
02
61
85
46
21
61
08
82
A6
40
4A
AA
04
AA
55
A4
A1
29
14
51
A4
84
69
54
A9
50
84
85
A5
56
92
96
A9
55
08
20
05
96
62
9A
80
A1
09
02
05
11
98
98
14
10
02
40
15
59
82
2A
18
06
19
A5
A2
58
05
62
24
99
11
60
48
14
56
69
04
18
86
04
99
64
22
55
AA
42
55
10
22
11
54
6A
82
24
6A
A1
84
A5
AA
00
86
21
55
92
A4
88
28
00
0A
56
AA
81
25
46
04
85
A9
69
24
54
88
4A
82
24
A5
10
08
00
88
58
20
86
82
4A
52
20
45
56
08
42
44
85
54
00
05
0A
A5
95
61
25
50
42
45
44
22
AA
45
46
89
A9
11
24
4A
14
06
4A
04
95
82
55
11
10
2A
14
45
69
54
45
1A
90
41
85
46
5A
AA
05
95
45
85
50
58
41
5A
01
82
11
44
15
82
10
55
A4
91
22
29
26
89
40
98
91
82
14
10
01
10
80
22
40
41
29
21
40
45
4A
02
60
91
99
04
A2
11
64
0A
02
90
20
81
42
0A
08
01
48
8A
41
50
00
41
20
4A
0A
05
80
40
01
91
A8
80
A2
09
20
85
44
4A
89
00
40
60
02
41
66
4A
12
86
40
08
84
42
88
6A
01
68
6A
1A
08
01
08
10
00
42
00
00
90
10
80
14
42
00
40
0A
00
20
80
04
40
82
46
04
09
20
51
10
84
85
59
62
98
10
81
62
09
91
91
80
82
66
24
59
04
51
80
00
00
00
21
80
00
02
08
02
00
09
02
00
94
00
00
86
00
01
A4
40
11
50
98
66
88
AA
28
A0
18
25
91
A2
21
66
02
20
22
90
19
66
68
44
99
80
A9
44
42
10
1A
45
86
A1
91
18
44
A0
16
89
16
19
96
58
66
28
2A
80
94
66
8A
06
54
96
51
46
81
28
A9
94
48
A1
A5
41
58
16
81
66
66
94
45
AA
A9
52
42
15
4A
89
50
14
64
14
16
A0
6A
51
52
A6
12
64
51
98
95
98
62
89
90
89
08
A1
68
41
85
2A
68
15
52
44
66
55
64
65
44
68
4A
61
80
55
14
99
69
66
2A
92
46
91
80
12
40
51
80
12
08
61
99
1A
9A
02
10
AA
52
08
44
15
06
A5
91
A6
95
2A
99
62
95
98
12
6A
15
4A
11
08
84
15
82
98
62
A6
91
81
98
41
55
4A
59
91
26
68
4A
09
62
41
28
15
26
4A
50
58
82
00
46
94
48
89
48
92
45
15
61
26
26
19
A1
19
66
1A
81
51
56
56
16
2A
95
AA
66
66
99
81
05
68
14
20
00
11
46
12
01
55
16
28
59
02
22
88
A6
89
80
A4
08
20
99
61
42
A1
98
08
99
21
94
40
49
24
81
98
95
98
94
98
85
12
12
19
61
54
19
19
49
20
41
10
62
28
84
60
88
20
01
24
46
85
22
15
10
54
02
05
8A
A6
61
A2
01
A1
89
25
4A
26
28
52
65
89
44
60
A6
51
24
85
05
A9
49
20
12
52
10
46
02
A9
88
19
54
49
60
82
22
62
48
AA
99
89
60
48
21
99
2A
95
68
48
24
1A
94
55
92
05
54
64
4A
58
94
29
55
15
11
65
68
85
98
91
85
2A
94
92
95
14
85
6A
22
59
55
2A
19
46
01
81
4A
46
A1
22
9A
1A
12
24
89
52
28
60
12
11
51
89
A9
A0
65
89
AA
AA
55
96
92
99
89
59
96
95
64
29
A4
95
88
84
52
26
1A
15
10
65
A1
60
64
A5
26
29
94
1A
14
08
21
68
62
4A
22
66
6A
25
91
00
84
48
15
45
10
05
64
5A
95
52
00
28
68
86
48
06
25
91
20
04
A9
66
6A
02
06
9A
91
86
01
AA
1A
46
18
61
18
91
2A
29
AA
A1
0A
22
21
44
29
04
56
59
48
04
00
48
21
2A
12
09
88
81
9A
85
A2
54
01
04
98
66
20
69
21
59
91
85
94
46
6A
24
48
42
26
56
88
61
94
62
42
1A
68
26
90
26
99
A9
09
94
96
94
24
62
82
61
46
89
9A
92
12
99
04
94
62
45
05
56
8A
26
A5
06
85
09
29
1A
18
69
42
60
46
46
56
40
A1
24
A2
05
60
69
11
86
18
48
22
A0
12
90
66
68
91
51
61
04
18
26
18
58
6A
00
81
9A
96
55
88
A0
21
89
94
86
68
65
92
52
25
00
61
18
24
01
1A
41
62
82
A4
65
94
16
28
0A
00
04
68
A0
44
61
11
22
44
A0
64
06
AA
00
60
96
42
42
60
91
28
10
1A
80
05
92
80
02
5A
AA
90
02
09
69
60
80
96
90
02
02
20
20
80
10
2A
14
64
60
80
94
00
08
11
9A
60
96
60
40
4A
84
01
00
58
61
51
99
40
60
82
00
94
60
48
86
18
12
92
08
02
26
98
28
84
20
A9
81
00
81
A4
55
24
22
A0
19
40
08
60
62
59
18
54
01
60
64
12
5A
41
69
04
41
64
95
40
92
A1
A2
54
A0
A1
59
29
54
54
61
49
21
80
25
91
08
04
48
26
58
56
8A
42
29
22
65
15
A2
11
01
21
26
56
96
61
25
29
10
5A
29
66
55
99
0A
89
89
59
06
42
94
A9
66
89
69
61
15
A5
94
89
26
62
82
A4
08
25
84
82
A9
8A
21
0A
24
51
4A
10
AA
A1
14
1A
02
11
14
9A
05
4A
5A
AA
21
59
24
A5
68
81
89
92
96
69
05
4A
A5
82
98
49
A9
A9
61
22
4A
1A
49
96
66
A4
18
94
94
8A
02
50
86
64
44
89
26
05
90
51
15
15
29
92
56
59
69
65
50
44
A9
96
61
29
59
60
0A
A4
45
2A
65
41
88
8A
4A
98
06
14
95
11
19
46
12
25
64
24
21
92
A6
6A
98
00
01
A9
41
0A
21
84
94
52
51
A6
01
0A
60
02
45
1A
64
48
22
41
26
A8
19
89
59
05
80
99
91
85
99
66
56
A1
6A
50
A1
06
9A
A0
A5
05
40
52
18
60
11
49
91
2A
02
0A
15
48
25
22
51
A2
02
05
29
A6
18
15
22
40
81
10
08
A4
42
A9
10
05
15
49
80
A0
18
25
99
6A
90
11
01
91
96
11
29
14
A1
09
48
56
55
01
65
96
02
86
55
15
95
16
00
0A
A6
96
6A
20
69
64
5A
A2
95
26
A5
96
82
96
AA
A1
96
45
98
9A
85
0A
04
09
A1
16
15
49
09
64
58
04
4A
40
6A
90
52
80
92
2A
95
68
A6
96
00
91
52
49
89
99
52
5A
62
45
85
A5
89
58
60
98
98
A4
18
06
A9
80
04
96
09
29
94
A0
49
A2
64
92
2A
49
44
00
1A
44
01
09
40
01
06
49
51
21
11
5A
A9
10
82
40
16
41
0A
16
82
91
69
15
A0
52
54
16
4A
01
64
88
90
84
02
25
02
48
AA
A0
16
98
11
49
A0
80
A8
41
82
41
40
92
85
00
A8
28
00
59
00
8A
A4
69
22
44
85
98
20
81
55
56
61
65
55
AA
16
11
54
65
8A
14
A5
69
68
02
89
AA
1A
99
81
A6
A5
0A
48
40
80
60
94
88
84
89
69
46
99
10
19
21
46
88
92
06
8A
A5
09
2A
12
52
0A
00
84
81
26
01
18
A9
41
55
65
10
6A
19
09
4A
58
A2
99
92
9A
1A
66
65
64
98
88
10
80
09
60
A1
42
04
12
28
01
65
98
58
96
80
62
44
8A
56
9A
6A
A0
90
89
48
62
8A
89
98
21
64
A9
A4
15
58
88
64
9A
28
51
0A
84
41
AA
25
20
60
20
65
65
0A
90
06
12
64
4A
9A
11
8A
6A
80
81
48
22
9A
82
00
62
29
00
84
56
A4
24
80
88
85
41
10
48
1A
59
60
08
04
59
18
11
85
4A
29
08
21
00
10
21
8A
10
20
69
86
55
14
20
48
80
00
95
44
52
60
28
0A
04
10
6A
61
02
28
40
4A
48
51
68
61
20
65
69
84
86
0A
25
18
82
05
00
A4
58
95
85
88
41
44
9A
08
08
28
8A
A5
21
61
05
48
4A
61
09
00
69
41
05
18
82
02
65
0A
06
49
10
88
54
18
40
01
04
25
95
24
25
24
1A
94
69
04
96
08
20
29
69
42
86
24
11
00
A1
22
A9
98
2A
02
18
45
85
29
41
10
58
25
48
A6
60
00
02
A1
62
82
92
92
02
AA
1A
18
40
02
48
50
2A
84
A5
0A
05
04
91
14
94
00
81
10
61
40
62
04
40
00
02
09
00
48
00
84
00
00
28
00
02
00
02
00
01
65
10
05
40
00
00
9A
19
80
06
11
69
24
25
00
08
42
A2
25
91
84
05
95
88
41
48
09
18
86
2A
01
40
01
90
90
18
28
08
00
00
00
29
88
00
00
01
00
08
24
04
00
48
62
44
10
95
88
95
28
00
28
94
45
5A
95
29
6A
88
5A
05
02
8A
16
24
01
64
48
01
99
20
61
52
96
59
45
65
AA
A5
69
55
4A
05
65
56
AA
21
A6
89
42
98
95
16
18
85
A6
61
5A
05
91
12
92
46
80
01
A2
96
A5
4A
66
15
52
58
AA
21
20
A4
8A
51
29
A2
58
94
26
84
46
48
62
89
0A
98
45
0A
95
14
85
52
A4
4A
A9
44
05
1A
04
9A
54
24
61
58
A6
21
56
59
85
5A
21
A5
4A
26
A9
69
2A
66
AA
59
26
46
2A
A6
06
69
A5
14
41
98
99
54
A4
86
A5
91
A5
A8
06
12
54
66
69
A1
58
A0
50
19
40
95
40
65
65
08
A8
9A
5A
08
95
55
61
21
98
0A
49
16
1A
06
88
59
44
A0
A2
8A
05
5A
28
A0
90
40
06
96
10
50
85
6A
20
8A
18
8A
96
91
66
00
98
96
A9
29
08
08
0A
06
49
18
65
96
29
A8
28
61
A2
1A
9A
25
21
08
22
81
09
41
04
0A
02
29
46
00
20
20
80
91
82
89
59
96
44
96
86
9A
4A
46
20
89
05
06
82
95
28
92
94
68
61
10
64
21
64
28
9A
56
05
A6
82
82
A9
42
10
21
81
16
21
40
94
91
81
0A
29
02
92
45
AA
04
15
61
48
01
9A
16
A0
52
65
29
80
99
64
19
64
54
41
86
A8
65
12
64
2A
92
01
86
89
41
96
59
50
04
88
A9
20
94
19
80
A0
5A
84
62
09
44
85
1A
45
96
15
18
86
65
48
29
28
91
69
89
4A
A8
00
9A
28
18
80
25
50
99
61
A2
56
52
92
0A
20
01
88
09
49
A0
85
89
05
09
4A
45
82
66
49
A5
46
15
42
21
56
2A
A6
1A
8A
44
42
9A
18
A6
15
58
89
58
25
08
42
82
92
46
A2
99
19
15
48
12
25
25
84
1A
16
5A
29
44
06
04
A4
4A
00
02
51
06
89
95
64
1A
80
58
49
65
64
85
86
02
95
15
49
40
60
82
62
55
08
58
20
90
91
6A
88
6A
45
19
8A
55
A2
89
A8
AA
81
59
02
01
10
14
05
08
19
4A
10
40
58
09
80
9A
18
26
96
80
84
4A
06
90
98
42
80
15
60
51
A8
8A
66
02
92
86
A0
50
5A
25
58
91
85
A6
18
51
2A
01
2A
60
21
60
68
A5
40
60
A4
08
24
24
60
41
94
1A
6A
06
82
80
01
90
50
05
69
96
25
6A
66
66
41
8A
98
02
40
6A
12
80
08
51
44
09
A4
04
A6
A1
92
85
A1
85
40
49
26
A1
29
59
12
54
11
62
98
AA
10
24
A9
25
54
A1
51
82
56
08
42
12
88
80
61
41
1A
0A
90
04
25
69
10
88
1A
5A
A2
22
A6
80
A0
64
15
25
60
24
40
02
29
80
12
81
88
12
A8
45
01
40
22
1A
24
00
48
50
A4
20
04
00
10
58
98
66
49
08
15
2A
14
46
A4
40
08
50
90
98
11
A0
A4
66
14
51
80
5A
50
10
20
20
02
40
10
12
20
80
A0
05
00
10
08
41
10
02
81
00
80
61
61
04
00
00
51
52
50
98
A0
8A
91
14
86
24
56
02
49
81
55
92
92
21
46
86
2A
8A
41
A6
4A
10
00
86
95
12
82
64
11
60
25
24
50
95
1A
A1
82
56
4A
96
68
08
29
28
66
52
A4
A5
09
96
21
62
89
94
86
45
26
68
5A
66
49
AA
61
A6
18
AA
A0
44
2A
45
49
29
14
8A
14
AA
96
52
61
55
69
A8
64
40
14
95
02
49
24
56
58
68
48
8A
25
9A
85
69
65
50
A4
88
9A
88
61
9A
A9
06
0A
02
A4
09
68
14
55
2A
99
56
46
94
44
A4
66
1A
84
AA
95
94
11
1A
08
18
58
A1
55
6A
20
54
59
45
A2
48
1A
89
25
95
A0
A9
68
A1
29
A8
52
16
69
95
48
AA
60
A4
A5
9A
64
94
91
20
52
54
20
4A
45
06
66
11
80
55
AA
82
42
6A
9A
85
69
46
68
06
4A
94
94
A4
68
61
52
A5
1A
A5
08
66
48
42
29
91
45
51
64
68
A5
A1
09
6A
46
01
26
26
09
02
00
A0
5A
88
A2
60
A0
22
40
55
49
44
00
90
A8
85
10
A2
50
01
19
A6
02
02
A9
24
26
4A
0A
1A
00
16
86
0A
22
20
A9
80
A1
58
21
09
40
A2
84
26
48
88
59
80
02
41
2A
61
55
04
59
92
51
84
40
46
40
18
46
09
80
98
22
85
14
28
A2
49
84
50
20
00
02
48
4A
54
19
01
92
56
18
86
A1
22
85
12
68
05
11
01
68
2A
59
49
85
89
99
86
28
25
A6
69
04
44
92
A1
1A
6A
64
84
94
A5
68
46
25
82
50
91
6A
84
16
64
58
96
66
89
A1
86
89
A0
62
50
85
11
68
22
56
44
60
9A
AA
54
5A
55
10
54
46
41
44
92
10
42
5A
94
59
42
95
42
44
A9
80
45
55
02
80
2A
98
56
9A
A1
58
01
65
99
6A
02
15
6A
59
60
59
55
29
42
04
11
04
05
20
58
60
92
10
98
18
A2
49
06
20
00
A9
92
18
89
A2
85
04
10
8A
25
0A
88
82
4A
0A
29
02
62
09
55
98
42
55
A5
55
64
80
48
09
82
A9
94
A0
98
A2
2A
52
94
A5
40
20
88
12
99
44
0A
65
42
12
96
08
24
80
A0
98
55
A0
09
85
81
90
59
89
01
84
A2
05
21
62
51
8A
49
A9
0A
92
05
21
80
11
06
10
1A
02
8A
2A
64
80
21
08
88
24
01
22
04
24
A0
86
29
02
48
55
09
68
48
02
28
80
9A
A9
90
1A
51
56
18
85
88
21
95
94
80
A1
64
92
84
25
51
A8
A2
20
A4
86
58
26
08
56
95
04
21
44
49
41
00
85
61
20
15
01
08
64
06
A1
04
A1
48
46
20
50
86
08
A8
A4
06
08
06
54
61
9A
54
09
A9
52
A8
06
12
82
56
02
8A
0A
81
06
85
82
01
05
1A
80
02
45
42
19
85
50
05
01
5A
00
62
95
12
40
88
41
88
A8
A2
8A
02
4A
92
19
A5
42
64
08
A6
66
08
52
A1
5A
16
01
0A
16
A4
1A
88
0A
0A
26
22
64
42
26
82
05
A1
11
05
22
09
22
40
85
61
41
51
8A
19
69
14
26
80
05
80
06
1A
A0
26
41
40
25
80
50
10
20
60
42
94
4A
21
24
05
90
00
4A
00
00
62
82
90
00
15
80
02
86
A1
10
59
88
61
04
80
2A
04
50
42
44
85
A2
20
90
02
21
50
40
41
04
21
08
04
45
81
21
22
44
0A
40
04
20
22
01
10
62
2A
41
28
00
A6
41
00
90
00
80
48
16
10
84
00
84
44
82
22
06
41
40
1A
06
AA
00
A6
29
6A
92
8A
62
08
00
2A
24
00
06
42
4A
48
00
68
46
88
01
55
00
15
88
02
02
60
44
02
08
84
06
28
60
08
40
00
40
20
12
16
20
18
10
04
A0
56
50
58
56
62
15
04
51
A2
02
19
1A
44
50
28
2A
A8
04
25
51
80
01
21
80
00
20
14
80
14
80
88
00
14
10
00
21
00
00
50
05
05
08
85
5A
24
56
02
49
11
44
11
50
01
06
A0
41
49
60
19
95
A8
06
18
15
4A
A0
5A
55
1A
A5
88
95
5A
85
45
01
22
24
19
51
A6
66
45
08
AA
96
62
49
A1
A0
56
62
95
A4
55
58
69
82
25
85
1A
A8
25
66
88
96
68
45
0A
1A
05
66
1A
98
50
64
15
88
42
69
9A
51
21
95
9A
26
81
A8
98
98
A6
86
09
05
66
64
86
85
59
A8
62
09
15
02
41
15
42
69
A4
65
48
55
6A
10
9A
19
A4
AA
06
91
8A
85
29
2A
51
99
08
8A
81
90
2A
44
05
24
9A
24
92
A5
A0
14
A6
86
2A
A2
26
99
98
55
06
96
25
51
52
89
22
51
A6
59
68
16
01
68
46
65
62
50
29
49
96
59
9A
24
48
49
25
65
2A
80
14
65
9A
15
11
64
A0
10
24
24
42
A6
68
64
88
06
01
65
52
A2
95
48
06
6A
88
91
54
24
50
69
82
55
A0
40
89
99
09
98
01
2A
A2
52
46
08
59
06
04
01
08
0A
24
29
00
64
84
52
89
62
14
85
10
92
12
5A
68
54
82
41
90
90
16
48
25
56
A0
19
A5
6A
24
51
61
88
6A
A2
59
42
00
02
18
22
6A
20
A8
A0
09
15
49
28
10
29
54
44
A5
25
20
50
81
12
A8
89
12
0A
19
65
5A
54
98
50
A9
88
46
89
86
40
25
29
49
04
54
82
86
66
A9
95
A5
A9
46
16
52
41
29
21
01
55
41
80
55
88
14
85
22
46
69
A6
65
A4
61
49
41
81
0A
45
51
26
62
96
11
AA
00
40
51
26
95
84
90
A1
91
6A
01
1A
68
A1
68
49
09
52
61
52
2A
A8
15
82
66
81
24
96
82
11
AA
A6
51
21
A1
94
14
90
59
42
8A
9A
89
94
99
40
81
58
66
00
26
45
28
1A
A5
12
45
99
65
08
85
19
89
18
52
0A
A5
80
55
24
45
28
5A
46
92
42
84
A0
20
02
12
1A
A0
80
82
28
2A
2A
A0
51
92
20
51
60
42
82
91
0A
89
11
04
A0
A0
05
6A
80
AA
14
84
80
49
08
1A
85
00
16
42
18
A5
65
24
A0
00
A2
40
68
05
88
0A
08
89
45
2A
29
85
01
8A
52
16
8A
0A
10
10
55
99
A5
81
40
4A
56
26
1A
64
AA
08
6A
A8
2A
10
46
88
1A
28
06
48
56
4A
85
91
04
00
A6
96
5A
94
85
89
2A
00
A0
09
99
86
19
61
85
55
24
50
54
22
9A
19
80
55
84
95
92
22
A4
54
65
16
44
54
5A
46
51
64
41
14
06
26
86
21
A0
58
01
6A
24
8A
40
06
09
A5
06
62
45
64
44
40
42
11
11
92
64
65
55
04
91
55
A2
9A
A0
92
64
12
A8
29
08
45
80
2A
69
18
06
01
62
29
15
00
00
81
28
02
00
11
20
80
18
19
84
4A
68
55
00
42
40
41
80
50
60
6A
4A
1A
18
61
22
88
40
84
68
89
12
02
A6
8A
98
29
A6
89
80
A0
20
22
04
51
86
09
61
80
41
00
20
80
00
80
20
49
82
22
20
04
64
20
26
10
04
41
08
84
08
25
04
24
22
4A
6A
81
16
55
42
A8
9A
66
0A
82
90
AA
59

