0A
22
65
12
01
A9
21
5A
51
45
05
95
9A
88
59
89
00
96
09
22
A5
96
25
8A
56
81
A2
41
5A
A1
85
A2
66
14
25
91
12
91
28
89
56
25
28
16
59
91
24
85
92
A1
A5
00
94
4A
94
10
09
19
60
51
91
66
65
1A
4A
62
15
29
1A
92
29
51
94
95
05
99
6A
91
86
6A
50
15
A9
59
61
08
A1
20
90
46
26
4A
86
59
49
69
26
29
59
A9
81
95
A6
26
16
A4
06
12
29
9A
15
01
08
65
25
AA
88
58
5A
12
29
58
49
6A
92
A9
81
A2
95
5A
04
21
08
68
98
15
A2
8A
19
55
99
A5
16
5A
6A
21
94
25
A0
52
59
69
60
24
65
66
05
62
52
52
15
55
92
59
19
9A
82
9A
62
49
04
49
22
58
24
95
4A
26
85
96
29
86
42
50
A4
65
81
64
46
05
16
00
1A
28
91
8A
65
25
46
69
A5
04
65
55
94
82
68
1A
26
05
41
A2
A9
16
42
6A
2A
45
96
59
A9
6A
1A
19
8A
A5
85
12
96
04
56
51
29
A5
99
95
59
51
56
A6
62
A2
00
68
14
56
5A
16
04
2A
59
69
49
81
A9
A2
12
6A
52
98
10
96
95
86
64
65
45
12
5A
46
66
66
5A
44
54
4A
25
9A
6A
95
99
49
25
56
86
42
A0
86
A6
80
11
A0
12
68
A5
A9
90
6A
A4
44
46
99
59
91
90
8A
48
2A
91
66
88
60
AA
9A
4A
18
15
14
02
10
59
91
26
88
A8
A2
A4
49
62
46
85
AA
18
48
45
14
49
46
A5
08
56
98
54
09
20
04
98
A6
21
A5
65
96
45
88
24
11
06
4A
54
29
81
09
06
68
65
0A
2A
65
02
95
58
92
1A
A1
A4
A9
14
56
66
22
24
54
99
96
46
00
06
14
29
05
49
06
A9
88
A2
6A
65
60
A9
99
42
8A
62
59
1A
95
A4
65
85
A5
54
29
02
A1
91
56
05
92
16
54
AA
12
19
5A
90
90
61
28
66
90
99
22
19
94
62
19
21
A9
59
A6
00
02
61
90
59
4A
00
A6
05
52
95
26
59
8A
54
86
54
99
86
90
8A
AA
1A
19
94
AA
49
6A
85
42
0A
69
69
88
29
21
66
95
00
0A
25
01
20
49
41
21
98
81
21
58
00
68
82
82
44
09
09
04
09
20
A0
06
00
59
00
60
85
86
A6
5A
50
41
A4
08
86
48
02
29
42
00
04
42
16
01
24
04
94
20
09
1A
16
80
41
42
04
00
21
09
20
82
12
04
42
10
42
44
20
22
10
01
42
22
91
09
09
98
89
08
1A
2A
16
19
61
08
18
A2
88
00
26
20
22
12
22
14
89
45
89
62
65
85
58
99
80
96
45
A6
9A
2A
2A
60
29
22
61
8A
20
15
99
2A
28
40
9A
56
89
59
99
61
81
29
88
12
01
18
22
A0
A2
99
AA
25
65
A1
12
9A
16
92
99
91
64
A6
4A
94
11
08
9A
59
16
82
98
92
A5
58
2A
06
69
10
14
65
50
95
20
10
1A
49
81
22
A6
92
9A
99
11
92
91
89
A9
66
46
59
9A
1A
94
12
91
65
45
A2
99
12
A8
65
69
25
06
96
26
61
9A
1A
51
61
20
18
A1
A6
65
95
6A
58
9A
A5
9A
04
69
A9
16
2A
02
01
92
40
A9
86
99
18
91
A8
84
49
11
85
24
80
80
99
05
41
11
A2
AA
A4
12
96
AA
94
18
64
98
50
A1
02
92
A9
28
19
95
55
46
1A
40
85
24
46
4A
51
16
45
29
54
59
92
51
01
9A
62
A5
60
14
25
46
A6
08
A4
00
59
58
59
88
59
59
00
A6
59
58
00
0A
59
A4
59
25
08
00
59
A6
00
00
24
20
45
04
59
00
18
00
00
00
00
00
01
59
A4
40
08
48
08
50
A6
01
00
59
0A
59
A4
59
59
A6
A6
80
A6
A6
01
00
08
00
20
00
00
58
04
00
98
01
00
08
22
A5
00
04
00
09
A6
14
00
00
A6
18
00
00
A6
80
A6
59
40
A6
08
00
00
69
49
40
85
65
05
A2
85
95
6A
61
64
90
99
AA
4A
25
21
9A
62
A6
50
6A
25
06
45
65
A0
09
A5
91
98
52
16
6A
41
51
8A
A6
A2
A6
98
90
81
64
61
65
68
86
6A
A9
6A
A4
59
1A
28
62
91
94
65
84
92
5A
A0
60
89
69
0A
08
99
29
24
55
89
22
09
6A
A5
48
22
69
22
65
90
08
06
69
61
91
21
45
A1
02
19
5A
0A
28
58
65
59
55
05
01
A6
51
55
A0
46
66
91
66
58
89
15
14
11
46
9A
45
46
90
5A
61
25
95
1A
68
14
56
29
99
49
22
11
08
11
00
A0
99
64
9A
60
59
90
29
A4
20
48
05
59
11
09
88
19
96
90
24
68
02
0A
88
84
88
09
85
99
51
91
92
18
20
59
56
49
A5
15
AA
99
59
21
A9
69
80
AA
62
56
64
4A
00
52
99
1A
08
25
26
28
48
61
25
29
18
08
61
01
90
11
02
01
40
80
40
58
58
82
25
80
60
85
55
64
00
98
80
01
08
44
60
62
0A
A4
05
44
02
04
19
24
01
40
04
40
18
58
A8
A8
19
48
00
06
40
8A
46
91
05
14
91
0A
26
02
18
55
A0
5A
18
04
60
20
84
41
25
00
42
22
04
26
21
00
40
2A
40
15
00
90
60
00
44
01
26
81
66
59
49
9A
96
92
65
54
A8
55
86
12
4A
69
10
51
A8
46
95
14
81
49
54
96
28
48
91
9A
1A
58
86
94
09
09
82
A9
90
4A
96
60
AA
1A
21
80
64
85
68
86
14
16
51
12
48
99
52
21
65
89
56
94
A1
19
19
54
48
92
4A
25
95
11
52
9A
68
1A
88
64
A6
66
56
29
9A
AA
5A
A6
A4
95
A6
6A
98
18
16
54
22
45
59
12
1A
14
91
02
4A
A5
68
64
00
20
A9
4A
50
20
86
00
80
52
A0
26
81
84
10
64
00
48
11
2A
16
A2
A9
80
49
98
81
91
04
49
89
55
52
02
80
05
44
14
10
48
81
80
55
4A
98
50
A0
26
1A
68
26
12
98
52
20
8A
A9
41
51
16
05
14
A0
45
92
14
2A
AA
51
69
20
68
11
A1
96
A2
10
54
0A
01
2A
88
15
01
58
06
24
19
69
56
92
94
61
5A
10
94
AA
A0
01
49
82
58
A5
61
41
24
12
91
40
10
28
21
62
05
49
48
98
5A
08
A8
A6
25
21
A2
59
1A
69
49
56
A0
25
A1
6A
66
55
91
69
2A
1A
40
1A
85
88
12
92
86
68
5A
55
A9
5A
48
12
A6
68
65
5A
A6
45
69
95
62
15
54
96
41
54
45
20
A6
64
96
01
81
6A
1A
A4
20
50
86
52
48
09
66
02
42
10
81
90
81
12
02
5A
12
14
20
80
22
00
09
06
40
AA
80
58
96
01
0A
61
86
40
20
94
11
A5
21
68
25
42
15
24
2A
08
60
20
0A
48
02
14
80
90
18
18
68
28
10
24
41
00
00
89
02
29
20
12
6A
20
A0
20
02
04
80
19
98
10
24
06
1A
50
42
81
62
12
21
60
21
12
18
91
02
61
59
89
18
22
95
01
41
6A
20
9A
A8
AA
64
4A
05
56
51
A6
29
41
99
15
A9
56
A5
44
06
20
10
1A
91
41
24
6A
44
45
5A
66
95
A5
29
54
60
61
16
6A
69
92
99
54
A6
21
46
84
49
61
1A
8A
95
54
40
19
95
A1
08
86
98
95
2A
AA
69
8A
55
28
29
A5
AA
26
06
48
28
95
4A
12
99
64
2A
A9
5A
2A
99
66
16
19
65
25
A2
11
84
65
15
5A
25
08
44
05
26
59
A5
A4
46
5A
24
96
65
88
66
64
21
A4
95
40
22
18
9A
8A
61
1A
54
15
4A
A9
49
24
29
A9
2A
AA
A0
95
51
82
59
16
A6
62
55
58
55
20
44
99
A9
6A
02
80
95
9A
59
8A
61
A0
A2
24
66
92
16
65
A5
66
55
54
89
69
42
81
46
86
A6
16
45
45
64
59
41
19
A4
4A
5A
A8
29
55
48
56
65
A9
91
94
88
62
55
45
94
A6
9A
24
95
19
A5
22
5A
A1
90
42
68
95
40
55
5A
89
29
A6
26
69
98
26
A5
58
66
01
29
A9
66
04
15
A4
96
4A
46
94
40
4A
60
09
65
64
28
92
92
88
64
19
81
A2
54
46
56
92
96
0A
88
A6
8A
11
05
50
45
04
9A
69
A9
21
A1
A1
49
18
89
65
62
04
45
9A
69
A8
9A
84
11
99
45
22
0A
5A
A6
99
60
AA
A8
45
89
2A
26
61
59
89
58
42
6A
48
A9
92
15
20
94
29
86
28
16
04
2A
66
16
14
68
1A
40
05
61
24
29
96
14
59
64
54
88
88
85
A9
62
41
16
A2
61
02
48
45
19
05
66
8A
68
28
08
25
25
14
11
21
48
52
86
65
66
99
92
55
A0
64
18
A0
0A
61
A9
88
12
88
81
04
29
81
A1
A0
16
14
A2
95
62
06
64
98
90
21
A2
15
65
95
21
4A
96
4A
A6
81
46
09
A2
49
19
91
1A
58
A4
21
20
6A
91
AA
90
19
86
6A
15
10
25
24
A9
11
8A
02
8A
48
A9
A0
54
96
20
46
61
59
86
A8
04
09
85
66
86
A2
A4
80
AA
65
11
85
6A
89
21
8A
86
92
00
AA
65
A0
02
85
8A
28
A1
88
A6
4A
60
81
62
18
58
61
51
9A
05
A1
A5
61
A2
45
5A
88
98
06
0A
28
68
68
98
14
81
04
68
49
A6
11
64
00
02
11
1A
05
08
40
04
04
05
05
10
20
58
06
92
24
05
44
19
00
80
18
22
26
14
29
08
04
01
21
02
10
88
00
02
12
50
00
06
81
21
92
08
00
41
4A
10
04
68
41
29
11
08
12
15
00
14
28
00
A2
18
52
62
21
40
06
00
40
08
00
90
10
14
89
00
62
22
14
58
28
68
25
5A
9A
94
29
65
08
61
65
58
94
65
55
18
84
69
56
24
A2
60
89
49
A0
8A
A5
20
49
6A
84
65
69
0A
62
62
64
99
55
61
28
59
21
85
42
A8
28
00
51
8A
99
59
08
60
49
2A
80
50
10
28
1A
69
4A
68
55
99
84
20
5A
8A
00
46
29
00
A4
68
4A
21
40
46
04
28
49
68
66
A0
02
85
64
95
92
94
56
91
90
56
29
0A
5A
19
66
8A
40
19
94
A8
86
69
49
68
25
01
41
A1
50
A9
60
11
62
55
28
68
92
94
10
A9
96
65
15
96
25
86
59
94
44
94
91
54
26
60
05
99
96
26
18
61
60
50
45
1A
58
A8
A9
04
86
54
56
66
82
91
92
A1
2A
A1
58
61
84
A5
A4
A8
55
1A
02
95
66
98
88
61
64
58
54
0A
24
99
66
51
A9
6A
64
42
41
15
A5
1A
5A
4A
08
95
02
6A
6A
6A
40
6A
6A
00
95
6A
6A
08
0A
6A
95
6A
95
0A
24
6A
95
00
00
95
00
15
04
6A
08
04
80
00
05
11
04
00
6A
95
08
0A
4A
00
55
95
00
08
6A
18
6A
95
6A
6A
95
95
10
95
95
00
10
01
80
00
00
00
6A
20
01
6A
24
01
00
08
95
10
01
0A
4A
95
45
20
11
95
00
00
00
95
88
95
6A
02
95
10
00
00
A5
18
25
66
50
61
58
49
98
54
16
24
A5
49
65
4A
65
24
40
A1
95
68
86
A8
9A
A2
14
A9
50
69
94
A6
00
59
05
8A
42
22
66
45
5A
96
15
50
8A
60
92
25
51
50
61
11
88
A6
2A
49
61
15
80
61
42
A5
01
82
A9
59
A6
28
85
2A
9A
82
18
2A
99
59
64
61
58
A1
4A
6A
24
98
81
6A
25
6A
6A
16
59
8A
61
A5
54
A1
49
04
0A
52
22
85
01
A4
84
8A
10
56
08
9A
0A
40
A9
41
95
56
2A
84
AA
92
41
49
12
68
A9
19
6A
12
62
49
61
95
98
A8
58
12
A6
6A
16
96
98
66
62
15
56
46
10
99
92
86
29
49
88
66
20
52
15
5A
96
28
52
56
99
59
5A
26
48
96
96
05
61
15
08
55
A1
80
60
A4
66
1A
55
99
5A
A2
06
40
98
94
89
4A
54
15
A0
14
12
16
48
98
09
02
26
01
6A
64
14
84
48
41
60
62
82
19
00
80
9A
25
95
00
09
24
22
48
50
15
08
A1
01
28
42
26
91
28
25
20
62
04
05
06
80
00
10
60
44
44
A9
22
29
00
44
22
50
26
A0
44
84
14
04
84
02
10
40
82
22
01
21
44
8A
48
28
A2
41
15
49
91
40
91
40
14
04
2A
05
20
80
88
24
25
10
80
65
A2
05
54
A8
9A
AA
15
66
65
A5
89
61
15
86
52
28
05
65
25
91
18
84
95
94
65
15
28
A4
28
09
59
0A
26
5A
86
A2
96
19
54
02
28
24
09
02
A2
89
49
82
A9
2A
04
66
84
06
90
A2
66
A6
28
14
61
A1
AA
50
20
06
69
49
96
46
1A
22
54
54
50
49
A6
AA
A6
A5
54
98
42
98
49
84
16
24
61
09
48
48
99
6A
49
26
2A
A2
98
5A
81
46
81
91
49
12
46
08
40
80
51
08
24
94
80
84
40
21
00
52
60
24
62
10
60
60
18
22
42
AA
94
84
60
18
19
04
A9
A0
86
40
59
18
42
00
8A
80
95
20
28
28
0A
50
84
80
12
22
42
A5
85
66
61
80
A4
81
18
A1
21
A1
89
08
A1
01
00
59
25
11
84
19
41
54
98
AA
00
00
40
0A
6A
40
81
45
1A
2A
69
19
40
A2
68
98
5A
91
91
14
59
92
5A
09
59
40
81
55
80
A5
28
52
68
61
50
A4
01
81
1A
69
26
61
94
89
A8
05
A2
29
69
AA
55
52
05
22
52
05
88
62
54
92
46
66
95
59
A9
A6
49
9A
9A
86
21
85
54
A9
A1
51
69
12
58
59
26
5A
95
66
66
6A
90
A8
52
62
04
59
0A
66
95
26
69
86
A6
A0
A6
8A
04
69
96
22
4A
14
00
98
00
02
9A
14
54
00
24
04
88
81
40
80
4A
88
10
2A
81
10
64
8A
86
51
00
24
80
A0
02
59
88
0A
20
00
20
5A
08
00
01
0A
88
A0
84
40
10
68
5A
64
14
82
98
44
08
62
5A
48
02
05
69
A0
0A
25
04
88
68
45
08
22
86
A5
54
88
81
61
11
48
84
12
80
52
54
84
00
48
00
84
00
A1
02
80
12
18
08
A9
82
25
52
82
56
92
48
94
91
65
50
5A
61
6A
A0
5A
56
15
65
59
56
91
58
65
A6
45
44
54
51
2A
11
59
60
89
60
82
25
A6
65
56
02
92
A8
55
4A
96
44
69
92
62
60
62
61
60
26
14
96
0A
66
51
42
4A
64
19
55
59
5A
45
88
62
2A
21
85
02
64
2A
68
64
0A
A6
60
A5
44
9A
46
06
98
08
6A
69
50
AA
8A
98
55
98
A4
68
89
69
65
28
00
68
A9
88
94
06
19
26
A8
45
91
66
A8
96
9A
2A
58
91
0A
48
6A
98
8A
09
22
58
09
08
29
99
2A
08
80
29
91
56
99
99
92
80
AA
50
A6
16
51
15
62
A1
12
92
68
14
91
95
05
A4
21
52
A5
A4
14
56
86
A2
05
96
61
46
A4
5A
5A
86
6A
0A
0A
16
58
AA
89
98
21
80
52
96
1A
86
96
95
42
81
56
25
59
95
94
46
19
01
60
61
12
51
54
62
9A
66
19
89
A2
5A
A6
21
60
81
58
AA
48
A5
85
9A
AA
AA
99
5A
68
20
4A
95
68
41
24
95
5A
46
0A
88
A2
A5
A1
18
01
92
46
54
89
12
26
99
A6
00
20
A6
56
29
96
48
61
A1
26
50
24
86
41
5A
06
60
9A
16
69
85
96
A5
88
54
68
56
92
06
65
0A
96
89
24
68
90
8A
08
51
1A
A1
85
91
99
06
6A
9A
15
52
00
22
95
56
41
02
24
20
22
98
8A
85
4A
66
6A
2A
96
05
80
80
02
98
61
94
89
A9
86
50
48
28
2A
16
1A
55
51
11
05
68
AA
42
54
94
02
A2
A9
8A
9A
26
08
64
40
15
45
90
59
59
49
54
04
5A
14
65
49
65
42
56
45
A9
02
48
19
A0
99
55
02
92
66
98
16
89
18
56
44
60
91
99
1A
52
56
55
AA
94
00
58
45
8A
44
1A
85
51
4A
42
6A
55
0A
95
6A
80
11
52
42
9A
12
22
20
62
91
58
25
85
10
40
41
51
80
41
15
18
5A
5A
9A
A1
92
A6
A1
68
5A
A2
22
94
66
2A
48
66
14
A8
16
90
A4
61
21
88
10
4A
56
14
42
62
54
5A
A8
95
26
26
91
22
95
26
98
A9
90
2A
5A
0A
5A
85
56
85
A5
58
42
88
81
24
10
1A
00
06
6A
52
54
5A
02
58
4A
55
8A
64
09
40
54
05
82
18
48
09
20
08
26
4A
20
48
05
08
08
22
49
A1
00
06
82
1A
08
18
11
6A
24
4A
16
92
20
40
9A
81
09
00
40
12
81
40
11
02
00
02
40
A4
50
84
81
1A
95
00
20
66
42
24
06
86
08
A5
52
89
10
18
22
84
10
A9
52
85
20
02
41
11
40
1A
52
10
9A
46
A4
69
69
A2
52
00
A8
96
58
0A
A8
19
A0
66
0A
8A
15
16
9A
44
A2
94
92
69
65
42
60
48
12
A9
96
09
40
56
5A
65
94
92
89
46
91
66
65
56
84
AA
95
A8
25
99
66
50
08
28
21
A6
11
92
42
12
21
80
61
59
99
55
6A
89
A8
51
62
5A
19
02
81
56
82
46
91
49
52
06
04
68
85
41
68
5A
89
05
AA
49
40
85
56
68
6A
80
A4
40
9A
21
64
65
A8
A5
08
42
46
44
48
16
19
11
51
8A
16
AA
68
82
59
82
64
A1
42
4A
85
22
49
41
9A
95
05
A0
2A
54
9A
96
62
96
05
12
44
44
A1
95
18
A9
AA
92
A5
46
64
25
28
50
92
09
42
94
56
61
59
29
A2
86
00
56
81
A0
15
95
65
04
09
66
06
15
15
15
26
86
A1
0A
05
A8
A4
00
66
11
99
99
99
19
99
99
22
66
99
99
42
91
99
66
99
66
04
00
99
66
00
01
66
80
66
01
99
A4
10
04
00
05
00
00
22
99
66
A6
85
99
11
46
66
04
A0
99
A4
99
66
99
99
66
66
00
66
66
00
81
A4
00
20
01
00
99
02
22
99
4A
00
14
09
66
10
08
00
01
66
05
02
00
66
00
00
80
66
02
66
99
01
66
00
00
42
92
66
54
94
11
40
59
92
65
25
56
94
26
AA
11
51
65
25
59
A6
A5
9A
89
56
A9
99
96
26
A5
89
89
19
89
8A
55
0A
61
5A
05
41
44
56
5A
9A
A9
60
9A
89
80
AA
A2
AA
2A
21
52
56
85
A2
84
21
9A
A4
45
92
66
81
26
4A
A4
52
A5
95
56
25
6A
A1
41
62
5A
8A
49
6A
58
58
94
60
A1
90
81
96
44
06
21
58
89
A5
42
69
96
51
60
84
56
82
58
94
96
A1
54
58
A4
25
40
A5
02
82
49
6A
55
96
61
95
AA
99
95
9A
44
90
62
64
58
68
A9
A6
A2
9A
55
A5
62
20
10
69
48
62
29
91
14
22
66
60
86
24
88
64
92
1A
59
00
42
65
66
80
48
20
56
40
62
15
68
11
48
56
80
25
44
98
84
2A
92
A6
91
96
69
45
94
16
88
05
A2
45
61
4A
40
0A
58
29
28
2A
19
40
12
60
04
55
9A
40
18
25
00
44
10
88
01
8A
21
14
96
10
04
80
A0
64
90
19
4A
89
A2
98
94
90
80
81
98
00
04
04
85
81
81
51
00
50
40
95
40
88
95
42
42
15
65
A4
41
91
19
92
12
18
60
29
89
58
98
58
52
02
90
A4
09
95
00
10
55
80
26
85
14
A2
8A
41
50
51
A1
1A
89
01
52
98
62
45
59
A2
A9
90
96
A1
22
44
55
05
14
29
59
9A
45
9A
5A
89
68
68
51
89
84
A2
A5
22
95
21
A9
1A
A5
86
AA
45
96
96
08
45
61
19
12
69
16
40
81
29
2A
8A
89
96
45
41
82
24
85
A5
05
96
85
54
52
66
98
A5
64
6A
99
84
84
21
20
A5
04
A9
68
99
98
25
51
65
AA
95
A6
09
5A
08
69
50
A6
81
61
42
64
8A
69
00
12
20
85
10
12
68
40
44
51
00
02
19
82
20
90
40
99
88
44
0A
00
A2
20
04
48
94
48
00
24
80
01
88
01
61
88
45
41
0A
25
94
28
09
44
56
10
A2
94
08
88
99
00
2A
AA
85
42
89
28
68
18
A4
A6
A8
55
28
50
51
06
50
A2
41
4A
80
50
86
51
81
05
10
66
02
82
94
04
54
88
00
60
64
50
86
41
80
14
62
81
50
90
58
56
59
A4
59
62
60
44
A1
19
41
A8
9A
21
06
96
92
A5
68
46
A9
A5
6A
89
82
0A
92
AA
9A
65
68
A2
96
4A
29
16
A6
22
98
14
26
01
20
88
09
64
54
91
26
92
5A
91
64
5A
22
A8
60
21
56
29
42
61
9A
26
89
6A
46
1A
AA
90
1A
25
51
52
44
82
41
61
54
26
58
61
66
A9
15
A0
14
59
05
96
24
99
40
41
64
A2
80
6A
48
02
84
24
40
1A
10
00
2A
01
00
52
A2
22
21
14
68
0A
11
04
85
01
48
52
24
95
94
AA
18
19
25
22
00
A2
18
64
54
81
80
50
85
50
10
4A
8A
40
A0
08
85
00
08
42
02
81
82
62
4A
92
24
51
18
00
40
62
62
15
88
41
42
11
81
A1
20
48
90
22
28
0A
20
20
24
22
94
05
A0
86
00
80
9A
9A
20
90
54
50
55
58
49
59
06
84
A6
95
86
16
A8
A2
4A
94
05
68
62
A0
99
50
14
55
A0
06
6A
48
94
02
05
94
59
45
90
45
84
89
68
26
89
05
08
91
5A
52
49
81
69
08
22
69
15
25
2A
58
8A
09
A9
2A
12
59
56
60
A6
20
25
46
91
25
94
01
81
A9
12
41
16
66
A2
56
1A
68
69
09
11
09
41
92
00
21
05
56
10
46
49
6A
02
5A
60
A1
91
9A
14
54
55
05
1A
1A
96
59
18
28
A9
86
65
A0
82
9A
45
01
48
58
A9
A8
41
8A
6A
4A
99
25
89
06
95
99
11
56
09
96
25
48
49
95
AA
2A
6A
65
96
A0
A4
96
A9
A9
46
89
A5
24
9A
55
61
68
0A
08
A4
15
01
A5
AA
99
9A
69
82
A1
0A
5A
00
9A
90
A8
A6
5A
55
51
58
69
A6
59
16
60
1A
48
60
25
9A
41
21
01
85
95
9A
50
59
50
60
21
AA
01
05
56
89
95
6A
64
41
65
86
69
91
21
52
86
8A
A0
48
A9
55
51
90
84
9A
A5
69
65
A9
21
85
02
96
16
54
65
6A
19
18
19
90
A8
81
86
A1
1A
08
8A
6A
86
98
11
61
91
59
24
A6
A6
68
A0
89
4A
21
52
AA
8A
22
98
40
15
25
06
A4
95
98
25
84
A5
A1
81
90
86
96
12
04
98
09
65
45
64
59
85
12
80
60
A8
64
A0
6A
56
26
66
09
04
A5
95
56
61
2A
80
01
A5
89
49
16
64
45
2A
14
52
04
91
58
84
61
64
45
9A
90
6A
5A
5A
65
55
05
52
AA
58
89
4A
5A
8A
22
28
85
88
10
86
14
6A
9A
64
01
61
28
56
A8
86
65
55
91
A0
49
09
65
A4
46
61
81
45
90
15
A9
44
84
55
94
29
51
A9
6A
80
64
64
41
59
5A
26
42
84
A1
A1
A8
28
86
A4
80
26
5A
44
65
A6
58
59
94
45
65
AA
56
A9
A4
96
91
95
A0
2A
92
19
46
12
A8
22
66
96
5A
59
25
18
AA
15
4A
9A
5A
45
6A
52
4A
18
24
06
21
9A
08
49
52
05
65
91
25
81
06
66
82
19
2A
52
55
A8
9A
A5
49
40
86
01
22
88
96
52
26
92
68
91
A8
64
54
20
40
24
A0
55
92
16
18
81
42
00
94
A1
A4
08
50
8A
46
91
11
10
99
56
14
0A
80
89
54
14
46
18
66
82
41
6A
82
00
04
A4
64
09
42
05
9A
88
00
19
00
25
80
65
94
50
20
98
02
90
28
0A
44
11
88
28
50
08
80
01
40
22
86
24
80
91
95
22
18
15
01
00
50
22
10
A1
54
81
08
A4
20
06
2A
58
64
20
60
55
20
15
5A
94
25
84
4A
62
55
88
55
42
44
69
A8
42
98
01
21
81
84
41
48
AA
95
21
55
52
66
6A
49
82
5A
8A
60
12
69
98
81
04
89
16
92
4A
A6
1A
A2
96
44
95
24
A0
12
A5
80
44
55
52
A2
28
15
56
A2
28
69
A9
2A
5A
55
A5
29
A6
4A
96
11
5A
64
5A
2A
A8
6A
61
24
99
10
02
06
09
5A
14
6A
49
55
54
82
95
01
64
19
64
0A
91
29
82
0A
15
55
55
29
90
56
56
A6
6A
55
10
4A
65
25
A8
15
94
A8
25
56
5A
A5
96
21
85
9A
54
61
55
01
59
14
41
A6
15
41
99
4A
A8
18
40
64
A8
A5
62
95
AA
92
54
4A
65
46
04
94
44
82
12
19
2A
01
1A
62
96
55
58
44
59
19
9A
96
82
8A
41
41
9A
99
18
60
A1
9A
56
A6
55
90
59
19
15
22
0A
58
00
A4
A4
A6
84
A4
A4
20
58
A4
A4
58
60
A4
58
A6
50
00
20
A4
58
00
20
50
00
54
80
A4
21
12
08
10
00
40
00
00
A4
58
40
20
A4
12
46
58
00
00
A4
60
A4
58
A4
A4
58
58
00
58
58
00
92
40
18
00
12
02
A4
60
40
A0
18
10
12
80
58
00
80
00
00
58
24
44
02
58
00
40
00
58
18
58
A4
00
58
02
25
40
6A
98
54
84
51
26
65
15
58
94
90
94
96
A2
99
94
69
80
22
8A
52
9A
62
29
A4
95
92
A9
91
58
A5
5A
44
6A
8A
45
8A
55
99
81
A5
4A
48
98
A6
9A
A8
5A
68
00
82
65
9A
45
54
89
AA
60
2A
91
66
68
1A
68
AA
22
46
A5
42
86
55
A9
88
64
60
45
9A
86
94
55
A1
29
58
88
02
04
90
69
5A
96
84
95
51
91
62
65
68
59
81
8A
22
A9
2A
84
15
42
08
19
AA
95
88
46
A0
10
66
58
A2
A4
A9
82
99
A6
AA
96
50
2A
01
86
56
59
55
15
AA
19
24
56
99
49
92
08
8A
94
62
52
18
A9
19
22
66
9A
82
8A
15
26
AA
69
64
22
66
A9
26
69
82
68
08
16
98
69
A1
A8
52
95
99
91
82
86
62
55
A8
A2
5A
49
5A
8A
A8
81
6A
55
22
A4
69
9A
69
16
88
94
02
0A
54
84
09
10
04
60
01
85
42
00
4A
04
04
19
08
21
4A
15
98
00
24
11
0A
86
85
01
84
86
28
A2
49
01
6A
22
9A
50
84
5A
15
01
29
01
89
00
25
90
52
90
19
00
40
88
16
20
16
91
19
20
22
00
42
20
86
02
18
29
41
A5
08
42
42
20
68
88
A0
68
01
18
40
88
20
15
25
08
85
01
82
51
40
82
04
4A
52
4A
42
A6
06
25
98
82
61
A9
5A
42
99
96
55
55
51
A8
18
18
82
A5
98
5A
A6
5A
28
A6
12
4A
94
98
22
4A
99
A4
A8
66
69
A6
A2
11
84
60
A2
55
26
A1
44
01
A0
54
92
51
4A
A2
69
A6
9A
68
04
A1
A2
89
A9
51
8A
46
45
80
90
46
A8
14
92
A6
2A
91
01
41
82
61
50
51
6A
20
29
12
85
62
19
45
14
81
19
12
82
96
80
AA
50
5A
84
52
59
41
14
04
88
8A
25
19
25
4A
95
11
91
40
14
62
21
42
21
45
98
18
AA
21
29
0A
90
66
66
00
12
A4
26
81
08
45
61
52
29
89
04
A2
61
48
A4
44
20
2A
65
41
69
22
59
24
09
0A
19
A0
21
64
02
40
60
46
54
85
10
81
42
10
15
40
A9
25
00
04
61
05
A6
A1
29
40
40
90
92
99
2A
94
61
44
4A
60
96
41
AA
96
61
88
65
91
16
99
95
4A
0A
8A
58
6A
86
6A
A5
12
2A
48
51
89
1A
65
64
58
26
96
12
2A
48
10
A2
09
85
26
0A
A6
8A
2A
50
60
22
18
2A
5A
26
62
8A
55
9A
81
61
90
45
9A
06
80
00
54
2A
9A
25
5A
19
45
22
A8
56
66
91
AA
46
84
55
11
88
56
52
99
49
5A
44
2A
A2
89
A6
65
04
20
A4
90
40
80
10
21
60
11
82
6A
08
08
19
64
1A
61
A1
04
92
85
22
09
00
95
86
80
45
20
81
89
64
8A
82
26
A9
40
AA
0A
80
00
21
92
05
01
19
45
88
4A
09
20
88
82
0A
82
40
41
42
0A
40
49
09
85
52
05
0A
82
81
66
05
55
05
00
A0
21
A1
A2
06
50
22
10
44
25
04
65
50
62
09
00
88
42
1A
92
4A
00
18
14
61
59
61
56
AA
9A
92
01
98
1A
04
51
94
25
51
86
29
08
4A
A4
96
A2
42
96
15
81
80
29
A1
A1
94
52
2A
A1
05
28
64
6A
8A
5A
60
58
01
41
22
4A
08
A0
1A
61
52
99
19
59
29
84
1A
0A
4A
00
65
61
99
69
42
66
05
A9
A8
91
4A
52
4A
44
19
25
98
50
84
54
AA
88
51
94
8A
98
65
65
A6
05
66
A9
28
85
AA
92
41
08
22
61
49
01
94
89
1A
59
00
56
60
89
6A
A6
26
2A
A5
19
59
89
6A
90
A8
A9
42
56
A8
09
85
26
91
16
A2
56
A4
81
58
68
6A
A6
00
20
25
25
55
51
26
58
80
1A
19
6A
41
98
62
66
68
56
60
9A
91
15
98
25
49
21
94
89
91
29
54
1A
0A
95
24
A9
58
92
86
48
91
A6
58
6A
59
A4
65
9A
64
01
95
65
65
69
92
4A
81
88
81
10
96
55
92
02
88
69
A9
44
A6
92
15
05
19
15
51
82
1A
98
95
95
81
68
88
21
A1
05
82
6A
4A
16
A6
5A
09
9A
66
00
52
08
01
A2
56
91
61
55
81
66
59
80
A5
60
A0
A9
5A
AA
69
2A
40
8A
89
65
12
0A
1A
14
A0
0A
48
1A
16
61
69
6A
9A
51
94
A5
95
A5
15
A5
02
65
92
45
AA
46
61
88
A9
A5
64
11
29
6A
2A
64
95
66
88
69
06
90
24
69
58
69
86
40
20
A8
6A
61
86
91
6A
A8
A5
80
51
54
40
60
51
99
89
24
4A
86
A6
A1
99
55
66
49
0A
24
85
A4
54
69
55
05
52
11
2A
96
92
A8
81
24
56
25
08
19
18
14
96
55
12
28
01
10
A9
42
60
85
65
68
91
4A
61
94
49
51
52
82
9A
62
28
66
48
20
65
62
51
26
A4
59
40
2A
91
A5
96
96
68
14
46
12
56
A4
44
51
49
98
88
52
9A
6A
65
41
21
A8
68
46
99
64
45
2A
82
66
95
84
86
64
48
A1
A0
50
9A
88
A6
16
81
56
92
5A
A1
0A
94
60
59
85
65
AA
88
49
2A
56
98
1A
49
24
65
66
56
84
45
A5
94
89
15
99
65
25
06
A9
51
85
60
85
A9
68
0A
55
84
54
24
4A
11
95
98
90
10
A2
8A
00
61
01
80
58
46
08
40
42
21
41
A1
06
2A
8A
00
85
20
1A
00
25
14
02
61
15
41
42
86
2A
00
00
85
20
69
26
81
00
06
54
2A
00
49
41
00
24
56
00
A5
42
08
12
84
1A
96
05
80
02
45
11
50
45
02
05
40
02
26
84
69
60
22
00
24
62
52
06
05
80
05
48
2A
84
48
44
14
9A
02
26
02
69
00
01
9A
06
88
95
28
58
46
29
16
9A
26
16
98
45
8A
86
9A
2A
8A
61
95
82
41
A4
8A
45
14
05
45
8A
01
56
6A
94
55
10
AA
66
1A
41
62
AA
1A
0A
A6
2A
59
22
49
05
62
04
4A
A4
60
45
82
59
41
AA
28
62
46
54
88
86
55
95
55
60
98
95
89
19
66
18
89
58
A4
49
26
6A
90
86
41
41
15
62
65
59
84
51
65
54
A8
1A
42
99
5A
16
29
91
5A
A8
14
54
91
0A
88
66
18
95
96
A9
52
A9
42
A0
A9
85
A1
66
A1
26
A2
1A
06
69
51
46
24
A5
46
88
12
29
08
12
64
04
A9
A0
49
A5
56
64
09
16
22
29
22
AA
69
26
86
66
66
19
91
49
46
92
A6
80
49
54
58
A1
01
45
9A
A6
98
55
6A
AA
50
92
06
6A
95
91
16
59
14
A4
65
55
42
06
45
15
10
99
0A
66
66
66
20
66
66
04
99
66
6A
12
29
66
91
66
95
09
00
66
99
21
01
99
00
16
00
66
55
08
50
00
40
02
00
05
66
91
52
51
68
0A
5A
99
50
50
66
18
66
91
66
66
99
99
02
99
99
04
0A
00
12
04
00
08
62
04
10
62
20
02
00
20
91
08
20
00
21
99
50
00
0A
99
00
05
40
99
02
99
66
08
99
1A
20
00
A1
1A
98
98
14
A5
51
0A
68
46
86
11
65
61
16
25
19
10
A9
25
55
45
61
A8
69
15
A9
98
64
65
0A
05
0A
2A
61
55
68
A5
59
14
92
58
99
19
A8
A5
15
88
86
9A
12
AA
65
66
04
6A
A0
89
A6
0A
84
06
49
82
AA
11
14
62
AA
A9
19
01
61
18
69
50
95
96
AA
24
12
52
86
95
65
8A
01
26
8A
61
91
05
A9
81
66
08
06
52
45
66
A5
81
A8
96
25
A5
08
9A
21
9A
A5
A5
19
14
50
A5
A9
0A
22
65
52
9A
19
24
25
81
84
A2
29
92
19
95
55
46
62
94
A4
12
81
90
02
69
46
01
95
0A
08
0A
44
95
68
18
01
A6
10
51
00
81
66
59
8A
A4
12
51
61
24
05
45
88
AA
55
5A
58
81
91
A0
A2
46
A8
64
62
19
01
41
AA
29
59
A0
81
65
9A
1A
45
06
00
85
12
15
A1
86
29
99
A9
2A
25
6A
84
0A
96
00
02
18
92
52
50
50
80
20
06
81
02
80
49
69
50
A1
81
02
21
21
00
A4
A2
01
90
12
04
22
1A
00
60
20
09
95
00
52
99
A1
84
88
52
48
A1
58
29
0A
02
21
00
50
84
01
40
62
82
88
01
18
0A
50
49
52
0A
81
01
16
0A
18
58
56
02
A0
95
82
81
09
8A
25
96
54
92
84
48
45
6A
82
68
91
A8
18
59
A1
64
4A
16
A1
14
14
2A
24
58
5A
09
4A
1A
46
91
59
A6
59
84
81
55
1A
A5
52
09
8A
8A
26
52
6A
85
5A
49
A1
58
65
05
56
6A
A1
56
26
22
99
5A
64
65
52
05
52
84
65
A5
91
16
46
50
9A
6A
1A
81
A2
46
94
94
44
58
A2
49
91
64
2A
AA
04
12
A0
12
6A
AA
4A
55
61
11
18
80
64
58
09
85
85
02
18
A6
85
26
08
44
08
A0
00
90
80
0A
44
09
18
90
15
42
41
11
28
10
92
8A
A0
96
2A
44
95
99
85
08
85
A0
44
89
14
52
24
28
05
01
89
02
15
55
80
28
48
24
24
A1
85
22
A2
06
90
88
21
88
8A
08
A2
60
49
26
25
58
61
40
02
05
05
00
02
91
14
09
4A
94
81
98
10
94
00
10
2A
49
A8
2A
25
19
99
40
52
A4
A4
86
95
4A
05
AA
86
64
46
9A
A0
02
A9
A8
AA
A5
0A
A6
59
65
01
59
99
25
15
04
62
52
99
42
2A
59
54
90
A9
55
A9
A2
24
19
10
18
5A
09
8A
5A
00
62
95
59
24
89
55
82
90
68
45
AA
95
09
68
10
24
11
90
14
89
51
90
92
94
8A
A0
A1
55
56
24
2A
A4
56
86
21
54
66
15
91
28
60
89
10
28
04
02
00
04
82
8A
28
61
11
84
80
64
40
84
00
14
44
00
06
A0
20
02
58
01
01
11
40
10
22
00
45
94
61
60
40
24
90
22
20
61
11
64
21
86
45
A2
14
A0
44
22
80
24
08
40
28
62
94
A1
61
00
45
46
12
09
80
40
50
90
95
40
40
82
08
2A
24
54
88
15
04
42
00
90
19
42
20
08
88
80
02
10
01
11
86
25
44
10
85
98
01
1A
26
85
54
AA
A8
66
62
69
16
16
82
86
40
55
48
98
56
5A
04
A2
6A
A1
40
56
A4
58
90
98
99
61
55
4A
54
54
62
24
65
56
65
62
0A
65
59
60
A5
45
11
14
AA
8A
65
49
64
89
90
9A
A4
90
9A
68
A1
48
66
50
19
A5
A5
85
00
A6
88
15
55
46
21
54
25
85
54
81
98
99
09
12
98
90
59
29
A8
4A
82
95
54
55
66
88
8A
81
A0
19
A2
41
26
A6
10
0A
16
98
9A
45
01
A9
42
29
A8
64
5A
4A
94
2A
25
45
95
61
A0
66
55
19
04
85
28
28
25
91
45
48
69
96
A6
9A
65
41
92
1A
24
46
86
22
06
95
69
15
49
95
6A
04
5A
24
40
19
24
A8
21
49
59
64
66
16
60
66
AA
68
59
28
45
02
14
66
55
02
69
11
66
45
42
82
18
A5
A8
26
69
40
99
96
85
52
95
A2
96
12
22
59
15
12
0A
A9
5A
80
8A
92
94
12
52
29
96
12
56
20
65
12
41
90
46
54
14
55
15
69
58
95
98
A4
A0
14
86
AA
95
26
65
08
29
54
AA
54
6A
61
51
91
60
A9
46
21
48
50
51
49
25
28
0A
08
09
00
45
22
68
15
A5
69
29
56
81
60
5A
9A
49
6A
41
86
11
12
59
41
90
99
29
05
19
99
6A
10
99
95
19
62
01
89
1A
55
09
29
00
60
9A
82
62
A5
08
41
45
99
86
90
95
54
22
06
64
94
20
45
28
98
94
80
59
1A
02
80
2A
AA
95
A1
48
A6
A9
82
8A
55
62
09
65
42
28
60
14
56
58
06
9A
85
16
A9
94
A6
6A
51
00
14
86
52
22
56
11
25
61
56
00
A1
9A
86
AA
82
A0
64
99
59
19
6A
41
66
06
42
81
A6
95
29
21
48
22
52
69
95
29
54
61
22
59
65
0A
29
94
2A
95
50
56
91
5A
92
50
65
A1
15
A0
14
62
40
A8
85
A1
4A
05
18
96
29
86
40
09
46
84
66
90
85
05
55
A2
65
55
59
66
82
91
88
8A
8A
99
46
49
89
29
11
95
50
64
00
24
54
66
89
25
89
A1
15
4A
69
66
11
04
1A
69
91
88
91
22
40
48
25
20
06
80
10
84
52
80
52
55
00
84
00
50
96
89
82
50
29
98
2A
56
09
25
29
90
98
09
A2
18
20
41
04
89
60
04
A0
48
60
00
62
48
29
90
82
16
40
85
16
20
22
11
4A
94
10
48
68
12
48
82
51
82
19
54
62
58
29
05
4A
19
4A
00
29
60
51
16
61
16
01
4A
41
01
18
04
25
92
10
46
14
18
81
09
62
59
25
A5
A8
21
96
68
02
90
69
12
65
00
65
66
50
09
6A
95
89
48
26
51
99
02
58
16
45
09
A9
02
05
5A
0A
A8
19
9A
58
21
94
64
A5
90
44
85
22
48
16
48
6A
A1
99
68
44
61
1A
96
26
90
49
55
60
A8
95
4A
A4
55
68
81
86
19
98
91
2A
85
66
21
95
10
86
69
6A
98
49
56
50
56
96
22
88
19
4A
A6
49
49
01
8A
A1
5A
09
15
89
20
56
58
62
59
44
25
62
AA
A1
91
15
50
A6
49
A1
6A
1A
A9
28
56
09
A2
96
49
A6
9A
5A
55
A2
20
99
18
10
02
61
61
81
49
A6
A6
45
26
22
A9
09
A6
26
56
20
46
5A
20
A5
66
20
58
AA
80
59
66
64
96
05
09
81
A4
56
18
14
28
54
12
99
52
61
2A
46
10
86
9A
98
42
81
62
24
64
45
8A
62
48
A1
50
52
52
5A
50
5A
52
88
A1
52
56
00
16
52
A1
5A
A5
00
08
52
A1
00
44
A5
85
A1
01
52
A2
18
40
00
00
12
08
60
52
A1
A2
00
14
0A
85
A1
40
86
52
06
52
A1
52
52
A1
A1
00
A1
A1
48
08
00
45
05
40
00
56
00
00
5A
49
00
80
84
A1
02
00
00
08
A1
04
04
80
A1
40
A0
02
A1
1A
A1
52
82
A1
58
80
10
A2
A5
0A
50
A9
A0
46
24
95
61
50
25
22
48
86
96
55
04
56
A5
66
48
11
1A
65
46
AA
00
29
95
46
85
A9
99
4A
10
61
A2
A4
04
49
84
19
16
04
28
98
A1
12
A9
A1
69
64
2A
61
98
58
99
50
86
82
50
51
56
05
1A
52
48
54
96
18
A5
99
6A
96
59
66
69
25
55
85
6A
A5
50
95
64
2A
88
65
96
44
96
90
95
98
91
51
96
29
96
8A
4A
99
1A
25
94
21
19
86
92
64
98
99
8A
84
82
96
A9
A6
95
08
62
48
21
A9
00
59
44
51
01
69
64
08
14
42
64
99
69
2A
A8
95
A8
52
09
51
80
21
09
55
A2
58
9A
80
1A
99
55
54
18
69
28
09
65
9A
94
91
22
92
54
9A
55
6A
18
86
02
56
96
59
94
65
A5
85
90
55
64
08
22
A9
A4
44
81
69
12
04
28
18
80
84
54
1A
20
92
04
06
04
1A
18
08
45
A8
00
80
84
41
12
68
20
14
40
05
06
64
00
11
08
40
88
A0
04
11
81
49
12
82
06
04
A1
60
25
15
82
40
52
8A
00
2A
4A
12
81
5A
26
60
55
82
10
95
01
02
08
52
26
41
8A
5A
61
A8
06
09
21
12
40
40
8A
8A
80
04
01
85
09
04
09
95
02
24
12
01
40
58
18
80
55
A1
A6
41
52
A5
92
82
A6
A5
16
A6
2A
64
16
58
48
86
25
68
A9
56
4A
04
AA
6A
A1
21
52
89
86
99
A5
98
56
45
22
52
25
99
86
14
11
A6
09
61
01
46
68
85
59
A6
A1
49
AA
6A
90
21
16
15
A2
26
5A
A5
11
55
98
20
96
04
25
54
1A
48
91
95
5A
92
49
55
A5
5A
52
2A
69
96
08
68
66
64
91
60
50
65
45
48
09
09
11
02
26
18
04
22
94
89
01
44
62
95
51
41
52
68
A2
85
22
94
9A
06
89
0A
14
08
15
A5
81
01
09
64
2A
50
18
25
02
02
60
15
9A
A0
85
65
1A
69
40
00
59
05
14
49
14
A8
90
54
10
81
24
00
59
04
02
04
61
A9
08
12
AA
25
25
69
88
26
89
84
0A
A4
54
19
19
02
26
56
A8
15
51
A4
A6
82
41
21
40
22
99
90
86
28
1A
22
A0
20
5A
91
0A
4A
98
61
69
59
A5
52
9A
A6
25
A5
64
21
92
11
52
11
49
91
A1
90
A9
94
A5
12
55
58
91
5A
AA
1A
4A
61
92
46
55
21
69
12
4A
59
9A
59
8A
22
61
A6
14
A6
40
69
56
91
A1
5A
86
69
92
AA
05
A0
14
95
20
94
9A
9A
44
01
61
82
95
51
02
1A
55
99
A8
88
86
55
81
28
96
46
45
01
88
60
00
90
84
50
84
2A
28
10
00
02
A9
4A
A0
54
05
52
52
02
08
48
00
82
06
A2
81
00
90
41
88
20
81
64
04
09
42
24
45
00
AA
54
04
02
68
82
42
02
80
49
02
14
4A
01
45
26
00
60
10
61
88
8A
A1
09
80
10
25
86
82
44
18
5A
01
19
04
86
52
48
5A
06
42
81
41
04
49
80
80
0A
48
40
92
50
4A
15
88
1A
09
24
61
89
95
06
59
00
04
92
A0
59
16
48
99
55
66
69
26
24
A9
66
56
A8
22
29
0A
A1
25
89
86
16
A2
49
96
28
96
50
48
4A
4A
29
A6
54
6A
24
61
19
61
29
A8
A5
9A
44
04
85
89
28
28
56
81
16
55
59
A6
41
92
26
A9
49
65
20
99
19
88
24
92
10
41
64
96
61
88
85
59
80
58
94
80
21
42
85
59
62
26
55
18
04
95
52
42
12
A5
52
99
A1
61
11
15
A8
58
59
2A
66
88
68
92
A5
29
81
91
85
62
A6
66
0A
96
45
AA
8A
59
4A
A5
56
89
9A
45
49
55
95
40
A2
14
49
04
98
9A
45
21
96
69
05
41
52
A5
A9
92
49
84
29
A6
6A
61
91
88
46
54
98
95
62
98
86
62
26
49
4A
19
59
66
A9
A4
06
4A
21
59
91
A8
51
16
9A
24
25
5A
99
41
21
4A
86
51
10
46
19
68
A0
94
A1
05
06
51
40
29
66
A9
8A
66
55
45
94
19
06
85
A0
5A
42
A1
92
A1
0A
AA
92
46
A8
2A
66
52
04
69
81
96
19
25
85
68
A8
A9
22
65
85
AA
69
4A
62
99
9A
5A
44
81
59
59
64
20
56
16
95
A1
55
84
99
A0
61
19
4A
98
54
48
69
65
A9
55
45
90
1A
9A
26
58
00
46
A4
81
A9
49
68
96
59
24
66
45
46
20
65
99
A2
0A
62
92
45
42
21
56
10
96
59
9A
A9
41
56
24
64
A9
56
94
49
9A
61
16
69
66
56
02
05
86
44
AA
9A
44
95
19
95
A6
81
A2
09
A0
85
04
15
50
90
A2
29
89
85
54
22
2A
92
84
A2
26
21
61
48
4A
98
48
94
94
1A
21
62
19
A5
AA
8A
86
A8
60
95
81
41
52
48
5A
A0
45
59
45
49
09
26
86
96
24
6A
9A
95
64
8A
0A
AA
94
AA
91
22
6A
55
65
A5
91
68
60
05
A9
16
96
0A
98
41
62
81
5A
1A
A1
61
42
62
69
44
61
68
82
91
86
92
82
59
9A
65
15
89
8A
A4
51
80
86
82
49
55
9A
69
68
62
49
96
96
A9
86
1A
6A
29
61
16
A8
08
6A
65
69
18
20
85
0A
82
84
56
61
49
26
00
60
0A
10
11
08
95
01
52
54
04
00
A4
84
99
28
86
9A
10
A2
00
06
00
08
81
00
82
60
5A
06
94
45
04
12
12
14
88
61
52
A4
08
02
80
50
69
20
02
61
28
80
06
00
00
41
46
50
01
82
00
68
10
90
AA
8A
89
02
1A
89
28
52
05
80
00
04
41
82
18
00
90
50
52
A0
62
82
08
04
58
51
54
25
18
08
88
92
06
91
46
11
49
41
8A
99
69
90
89
41
46
96
A4
16
98
4A
49
91
64
61
92
11
59
90
55
68
98
82
89
14
A1
82
0A
59
99
40
25
A1
60
69
99
A2
80
21
84
25
14
14
8A
A6
22
65
48
52
0A
95
A8
88
90
81
6A
20
61
68
48
96
99
59
2A
91
28
AA
96
95
A5
18
6A
81
26
05
49
44
26
95
89
15
92
81
11
29
15
28
A4
8A
64
86
1A
61
A6
AA
A4
24
9A
51
AA
48
98
8A
2A
58
15
60
94
A9
AA
00
56
46
26
2A
04
94
55
89
18
94
8A
4A
69
91
5A
29
49
96
8A
14
54
A8
A5
69
60
55
AA
16
86
94
26
02
98
21
69
62
A9
92
A8
40
91
A6
05
62
86
22
98
58
61
52
9A
92
00
56
99
62
26
84
52
04
A8
A1
1A
9A
59
49
52
40
66
91
A0
9A
45
42
29
41
00
A5
A1
5A
5A
5A
10
5A
5A
44
A5
5A
48
64
69
5A
A5
5A
85
09
05
5A
A5
1A
10
A5
04
84
02
5A
09
0A
02
04
00
00
00
10
5A
85
28
09
08
08
A0
A5
00
01
5A
29
5A
A5
5A
5A
A5
A5
00
A5
A5
80
A2
00
04
04
00
12
5A
00
00
52
06
02
28
04
A5
09
02
00
00
A5
89
40
24
A5
00
48
02
A5
46
A5
5A
29
A5
00
00
40
26
69
81
60
02
81
A0
9A
55
99
58
98
65
90
98
92
A9
62
A6
91
A2
58
69
5A
8A
18
58
08
88
15
A4
64
56
15
4A
12
91
9A
25
54
81
29
A8
16
62
99
90
85
28
61
19
09
59
29
A4
41
19
AA
A6
02
98
65
81
52
5A
1A
99
2A
A6
29
1A
A6
91
A9
52
A5
92
29
96
40
9A
4A
99
AA
99
50
A1
25
45
96
99
54
26
A9
46
10
40
86
55
A4
81
65
51
11
04
95
A0
56
2A
26
66
94
10
A5
40
58
29
A2
A1
08
16
69
A9
16
11
1A
A2
65
01
66
50
A8
62
82
A1
14
96
40
14
88
AA
29
59
A6
05
69
A4
8A
52
86
61
96
46
A6
A4
A8
21
12
28
62
01
A2
A6
15
55
A9
89
A1
92
09
6A
58
1A
08
21
11
68
99
40
10
AA
69
AA
22
22
21
98
90
0A
11
48
80
05
02
81
4A
85
05
20
08
45
14
14
44
82
08
20
08
91
49
02
46
08
A6
04
52
40
19
52
95
16
05
82
22
86
00
25
01
61
50
A0
84
00
11
2A
00
88
66
A1
08
A6
14
61
2A
15
6A
64
10
59
44
4A
25
A0
50
81
08
02
44
61
16
88
29
4A
01
AA
A8
89
49
05
29
18
28
01
05
20
92
40
28
81
92
51
50
22
94
94
24
08
80
61
48
55
49
A1
52
91
A5
88
21
55
55
94
68
88
28
A6
12
6A
A5
59
26
68
65
69
1A
66
98
AA
96
96
19
92
69
96
65
11
26
66
69
21
46
95
65
16
A9
09
9A
95
65
44
96
61
98
A5
0A
21
5A
A8
95
96
85
90
1A
50
49
A9
69
25
61
51
58
14
25
84
50
8A
95
62
4A
A5
6A
9A
95
65
42
66
91
5A
16
A8
55
4A
A9
A0
2A
20
A8
66
25
1A
A0
8A
01
AA
52
01
AA
AA
4A
54
12
85
41
AA
09
40
96
06
86
42
01
0A
50
15
26
24
2A
46
20
54
9A
20
06
01
25
65
A9
82
28
24
82
60
0A
54
A4
28
21
49
06
20
14
15
A2
02
A9
14
6A
58
01
18
69
40
A2
85
94
46
A6
AA
A6
29
50
60
64
91
6A
86
A4
26
64
42
24
69
02
14
A4
99
01
42
15
14
68
56
91
60
58
66
81
AA
A2
08
64
01
65
56
A1
A8
90
98
45
65
15
44
29
96
4A
A5
90
61
82
15
55
26
68
54
06
55
60
28
82
59
50
91
99
96
89
56
85
90
0A
61
96
68
66
99
95
5A
61
10
61
56
92
A4
A5
48
6A
09
56
A2
58
A9
28
29
AA
2A
A6
A9
50
22
42
25
08
6A
25
55
A6
92
60
41
65
69
68
08
A2
28
A4
52
81
10
10
10
04
02
16
60
69
51
08
A9
81
00
86
12
02
A9
0A
94
02
48
82
5A
20
09
00
52
56
14
88
82
25
02
15
86
02
89
11
81
04
02
08
40
28
48
04
95
0A
01
08
04
18
A1
19
05
20
12
09
18
81
12
A0
8A
21
A9
04
81
24
62
92
46
40
88
08
06
10
14
00
88
01
42
46
98
A2
20
09
25
02
15
41
10
10
84
05
01
02
00
26
28
1A
48
12
95
65
4A
58
50
62
86
56
95
8A
98
11
9A
66
06
64
55
08
A9
05
09
55
54
62
28
5A
0A
66
64
65
46
46
A4
56
20
80
6A
26
62
44
4A
85
1A
4A
11
AA
66
26
42
46
49
A1
94
25
82
65
44
60
46
A8
94
15
86
94
12
55
90
94
19
62
08
A6
AA
A6
AA
96
25
25
09
9A
64
88
0A
A6
49
52
AA
A6
A9
95
9A
A8
50
86
26
65
99
14
64
19
99
48
12
50
A9
29
19
22
19
42
26
28
62
4A
19
98
10
52
14
15
46
46
A4
A6
05
64
0A
01
61
16
91
66
A8
92
08
AA
85
81
99
59
56
54
98
66
09
40
94
56
A9
18
55
62
69
AA
59
44
96
50
21
99
64
12
A2
A8
AA
65
04
AA
A4
A0
99
25
98
1A
56
65
85
A9
65
A6
46
92
99
86
62
66
99
16
86
52
51
29
88
64
21
99
61
90
95
59
A6
54
0A
68
46
92
6A
01
04
54
29
28
AA
95
08
4A
26
14
A4
08
4A
16
0A
A9
09
25
6A
62
A4
90
A9
82
88
50
09
A6
8A
50
95
10
96
65
29
85
25
28
9A
81
6A
22
81
6A
24
01
80
56
91
02
45
09
29
A6
90
15
55
99
26
29
28
15
99
44
56
22
58
A2
95
A5
94
86
58
48
4A
A6
6A
55
22
02
A0
09
44
6A
62
8A
99
50
54
85
85
41
59
15
89
2A
18
89
65
66
60
AA
59
28
05
46
29
A1
41
68
08
04
66
66
19
AA
68
64
96
5A
48
AA
11
24
91
62
54
48
A8
14
A9
20
62
1A
68
A0
66
52
05
86
9A
9A
54
44
91
10
10
44
06
1A
A6
24
22
40
A1
55
20
4A
60
89
99
29
96
A2
11
2A
49
A6
94
44
11
62
96
10
5A
A5
86
69
66
A8
4A
80
15
55
10
25
5A
25
8A
09
99
86
A4
59
86
25
94
08
85
86
95
95
59
A6
62
A8
64
46
A9
52
59
8A
A6
51
66
A2
88
59
8A
21
51
24
A2
62
20
10
02
91
18
42
AA
58
86
08
56
65
A5
50
81
A8
51
A0
AA
46
52
98
5A
59
16
80
8A
61
99
62
A4
66
4A
91
5A
28
1A
59
82
9A
25
80
18
2A
59
90
24
AA
A1
28
86
99
96
09
5A
24
82
26
98
86
01
69
08
25
84
92
00
52
46
02
60
A1
61
52
1A
11
02
09
44
20
A0
40
02
02
54
8A
80
44
A4
A4
84
05
14
20
59
56
82
90
04
06
06
45
90
68
A1
42
80
00
A0
18
18
20
A2
45
96
25
84
90
08
15
52
08
52
65
05
40
01
20
A0
60
A5
12
24
01
14
1A
09
68
AA
1A
44
46
89
56
58
55
49
28
99
A5
15
51
9A
21
29
12
50
08
66
24
56
51
49
08
A4
89
58
2A
16
0A
89
55
92
55
66
29
80
10
94
65
00
40
95
2A
A6
18
6A
90
19
A1
A0
66
0A
49
69
8A
6A
06
92
2A
64
99
22
99
51
19
A6
6A
66
96
20
49
19
45
16
54
82
4A
52
29
2A
2A
62
56
15
12
A6
A5
90
6A
04
41
44
22
98
62
20
15
26
58
A1
16
09
49
58
16
56
5A
69
A5
9A
A4
A5
61
86
9A
01
AA
28
95
16
9A
52
A6
95
A9
29
12
18
84
66
22
46
51
26
88
A6
05
45
19
A1
A6
45
94
66
A9
99
25
66
60
96
04
9A
26
89
95
6A
51
9A
20
52
A6
14
91
06
56
5A
96
9A
5A
A1
15
5A
65
65
18
18
A5
96
1A
59
51
A2
66
98
25
AA
46
42
19
40
6A
10
95
94
95
84
95
95
04
6A
95
95
68
99
95
6A
95
69
00
80
95
6A
28
80
69
00
61
04
95
89
40
00
82
84
20
00
80
95
68
00
90
94
04
49
6A
04
00
95
89
95
6A
95
95
6A
6A
84
6A
6A
00
42
00
00
00
00
00
95
81
00
96
40
60
02
00
6A
10
40
48
00
6A
81
80
00
6A
00
00
05
6A
20
6A
95
00
6A
46
80
08
81
09
99
45
1A
02
99
56
50
04
51
29
09
52
6A
84
0A
96
6A
69
45
55
99
A6
51
4A
64
14
26
96
1A
85
AA
4A
18
80
56
5A
56
55
51
69
A2
02
56
64
08
94
58
05
65
85
11
A4
58
26
54
68
69
A6
AA
65
90
21
A0
16
41
46
69
18
08
A9
A2
89
06
A4
1A
46
1A
A1
09
45
46
86
98
A4
61
81
06
84
44
24
84
4A
25
92
09
1A
95
82
98
54
26
19
22
54
94
4A
95
26
86
19
26
60
85
64
08
80
0A
56
16
42
25
95
55
21
A4
1A
41
A9
42
56
1A
66
91
A0
A6
4A
26
A1
65
84
46
54
A9
62
96
41
82
88
46
94
95
94
89
18
5A
A9
46
A8
89
51
26
A9
AA
A1
48
26
61
29
59
88
A8
1A
08
22
58
62
16
55
49
92
16
98
84
84
42
26
1A
95
5A
94
51
41
59
04
04
A0
88
02
09
80
02
94
40
09
19
00
14
22
60
A9
05
08
64
05
15
50
45
42
48
A5
86
22
04
48
28
04
0A
42
18
62
00
54
A0
06
09
26
02
96
64
10
49
41
98
44
09
09
01
00
04
48
6A
00
55
11
54
22
81
28
06
40
04
80
50
40
06
45
90
4A
01
20
16
8A
68
50
09
60
42
95
10
96
62
08
94
50
04
19
05
51
11
08
56
45
62
82
02
15
6A
48
98
A6
94
81
84
45
9A
91
A6
16
24
1A
95
91
02
AA
A2
15
9A
66
50
55
0A
64
A9
81
29
05
A6
88
54
16
12
62
88
81
A9
42
A1
55
09
A1
2A
8A
89
69
24
15
21
48
4A
99
02
41
65
94
91
81
84
41
12
58
59
56
4A
1A
26
08
45
65
52
58
4A
96
69
0A
46
18
14
46
2A
44
84
26
95
80
02
A9
94
09
60
A9
04
16
00
16
19
04
08
06
90
22
09
41
01
02
25
61
60
A4
80
0A
51
29
48
24
46
84
51
00
69
46
84
16
50
89
84
45
00
16
4A
8A
A6
19
98
A5
19
58
12
A0
0A
60
82
59
06
26
60
45
62
49
55
6A
49
12
06
02
18
48
55
A9
82
62
40
64
A1
99
16
92
81
A8
99
21
58
90
49
06
26
A0
48
4A
64
A6
84
81
4A
5A
59
89
65
AA
68
66
A6
51
96
92
9A
95
18
64
A6
16
14
6A
91
5A
19
54
69
A1
69
A2
91
0A
19
50
92
49
A9
8A
55
AA
11
58
1A
5A
A4
55
68
55
6A
22
58
11
24
56
69
22
AA
49
A1
11
56
A5
58
91
A8
60
06
08
26
5A
A5
21
69
55
0A
49
A8
84
94
A1
26
66
48
15
50
29
25
51
28
26
44
12
61
95
48
05
64
42
20
10
00
01
60
40
2A
19
A8
01
4A
A4
1A
21
08
A6
A0
02
50
40
08
86
40
40
80
80
84
48
28
11
19
85
80
A8
84
11
28
A2
00
60
91
00
06
28
42
11
20
90
91
52
10
54
6A
04
64
51
A9
64
82
0A
88
55
44
18
68
0A
2A
00
80
A4
94
15
00
24
98
48
44
28
48
64
22
A6
44
46
40
A4
84
98
88
49
09
01
25
66
6A
55
55
25
82
5A
96
54
84
9A
49
28
AA
59
0A
A9
05
91
65
40
58
90
98
62
96
92
56
55
AA
51
28
91
26
80
1A
54
56
A4
96
99
90
62
5A
2A
50
96
48
55
94
25
55
62
25
41
A5
12
A9
81
28
15
41
98
21
98
60
94
8A
4A
94
9A
65
55
14
64
85
95
1A
A2
46
0A
88
56
95
16
A6
00
89
86
08
4A
54
19
62
82
91
A1
28
56
4A
51
A4
84
65
92
11
8A
AA
46
05
8A
19
6A
99
24
86
96
A6
56
62
29
06
16
40
89
61
55
29
26
59
A8
A5
66
1A
1A
8A
46
59
05
82
94
1A
80
12
A4
68
85
58
19
A6
98
A9
86
92
68
8A
94
46
99
A0
16
14
56
4A
59
5A
62
6A
0A
68
A9
96
A5
14
88
89
59
60
A9
A8
A6
86
51
A4
9A
59
2A
A2
4A
08
52
41
41
25
80
02
0A
42
62
96
55
85
AA
A8
02
26
45
68
49
64
22
45
16
66
1A
A2
A8
65
89
10
01
A0
46
5A
0A
88
A6
85
95
A8
98
46
10
1A
60
95
56
55
05
15
56
00
1A
41
56
8A
04
5A
62
91
64
82
A5
42
56
A4
94
22
A9
88
08
28
A1
98
69
45
69
06
02
59
25
28
98
9A
59
4A
9A
05
96
48
60
5A
21
09
54
84
11
60
05
09
55
56
9A
15
62
1A
A1
81
2A
40
A1
41
09
A2
A1
44
A8
A1
46
51
A9
40
50
9A
48
92
A9
9A
40
15
44
4A
A0
16
46
45
65
92
A8
A4
29
10
14
65
49
69
26
65
48
49
91
15
58
A4
42
5A
80
A6
69
12
1A
99
99
68
85
51
86
61
18
96
69
94
44
40
49
1A
99
01
94
4A
54
4A
05
94
5A
51
6A
81
15
56
48
A9
24
29
A6
20
A1
84
58
A1
89
6A
69
52
6A
A9
AA
A0
2A
45
66
91
29
06
A4
AA
95
01
05
A4
84
15
5A
24
91
45
A5
14
1A
1A
46
26
16
09
96
45
A9
14
A5
1A
68
98
1A
54
95
4A
45
0A
25
8A
82
96
54
89
80
A5
60
10
88
26
19
86
9A
A8
05
2A
58
02
80
59
88
6A
49
8A
28
95
42
A1
56
6A
99
88
02
40
29
52
16
05
54
12
15
20
46
A8
40
A4
89
50
60
95
88
2A
48
40
25
12
04
15
18
00
25
40
88
00
28
02
A0
91
09
AA
01
58
10
08
81
00
6A
A4
84
94
A9
12
A5
4A
88
00
20
24
05
10
20
64
52
55
50
19
50
85
5A
84
04
A8
48
09
60
5A
48
21
54
05
02
94
28
A1
80
20
40
80
60
20
08
56
29
9A
48
24
62
81
48
A4
22
05
18
1A
90
60
85
25
95
89
64
69
58
A9
84
56
81
A4
84
9A
02
15
A2
04
48
52
04
82
56
42
98
15
81
49
A5
5A
0A
22
41
8A
90
41
21
A4
8A
28
95
89
86
45
06
92
A2
89
06
24
55
A5
64
24
59
95
12
A8
99
21
A2
A9
19
09
54
49
29
12
96
85
10
60
52
26
69
2A
20
90
51
95
A8
22
29
A4
49
5A
46
A6
06
14
58
62
54
66
80
21
65
A5
96
21
6A
A5
52
5A
04
2A
99
A9
96
21
89
9A
52
88
05
A1
91
21
99
22
52
0A
89
24
5A
06
25
A0
06
8A
54
6A
69
22
51
24
A1
10
40
85
5A
81
16
21
40
25
A0
00
44
89
05
8A
01
94
A6
50
66
91
65
08
84
92
A8
56
19
66
52
12
66
92
42
89
69
16
6A
29
01
92
15
82
69
9A
92
40
51
51
A9
5A
28
94
06
40
45
80
A6
9A
A6
10
A6
A2
02
51
A6
02
20
02
A2
49
A6
25
02
2A
A6
51
00
00
65
00
A5
A0
A2
82
14
00
00
10
00
22
20
AA
41
20
82
12
14
24
51
80
00
A2
40
A2
41
82
A6
51
49
00
51
51
00
10
00
01
10
00
10
A2
28
21
9A
08
01
00
50
61
10
10
42
1A
41
A4
09
45
51
08
04
00
51
00
51
A6
00
41
00
00
00
AA
60
96
25
08
A9
65
86
49
A1
51
98
9A
29
59
55
89
26
66
A8
9A
66
90
92
94
48
86
A0
44
49
29
A9
65
44
09
A6
24
6A
40
A9
12
1A
40
2A
00
A2
A2
6A
88
60
08
54
15
85
19
29
51
85
15
52
42
A8
96
AA
68
59
6A
65
5A
46
29
A5
40
21
02
58
68
89
61
95
20
0A
56
0A
18
81
21
65
62
6A
99
4A
62
96
98
66
59
49
45
09
68
81
50
A2
66
25
91
A1
59
96
61
90
96
AA
A5
56
45
28
00
15
8A
19
45
5A
A6
48
65
54
6A
41
A1
25
54
46
94
18
50
59
52
A5
00
19
05
56
11
82
91
91
90
61
94
1A
2A
42
55
95
52
65
A6
49
84
85
59
02
54
9A
56
86
48
8A
89
8A
66
A6
A4
A2
90
98
52
89
95
88
45
8A
A5
14
A6
9A
40
05
01
52
01
24
19
A0
04
81
20
A2
21
05
99
25
40
16
80
21
04
01
41
9A
16
40
98
08
52
08
22
90
44
85
42
40
21
41
02
06
00
08
41
54
80
18
28
01
94
11
82
58
A2
A1
45
00
00
06
80
80
AA
88
81
04
42
24
42
10
02
4A
21
01
98
19
02
A8
05
5A
01
04
A8
88
04
18
81
81
50
61
41
52
04
A5
04
80
02
06
0A
86
0A
4A
A9
A0
96
20
5A
09
15
52
A4
A1
29
A9
A1
28
1A
AA
84
65
62
46
66
59
60
69
49
82
92
50
41
5A
54
A5
92
26
41
62
64
60
94
55
64
61
56
46
92
96
25
84
54
21
18
89
A9
95
1A
04
A9
29
48
84
91
20
A5
A5
92
19
2A
66
61
29
24
41
65
1A
98
A2
42
5A
54
96
21
80
26
98
52
24
20
1A
05
45
A4
42
A2
84
08
44
00
65
08
80
98
64
16
9A
05
48
A0
54
56
04
4A
02
85
89
21
05
00
A4
68
84
61
58
A5
48
00
00
48
42
0A
0A
84
66
40
05
04
58
02
02
A4
41
88
80
A2
11
02
A6
8A
91
04
18
66
15
69
96
6A
02
65
59
68
02
58
0A
10
22
00
84
89
A4
41
88
95
82
84
A1
A1
48
AA
28
85
11
1A
21
4A
46
84
18
24
59
18
10
05
84
2A
96
6A
09
06
28
55
0A
14
A8
0A
6A
28
5A
91
20
A2
06
26
96
A1
98
44
28
A9
4A
91
49
29
58
A5
60
52
41
80
AA
85
A6
15
59
89
4A
A8
84
6A
21
56
29
09
02
96
81
96
29
4A
91
95
62
1A
6A
64
6A
80
68
A4
19
8A
42
A4
46
99
16
A5
91
A8
54
61
59
1A
1A
12
94
4A
19
45
42
AA
81
42
26
A5
AA
82
65
48
A9
04
95
91
50
4A
00
10
80
04
41
08
08
01
68
18
A4
52
00
01
20
A6
04
26
02
60
98
95
50
88
40
21
92
00
50
62
62
04
00
29
45
40
04
02
42
46
00
90
68
20
96
20
82
66
91
11
06
28
15
10
42
44
81
49
10
10
02
05
18
08
64
90
20
05
01
42
16
00
14
44
48
2A
88
21
40
2A
05
62
41
90
80
64
49
60
9A
28
A0
46
61
11
06
26
41
99
19
A9
54
9A
52
A8
05
95
6A
55
56
92
A8
2A
19
A9
04
A6
1A
15
61
08
1A
62
0A
59
16
28
69
9A
98
9A
22
81
56
89
A4
85
A9
98
06
10
8A
52
6A
29
92
85
86
52
4A
9A
81
46
49
A9
A8
96
58
50
A1
95
2A
28
A2
9A
90
91
42
85
96
19
2A
52
5A
84
92
51
51
12
0A
80
20
5A
6A
9A
A9
95
26
92
01
65
A1
59
65
45
22
12
66
55
2A
A2
29
4A
90
5A
91
16
54
61
65
2A
69
48
90
92
A2
55
84
A5
49
A1
59
19
01
49
5A
95
A9
61
62
61
25
A8
69
55
40
58
88
89
55
A5
44
65
A4
2A
62
6A
24
92
84
25
2A
40
A1
25
0A
11
06
65
69
68
A8
15
62
58
A6
56
99
91
85
A6
84
10
2A
56
18
65
80
14
41
69
91
96
81
5A
46
19
A0
18
A6
61
89
02
89
A5
41
95
54
01
85
21
49
90
22
66
A5
66
95
29
A6
28
94
45
A6
45
65
91
4A
26
40
61
94
59
A1
21
AA
01
4A
24
59
11
85
81
85
A2
84
46
89
28
5A
56
82
65
19
9A
06
21
09
01
AA
A5
98
81
14
44
49
25
1A
28
10
66
48
62
64
56
46
95
01
14
19
50
A1
00
9A
49
45
64
10
50
54
61
02
92
25
12
A1
56
96
A5
06
08
1A
AA
AA
85
88
60
91
88
60
02
6A
1A
6A
92
20
91
11
06
51
86
86
65
14
02
12
16
85
65
24
68
68
49
85
8A
48
11
62
5A
21
2A
05
84
61
1A
86
58
65
46
6A
19
51
A0
48
55
A0
18
82
26
4A
1A
A6
28
98
18
15
45
49
50
59
46
52
16
01
82
29
A4
60
9A
54
19
8A
20
80
18
5A
99
AA
01
61
25
59
25
14
29
A9
66
9A
96
66
AA
21
62
45
A0
66
A6
40
02
16
56
98
88
55
A2
64
99
9A
91
25
89
A4
48
16
22
09
2A
68
81
29
02
60
06
AA
86
88
88
20
24
26
A6
26
62
56
55
AA
60
2A
44
22
54
20
90
19
28
49
8A
A8
0A
82
98
86
12
1A
24
98
66
92
04
66
84
66
51
AA
51
8A
66
02
5A
84
45
18
26
62
80
45
05
22
18
81
1A
19
01
22
50
10
52
01
22
18
A2
15
20
20
15
A4
4A
49
A9
11
91
A0
11
29
6A
05
26
02
88
02
15
41
09
19
11
15
49
11
A8
9A
A8
02
15
20
41
92
12
09
82
49
02
A0
44
40
01
64
04
92
5A
10
06
06
04
12
49
20
06
19
00
21
11
09
A2
10
A8
51
16
89
80
86
A1
A2
0A
A9
80
11
11
02
08
15
25
AA
51
82
06
66
96
45
08
19
95
89
46
1A
A2
91
09
54
0A
84
06
89
82
9A
18
A0
19
45
99
A5
51
5A
55
A2
11
81
20
A2
00
86
1A
81
11
98
45
99
62
66
24
14
A6
55
89
18
45
55
99
96
28
25
6A
66
9A
54
A5
54
6A
04
19
A4
56
49
A5
21
26
91
22
A2
09
60
26
68
04
26
21
51
54
64
54
5A
25
2A
98
45
88
11
25
55
A6
82
65
41
96
04
25
6A
96
46
19
98
91
5A
65
69
59
50
64
65
18
A6
69
85
95
0A
00
49
A6
16
95
9A
A6
92
21
0A
61
44
A2
85
A0
54
21
84
05
26
A2
99
45
22
16
8A
65
A4
49
69
61
25
99
28
5A
26
45
A1
86
45
21
45
5A
21
44
6A
99
0A
51
01
82
45
21
56
A2
25
45
52
48
95
A8
90
49
69
9A
A2
06
65
10
9A
9A
99
1A
99
9A
A0
65
9A
9A
04
6A
9A
65
99
65
08
01
9A
65
00
10
65
01
05
80
9A
61
20
11
10
00
04
00
10
9A
65
24
48
8A
00
24
65
10
60
9A
62
9A
65
9A
9A
65
65
00
65
65
00
00
00
80
02
14
09
9A
01
01
9A
90
04
00
68
65
00
00
00
0A
65
25
11
24
65
10
20
00
65
04
65
9A
01
65
26
00
02
8A
A5
19
98
61
65
59
65
65
18
05
A6
A2
9A
45
96
65
66
6A
68
1A
96
54
26
24
55
96
AA
18
69
2A
95
11
AA
28
12
48
08
69
44
14
09
2A
60
24
89
A9
92
98
15
11
55
28
01
A9
15
09
81
61
64
22
59
9A
AA
99
25
4A
55
94
69
9A
59
2A
56
82
66
81
AA
58
A1
19
49
21
84
96
02
A6
A8
A4
26
24
89
8A
12
99
5A
41
A5
A2
4A
25
08
12
82
42
65
24
55
16
99
69
25
59
12
59
65
95
40
45
06
65
56
26
A9
12
49
61
41
A1
05
64
69
81
86
85
21
A8
99
49
05
8A
91
95
25
59
86
84
59
86
14
88
84
4A
14
40
24
20
29
2A
84
44
5A
19
49
61
59
59
06
46
91
65
A9
00
A2
15
6A
64
92
6A
18
58
26
24
65
84
11
5A
A2
51
A6
21
84
01
2A
44
66
89
A0
00
20
49
84
90
21
00
14
00
00
8A
A2
19
62
49
04
A2
01
85
64
08
A4
00
92
AA
10
AA
14
20
14
0A
14
81
02
08
A5
05
82
49
60
61
88
46
08
21
20
01
10
05
08
44
45
22
19
24
54
41
41
04
98
81
81
0A
10
18
44
42
24
0A
20
84
08
89
50
24
26
2A
40
40
2A
01
61
45
00
06
11
86
01
02
09
91
19
64
85
46
82
1A
82
08
40
06
46
85
95
65
64
60
21
91
51
82
AA
18
29
AA
62
45
28
A1
6A
94
15
2A
A2
85
4A
51
98
8A
91
14
2A
29
4A
5A
A1
A5
65
60
46
12
A9
8A
55
45
88
92
19
29
41
2A
25
42
96
A5
19
91
41
28
95
15
45
55
AA
60
15
5A
2A
68
15
41
A4
10
2A
29
62
98
65
51
95
44
98
15
55
52
89
A4
22
21
8A
56
09
00
06
04
55
28
AA
42
42
69
90
24
28
09
40
5A
01
28
82
01
05
0A
18
15
89
29
29
44
A0
90
8A
00
A1
00
A0
28
04
10
A5
00
55
86
85
02
44
15
92
40
86
A4
10
21
5A
41
24
00
52
49
18
61
09
A8
10
00
06
86
A5
10
08
41
92
61
01
50
00
82
29
21
8A
99
5A
29
20
94
85
16
25
A5
1A
12
26
54
49
6A
2A
60
62
44
15
59
45
95
85
61
10
8A
45
25
10
11
65
50
20
A8
84
99
A0
1A
40
A9
42
AA
6A
59
05
99
46
51
4A
A5
62
9A
51
45
89
89
41
65
21
1A
55
16
9A
29
56
5A
12
44
92
86
49
55
69
51
00
49
A8
21
41
25
50
59
26
5A
18
98
85
92
64
5A
59
AA
96
54
92
95
51
21
05
26
42
59
52
4A
56
59
19
04
80
22
40
40
00
00
88
2A
10
44
40
02
08
20
24
14
28
42
22
00
51
8A
14
14
45
A2
AA
15
89
51
04
28
40
41
90
00
00
8A
42
02
15
10
00
00
01
85
61
40
10
9A
10
00
42
10
90
60
0A
22
11
80
20
51
12
02
11
81
28
01
52
42
8A
18
00
00
11
80
60
42
22
A8
22
60
09
00
80
98
40
66
62
24
08
61
10
6A
82
2A
59
2A
21
65
51
69
82
2A
96
5A
8A
55
96
14
66
95
A6
49
62
95
61
94
A5
1A
90
85
54
86
04
25
45
58
46
4A
2A
64
69
44
6A
6A
19
42
96
51
59
0A
46
40
62
2A
A6
22
21
95
29
16
55
AA
99
88
A2
89
9A
88
A9
12
61
65
A0
90
52
48
59
86
A1
20
68
26
59
A5
94
69
46
1A
58
21
59
A9
29
68
94
65
A8
0A
44
96
10
12
54
A9
51
1A
9A
09
98
62
91
55
92
2A
59
14
52
A9
2A
55
05
5A
A2
98
A8
A5
91
41
6A
95
92
55
45
90
01
20
06
49
60
56
90
15
02
69
25
A9
88
26
91
A4
29
66
15
95
A8
95
69
26
45
61
86
01
59
6A
12
45
58
A9
94
28
28
2A
99
A6
42
46
AA
46
55
55
80
00
A2
09
8A
55
95
29
44
58
2A
5A
96
29
A6
94
86
92
96
1A
62
56
60
24
A5
A2
22
61
2A
59
A6
AA
A5
99
40
1A
12
6A
14
0A
65
80
82
22
1A
88
92
86
28
4A
54
85
26
92
59
18
45
58
A5
49
68
89
69
05
52
85
56
16
54
88
95
45
42
85
99
9A
29
96
0A
95
9A
61
99
59
A6
66
A9
52
99
8A
06
1A
16
40
A2
62
12
52
2A
6A
5A
1A
0A
A5
25
69
66
A5
16
56
86
29
45
65
19
00
82
65
85
44
88
40
19
22
2A
55
08
AA
92
86
04
64
56
50
29
89
22
6A
95
15
46
51
14
15
A6
16
AA
26
5A
49
99
50
60
56
45
95
81
2A
86
29
89
40
65
82
58
69
08
2A
15
19
0A
A4
12
85
16
51
21
96
A1
48
2A
02
08
94
08
16
46
9A
66
24
55
55
92
44
6A
60
10
56
A4
91
69
94
80
56
89
8A
85
99
A8
61
85
61
44
55
4A
58
9A
48
25
82
45
54
99
22
A6
98
24
21
56
96
84
05
99
A8
AA
51
52
86
A2
2A
04
15
20
94
80
89
21
89
96
12
92
56
A4
15
66
5A
90
AA
94
29
A6
59
A9
66
51
26
26
14
16
A5
42
95
80
82
55
6A
02
A1
A8
49
61
16
01
68
26
18
09
14
11
56
8A
55
6A
A4
08
29
12
1A
41
45
95
22
2A
09
02
02
44
58
95
1A
80
06
80
00
06
84
28
41
88
20
81
25
68
40
86
88
86
01
05
64
09
00
AA
60
26
22
68
80
A8
10
8A
05
44
00
04
A6
89
A5
0A
24
09
06
40
28
12
12
01
9A
65
02
29
01
16
A0
54
00
00
00
04
41
06
09
A4
86
01
14
08
88
01
02
20
18
29
25
88
A2
88
05
08
28
18
48
80
11
00
16
84
0A
45
A8
85
52
90
19
1A
99
58
21
A5
26
02
92
96
09
45
28
A5
6A
58
29
A4
A6
60
69
58
4A
A2
02
49
9A
85
68
08
56
28
18
11
81
55
09
96
58
28
00
84
68
02
48
69
91
26
89
96
96
19
40
9A
88
29
56
51
94
58
4A
54
18
44
88
4A
8A
8A
5A
26
59
56
61
52
55
59
92
26
25
A8
A4
06
20
A9
29
10
61
14
5A
A5
28
59
4A
A6
81
16
99
99
29
54
2A
A2
99
15
29
60
1A
1A
95
80
6A
91
46
51
06
52
A2
28
94
59
22
A9
51
92
66
61
59
06
A8
A1
52
12
69
15
85
86
98
56
82
A6
A5
5A
96
52
06
49
48
A8
46
86
91
88
85
44
16
0A
A5
69
A0
A6
54
26
96
11
55
62
29
02
95
61
81
49
25
41
A9
96
6A
5A
0A
46
25
91
16
82
86
A0
22
19
10
5A
20
A5
A5
A5
86
A5
A5
10
5A
A5
A5
40
82
A5
5A
A5
58
82
80
A5
5A
82
82
5A
40
49
00
A5
29
00
01
00
00
44
00
08
25
5A
69
88
80
00
49
5A
00
00
A5
08
A5
5A
A5
A5
5A
5A
40
5A
5A
08
40
18
41
41
40
00
A5
04
61
A4
06
41
60
00
5A
41
04
80
82
5A
09
00
40
5A
02
00
18
5A
44
5A
A5
01
5A
00
00
16
A4
22
9A
A2
A9
66
61
52
89
A9
1A
16
9A
4A
60
00
61
61
15
09
68
8A
99
85
5A
61
6A
14
AA
5A
64
8A
6A
9A
10
26
50
20
14
A6
69
56
69
91
60
64
9A
91
69
06
AA
84
62
51
65
59
24
18
A6
00
28
A9
54
A5
AA
51
A0
69
24
1A
66
22
91
50
21
49
50
50
82
95
58
52
56
91
55
58
4A
A6
52
A0
06
21
06
92
98
09
60
41
40
89
25
54
80
46
2A
68
80
6A
65
86
04
16
69
68
90
6A
48
40
81
A2
52
84
49
11
4A
50
A2
28
54
A4
49
5A
11
11
19
1A
06
AA
98
52
02
96
2A
58
68
95
81
9A
69
AA
69
64
69
A9
86
95
56
18
89
68
62
99
41
62
A2
56
AA
55
6A
49
8A
A1
65
A2
11
50
24
A6
82
1A
06
56
A4
96
56
61
58
55
65
18
A0
94
45
2A
46
19
96
01
04
10
21
10
09
99
00
04
88
00
46
49
95
0A
28
14
60
00
60
98
09
29
98
85
18
48
A2
05
49
20
09
45
04
A8
00
69
18
99
54
40
08
00
01
20
82
19
06
50
40
64
00
04
80
21
22
25
6A
44
02
44
88
48
85
19
10
06
1A
88
0A
A8
A0
91
00
09
60
41
01
02
18
64
41
04
06
02
00
01
A0
40
20
51
50
5A
29
A9
14
69
AA
55
40
99
A2
14
88
65
22
65
68
62
64
9A
80
49
58
26
68
56
16
96
85
42
A2
68
62
58
58
66
65
55
46
45
8A
68
55
66
15
58
9A
05
A2
95
2A
61
AA
48
66
81
65
2A
19
59
56
14
56
51
51
02
2A
A9
26
12
10
48
A5
59
41
25
55
01
24
42
68
9A
5A
58
90
A2
A4
96
59
95
14
A0
64
A8
26
0A
01
00
96
88
61
99
44
AA
00
1A
0A
96
42
44
92
09
A4
60
41
2A
85
10
99
60
A4
18
09
24
0A
40
85
82
19
05
A2
A4
12
08
5A
95
61
98
44
94
56
16
58
81
2A
44
00
04
84
00
20
16
40
A8
84
08
55
9A
01
69
89
09
A4
52
02
00
65
10
84
58
25
02
18
02
19
15
8A
20
54
06
94
5A
88
10
41
4A
19
09
81
06
41
4A
69
40
55
66
61
02
0A
66
55
45
A1
A6
68
01
2A
04
85
60
6A
55
06
00
94
5A
16
A9
41
08
09
24
A9
88
60
85
24
94
06
05
98
14
9A
85
A9
A8
99
26
64
21
69
1A
65
55
11
55
4A
25
19
2A
6A
19
15
22
25
4A
0A
29
68
48
2A
55
95
85
04
58
5A
AA
25
42
65
15
A4
28
44
A1
99
16
A8
64
16
21
1A
6A
91
09
A8
82
89
01
02
12
02
45
98
68
40
04
01
01
00
4A
29
12
24
00
21
06
04
22
08
24
94
28
01
68
21
41
19
89
86
09
12
12
04
90
21
40
40
51
00
12
8A
09
25
12
60
24
91
60
12
05
24
66
26
22
09
96
10
66
06
16
00
40
18
22
44
90
98
0A
22
12
28
40
A1
04
85
86
68
02
11
25
42
12
86
05
59
0A
50
00
81
90
26
00
41
4A
54
48
16
54
65
52
86
59
51
45
94
46
94
A4
45
45
A8
9A
68
21
A8
22
96
8A
95
A6
60
88
2A
A6
2A
86
A8
A6
44
91
91
08
05
64
18
95
A6
12
52
A0
59
86
41
58
05
98
2A
0A
1A
19
60
AA
20
58
86
15
54
96
45
01
85
66
49
18
12
A9
61
22
26
22
25
8A
65
65
69
A6
A5
66
2A
66
18
51
16
61
4A
96
24
A6
01
A1
55
A6
95
29
92
99
AA
5A
06
44
52
52
5A
42
82
A6
4A
88
A6
69
AA
51
28
96
16
19
26
95
58
1A
86
29
41
14
1A
2A
66
69
42
A6
A6
69
59
02
64
1A
91
AA
68
65
1A
24
22
AA
24
94
54
0A
90
95
08
A8
6A
86
99
95
06
42
19
26
81
04
A5
A2
A1
65
5A
69
65
42
59
51
25
A5
96
14
69
A2
09
56
46
9A
02
09
98
46
95
9A
26
40
88
A4
16
54
A9
91
09
22
55
02
98
98
80
5A
55
0A
68
62
5A
98
51
85
26
65
96
91
09
56
A2
84
8A
58
22
6A
A2
12
A2
15
55
04
6A
A5
21
49
52
6A
68
2A
54
56
56
86
6A
56
9A
06
96
69
99
85
54
89
09
98
59
A8
60
69
61
60
40
54
9A
A6
A6
A5
A8
42
04
A9
54
42
22
A2
12
12
28
49
A9
AA
5A
88
01
14
09
55
28
86
01
22
9A
04
94
69
10
14
48
84
A6
AA
60
59
40
16
42
95
56
24
A1
11
16
08
02
61
25
50
99
68
A2
01
24
54
88
05
05
54
6A
92
40
64
0A
29
26
66
A4
12
0A
4A
52
02
05
68
49
96
4A
55
04
8A
92
28
5A
06
A6
1A
65
6A
25
4A
19
05
44
62
65
1A
91
99
02
92
95
05
65
66
24
94
99
81
65
54
92
59
A8
49
69
96
56
61
92
A9
05
96
45
65
96
96
51
59
55
99
04
92
55
8A
00
8A
86
49
29
A6
15
98
A8
19
58
99
65
96
09
98
08
89
90
56
AA
56
52
46
61
15
41
A5
41
99
9A
A8
10
92
26
84
4A
55
44
68
29
21
65
80
45
49
A0
06
95
A2
84
55
12
24
54
94
59
98
A9
96
16
98
44
95
50
00
12
92
88
66
00
8A
94
08
45
2A
01
A0
68
19
55
89
44
60
50
02
28
65
96
00
00
12
94
01
02
98
49
46
41
08
60
11
22
24
0A
48
52
5A
51
02
A0
02
45
08
90
08
50
48
44
49
45
A0
22
91
9A
82
60
86
1A
A2
46
92
28
1A
44
00
10
41
62
00
80
10
41
22
84
00
29
44
21
04
9A
81
A4
21
15
08
69
68
12
18
95
20
01
10
A2
04
94
56
AA
99
9A
80
98
A5
06
89
9A
12
59
99
56
96
22
55
A6
94
54
61
A5
86
1A
96
55
50
91
42
16
52
06
58
50
05
42
24
08
82
A4
A2
95
A6
45
56
68
A8
5A
45
16
55
29
A4
A2
65
82
AA
68
61
19
A8
19
85
40
25
59
96
0A
A9
81
86
54
1A
82
29
55
A1
69
A9
5A
56
10
54
05
45
50
42
A5
65
29
12
19
52
81
2A
A5
62
20
26
6A
A5
8A
90
65
85
5A
69
96
88
52
21
04
A9
A6
29
86
A9
68
A2
91
A2
85
68
55
5A
A1
2A
A1
99
A2
A6
80
60
51
59
28
A8
0A
98
A9
54
A9
60
50
26
99
A1
A0
62
62
59
46
55
1A
08
98
20
68
6A
54
6A
82
5A
44
56
18
16
A2
A6
69
26
6A
12
60
21
92
11
65
69
94
4A
64
51
52
91
98
6A
56
95
54
A2
88
A5
44
5A
5A
5A
40
5A
5A
80
A5
5A
5A
00
09
5A
A5
5A
A5
80
00
5A
A5
00
04
65
08
46
00
5A
00
00
00
04
40
40
00
10
5A
A5
00
00
5A
42
52
A5
00
09
5A
90
5A
A5
5A
5A
A5
A5
80
A5
A5
80
8A
80
00
00
00
00
5A
11
44
5A
80
40
00
08
A5
42
08
08
80
A5
50
00
48
A5
84
00
40
A5
40
A5
5A
44
A5
82
00
00
84
64
52
05
12
AA
68
2A
15
64
16
81
15
96
A5
12
91
A8
45
AA
22
86
10
A6
A0
82
9A
A2
41
01
21
98
69
A1
51
54
81
44
55
A1
81
85
59
64
45
2A
A6
65
85
12
60
64
96
4A
92
28
A2
98
1A
19
64
09
5A
40
90
21
65
A4
92
56
92
59
51
1A
59
0A
18
52
15
64
95
56
05
56
9A
90
65
95
15
98
01
A9
06
86
A0
29
6A
04
25
26
64
96
82
96
95
49
00
65
A4
A5
60
5A
44
01
10
9A
59
26
29
21
49
09
16
90
81
84
44
15
64
08
50
22
A1
5A
94
06
8A
45
9A
9A
01
60
96
A4
98
5A
10
99
22
92
98
AA
94
11
04
9A
AA
22
A8
68
60
95
05
A4
65
02
85
95
66
68
40
46
42
28
69
A1
54
41
55
A6
52
95
A5
08
58
49
55
AA
8A
A1
12
1A
81
92
66
00
08
42
80
22
00
45
20
08
64
05
26
11
08
05
09
8A
91
15
02
25
02
81
45
62
00
82
81
81
25
01
64
09
04
68
00
18
25
20
29
00
51
01
A2
44
45
00
90
4A
00
09
60
44
46
00
18
91
8A
08
02
89
08
46
28
00
80
82
09
54
41
81
02
00
60
00
52
0A
04
19
91
00
10
10
98
02
51
81
08
05
40
A5
08
98
26
09
49
16
65
56
20
65
A8
21
98
AA
80
88
82
1A
86
46
5A
18
59
49
56
A6
A9
91
A9
55
56
A6
91
A9
61
2A
18
14
62
41
1A
20
19
49
65
29
65
24
09
59
25
12
41
54
45
A1
A6
A0
58
62
59
56
40
69
28
65
15
46
A5
40
54
22
88
55
6A
A9
48
AA
69
16
10
A6
69
20
16
1A
A4
15
82
68
45
84
8A
AA
40
AA
06
69
40
A9
A0
85
14
02
41
18
90
06
AA
80
55
46
00
A0
86
48
21
8A
82
48
A0
02
84
26
64
58
04
85
21
94
A2
84
22
59
04
86
06
28
29
10
A1
49
41
96
95
45
48
46
25
54
05
64
68
80
66
85
99
01
26
08
08
A2
22
24
28
12
68
80
20
69
01
05
02
A1
06
50
84
50
04
19
02
28
01
51
11
A8
68
84
94
84
41
22
0A
08
26
69
48
95
12
52
86
5A
8A
21
91
88
A9
80
89
54
99
22
42
A2
48
85
A5
52
89
46
14
19
AA
A2
28
66
49
A1
8A
8A
96
91
18
5A
A6
18
45
50
A9
69
98
48
A5
48
01
66
98
25
09
26
58
51
A5
06
62
00
92
9A
60
11
22
28
58
44
58
42
65
14
20
19
98
29
24
62
96
26
01
9A
A4
50
48
54
54
18
05
19
92
21
5A
95
95
02
02
28
14
01
00
00
88
90
51
19
00
40
02
85
18
50
20
84
5A
54
82
01
28
06
84
82
66
28
01
91
15
48
62
62
45
02
28
11
88
19
04
28
10
04
41
26
12
04
41
06
60
18
08
28
92
14
95
88
28
54
40
26
10
05
08
82
21
88
98
0A
04
25
08
00
25
10
A2
21
12
84
00
51
A1
50
92
19
10
94
09
02
21
50
58
A0
61
A0
55
41
04
6A
52
25
90
92
66
62
55
2A
A6
A5
6A
15
AA
56
A4
9A
19
2A
61
96
48
01
99
81
A5
44
20
56
90
A8
11
19
0A
29
69
09
0A
52
99
69
24
8A
28
99
9A
85
56
91
40
56
A4
11
A8
42
A9
92
16
89
14
91
5A
52
11
92
AA
95
5A
06
96
24
A5
86
98
6A
88
20
69
51
82
61
81
80
10
55
51
85
58
49
55
91
A5
94
11
56
81
41
65
96
82
49
50
15
05
55
6A
2A
55
49
A1
56
8A
8A
AA
01
9A
AA
45
12
44
9A
61
05
89
88
A4
AA
59
60
25
04
12
A0
18
62
61
16
95
6A
88
52
11
05
26
49
05
A5
6A
69
18
45
6A
46
42
66
65
95
42
A9
65
56
54
A9
56
A2
60
29
25
A4
14
62
8A
15
64
AA
A0
02
65
68
28
62
98
68
A6
16
A5
A9
6A
A0
12
99
49
62
24
46
96
44
22
8A
A5
81
49
06
99
16
8A
8A
19
AA
40
A8
44
6A
9A
98
A4
16
58
89
A2
A1
12
64
5A
66
12
85
15
54
06
41
54
6A
46
A8
08
A5
08
28
15
64
18
01
2A
82
A9
85
5A
58
AA
9A
61
91
25
A5
40
21
56
06
91
49
82
68
01
89
66
01
28
5A
08
A6
55
A8
AA
1A
22
5A
52
89
69
62
9A
69
8A
A0
6A
66
55
98
06
66
58
06
04
68
95
44
51
15
08
59
A4
A5
81
2A
29
68
46
81
56
A2
64
01
29
5A
40
58
A6
A4
82
02
9A
A6
80
AA
6A
42
09
21
15
16
A4
AA
45
94
A6
64
62
22
10
62
48
55
45
64
99
28
25
50
26
15
06
06
45
20
04
54
09
90
28
98
85
51
45
A8
45
46
58
00
66
16
69
59
0A
64
59
68
58
28
04
65
84
04
24
69
69
62
28
22
19
66
61
25
52
A9
86
05
25
A0
01
26
42
44
02
56
98
94
89
AA
9A
02
92
2A
A4
14
26
42
06
89
15
66
86
45
A8
65
99
62
24
04
94
54
04
12
81
26
68
45
6A
62
81
85
41
16
95
6A
49
19
8A
96
56
99
5A
88
62
06
9A
19
A9
52
26
A9
A9
A6
AA
A2
41
64
45
54
41
25
42
14
58
94
04
04
20
41
64
5A
80
41
29
26
88
46
08
84
51
94
85
A8
9A
80
00
11
95
04
96
61
49
68
69
86
A0
92
80
80
11
82
10
20
49
81
90
26
44
19
44
01
80
42
1A
A2
10
08
68
24
11
90
18
41
1A
16
04
08
A2
04
00
60
40
82
62
60
84
50
40
40
5A
11
14
09
81
A1
11
44
49
40
19
46
2A
60
92
52
08
2A
98
A8
66
26
66
6A
4A
54
88
A4
28
55
21
15
91
A0
61
A6
18
15
94
A6
AA
9A
16
A9
A5
1A
A5
92
90
51
68
51
20
90
52
00
A1
98
20
68
41
6A
51
45
58
05
15
08
45
84
19
95
8A
A0
50
A0
5A
9A
A1
A5
04
12
58
84
02
94
09
54
25
46
91
5A
96
05
A8
49
8A
90
59
9A
94
05
65
62
44
58
64
22
A4
24
4A
81
45
96
92
A5
66
41
55
49
A8
88
18
89
09
9A
81
82
95
99
A5
62
55
84
19
55
8A
40
05
50
59
11
A6
51
A6
11
41
66
88
16
56
44
98
45
51
A2
89
44
61
89
02
26
50
66
45
05
61
89
62
A4
A2
8A
68
14
19
51
61
29
8A
20
A6
69
68
59
99
A9
4A
21
61
88
12
20
51
54
45
0A
46
89
A1
90
06
66
AA
25
85
62
84
26
AA
44
24
99
62
84
00
55
08
AA
AA
AA
84
AA
AA
00
55
AA
AA
A4
A8
AA
55
AA
54
01
52
AA
55
24
40
56
60
56
58
AA
08
81
58
80
00
84
08
50
AA
55
0A
08
AA
80
46
55
18
A0
AA
A0
AA
55
AA
AA
55
55
80
55
55
00
81
10
00
00
00
00
AA
42
48
A9
05
80
80
A0
55
80
24
00
00
55
52
00
80
55
00
40
00
55
80
55
AA
08
55
90
40
84
26
A4
68
4A
15
05
16
4A
58
A1
95
00
4A
46
96
4A
A8
58
45
94
05
A5
9A
9A
68
4A
AA
11
91
51
19
54
99
99
00
96
55
59
1A
2A
1A
A9
62
65
5A
A5
14
49
12
A6
A6
91
5A
99
11
45
A0
95
49
86
45
A2
86
19
1A
A1
9A
95
2A
82
16
99
A6
99
24
84
46
01
99
05
88
16
29
26
85
05
54
46
84
1A
1A
99
15
69
94
19
56
25
95
65
A6
48
22
92
29
42
64
61
82
64
A9
1A
55
98
96
95
8A
8A
21
81
40
89
A2
25
A8
24
A2
66
66
60
99
05
02
15
84
A0
15
15
6A
68
15
68
61
91
28
55
66
85
19
65
6A
66
49
80
18
2A
22
46
A4
90
95
12
09
62
29
88
18
AA
60
85
1A
8A
46
5A
5A
91
18
41
16
2A
49
26
42
46
A6
49
26
10
61
50
51
21
52
A4
A0
02
62
62
29
02
08
11
01
40
16
08
A5
10
8A
54
10
51
19
16
12
21
98
01
82
20
A4
20
6A
15
29
20
12
40
00
01
58
40
4A
98
60
62
02
40
40
50
96
84
12
18
81
8A
48
01
92
01
00
60
56
50
19
A0
84
02
46
25
42
01
08
09
96
56
18
61
00
40
02
06
8A
A0
50
08
11
90
88
00
A5
81
12
44
96
21
06
50
61
9A
14
A1
40
98
12
A6
62
65
06
54
A1
20
88
69
99
5A
99
A8
56
91
60
A2
41
49
A1
0A
89
49
1A
60
A4
64
A8
A5
42
58
82
91
66
00
28
9A
88
88
64
99
84
A4
14
08
20
9A
A8
95
A2
55
09
84
06
65
9A
86
65
11
96
69
81
55
98
44
A0
12
6A
12
28
50
45
90
65
A5
A0
12
92
41
28
66
96
6A
82
61
95
A5
84
6A
18
42
21
91
42
82
54
89
80
14
25
46
50
02
A8
11
41
18
6A
90
54
99
61
85
84
92
56
69
00
54
52
94
01
46
94
65
00
20
22
14
88
89
88
52
02
08
40
16
25
82
04
84
80
41
42
91
6A
10
02
42
22
88
00
49
A0
14
90
01
6A
A0
68
45
44
54
50
42
4A
80
0A
41
12
02
08
41
20
A0
28
A4
A5
A0
25
55
04
90
00
21
16
42
48
A4
99
66
99
95
A6
61
86
80
0A
A5
22
98
52
18
A6
20
20
9A
29
55
4A
94
94
84
25
A1
40
59
61
55
62
68
14
56
A2
99
1A
55
98
A8
64
5A
56
A9
14
81
99
5A
05
64
46
00
55
51
20
52
51
98
64
4A
94
A6
92
68
51
60
46
99
1A
64
14
85
69
44
9A
A8
65
51
06
91
A8
9A
91
65
A8
66
4A
85
58
86
64
91
21
60
A9
A8
06
04
00
48
28
09
65
24
01
54
11
00
54
20
40
80
08
90
A4
00
48
92
28
25
40
51
5A
50
90
29
24
60
11
26
16
2A
44
81
08
88
01
0A
11
A0
64
90
52
81
1A
89
04
80
00
9A
A1
98
92
1A
00
58
91
90
00
04
28
24
64
66
A8
80
54
80
19
A0
A4
92
42
04
92
64
02
4A
64
4A
68
11
8A
61
98
12
54
50
52
68
90
59
48
AA
64
68
06
A8
51
24
60
99
45
4A
5A
6A
64
95
62
69
04
59
11
68
A9
A0
46
19
90
A4
9A
88
A2
96
62
45
98
A8
A2
15
62
69
85
9A
40
15
08
86
0A
A9
5A
A9
A5
90
89
28
15
61
8A
92
50
90
55
A2
19
65
94
96
AA
88
62
A6
A9
4A
81
52
98
18
20
AA
29
8A
12
52
29
80
AA
62
84
04
96
54
54
2A
59
24
AA
6A
A9
96
9A
55
49
90
56
65
99
8A
54
98
95
12
08
12
85
48
1A
60
09
A1
0A
A1
45
A5
62
14
91
25
A8
5A
1A
42
49
2A
40
49
96
A8
55
A5
5A
56
08
68
95
89
A8
45
25
11
90
96
A9
56
6A
69
86
65
9A
28
99
85
19
62
59
08
A9
55
66
66
82
1A
2A
18
68
68
15
41
52
96
52
55
29
51
29
55
25
A8
4A
A2
22
25
59
95
1A
66
69
65
11
02
19
20
A5
60
A5
14
26
49
98
25
50
56
96
A9
89
92
16
4A
65
2A
16
14
86
92
12
A9
21
A0
28
65
61
A8
58
94
58
A9
61
69
96
A2
90
92
A9
A9
09
69
AA
A1
A9
55
49
56
51
26
55
62
A4
49
99
95
94
15
15
96
45
16
52
69
68
52
00
85
12
A5
5A
80
68
55
85
55
96
9A
99
A6
21
15
65
1A
94
11
A5
65
05
A6
68
51
80
A5
A0
A5
21
A4
46
04
40
40
65
66
A8
5A
65
12
A2
61
A5
24
04
04
28
1A
68
11
A4
5A
55
06
48
A6
65
82
92
68
A2
52
02
96
49
4A
00
59
28
12
94
65
A4
01
98
91
16
28
A2
14
0A
54
5A
5A
98
1A
0A
61
94
52
85
89
94
99
15
26
59
65
66
5A
91
52
46
58
A1
60
64
65
58
52
A5
9A
9A
80
5A
22
55
99
A0
55
29
AA
25
59
29
26
85
A0
26
59
12
56
2A
52
21
99
44
12
A1
61
41
22
29
25
6A
91
56
52
49
A6
50
98
5A
10
A5
A8
92
80
08
A9
6A
45
89
59
48
51
65
4A
9A
42
6A
50
5A
11
49
54
15
90
54
25
05
52
96
04
1A
88
96
95
A5
24
81
66
5A
16
A4
96
66
6A
61
94
A5
09
09
56
66
82
2A
59
09
61
42
0A
84
11
80
15
60
08
01
88
65
41
50
04
00
A6
20
A4
00
0A
45
44
18
14
14
41
94
80
48
04
28
6A
21
11
82
A5
8A
18
98
46
42
01
00
95
6A
00
8A
24
40
62
94
49
41
40
6A
2A
90
0A
05
82
28
80
48
84
49
61
24
5A
56
5A
95
06
26
15
46
A9
19
59
68
10
82
90
44
A1
24
50
05
49
18
16
10
4A
05
88
16
4A
45
A5
56
88
49
16
69
55
4A
86
95
69
6A
84
5A
56
15
09
A6
29
85
66
89
25
92
2A
99
20
01
48
A0
48
59
01
9A
95
4A
18
91
54
A4
64
88
62
0A
84
A8
2A
42
21
66
10
26
94
A4
59
A6
25
09
2A
64
80
A5
54
15
A8
58
6A
91
58
28
64
95
16
80
AA
94
09
44
99
A5
28
69
92
85
89
5A
46
92
5A
A1
64
42
A0
54
06
16
54
6A
45
16
51
50
4A
81
96
4A
A2
19
46
8A
59
A5
22
AA
A9
19
4A
95
22
98
95
5A
4A
84
49
66
A8
80
94
A4
65
A0
99
62
69
28
45
29
96
95
82
04
62
91
AA
A4
95
A0
49
2A
89
68
9A
6A
5A
09
81
80
A6
49
96
29
91
12
A4
12
8A
54
A6
89
51
99
29
92
AA
A9
5A
A2
60
54
89
46
A1
55
95
62
6A
18
6A
06
95
95
95
99
95
95
08
6A
95
95
04
A0
95
6A
95
62
08
29
95
6A
00
02
6A
81
62
00
95
26
00
44
44
00
01
66
01
95
6A
24
62
99
00
24
6A
00
24
95
22
95
6A
95
95
6A
6A
40
6A
6A
01
00
01
05
00
04
08
95
29
24
91
99
04
81
88
6A
06
81
08
18
6A
66
01
00
6A
10
08
00
6A
95
6A
95
02
6A
02
08
00
02
16
0A
69
96
52
68
5A
28
92
A8
81
8A
66
60
56
49
A0
58
AA
8A
A5
48
A6
A5
A1
1A
1A
14
59
AA
A9
25
14
54
6A
88
8A
22
51
99
18
9A
48
51
A0
25
A2
1A
68
66
69
16
54
9A
9A
44
01
49
69
02
49
AA
A5
A5
46
A1
56
02
52
18
19
A9
5A
81
86
61
28
16
56
80
41
A9
2A
25
89
9A
14
62
8A
AA
A6
AA
25
64
62
26
96
96
50
91
A5
95
98
98
56
58
49
26
21
21
66
95
A8
50
48
A1
55
59
0A
69
42
92
A6
AA
84
5A
6A
21
46
44
20
42
10
64
15
86
06
8A
2A
10
1A
55
45
85
29
58
65
82
14
16
46
04
41
59
25
A5
96
46
10
90
28
95
66
A5
09
9A
46
58
84
95
66
52
64
50
A9
A8
25
52
9A
21
95
62
19
8A
91
59
42
61
55
86
45
08
86
54
41
10
28
84
02
40
A6
40
00
00
56
90
51
04
60
49
11
02
A0
50
95
09
60
24
88
11
49
89
8A
11
64
26
00
24
91
91
10
42
88
91
4A
82
62
81
50
00
01
00
A1
92
05
1A
04
54
05
40
00
92
22
55
50
68
12
14
A5
6A
84
11
84
A9
02
58
01
16
90
01
A8
94
61
01
41
85
89
00
68
41
48
02
64
56
81
58
18
A8
16
65
44
28
46
A9
8A
A5
91
29
4A
82
85
15
A9
02
90
59
86
A1
61
29
A9
60
96
44
46
82
1A
89
52
92
22
6A
09
68
A1
66
6A
92
95
2A
AA
1A
19
A6
64
AA
46
96
59
24
A9
4A
85
68
55
45
28
24
05
58
84
99
59
82
29
2A
66
26
A9
09
2A
46
2A
6A
64
2A
49
AA
65
64
14
A4
A8
20
69
45
01
A8
14
A9
A8
52
A9
59
02
04
40
90
42
98
40
02
09
04
04
91
48
44
68
04
50
8A
91
02
54
A0
15
88
45
40
81
06
69
1A
08
88
99
14
80
42
98
04
49
48
8A
10
6A
02
50
84
40
AA
85
40
50
49
A9
50
51
25
99
49
20
01
20
00
A0
18
A8
62
85
06
80
81
11
12
28
54
A0
80
48
00
4A
56
10
64
08
28
02
A6
06
44
64
00
68
40
10
11
40
A8
69
21
26
8A
9A
A6
A2
41
59
19
86
68
98
41
16
66
62
96
A9
16
49
A4
A2
06
88
48
86
A5
65
48
0A
68
21
A2
86
40
59
69
55
08
20
49
96
24
59
88
65
55
00
06
50
55
58
41
86
52
60
54
49
A2
29
A2
A5
86
16
55
08
28
69
45
44
24
91
02
86
46
A5
56
0A
AA
56
61
5A
25
49
52
90
68
62
55
42
89
54
94
A1
05
0A
88
02
00
08
96
84
0A
92
81
11
06
55
10
00
01
15
48
02
95
22
20
11
A6
82
A1
62
42
48
04
16
65
51
00
58
60
06
50
00
22
88
08
04
82
00
12
12
26
1A
90
12
42
A1
15
49
50
50
A8
02
0A
41
05
A4
A9
15
21
55
91
58
91
00
22
04
60
A0
96
22
20
A0
40
02
02
A8
82
02
69
09
80
02
66
18
12
91
55
0A
50
29
15
A6
2A
96
86
09
9A
06
65
85
28
A5
95
26
96
68
9A
82
80
A8
19
66
95
91
24
50
68
06
49
AA
81
15
95
50
90
06
52
82
12
96
22
81
82
02
92
12
19
41
62
56
52
51
28
66
8A
98
90
1A
0A
55
46
A2
01
91
86
52
1A
18
91
62
09
0A
24
55
56
A6
66
95
54
26
62
95
62
59
68
A2
81
02
99
29
16
AA
00
04
96
96
89
29
4A
99
58
91
56
92
22
99
54
99
9A
05
2A
48
55
45
A9
89
A6
45
15
46
A8
A0
45
9A
AA
A6
9A
20
49
56
A5
58
06
09
9A
91
59
99
62
12
98
68
84
6A
06
94
52
99
96
96
56
6A
95
82
62
AA
66
55
AA
4A
60
21
A6
29
AA
84
89
A4
65
89
4A
15
9A
4A
60
99
90
0A
49
4A
99
68
5A
18
95
A6
18
5A
46
94
20
4A
09
59
A2
A6
02
AA
96
4A
99
9A
10
56
95
55
8A
56
A5
6A
A8
A4
9A
A0
44
52
60
95
A9
A4
89
6A
A8
A1
12
68
65
A8
61
99
86
58
A9
AA
68
A2
12
66
94
81
59
48
8A
50
56
A8
9A
49
96
45
49
95
54
A1
15
A8
5A
94
15
46
A2
66
58
0A
42
2A
85
69
6A
62
82
42
16
45
10
82
82
A6
A5
A6
91
49
98
16
2A
48
2A
04
08
08
19
56
92
A1
42
22
1A
52
46
9A
61
80
45
AA
09
25
02
42
82
A4
22
85
95
96
92
0A
8A
A0
59
91
00
55
4A
59
81
15
98
49
61
41
50
15
94
84
A4
A5
09
56
22
59
46
41
2A
99
18
24
96
A5
5A
60
8A
42
95
61
0A
14
60
68
11
41
15
92
12
52
44
5A
9A
88
88
55
0A
14
12
84
19
49
41
81
89
5A
42
65
22
9A
25
82
92
86
9A
A2
60
11
92
95
5A
59
80
09
49
19
81
18
99
56
04
91
56
01
29
48
09
82
19
46
66
A5
16
5A
19
55
12
08
95
8A
99
A6
61
86
19
89
9A
91
95
66
1A
11
46
19
69
14
44
A2
56
A6
16
86
02
65
85
6A
06
61
81
09
4A
09
A4
89
84
56
A4
99
1A
25
65
A1
82
84
45
A5
20
66
26
92
99
06
46
66
44
11
90
54
21
11
41
60
14
19
06
20
85
58
25
A6
64
A5
50
10
24
42
05
68
00
20
A5
08
64
49
42
81
01
40
14
91
4A
81
61
40
A0
68
00
A5
90
80
20
28
84
51
06
A2
00
AA
00
08
18
25
14
1A
02
40
50
58
68
80
20
80
02
10
10
80
A2
80
86
60
60
81
24
52
00
A8
84
20
10
11
50
08
01
02
10
80
01
01
02
24
4A
68
80
84
49
95
56
62
55
62
51
41
64
1A
98
99
16
12
8A
62
58
28
A6
69
A4
41
69
95
21
00
A8
41
98
55
62
56
41
8A
4A
81
05
A9
99
55
08
91
2A
AA
84
9A
8A
24
12
A4
02
61
69
6A
02
58
A9
A4
51
19
A8
11
AA
26
62
62
55
1A
0A
4A
11
15
98
59
9A
A8
65
88
14
21
5A
4A
95
22
1A
16
06
66
48
95
06
2A
A6
11
06
44
9A
56
5A
86
45
15
61
55
A1
99
82
66
6A
45
A0
68
6A
A9
8A
A9
46
05
62
A9
14
96
A5
69
0A
A5
25
40
4A
26
A9
81
A2
14
94
26
59
2A
02
82
84
94
98
44
52
A9
A9
60
58
89
9A
95
20
48
00
8A
19
52
45
69
99
42
A6
6A
49
26
21
2A
59
00
19
8A
16
A4
99
99
81
00
5A
0A
46
A8
45
84
44
50
96
1A
40
A6
18
59
59
59
58
59
59
04
A6
59
59
A0
18
59
A6
59
A6
48
04
59
A6
A2
02
A6
00
A4
04
59
91
19
04
80
80
8A
15
A4
59
A6
85
11
59
00
A8
A6
04
80
59
90
59
A6
59
59
A6
A6
01
A6
A6
04
51
80
04
00
00
00
59
24
A4
59
62
A0
08
10
A6
10
00
20
58
A6
88
0A
80
A6
00
80
00
A6
04
A6
59
18
A6
49
08
2A
A2
09
5A
92
88
29
64
8A
95
96
26
1A
11
61
95
AA
1A
AA
98
89
92
58
42
51
9A
66
52
88
A0
90
A6
26
55
91
95
59
15
85
A8
49
64
90
25
40
62
98
9A
65
98
62
09
21
AA
84
65
A5
59
25
A5
98
A4
5A
A5
95
04
96
16
95
8A
AA
90
02
58
04
66
21
28
A9
11
16
56
A1
AA
1A
65
84
99
46
66
22
99
6A
5A
AA
01
12
95
89
99
A4
64
68
A1
66
65
A6
90
59
89
22
89
59
09
8A
29
8A
81
9A
92
14
A8
46
95
96
A2
A6
88
8A
98
60
5A
29
06
59
00
91
51
6A
AA
25
5A
89
81
02
02
A9
01
95
12
00
21
96
49
95
52
19
42
88
90
50
95
59
85
8A
8A
A5
89
05
45
16
68
A9
11
95
1A
06
58
26
8A
20
64
55
82
44
56
84
41
1A
45
61
86
A9
22
01
11
58
01
21
80
40
20
65
18
09
00
55
12
20
68
28
A0
58
40
94
A0
00
58
50
81
12
45
60
16
94
98
40
A0
11
82
A4
12
45
90
40
0A
08
42
58
92
22
62
A9
86
68
14
41
40
1A
A8
5A
1A
82
02
90
28
08
00
10
91
92
11
20
41
10
01
00
84
A8
A5
69
89
A0
14
9A
4A
00
A2
A0
02
50
60
10
40
55
A0
90
91
88
56
61
8A
62
06
86
59
88
86
85
15
65
86
5A
52
05
05
AA
A9
25
58
59
98
52
AA
21
51
54
44
A5
A4
A8
64
26
92
5A
02
81
6A
6A
56
A5
26
89
19
59
69
08
25
59
A1
99
59
19
22
25
94
4A
66
68
A8
50
94
86
20
61
45
5A
62
12
81
48
A2
01
94
A1
94
99
19
A6
6A
51
29
91
62
82
16
A5
A9
22
28
11
82
26
58
14
54
0A
55
50
20
A0
50
50
01
20
12
01
A9
40
40
A4
04
86
98
59
28
56
49
41
A0
50
10
28
45
48
62
15
15
25
42
26
64
69
A1
8A
99
45
51
62
20
0A
A8
86
81
00
54
09
40
22
42
98
16
09
54
11
04
55
82
01
04
64
1A
59
45
11
00
80
26
41
60
80
82
66
90
A8
1A
48
68
60
00
91
10
A8
69
46
61
48
21
26
A2
41
96
54
55
66
66
98
55
99
58
21
56
90
56
6A
66
94
91
6A
94
10
89
95
84
62
61
2A
42
65
96
91
59
59
46
5A
46
55
59
A2
65
51
84
62
40
5A
54
8A
90
61
65
95
54
5A
26
64
A8
82
29
1A
5A
84
84
52
49
61
69
26
22
11
80
65
61
28
68
2A
99
A9
51
14
49
92
98
99
5A
52
A6
62
16
69
1A
26
50
12
69
46
62
48
21
0A
00
00
11
15
00
02
20
9A
22
4A
04
20
22
86
54
40
21
40
69
14
10
50
96
84
A1
04
16
2A
82
22
81
00
18
10
62
22
A0
28
60
44
0A
00
00
84
02
10
80
80
51
44
10
A0
08
50
0A
40
20
10
51
40
12
16
A6
50
49
A0
05
40
22
11
06
00
80
00
12
26
A0
91
A9
24
04
69
10
00
12
10
A0
A6
08
90
80
80
89
04
24
09
00
09
50
08
21
00
26
14
24
A8
28
18
26
28
28
24
20
28
14
A8
16
14
14
28
02
14
04
55
24
18
24
24
00
08
14
10
A5
99
28
06
28
28
24
24
A5
18
10
2A
26
A8
1A
22
18
04
28
20
68
00
09
19
28
26
04
00
29
08
A8
09
84
02
08
4A
18
08
66
00
A4
24
24
10
09
28
62
99
24
14
08
28
A4
02
02
80
A0
68
66
14
29
12
21
18
29
29
04
24
04
11
14
24
16
19
24
95
44
22
98
14
98
0A
68
A9
84
24
28
98
24
04
14
04
48
64
14
14
24
40
90
A5
A6
58
69
10
25
94
14
41
A4
94
46
16
8A
04
96
95
84
14
88
A5
04
64
59
04
56
08
06
08
14
14
45
04
16
10
6A
16
29
A8
AA
18
1A
60
66
10
54
24
21
15
24
68
08
04
04
98
A8
A2
46
8A
95
19
9A
04
88
54
61
A8
58
11
1A
02
92
58
04
44
14
90
04
46
15
99
1A
44
10
08
59
64
28
41
94
A2
80
48
48
10
22
6A
25
A1
A9
85
1A
96
A6
48
24
00
95
28
18
94
2A
01
A0
11
16
18
A0
60
9A
18
86
05
25
18
16
42
5A
52
06
AA
15
94
08
69
94
29
81
69
25
05
AA
68
24
02
12
59
15
22
42
88
24
46
94
14
02
0A
2A
09
20
04
68
00
24
49
58
5A
28
12
26
22
1A
0A
18
18
04
28
20
08
A4
42
08
24
00
06
08
2A
62
28
28
04
28
04
09
02
14
20
64
0A
24
88
1A
08
0A
08
15
61
08
1A
18
21
10
06
18
28
15
04
19
20
04
29
64
60
68
00
0A
24
09
0A
24
08
02
0A
14
2A
24
12
18
08
08
15
14
04
24
10
10
19
2A
84
58
59
88
46
44
48
24
A6
96
0A
00
90
6A
09
8A
01
20
61
A4
22
29
50
1A
46
61
29
6A
86
62
56
14
96
06
A6
21
88
11
16
56
A8
10
22
56
89
81
06
58
2A
A5
16
85
2A
84
55
10
40
15
10
0A
88
89
29
96
A1
14
00
66
A8
18
94
88
6A
06
92
A1
45
95
21
89
A4
52
24
56
19
1A
04
51
82
54
68
95
44
89
A5
15
85
21
90
04
28
62
21
08
90
9A
55
84
06
01
00
06
82
00
09
00
62
0A
05
46
45
02
24
08
54
24
04
90
8A
22
90
04
00
04
02
21
01
0A
42
15
20
80
04
16
00
12
45
A9
84
20
15
08
00
80
04
24
05
10
15
48
10
14
18
28
80
22
04
14
04
20
00
00
96
02
00
6A
60
18
02
09
49
10
08
02
50
02
04
20
21
00
21
04
59
58
59
90
18
1A
66
A8
95
08
24
25
51
40
58
55
A0
12
56
89
86
19
05
29
00
A4
51
04
8A
98
55
A2
6A
A5
24
05
24
55
5A
4A
28
66
16
49
56
A1
A9
05
64
24
06
06
90
09
26
16
18
68
48
80
18
44
22
A9
52
54
21
9A
65
59
86
A8
09
06
58
58
5A
62
AA
A5
04
49
66
15
8A
14
46
42
86
56
AA
61
08
05
54
15
11
96
61
56
01
46
21
6A
42
55
95
A8
24
85
40
26
A9
66
46
16
48
99
0A
A9
11
54
69
46
5A
49
89
AA
29
59
89
55
10
46
94
88
06
08
12
95
29
58
08
64
66
A8
56
29
25
A0
A1
9A
65
94
AA
AA
91
54
A9
2A
05
15
59
56
A8
85
16
9A
A8
46
AA
99
A1
5A
A4
82
A0
AA
88
10
19
98
AA
2A
66
91
01
80
AA
A2
85
44
99
00
66
66
6A
62
6A
66
01
99
66
66
04
66
66
99
6A
99
00
80
66
99
20
28
99
20
99
89
66
91
58
90
16
08
44
90
00
66
99
94
10
62
10
90
99
10
14
66
14
66
99
66
66
99
99
16
99
99
94
16
00
02
28
12
80
66
28
90
66
20
14
00
62
99
10
00
21
60
99
99
22
40
99
04
28
10
99
14
99
66
21
99
14
60
44
88
26
11
0A
21
2A
02
18
62
0A
16
28
4A
04
18
2A
15
18
14
40
98
04
48
A6
88
1A
24
42
24
16
10
48
08
29
19
28
A4
98
18
28
29
05
15
86
26
4A
10
25
A0
08
10
68
88
1A
A8
45
16
2A
28
16
25
01
18
58
A4
18
18
22
4A
08
05
28
04
06
95
60
0A
84
41
54
A5
84
95
19
14
25
28
24
28
00
99
04
14
A9
28
A9
01
94
18
18
16
04
00
1A
58
15
40
56
A8
18
14
4A
54
29
90
42
44
28
24
A8
40
10
82
10
25
A9
96
26
62
28
40
A9
94
24
04
22
4A
64
28
15
06
01
24
16
65
84
40
65
24
11
18
08
0A
1A
24
20
86
04
04
04
10
15
60
94
21
1A
55
09
94
10
68
02
5A
80
04
46
11
64
48
15
24
08
64
04
21
08
00
28
1A
26
22
19
09
2A
00
18
10
16
08
01
19
0A
14
24
40
18
04
28
06
00
02
00
56
02
02
2A
90
48
82
64
20
00
10
09
46
04
49
08
15
44
0A
01
21
02
10
04
22
14
09
04
04
A0
85
2A
28
04
08
80
46
06
14
18
19
42
04
02
00
61
04
99
00
46
20
00
28
41
08
06
08
00
A0
81
22
00
66
00
44
00
44
02
00
80
41
02
04
48
14
18
28
46
28
24
85
25
28
05
88
09
2A
98
58
04
15
14
A1
65
58
88
84
08
11
2A
20
58
88
12
26
18
08
01
28
02
80
08
24
19
16
29
06
18
16
A8
99
04
94
10
56
42
68
A2
18
00
AA
8A
25
09
04
64
52
94
95
59
04
0A
68
98
95
24
18
88
22
0A
68
16
A5
18
66
A0
06
A4
95
98
54
24
A6
94
16
AA
11
28
A9
00
48
18
0A
04
04
58
0A
05
18
14
21
22
20
10
28
48
46
04
19
44
28
02
28
A2
08
48
08
01
28
20
8A
02
0A
04
00
10
2A
A1
00
08
02
00
44
00
60
84
88
28
20
4A
08
29
28
18
28
01
05
42
26
28
10
91
00
26
04
02
28
20
94
10
88
18
66
05
28
20
04
08
10
54
46
05
28
20
10
40
88
88
55
00
5A
20
0A
14
08
42
28
89
29
22
60
06
0A
15
48
02
26
08
48
A5
08
84
51
14
49
04
08
18
50
10
14
84
28
85
56
29
64
19
A5
26
14
18
28
21
18
18
95
90
20
62
61
10
24
56
08
48
09
28
40
01
01
28
A2
90
40
24
29
24
99
2A
0A
9A
16
82
94
05
21
40
14
58
08
14
1A
18
08
21
98
14
14
A4
28
60
28
04
06
41
25
A0
64
04
14
21
1A
06
42
08
26
64
08
86
01
80
02
82
00
02
00
24
05
00
08
00
24
05
60
02
20
02
01
12
48
20
08
05
11
49
A0
02
10
14
06
05
20
88
01
12
21
40
00
02
00
10
85
24
42
28
04
08
82
84
41
42
00
04
04
00
10
28
08
12
00
00
48
21
08
65
00
16
08
06
06
88
69
08
21
41
20
00
00
91
01
08
0A
08
14
04
04
48
04
11
86
11
1A
69
81
28
9A
58
44
99
21
45
19
09
56
41
85
40
6A
92
20
66
96
26
10
2A
69
11
A0
80
48
45
66
29
09
80
14
45
54
4A
64
8A
69
84
45
95
84
95
24
86
65
A5
0A
19
46
25
11
21
6A
26
49
86
59
41
5A
15
1A
4A
46
92
55
61
92
29
90
A9
A5
6A
46
1A
68
88
21
5A
11
56
64
40
81
5A
16
92
65
64
26
69
A4
92
56
28
5A
11
59
12
68
85
A2
69
A9
49
00
65
26
44
04
5A
91
24
4A
81
A0
4A
86
94
2A
A9
66
A2
42
5A
92
45
19
A4
65
89
4A
59
95
55
A6
95
95
64
06
94
95
AA
96
AA
8A
85
01
65
A2
55
98
99
91
41
AA
88
69
19
96
69
54
51
04
5A
6A
92
8A
29
19
09
82
86
A6
A6
81
5A
A6
95
85
81
25
96
99
99
26
4A
8A
45
A5
55
5A
51
14
15
5A
56
25
84
2A
12
A4
89
26
A8
A6
56
56
11
05
68
51
89
04
5A
A8
49
85
68
94
A6
46
59
54
0A
92
22
00
65
96
85
55
92
8A
19
A1
92
04
A4
A2
15
94
4A
5A
15
A9
A2
19
45
A9
12
25
49
90
05
AA
48
82
56
81
5A
92
12
6A
29
50
AA
50
A4
19
08
0A
69
A6
21
02
65
8A
A5
22
84
56
25
A6
02
16
15
45
5A
2A
86
69
64
14
A5
91
6A
84
A0
64
4A
56
59
42
A5
55
A2
59
85
9A
40
69
68
09
46
9A
48
22
66
44
62
82
56
2A
62
65
45
62
9A
A6
09
01
00
25
A1
98
12
98
05
11
19
96
92
80
22
5A
62
11
06
85
22
52
58
58
A5
60
50
62
05
48
86
6A
A2
68
24
A6
19
95
60
50
60
69
66
55
A5
9A
22
12
AA
42
09
A2
94
A1
A4
A5
69
42
99
41
94
A2
A1
95
2A
52
A4
65
44
A8
88
A2
09
A5
69
52
54
6A
42
56
41
15
A1
59
A9
5A
25
69
1A
6A
61
66
84
46
18
9A
90
29
10
96
59
60
A5
A9
A4
8A
96
65
5A
90
81
1A
A2
58
11
46
69
4A
2A
25
66
A5
9A
A2
85
86
64
AA
59
A0
56
24
59
A6
08
2A
05
A1
59
22
16
A9
52
29
66
54
00
64
88
68
62
00
15
8A
40
20
18
41
12
88
44
26
80
61
02
12
81
6A
24
40
81
25
12
A0
08
11
42
00
8A
41
49
64
01
45
90
24
51
00
46
80
01
88
90
00
95
24
10
60
50
6A
A1
06
00
94
12
00
09
00
61
50
08
18
06
20
42
40
64
45
60
61
54
50
04
06
15
20
84
64
18
18
16
01
10
11
0A
A0
90
00
00
51
20
46
A5
92
59
51
A6
8A
A4
16
55
62
25
A8
16
28
56
55
56
86
5A
96
A1
65
55
65
18
26
44
5A
51
2A
61
10
60
44
A9
64
46
95
89
02
92
96
89
64
66
A0
58
99
04
A0
22
A4
62
59
65
56
4A
64
21
A4
59
AA
54
50
1A
A1
16
12
94
56
6A
1A
6A
88
1A
66
55
56
29
49
50
54
A5
02
50
65
A2
55
A5
A5
19
46
6A
95
09
15
50
99
6A
99
50
82
64
96
8A
61
59
A6
25
69
48
29
A9
56
11
09
65
86
8A
49
8A
48
24
81
90
91
55
26
81
60
51
A8
15
A0
60
68
A6
85
19
15
62
56
92
A2
6A
85
4A
40
A2
14
AA
25
96
A8
A8
82
51
56
66
05
65
29
56
A5
60
85
69
90
81
09
8A
59
61
A8
26
A9
48
86
42
26
48
09
25
A1
A9
15
2A
6A
12
A6
A2
01
A6
12
59
69
59
69
59
59
20
A6
59
59
80
49
59
A6
59
86
00
02
59
A6
00
41
95
A0
96
10
59
10
01
10
16
00
89
10
00
59
A6
90
51
49
00
91
A6
00
00
59
05
59
A6
59
59
A6
A6
12
A6
A6
02
10
00
04
20
00
40
59
20
80
6A
82
82
04
60
A6
10
22
08
40
A6
11
05
01
A6
00
01
08
A6
82
A6
59
00
A6
00
09
00
A0
40
11
22
55
94
41
82
A9
49
9A
98
91
A9
59
26
6A
6A
9A
40
AA
40
99
95
8A
21
26
10
42
64
65
06
64
91
94
58
08
99
51
42
15
95
15
62
11
69
9A
81
18
A9
6A
46
68
5A
49
95
4A
1A
42
59
41
49
60
94
A6
95
59
29
62
95
04
2A
24
69
A9
44
95
4A
AA
45
68
4A
91
29
A9
65
55
29
94
28
6A
65
89
95
91
21
28
6A
98
98
55
9A
55
61
45
69
84
46
50
2A
8A
60
42
40
1A
09
04
2A
84
91
62
66
AA
09
65
06
46
59
9A
56
55
95
90
A8
A0
06
8A
A2
96
AA
92
46
48
A9
16
89
A5
09
28
2A
68
A4
99
A8
08
15
91
58
21
65
A6
95
99
25
20
61
4A
85
4A
11
44
21
56
69
51
52
11
AA
A2
A8
21
A0
26
99
01
96
58
55
92
54
9A
22
68
4A
14
02
15
89
48
24
6A
82
99
00
44
55
80
81
A5
52
20
68
18
12
62
02
A8
11
20
68
24
21
95
64
06
24
06
01
48
62
15
A1
25
24
14
20
21
58
14
18
20
A1
51
05
00
52
04
20
18
08
65
04
49
62
A2
55
26
00
22
08
05
10
12
92
10
50
41
00
28
05
01
48
20
41
44
29
09
40
41
A0
26
28
00
88
08
54
14
1A
89
21
99
54
25
6A
99
80
50
98
5A
21
AA
48
8A
44
26
95
AA
96
A2
52
85
84
8A
19
22
62
A6
96
41
92
A9
59
A0
16
62
80
26
86
96
12
AA
98
48
55
9A
85
5A
1A
94
25
59
4A
25
99
28
A1
2A
48
94
48
64
9A
65
12
88
A5
94
44
89
61
11
9A
2A
19
AA
94
55
66
1A
49
65
92
98
44
91
89
5A
94
5A
19
8A
A9
61
0A
04
05
22
40
80
40
05
69
00
26
68
58
62
04
00
08
60
05
58
48
42
21
85
98
98
65
18
05
49
89
8A
50
62
A2
08
98
58
00
00
52
11
28
21
A0
1A
18
20
62
2A
64
61
11
8A
69
82
24
82
50
28
51
61
00
21
84
58
96
06
12
91
20
18
08
45
28
91
1A
46
01
05
10
A0
00
46
29
4A
9A
59
11
16
08
0A
22
50
82
A2
00
5A
19
56
61
51
45
A2
52
92
54
89
29
46
28
A9
04
69
99
9A
94
95
14
5A
A5
51
A9
51
AA
2A
6A
94
54
15
92
25
69
26
56
25
06
A5
56
20
2A
54
1A
A9
9A
66
89
42
69
AA
01
05
01
95
22
08
12
12
A5
99
25
1A
02
89
44
65
98
5A
A8
0A
95
A0
26
95
4A
65
29
69
A6
65
05
45
86
98
85
A6
99
54
88
A6
52
2A
5A
04
20
80
20
82
20
52
08
20
80
20
22
50
92
12
05
04
85
20
A4
98
00
41
A8
00
18
09
51
26
4A
00
1A
14
2A
98
08
06
00
8A
26
02
60
A1
90
59
22
02
A4
20
14
A4
08
02
40
00
20
50
18
01
82
A4
94
16
46
00
A8
15
02
01
A1
09
01
41
88
08
81
26
40
49
50
46
50
04
20
46
50
05
25
64
55
12
48
04
0A
80
10
24
86
A1
14
68
2A
04
29
64
69
AA
45
02
84
A5
68
56
A2
86
16
9A
4A
8A
06
91
86
14
AA
88
21
85
4A
25
96
86
66
06
55
62
64
94
06
04
92
A8
A8
4A
24
48
14
21
A4
94
66
26
15
A0
61
9A
11
40
19
99
19
2A
5A
16
99
29
1A
19
59
61
20
18
26
19
29
44
19
60
6A
88
52
62
46
A9
95
62
16
A4
96
90
11
55
58
64
66
52
5A
06
54
20
49
62
4A
59
99
48
41
26
06
89
55
AA
A9
9A
09
14
65
01
8A
96
89
A1
51
88
6A
A9
86
09
A6
42
A5
88
8A
2A
56
62
86
66
5A
5A
15
AA
98
22
54
14
A0
A9
6A
69
A2
09
9A
69
61
AA
84
26
4A
81
64
08
51
19
14
16
89
9A
66
85
95
68
18
16
99
92
0A
A2
95
41
59
5A
A5
A5
29
94
9A
25
96
90
AA
6A
A8
55
19
11
49
AA
A1
22
46
A2
91
9A
9A
AA
29
9A
80
46
58
58
60
26
90
8A
42
54
56
04
9A
A9
28
62
96
A6
26
26
66
61
29
4A
5A
66
92
81
A5
80
66
29
54
59
85
89
4A
08
91
A8
9A
A0
6A
4A
96
04
49
54
80
55
A4
54
85
65
55
66
86
69
85
96
6A
02
25
59
A5
56
91
94
59
60
19
01
15
29
82
00
8A
98
02
6A
9A
91
98
A6
28
49
51
04
66
66
11
68
09
99
05
A6
04
95
08
55
06
0A
69
A6
A0
24
0A
A1
84
85
92
A9
40
96
94
65
68
98
64
91
88
9A
19
41
60
A8
A9
6A
A1
69
68
28
40
41
82
60
50
48
6A
84
25
29
50
A1
A8
19
10
95
58
50
10
46
54
2A
51
49
48
8A
14
86
09
81
24
09
20
44
9A
21
82
29
A8
85
A6
44
6A
55
0A
89
15
85
A5
6A
11
84
95
65
55
84
5A
58
96
51
09
A0
15
A2
6A
55
62
A0
15
A5
25
94
A1
15
50
96
1A
61
86
86
40
44
A8
84
96
A2
9A
AA
A9
A6
06
88
6A
A5
68
69
A1
81
11
96
85
A2
94
59
29
15
29
A5
01
48
69
55
94
59
69
15
46
A2
21
45
86
A6
A8
A2
46
22
4A
AA
48
A6
15
29
65
96
58
1A
10
06
24
08
20
0A
80
2A
A8
45
60
01
02
89
84
22
05
00
26
88
89
20
60
28
60
0A
10
58
60
45
04
46
40
00
29
01
00
89
82
42
81
08
60
08
29
80
98
40
62
80
96
09
A4
01
00
14
16
86
A0
09
11
65
18
20
18
00
42
12
A2
20
10
20
00
00
85
94
12
A8
A0
04
14
44
66
25
84
09
A2
09
00
82
82
10
41
92
06
15
06
A5
24
8A
66
98
A6
12
48
A2
1A
A9
92
26
99
58
51
55
99
8A
18
01
24
18
98
04
42
68
6A
22
1A
99
6A
21
56
9A
94
60
2A
62
64
15
55
50
16
64
A1
19
A4
6A
80
49
84
5A
8A
0A
A4
A2
45
5A
84
89
A5
26
4A
28
55
66
81
09
52
59
91
01
69
02
59
AA
06
29
48
21
6A
48
08
6A
16
4A
98
54
18
56
42
92
66
94
48
95
A8
82
45
45
94
10
06
19
99
59
06
64
5A
01
99
82
84
AA
45
20
15
29
66
25
69
6A
90
A0
84
55
15
54
24
19
85
22
82
0A
82
A2
41
01
40
A6
29
59
A9
18
19
96
68
51
42
25
65
A9
85
12
25
84
51
2A
65
16
A2
84
A2
82
90
82
59
52
21
92
59
50
80
16
26
84
A9
66
65
A4
15
99
4A
8A
4A
85
41
5A
52
A9
8A
00
5A
02
A5
A5
A5
A4
A5
A5
41
5A
A5
A1
04
2A
A5
5A
A5
5A
08
08
A5
5A
00
02
5A
00
10
40
A5
00
00
40
40
20
04
40
48
A5
5A
40
0A
A9
00
91
5A
40
00
A5
08
A5
5A
A5
A5
5A
5A
40
5A
5A
00
00
18
20
80
00
20
A5
00
44
A5
15
04
20
88
5A
20
81
90
08
5A
90
20
00
5A
04
09
00
5A
64
5A
A5
02
5A
00
00
00
11
11
22
59
18
8A
55
10
44
62
56
45
26
85
A6
99
1A
56
A6
86
64
A1
01
61
95
11
46
80
66
18
A5
82
A5
40
60
11
86
66
59
A0
A8
61
41
52
56
85
59
AA
42
A0
99
02
24
11
58
45
69
A2
14
05
A0
14
52
09
66
56
4A
A5
46
55
A0
99
06
04
AA
28
50
65
05
9A
05
90
04
4A
84
16
29
65
A1
A2
49
2A
A5
40
82
82
80
54
26
40
62
89
51
48
24
86
48
84
12
01
5A
05
4A
06
42
98
90
8A
2A
09
99
A5
20
A0
A6
64
55
15
22
15
51
9A
91
81
82
04
92
52
42
44
9A
98
99
A9
0A
5A
68
24
50
A6
59
6A
AA
95
85
99
26
65
92
A0
66
65
22
81
99
21
88
66
92
65
14
8A
25
55
55
81
69
A1
4A
90
29
AA
A4
51
A4
62
5A
AA
69
04
08
82
89
81
48
60
92
80
46
50
20
08
AA
42
40
06
A9
68
88
51
20
94
1A
56
40
04
A8
66
A8
95
24
51
16
A9
8A
65
90
29
88
28
40
02
94
A0
44
92
A0
20
18
98
28
62
08
52
24
64
45
88
4A
15
25
56
14
42
98
46
00
14
45
04
22
20
44
62
A0
20
90
02
44
65
20
88
08
52
88
98
89
12
10
92
20
44
14
68
89
44
24
88
9A
9A
21
89
0A
55
54
AA
25
52
24
12
A2
46
92
82
05
84
89
56
85
15
59
69
49
66
48
68
18
22
16
8A
99
6A
84
6A
68
51
69
15
4A
94
88
A5
22
25
0A
9A
29
AA
46
A5
A6
48
21
28
44
50
58
14
25
2A
52
69
AA
95
A4
55
85
0A
88
59
86
49
82
86
05
A5
04
69
56
44
A8
24
49
09
22
68
29
A5
99
85
AA
21
24
05
96
21
81
56
20
22
01
85
4A
54
A0
02
20
A4
12
80
18
24
A8
62
02
82
96
01
59
40
62
84
10
21
55
94
06
60
60
24
50
81
A2
49
12
11
18
12
99
95
10
05
10
A0
48
A4
05
59
60
A9
A8
41
89
08
64
05
21
60
94
09
22
10
08
08
16
10
06
41
10
A0
46
A1
06
62
26
44
28
19
91
51
2A
10
84
98
98
09
22
11
95
08
29
A5
AA
96
48
16
06
29
25
1A
8A
68
18
2A
80
05
29
50
9A
A2
65
54
86
95
89
12
91
9A
85
10
1A
6A
68
65
A4
9A
54
8A
26
45
A4
68
12
40
59
20
5A
9A
15
25
A5
A5
90
12
65
20
46
81
11
52
15
91
68
84
2A
2A
54
1A
92
15
88
41
09
96
16
14
96
60
A8
AA
29
91
51
09
50
54
56
00
68
25
18
55
58
18
20
2A
A0
11
05
10
22
01
00
00
01
19
00
08
04
8A
81
41
AA
04
06
16
86
0A
08
48
26
91
80
84
60
10
49
18
06
80
29
51
0A
00
02
40
15
20
00
14
59
10
20
41
60
80
A0
04
22
06
00
64
04
12
21
08
69
48
20
14
11
29
66
62
06
00
11
A5
01
42
14
00
00
15
15
02
00
05
22
46
00
52
84
42
11
44
40
20
88
04
62
04
58
65
60
20
A0
A0
52
40
80
92
51
41
10
10
50
90
91
A1
10
22
42
20
41
92
46
02
51
62
52
A4
90
A2
21
66
98
50
80
42
80
60
91
91
90
60
A0
68
41
60
82
A2
59
A2
82
50
51
51
92
00
80
20
1A
60
62
20
80
45
A2
82
58
90
92
08
59
45
91
40
A8
24
A0
61
51
12
92
80
4A
61
55
98
51
50
90
68
40
62
51
6A
80
14
40
A6
88
00
54
52
A6
05
A2
12
A1
91
62
A0
12
91
02
60
5A
41
52
44
85
28
09
A8
94
A9
A4
26
02
59
05
02
92
52
82
62
2A
01
96
46
69
01
29
48
55
61
99
A2
5A
6A
42
A9
90
12
A0
84
A1
84
A9
A0
1A
00
40
41
62
60
41
42
A6
60
52
91
95
02
12
96
89
A0
80
6A
8A
55
84
94
09
52
58
89
88
94
21
92
21
59
44
5A
9A
A5
51
22
91
92
96
90
2A
61
A6
60
9A
25
18
60
52
51
45
96
81
8A
98
92
25
42
A0
A4
91
04
8A
A9
49
54
94
81
A6
52
12
81
A9
42
58
42
98
24
89
41
09
65
A0
49
96
2A
A9
88
8A
58
0A
25
42
58
11
45
18
46
52
45
22
56
A0
8A
21
68
52
58
A1
90
16
66
84
84
08
40
65
A6
0A
91
91
61
45
90
01
64
01
10
20
80
60
81
50
80
24
A2
11
20
A1
61
48
90
40
51
24
14
92
22
10
62
10
22
50
51
A1
09
10
51
50
A2
96
00
10
84
02
90
91
91
92
60
14
42
51
12
A0
52
A2
22
61
41
19
90
50
04
02
A2
AA
21
61
90
10
92
82
A1
41
98
20
22
61
A0
62
60
91
40
84
81
11
52
50
51
A6
A8
61
61
82
51
80
00
21
50
48
92
85
05
89
A5
A5
86
A6
62
1A
91
A1
41
68
44
59
01
A8
95
A9
91
98
04
A1
1A
46
4A
8A
80
00
41
A5
82
40
5A
0A
88
69
22
22
5A
A1
A8
52
86
91
A6
66
81
28
96
68
A8
81
A4
A6
26
65
44
55
10
59
14
AA
2A
18
89
50
18
69
29
28
16
41
88
58
84
09
80
0A
44
91
22
55
5A
54
A4
50
A0
56
66
28
66
99
09
05
20
02
60
80
44
08
91
82
68
00
14
48
90
00
20
94
00
A1
50
A1
00
60
81
06
26
40
21
A4
60
29
40
00
09
40
10
4A
20
00
40
A0
08
08
86
52
10
09
10
44
82
12
05
01
10
A1
60
80
21
10
41
20
00
02
40
80
00
20
40
41
42
22
00
94
84
80
00
40
02
80
08
64
40
24
01
40
49
20
08
82
11
10
A4
14
52
24
05
52
85
96
5A
8A
58
66
56
24
59
92
8A
51
54
66
A4
64
69
50
26
A9
58
22
A6
52
A0
51
56
05
69
5A
88
08
45
15
25
48
98
84
86
96
8A
29
0A
A4
54
0A
04
90
21
A8
94
45
16
92
09
40
52
65
24
08
26
69
48
19
26
80
14
89
64
66
48
22
48
10
22
46
9A
55
AA
49
A4
05
24
A0
52
45
2A
41
89
54
68
11
11
60
46
A6
22
88
85
45
81
95
A8
84
A4
A9
28
10
54
A9
14
49
A1
95
6A
29
65
65
52
41
85
55
10
66
42
A4
A9
81
6A
A5
86
96
50
91
4A
A2
52
65
24
51
25
55
A6
5A
A4
09
94
92
A0
61
A1
85
85
2A
50
AA
91
44
86
1A
81
66
54
19
1A
A0
9A
48
85
A4
A9
9A
A1
61
9A
19
5A
99
51
90
40
15
59
9A
46
04
60
58
10
4A
68
14
AA
02
45
55
65
44
65
55
00
AA
55
55
10
55
55
AA
45
AA
80
29
55
AA
82
00
AA
00
AA
20
45
01
62
01
20
04
02
00
01
65
AA
11
04
45
02
6A
AA
81
10
55
19
45
AA
55
45
AA
AA
01
AA
AA
01
10
04
11
10
00
20
55
01
88
55
80
00
00
48
AA
40
00
02
04
AA
24
00
40
AA
80
04
01
AA
10
AA
55
02
AA
40
00
02
5A
41
90
A9
62
81
90
81
62
85
98
A2
44
55
60
20
08
85
96
59
11
21
08
52
AA
02
80
64
64
62
41
80
22
42
61
91
62
90
00
1A
51
40
01
2A
A5
66
51
A0
68
64
80
62
45
AA
81
85
00
09
A0
40
69
A2
54
94
49
5A
40
60
96
A2
66
90
94
06
66
59
A5
A5
60
25
42
08
91
14
81
11
05
A5
20
04
2A
46
56
29
26
A0
91
49
51
92
94
65
91
45
95
5A
68
12
50
20
61
6A
A0
92
11
A1
92
65
41
40
40
51
92
20
92
68
A0
2A
41
A1
94
15
11
41
6A
A0
91
85
AA
8A
84
A6
20
21
24
20
68
62
25
22
12
22
16
59
04
8A
12
82
2A
61
62
6A
20
4A
61
98
14
59
10
41
A1
46
21
46
00
85
61
05
42
42
60
59
6A
A1
80
40
01
92
40
50
54
44
00
80
58
A2
02
10
81
20
44
81
41
22
A1
50
10
50
1A
00
88
00
40
10
92
02
18
51
40
80
88
21
60
10
00
01
64
10
64
01
08
10
80
10
02
10
82
12
40
00
80
49
50
50
10
45
01
8A
40
12
42
65
A4
20
00
52
6A
96
41
82
12
81
05
80
00
06
20
12
11
10
88
41
58
40
02
02
A0
12
00
02
52
28
04
10
01
22
00
50
82
95
86
A0
91
22
92
51
90
41
50
90
A1
80
A5
15
50
A5
6A
41
58
29
A5
A1
84
05
50
42
4A
95
61
90
61
AA
98
09
95
60
52
00
98
21
08
99
86
81
41
08
85
A6
01
A8
86
68
61
58
42
91
90
9A
A6
54
82
60
5A
60
55
58
29
60
22
29
42
59
24
88
92
42
60
90
51
5A
A0
98
10
50
92
22
A9
A0
A2
92
A2
48
82
41
60
82
98
06
50
06
05
91
06
50
11
54
82
9A
40
15
20
84
41
42
10
09
08
A0
56
12
61
06
68
00
52
40
20
98
92
00
01
18
90
04
16
02
42
21
20
51
99
05
64
01
98
82
50
21
10
96
A8
80
04
29
86
99
60
89
00
11
41
98
19
88
95
56
01
10
01
20
11
16
56
A5
56
22
61
24
81
90
65
50
62
48
09
81
81
06
6A
11
A4
48
A6
A2
90
41
52
50
A8
A0
6A
88
20
58
61
A2
50
80
94
80
A4
52
58
50
A8
A1
50
61
52
A1
91
02
41
21
04
A0
22
15
0A
50
82
22
84
90
21
51
00
11
22
A0
95
A4
00
64
12
02
10
69
56
02
01
02
25
92
56
08
10
A0
58
61
20
41
41
50
18
52
60
52
82
45
01
08
A5
66
92
55
A0
98
95
62
22
81
81
69
45
15
80
A0
92
16
20
08
04
00
8A
00
00
28
80
40
85
00
41
08
80
22
A5
82
0A
00
55
51
02
20
81
02
20
46
A0
80
60
08
80
04
50
80
25
82
44
16
20
90
A0
60
91
50
80
40
10
02
88
88
60
46
24
40
00
02
90
80
50
40
80
00
41
20
40
00
40
80
60
12
90
8A
82
54
40
15
60
22
50
80
40
80
A1
04
92
80
10
91
80
45
8A
52
99
11
56
A1
29
A2
64
21
8A
15
95
0A
0A
66
A8
86
62
90
A9
1A
96
25
85
25
21
18
84
06
A9
A9
42
99
A2
46
61
44
62
A4
52
54
58
59
66
A9
61
AA
51
16
46
54
60
95
A5
94
44
85
85
69
99
A8
56
9A
A5
88
54
64
21
99
A5
0A
48
88
05
50
85
90
40
15
88
81
A5
A1
6A
26
68
64
95
90
94
A0
89
A8
55
54
85
10
24
50
A0
28
96
2A
A5
6A
61
54
A4
A5
08
96
14
65
21
52
96
98
16
66
5A
69
1A
A5
96
56
AA
08
61
6A
90
05
46
56
45
50
55
61
19
68
65
96
09
A6
51
25
52
A0
55
52
15
89
96
41
00
61
6A
16
88
19
66
A1
91
4A
84
5A
82
62
60
99
96
9A
66
50
A8
AA
18
19
18
46
4A
11
96
82
95
60
AA
68
49
AA
A9
18
51
96
98
22
A2
26
2A
A2
95
55
42
5A
55
65
96
91
A4
85
45
09
A8
A8
81
09
5A
9A
44
A1
AA
0A
15
82
65
12
61
92
64
85
99
4A
25
55
12
49
4A
A5
11
51
84
49
61
99
6A
66
A1
9A
5A
6A
55
24
5A
4A
A4
69
82
A9
95
55
01
54
54
10
46
A2
65
62
A9
04
25
98
9A
92
20
26
69
99
8A
48
89
8A
55
58
29
61
11
05
19
84
0A
60
A9
A6
18
86
40
95
16
88
00
21
16
28
58
58
A4
61
61
99
A6
42
90
A6
14
91
85
69
29
15
10
98
96
14
48
29
85
12
0A
A1
19
45
6A
A9
A9
A8
85
80
01
65
28
20
56
01
0A
66
59
54
A4
86
9A
24
84
98
A5
64
54
06
22
14
19
62
89
0A
46
18
11
A6
42
96
60
10
60
58
92
11
08
19
06
18
AA
66
02
64
A0
A5
88
24
69
0A
15
99
59
A6
84
99
A5
A2
61
64
5A
1A
A0
68
99
19
15
16
19
A4
59
2A
AA
28
61
24
54
90
94
15
A9
A5
25
98
20
99
29
8A
92
66
25
19
A9
01
69
A5
51
45
60
61
44
8A
82
A1
65
2A
9A
06
94
45
40
A2
14
62
62
22
2A
68
90
89
48
56
A4
69
95
46
58
2A
12
58
AA
29
99
66
A5
05
A8
45
56
0A
64
02
25
66
80
48
80
A1
08
69
18
19
96
94
5A
10
58
29
0A
50
00
19
11
41
02
11
6A
02
01
22
14
29
00
08
86
0A
11
54
28
22
80
24
14
69
5A
04
84
00
18
4A
15
88
20
84
40
61
58
04
09
06
10
24
86
24
90
28
99
58
48
80
11
04
61
10
61
06
04
10
41
20
08
0A
80
54
06
68
28
24
A8
09
A9
88
61
25
51
6A
5A
A2
56
29
8A
90
8A
A9
AA
86
1A
46
10
62
69
6A
56
89
82
A8
66
14
96
26
61
24
58
9A
81
92
A9
56
60
69
89
05
14
49
54
A6
55
A1
21
96
A1
95
69
11
A6
56
59
95
46
96
86
6A
46
69
66
25
08
45
A6
6A
04
96
61
21
60
54
9A
99
91
A1
09
1A
00
55
51
28
42
16
54
26
49
A2
44
A5
22
55
A2
68
8A
21
46
46
40
02
11
50
A0
06
51
91
24
45
A2
19
01
6A
61
42
95
48
19
6A
96
16
09
8A
61
21
A4
18
6A
25
06
9A
16
61
02
5A
01
24
55
AA
95
55
69
80
66
08
2A
5A
98
29
85
95
16
18
01
A6
45
11
56
14
6A
A1
59
88
59
50
55
14
99
4A
91
88
A2
51
85
52
56
10
91
15
96
49
04
A0
59
A9
25
42
8A
A9
2A
22
94
66
A9
6A
00
49
20
A6
96
A6
00
A6
A6
01
59
A6
80
00
18
A6
49
A6
68
40
00
A6
59
01
00
69
02
61
84
A6
20
08
10
20
00
40
00
11
A6
69
00
20
80
00
61
59
00
08
A6
09
A6
49
A6
A6
59
59
00
59
59
00
02
18
06
00
04
00
86
01
00
96
24
00
02
08
69
02
00
00
00
49
68
00
10
59
04
19
18
59
16
59
A6
00
59
02
00
40
2A
54
A5
65
56
86
84
94
A6
A4
55
11
01
98
64
28
89
51
94
58
92
5A
56
44
45
91
60
11
45
85
60
A9
A6
92
A6
A2
99
59
A9
42
41
65
62
A8
69
99
10
89
00
A6
A5
56
51
50
91
81
10
2A
09
19
69
4A
95
25
19
84
54
58
8A
A9
56
99
A6
91
A2
56
54
5A
A0
29
61
88
11
12
85
96
A9
9A
AA
4A
19
A6
90
6A
66
29
00
A8
A8
66
65
8A
A8
45
15
29
5A
04
62
06
40
A0
5A
8A
59
8A
95
89
22
A5
48
0A
AA
85
AA
A6
2A
48
62
26
81
48
00
86
00
9A
84
29
81
05
56
98
98
22
15
65
5A
51
6A
64
19
95
12
85
4A
64
66
A5
8A
99
8A
86
16
58
0A
A2
61
69
04
65
88
68
81
99
86
99
05
66
28
9A
91
9A
59
14
04
99
45
AA
52
8A
90
42
08
44
44
04
08
02
68
00
21
06
28
00
51
26
14
22
14
00
04
14
95
92
00
22
50
A4
01
89
50
A1
29
40
08
22
64
02
49
40
05
00
61
61
08
01
00
05
92
05
15
18
04
04
00
96
40
21
00
16
24
91
A4
12
01
55
60
04
19
00
14
48
92
11
18
05
28
12
56
24
08
50
81
21
12
62
21
81
28
44
02
01
02
56
20
84
1A
58
11
51
5A
62
99
40
01
92
56
29
95
AA
91
64
51
65
48
69
50
08
86
2A
9A
25
65
15
18
45
65
92
64
54
51
45
96
85
42
56
8A
91
95
95
56
5A
28
55
42
5A
4A
52
A4
20
AA
68
0A
4A
A4
A5
16
59
22
85
8A
6A
A6
66
60
02
62
62
21
51
55
88
6A
A5
18
0A
82
88
96
69
25
29
9A
6A
A6
81
98
12
81
A9
46
69
61
45
15
00
00
08
21
28
91
01
10
84
A5
15
20
04
0A
09
48
1A
04
A2
81
54
A0
22
26
00
09
0A
20
84
46
A8
60
85
06
21
06
55
24
08
00
88
19
92
A1
16
20
45
22
4A
12
92
A2
18
05
08
42
46
90
A0
90
08
2A
0A
01
28
A2
A5
4A
89
52
11
28
A1
48
26
26
1A
1A
96
88
16
A2
95
40
40
A8
4A
00
06
A4
A5
10
58
62
60
25
99
55
66
26
91
94
01
45
1A
0A
A9
05
85
84
05
99
58
55
A8
12
41
52
AA
9A
81
40
51
01
12
60
96
90
95
54
94
69
40
62
AA
11
88
96
94
94
98
91
85
89
9A
05
86
64
6A
48
66
09
51
A5
0A
A5
56
10
09
65
55
A5
85
5A
14
06
A1
56
95
59
11
25
26
AA
51
16
A8
1A
80
60
92
89
58
98
91
A9
14
82
40
A4
88
22
00
00
00
00
00
01
04
88
10
14
00
00
50
41
80
62
41
00
24
22
00
62
14
62
14
8A
00
04
08
81
04
89
44
18
00
65
88
10
10
A4
22
10
A2
29
04
0A
21
04
22
12
60
49
6A
01
00
00
58
AA
20
81
11
54
65
02
04
2A
80
48
92
98
49
48
40
51
41
65
29
58
62
01
02
12
A8
20
81
20
11
80
00
A2
0A
04
90
42
02
95
85
06
16
06
46
16
6A
11
90
85
24
18
98
60
26
55
80
9A
46
26
59
96
51
45
62
95
65
1A
09
01
21
94
84
11
56
A8
50
46
1A
14
68
86
2A
46
19
89
A9
A0
65
51
62
49
90
56
06
69
59
8A
51
9A
A9
5A
56
9A
A5
69
5A
A9
92
40
54
19
61
A4
91
45
24
65
AA
55
90
86
16
25
00
69
54
49
A0
68
A5
11
95
69
AA
99
05
51
29
89
15
88
A5
88
96
59
65
6A
A0
69
68
26
A5
44
65
A2
59
12
51
A5
90
A8
55
26
51
A6
29
99
94
6A
98
69
15
A6
94
55
A5
68
80
69
42
5A
6A
94
19
64
96
95
19
42
52
95
65
14
06
65
A6
26
99
59
54
45
96
99
94
98
0A
56
A2
61
89
98
46
91
5A
88
98
49
2A
A2
59
54
59
A1
56
42
69
A5
A5
85
82
A6
64
69
92
4A
12
96
21
60
80
60
86
61
41
99
99
55
48
15
92
90
26
5A
05
95
46
96
99
81
68
59
60
00
AA
64
98
A6
56
9A
55
89
58
4A
9A
66
51
24
82
89
10
1A
04
68
96
11
A4
AA
59
49
85
69
05
29
62
84
62
49
A8
89
1A
41
92
80
2A
0A
60
64
45
16
0A
24
61
AA
A9
11
58
5A
06
96
68
04
59
58
08
94
AA
65
46
A8
6A
14
66
A2
9A
A1
26
88
54
46
A0
21
A1
5A
14
59
55
54
28
19
94
49
98
A6
06
54
22
84
AA
64
41
21
2A
01
8A
66
50
42
62
06
58
64
89
AA
84
52
21
A6
89
95
A8
96
8A
98
94
22
52
29
19
96
18
80
80
A6
41
A6
55
A1
0A
08
58
16
51
44
26
AA
50
2A
98
9A
22
49
12
52
60
56
A6
60
50
06
59
55
54
58
69
9A
96
06
59
11
56
64
92
84
AA
40
54
90
24
A4
54
89
A5
50
41
19
AA
2A
95
00
15
95
52
28
84
55
02
61
25
66
96
19
A8
A0
86
51
49
A5
82
68
18
96
55
69
01
14
A0
84
28
A0
1A
06
4A
48
56
85
49
26
A8
60
65
A5
A1
65
46
25
88
5A
49
A4
41
9A
45
49
22
A0
96
6A
96
95
6A
65
11
A9
68
09
22
A9
A5
44
06
A0
62
29
04
61
A0
85
04
08
9A
4A
26
2A
42
49
88
A2
4A
04
09
81
21
01
20
69
65
10
A8
42
14
80
40
55
88
94
41
95
06
05
44
26
8A
06
2A
02
02
0A
11
04
84
62
58
00
91
98
60
40
20
86
46
88
A5
85
90
96
AA
19
19
15
0A
42
20
40
01
12
8A
11
14
99
08
AA
29
8A
4A
81
40
92
1A
4A
05
12
84
48
16
10
92
04
85
68
8A
82
69
18
8A
95
A5
49
94
99
66
25
A6
A8
1A
06
98
24
AA
A0
81
59
55
12
11
18
A5
98
81
82
02
A5
5A
05
12
19
61
6A
15
14
A9
6A
49
65
50
64
18
6A
55
25
A1
14
A6
59
59
6A
4A
91
09
59
A6
59
60
A0
A1
25
66
1A
42
95
15
41
88
4A
66
A0
64
06
51
49
45
92
9A
9A
45
04
A0
06
A4
04
26
A6
19
54
A8
5A
AA
A6
11
12
09
A2
A9
45
05
22
6A
80
55
18
64
99
28
5A
16
56
26
12
6A
59
5A
22
44
42
56
22
58
A9
AA
A2
85
54
28
60
AA
5A
56
50
10
96
05
56
44
2A
60
59
85
59
64
45
81
06
56
46
61
A5
62
84
85
99
85
88
92
80
49
A9
A4
92
26
11
11
5A
8A
9A
01
91
2A
60
8A
14
2A
69
5A
26
94
51
11
00
5A
08
65
A5
65
91
65
A5
04
5A
A5
A1
42
95
A5
5A
65
4A
94
00
A5
5A
44
90
4A
22
6A
80
A5
84
51
20
10
09
48
08
00
66
5A
60
84
81
49
68
5A
00
06
A5
02
A5
5A
A5
A5
5A
5A
88
5A
5A
01
21
20
01
80
01
00
A5
06
60
95
56
48
40
01
5A
01
00
06
94
5A
29
80
68
5A
00
84
29
5A
60
5A
A5
88
5A
09
80
00
61
45
59
58
AA
96
82
56
89
96
64
24
55
54
92
20
9A
65
46
52
56
51
AA
48
86
69
A2
45
69
16
19
68
8A
A1
88
84
A6
09
28
20
AA
59
51
8A
91
90
4A
99
08
AA
96
04
46
69
49
55
89
9A
60
A6
90
21
88
A9
55
8A
A2
85
54
A5
25
1A
26
A6
95
5A
95
44
80
A8
91
60
60
55
81
55
65
18
A4
42
AA
8A
15
A2
89
AA
24
05
91
00
01
88
69
00
A5
A6
4A
9A
54
49
60
11
50
55
84
45
28
56
82
98
92
95
A9
15
62
10
A1
19
65
25
9A
22
06
51
22
8A
AA
AA
22
61
22
46
0A
65
62
99
4A
92
65
41
28
4A
6A
11
91
61
41
9A
A4
A4
84
96
51
50
A6
65
56
58
9A
56
24
52
66
9A
16
42
64
62
19
66
19
84
46
04
66
A4
81
A0
65
9A
05
5A
04
56
44
22
02
08
50
26
26
02
80
20
21
06
99
08
28
80
10
04
02
59
22
4A
24
11
82
A2
04
98
82
0A
19
11
44
25
00
29
40
A1
51
41
A2
02
10
21
90
92
14
28
14
40
A0
A5
51
50
88
60
02
21
06
15
60
49
18
08
16
9A
2A
50
80
08
20
A0
00
18
08
06
00
29
0A
40
A8
A0
15
5A
84
00
24
10
25
65
06
9A
6A
AA
58
99
89
44
01
56
6A
44
46
41
95
A8
44
AA
90
64
96
04
54
2A
18
4A
96
89
26
99
A0
52
64
65
16
95
62
56
A2
46
22
25
49
55
58
5A
9A
68
59
64
18
51
55
26
A6
58
69
66
22
80
92
AA
91
46
69
2A
96
96
69
25
25
49
55
50
61
2A
A9
0A
62
A9
2A
21
68
89
62
84
98
85
14
89
86
5A
A6
69
96
86
54
65
85
8A
01
88
44
49
88
59
45
42
6A
49
91
A2
88
48
84
51
15
05
52
24
08
40
06
05
90
86
85
94
01
05
94
54
2A
98
A0
95
09
14
2A
56
0A
A0
12
62
68
44
A8
65
68
20
52
A9
91
06
96
09
08
02
95
A1
90
65
06
9A
20
5A
00
68
18
80
65
80
06
28
02
40
24
09
00
44
59
5A
A8
40
41
60
95
19
04
45
20
08
A1
18
18
21
95
AA
50
41
89
59
64
69
A2
96
12
61
48
92
46
59
96
A9
02
61
64
A4
64
0A
49
19
69
88
89
81
08
99
04
46
62
A6
59
45
88
A4
A8
4A
2A
46
94
0A
26
56
46
62
1A
25
55
90
1A
A4
15
60
26
A5
66
51
99
A8
65
98
59
A9
99
18
66
A5
5A
65
46
84
A9
2A
91
92
A6
58
AA
24
25
90
64
25
9A
A2
28
51
1A
22
25
A5
00
24
22
00
6A
20
12
14
44
29
19
28
12
00
40
A4
4A
A2
11
06
A1
A1
40
09
10
11
8A
80
80
0A
92
54
81
09
80
42
41
94
88
40
04
06
05
08
84
10
40
A0
88
50
09
55
0A
51
48
21
A5
20
14
40
15
AA
8A
41
55
21
20
A1
21
00
50
96
96
89
89
54
51
04
98
1A
80
08
80
81
42
22
08
A9
64
64
80
10
51
49
29
00
55
91
18
28
62
19
49
8A
11
42
06
A6
26
24
59
A5
01
4A
99
91
A5
1A
11
59
09
85
15
25
50
09
40
86
86
00
92
50
22
68
96
56
4A
62
40
95
11
41
89
10
49
26
19
55
64
95
41
84
65
A4
A5
14
26
46
99
16
A1
A1
80
9A
91
66
96
65
68
0A
50
29
60
90
11
96
46
96
85
6A
2A
41
28
48
A5
66
82
61
22
08
21
4A
24
A4
94
96
AA
58
01
08
A8
45
65
08
2A
59
68
95
99
95
64
86
1A
01
89
05
69
46
20
56
88
06
82
05
80
28
1A
9A
86
A5
66
45
18
69
6A
29
95
69
9A
84
60
89
A4
A6
61
6A
95
A4
A2
18
02
22
A5
0A
20
51
85
45
59
A0
20
4A
25
00
68
90
49
85
62
55
51
A4
40
AA
1A
48
A9
96
42
6A
92
A8
66
A5
65
66
5A
54
88
19
91
9A
65
46
01
10
44
62
A8
06
49
05
94
49
28
49
28
26
92
10
5A
65
66
21
9A
A0
88
00
46
89
A8
80
95
A2
A6
14
50
91
49
68
45
51
1A
40
46
46
4A
56
20
A6
89
A5
1A
A0
91
20
24
86
22
A6
19
99
15
88
86
56
60
A9
9A
05
44
A1
A5
01
69
46
92
92
59
09
06
28
64
A6
9A
64
A4
66
A2
05
9A
22
14
69
41
40
61
68
20
1A
10
24
10
06
81
85
08
50
56
89
58
58
64
22
26
61
52
59
96
8A
24
69
A0
06
99
50
62
41
25
0A
11
A9
08
62
91
65
6A
99
06
40
66
01
16
64
42
68
11
15
45
80
41
A9
A2
24
94
05
50
54
56
58
06
20
A4
58
95
9A
99
86
96
5A
09
59
92
59
64
5A
A1
19
18
49
02
12
86
11
A2
95
2A
52
80
82
91
14
99
26
4A
6A
54
49
59
25
85
81
82
92
96
00
A2
86
41
65
50
61
24
12
59
A0
62
54
08
A1
9A
95
50
49
65
A9
65
86
54
55
95
15
56
88
A5
84
9A
46
14
10
08
6A
16
61
61
94
69
60
96
91
88
48
69
A2
18
60
A6
5A
59
69
86
11
16
21
A1
91
15
46
19
21
69
A9
90
49
98
69
84
01
24
15
11
99
AA
A6
52
49
24
05
88
06
8A
21
46
44
54
41
90
08
91
62
26
24
28
92
48
01
29
20
12
02
20
01
98
4A
84
09
41
95
18
18
08
10
54
02
A9
11
46
11
11
00
90
90
88
05
98
6A
01
20
06
16
09
68
00
4A
12
25
41
21
15
00
20
12
A0
15
48
81
02
86
40
48
11
44
59
12
19
15
41
06
89
99
22
68
04
04
00
22
14
09
99
69
29
AA
69
46
2A
A0
4A
89
62
99
65
06
24
16
62
06
22
92
69
52
60
A6
8A
58
52
42
60
A6
41
69
89
20
69
42
88
AA
6A
09
69
41
26
05
08
20
A2
50
52
45
09
89
1A
9A
21
81
84
40
55
9A
26
21
A6
18
96
55
02
81
22
10
60
29
82
66
8A
90
A5
15
69
A8
85
16
90
45
4A
14
A9
69
66
A6
12
69
86
19
04
84
96
01
24
62
85
66
10
1A
99
1A
40
99
49
AA
61
69
15
A8
95
81
4A
09
49
05
9A
92
91
19
90
05
49
42
98
A5
19
94
92
A4
20
59
12
99
81
16
65
58
95
62
90
6A
55
A9
68
98
18
42
58
01
20
56
51
42
60
55
25
54
55
86
58
56
66
21
A9
9A
A1
29
A2
54
68
99
51
58
9A
19
49
29
4A
19
6A
81
AA
96
18
59
A0
90
92
24
86
26
10
99
80
66
66
66
04
66
66
49
99
66
64
00
49
66
99
66
99
00
00
66
99
10
01
99
00
90
24
66
00
20
00
A0
00
88
20
40
66
95
0A
01
65
22
81
99
02
00
66
19
66
99
66
66
99
99
20
99
99
00
00
40
00
15
04
00
66
00
0A
66
06
02
02
01
99
82
20
10
05
99
85
00
01
99
00
41
11
99
0A
99
66
00
99
00
01
00
60
42
1A
29
8A
26
45
49
46
64
98
16
99
15
04
A0
95
A2
69
21
52
61
A0
A9
80
24
84
02
46
20
99
A9
9A
9A
14
A5
19
66
91
A6
10
68
05
09
99
56
64
62
62
11
95
A2
01
91
AA
02
16
25
5A
20
95
2A
65
60
0A
85
04
04
51
51
20
02
96
81
46
82
55
28
95
46
AA
AA
94
16
0A
92
02
62
85
09
06
54
90
11
AA
60
06
2A
62
90
AA
68
1A
AA
59
21
8A
65
99
44
16
08
A4
A4
9A
20
44
89
8A
8A
88
52
20
88
06
AA
11
49
0A
60
9A
6A
95
64
A2
A2
52
66
A2
26
95
52
59
8A
68
81
9A
95
81
A6
98
68
68
96
9A
24
A8
8A
55
01
69
19
55
89
61
A1
55
A6
09
62
8A
22
61
6A
12
89
19
9A
29
86
85
96
12
02
25
1A
19
45
60
45
A8
6A
19
12
41
01
24
18
80
04
42
06
10
20
28
4A
06
04
80
01
04
08
81
