96
69
A8
A5
86
A4
99
66
A5
52
02
55
02
56
42
96
A2
51
A2
52
6A
65
59
56
64
04
19
15
86
A1
48
90
90
9A
99
15
46
28
88
66
82
9A
02
25
16
60
94
21
A8
82
A0
A8
50
98
92
99
92
49
21
A9
49
69
1A
51
66
2A
6A
6A
51
29
4A
6A
89
25
8A
A4
1A
19
12
A6
51
64
66
2A
A9
68
61
51
58
9A
9A
A6
24
19
56
40
1A
52
4A
65
22
84
A1
65
12
90
42
12
59
1A
49
18
12
AA
44
8A
A1
8A
49
AA
2A
69
64
A5
90
61
60
58
64
56
80
46
62
42
69
A5
51
6A
55
64
92
AA
98
52
6A
65
A9
A2
66
61
16
69
16
59
4A
90
40
A5
42
6A
AA
8A
28
10
29
05
46
96
95
51
46
5A
A0
8A
99
52
94
66
41
90
69
58
59
54
58
5A
1A
62
69
09
95
84
8A
29
95
82
A2
59
85
29
02
15
46
A1
94
0A
60
90
A5
24
5A
42
98
16
55
14
28
62
45
9A
A5
66
12
86
28
95
50
81
29
08
91
96
26
54
49
20
18
A0
69
92
12
66
62
80
2A
82
24
55
10
94
48
8A
59
51
26
51
81
A5
82
99
69
46
94
A2
A9
99
82
19
A6
41
99
A0
42
59
45
89
49
94
90
24
45
51
20
45
81
55
21
22
65
AA
84
82
A6
88
8A
5A
94
A0
96
62
65
A5
64
41
54
09
8A
A9
26
09
68
8A
96
1A
9A
04
AA
89
94
A5
62
9A
42
A1
A5
81
0A
56
1A
2A
A6
A9
29
99
25
52
AA
22
44
A8
A0
51
42
95
24
95
61
51
96
59
21
A9
46
14
49
98
15
2A
A8
18
85
85
92
44
16
8A
64
98
28
66
42
90
A4
99
15
66
85
19
88
04
10
44
60
05
16
56
05
1A
68
54
1A
55
9A
65
05
52
91
10
45
15
65
05
62
95
50
81
20
69
A8
61
19
12
66
86
9A
55
A5
55
55
55
66
88
12
46
64
64
16
61
58
56
A5
66
96
61
40
46
99
98
6A
44
AA
00
91
90
40
49
91
12
98
94
59
11
66
68
01
02
A9
68
6A
4A
86
60
9A
21
09
95
54
12
12
59
65
81
A1
25
95
94
A5
92
16
A2
A2
52
89
66
62
6A
95
81
58
66
88
AA
54
52
A4
66
0A
A5
60
66
A8
A1
89
85
29
6A
A2
A1
69
A2
01
69
55
00
61
44
64
66
95
08
84
A9
8A
A9
46
A2
94
96
A5
92
09
41
A5
A1
69
11
A0
62
60
92
81
A0
9A
11
46
66
18
AA
A1
8A
19
45
18
85
04
29
65
59
04
A6
AA
68
9A
A8
99
50
98
AA
66
95
A5
69
AA
41
A2
14
4A
52
16
A6
24
A0
54
A1
9A
41
22
96
62
02
18
55
19
25
15
20
05
01
9A
50
5A
59
88
66
58
85
8A
25
6A
4A
95
51
66
65
98
50
29
99
A2
96
99
9A
98
68
16
8A
A0
0A
46
92
66
AA
40
AA
15
16
42
49
6A
60
AA
64
85
56
99
81
90
96
29
50
51
AA
1A
9A
94
99
26
51
64
65
99
A4
A1
54
AA
8A
15
06
A5
51
55
6A
9A
18
A9
06
66
94
69
90
68
A6
25
66
26
49
86
A6
55
AA
99
A8
84
94
96
A5
21
42
A8
84
55
62
16
59
A9
52
AA
94
24
96
9A
26
46
15
50
82
59
89
54
99
65
05
A1
A9
42
56
69
A4
95
25
A6
58
26
A6
69
49
61
89
06
2A
96
86
46
94
46
A9
61
56
51
A4
54
22
92
68
5A
85
09
5A
A6
99
86
05
A6
96
85
96
A5
A8
18
56
09
41
56
4A
69
86
AA
84
A6
18
59
21
84
9A
86
86
69
09
84
16
54
A4
56
69
02
56
58
A9
02
84
0A
A9
A5
21
8A
55
1A
61
A0
AA
65
A8
2A
26
A2
52
91
5A
95
40
A8
90
A9
A4
5A
91
AA
A0
48
98
9A
15
96
66
A6
45
5A
81
82
98
82
A6
92
1A
0A
89
56
A5
22
18
96
A4
86
25
49
96
90
5A
99
5A
04
15
28
84
96
01
4A
64
50
4A
99
09
A9
05
8A
5A
24
40
85
A5
A9
69
95
56
5A
86
59
04
10
A5
58
28
20
A9
A0
99
9A
18
28
85
96
68
58
24
98
41
91
96
9A
40
10
92
A6
90
26
16
5A
62
9A
AA
9A
14
85
95
6A
6A
9A
61
4A
A0
19
8A
8A
65
56
69
88
55
25
46
45
09
85
65
60
A8
45
92
A2
69
A8
89
94
52
54
62
99
11
45
9A
61
A5
14
AA
12
10
55
80
16
94
55
A5
A1
20
A6
69
26
69
89
89
82
26
84
98
95
58
A2
06
49
8A
15
40
84
A0
A6
26
54
65
15
69
A9
86
92
48
2A
21
50
55
0A
06
59
69
1A
5A
68
21
99
96
A2
62
11
19
96
56
92
52
26
86
49
2A
48
94
22
9A
A6
AA
4A
25
25
A9
05
16
56
50
60
95
65
11
96
46
2A
24
69
58
19
1A
00
52
99
58
11
46
50
00
2A
8A
95
22
65
6A
49
66
48
2A
6A
54
8A
A9
54
05
A4
95
A9
55
64
20
48
A8
99
55
48
0A
4A
68
64
92
25
91
28
25
A0
66
85
4A
62
66
5A
05
64
56
46
0A
A9
15
12
58
18
42
09
56
94
86
A5
58
AA
11
5A
A4
58
18
55
54
95
19
65
59
51
19
AA
A4
24
8A
94
A5
4A
8A
89
60
2A
AA
92
56
96
AA
48
21
51
28
68
49
86
49
96
A5
98
86
A5
44
2A
91
59
A6
1A
A9
95
54
18
28
54
5A
69
A9
54
84
46
82
65
08
26
24
84
A8
29
59
52
51
9A
55
16
26
0A
21
65
98
96
98
89
21
95
1A
58
A9
99
18
86
8A
09
2A
49
65
A4
65
05
51
5A
A1
26
09
64
1A
99
62
4A
69
A6
95
29
18
59
82
68
56
86
22
A8
6A
21
91
51
66
52
65
49
98
A5
48
66
46
65
94
A9
15
64
AA
45
01
4A
96
94
41
84
48
A1
64
41
29
A4
21
56
08
49
0A
65
58
92
26
50
56
50
26
60
12
24
14
A0
66
99
A2
91
4A
15
95
62
8A
84
81
A5
15
88
98
9A
A6
66
A9
48
66
15
A6
85
6A
6A
98
06
50
80
65
A6
24
58
62
1A
48
98
19
A9
88
80
60
44
4A
20
82
A0
A2
55
A2
59
92
10
90
A0
59
69
91
9A
9A
2A
98
88
10
91
24
69
55
11
58
59
6A
95
AA
58
5A
A8
A0
65
40
8A
4A
65
22
95
A9
84
51
66
65
20
52
51
60
99
62
96
66
81
94
11
92
10
69
51
9A
69
A5
14
22
55
45
04
42
46
2A
A4
28
41
60
92
96
84
51
89
92
25
00
0A
66
91
1A
95
45
68
45
A6
05
84
08
99
54
66
55
5A
A0
5A
A4
24
19
59
6A
48
59
69
56
A1
99
91
A2
A9
12
2A
68
96
50
59
46
51
A5
65
86
80
08
A6
4A
08
45
29
A4
46
02
6A
51
84
96
24
2A
05
91
62
28
A2
59
86
65
96
5A
95
11
A6
A2
16
A9
52
48
52
54
56
58
44
26
94
19
25
5A
65
4A
48
81
86
56
85
65
89
25
54
50
58
5A
9A
A1
44
82
85
6A
66
15
96
58
05
15
8A
88
19
A4
0A
A9
49
59
40
26
95
A5
A2
61
26
94
82
84
68
44
2A
A5
AA
1A
05
A5
49
58
99
A1
1A
6A
66
12
99
26
10
98
12
4A
91
A1
A6
88
88
A1
64
19
A2
A6
AA
20
26
91
42
85
58
A5
59
22
42
06
06
54
14
62
AA
55
1A
58
51
6A
52
8A
96
26
46
AA
15
4A
A5
4A
62
A6
A6
55
86
40
A0
A4
96
59
28
14
A9
02
4A
A8
66
A2
18
69
AA
12
A9
66
A5
01
26
65
50
51
A9
66
09
A0
6A
58
A1
02
24
09
81
84
61
64
96
1A
02
25
11
46
80
42
A6
66
24
88
24
51
80
60
A1
96
AA
46
94
95
A1
A5
AA
91
A6
95
16
18
05
4A
95
69
06
56
56
04
85
40
54
81
A5
50
5A
9A
65
99
66
5A
98
A9
05
25
56
48
99
58
19
62
18
95
69
56
46
9A
84
25
60
95
A5
A8
A9
26
49
22
06
99
89
16
05
61
54
80
22
46
65
59
58
52
6A
88
4A
8A
A4
48
51
06
5A
28
99
94
65
69
A1
A4
6A
29
64
22
A5
A9
19
A2
99
28
62
A8
A2
41
52
89
25
A5
09
54
26
99
01
2A
5A
58
41
6A
96
96
54
55
52
80
89
55
51
A6
59
8A
56
62
59
5A
68
4A
62
26
94
69
45
45
6A
08
A9
95
85
09
50
54
A9
15
A9
61
A8
10
40
66
96
68
00
96
49
52
AA
90
69
56
2A
84
A2
89
46
18
61
61
82
8A
54
0A
A9
85
11
59
A6
A4
A4
18
A2
4A
59
8A
91
82
86
A6
69
51
96
59
45
A8
96
10
55
11
12
18
16
29
A9
56
96
55
44
59
59
A6
01
20
A4
99
52
15
14
56
22
59
11
55
6A
22
29
21
21
44
18
6A
49
A6
29
A0
A5
69
9A
68
96
A0
65
00
59
66
A2
89
58
4A
80
88
5A
00
16
4A
81
84
08
86
A2
A5
64
19
51
A6
29
58
98
59
41
A1
95
69
0A
98
A9
1A
A6
66
46
28
01
21
16
05
69
11
6A
90
11
51
96
04
19
55
58
42
91
52
16
15
A8
A8
56
80
2A
9A
68
54
69
92
86
09
94
14
54
50
41
19
66
0A
52
25
6A
99
96
A1
AA
21
A9
89
99
65
49
91
A6
A5
55
99
20
95
58
A6
29
4A
46
0A
24
42
98
94
6A
16
69
18
A6
AA
54
85
00
AA
A6
65
95
58
2A
09
56
95
12
28
12
A4
68
25
15
06
09
06
A2
99
AA
22
62
A8
26
22
A0
12
A2
AA
96
6A
64
A8
66
A9
A6
A6
05
66
65
95
A5
A0
45
A1
85
44
44
26
01
65
51
68
52
91
05
AA
22
81
55
99
69
64
AA
80
19
48
2A
5A
01
62
69
12
46
19
95
09
AA
A5
26
59
26
05
A6
29
2A
51
86
5A
80
82
02
54
64
84
82
94
91
95
96
25
A4
92
A5
88
62
04
60
19
1A
A9
56
82
58
1A
06
60
85
54
A6
56
00
40
88
A0
95
A9
66
61
A5
5A
46
21
96
AA
59
60
52
01
90
18
55
56
51
A6
56
89
55
02
96
96
96
6A
42
66
A9
8A
89
45
A8
69
90
A1
8A
52
AA
16
9A
69
A1
8A
94
91
0A
28
62
A2
98
A6
A0
95
85
96
50
42
49
4A
58
2A
96
01
14
86
92
21
A5
04
64
A1
2A
2A
52
29
85
16
21
86
99
A0
95
88
18
95
66
98
94
9A
90
A9
51
26
80
88
55
66
12
66
85
96
89
04
06
90
0A
61
26
61
68
55
82
A9
09
94
95
65
85
42
59
48
22
55
94
28
10
45
48
66
41
A6
2A
A2
42
91
28
94
1A
1A
86
25
65
41
6A
A5
64
91
0A
94
45
96
AA
A5
2A
96
A2
55
21
05
98
55
25
25
21
89
66
0A
05
52
84
54
92
5A
91
50
44
A1
58
29
68
81
04
52
55
A1
A6
26
28
9A
18
81
69
94
49
96
96
A5
59
92
AA
0A
8A
A1
51
49
AA
61
59
91
16
60
10
15
01
A2
99
44
18
6A
60
96
82
50
46
56
9A
28
A6
29
96
6A
A5
98
28
49
82
69
AA
AA
56
94
68
6A
19
45
58
01
62
99
99
51
41
A6
AA
55
95
99
44
A9
66
95
A5
28
A6
90
45
94
25
20
96
29
48
4A
85
94
50
4A
6A
56
95
61
25
81
51
52
44
89
15
99
16
95
64
18
81
84
1A
84
AA
54
81
59
58
29
A8
01
56
A6
A4
06
28
65
8A
68
95
59
19
6A
21
20
66
58
6A
18
16
48
91
58
45
54
59
91
08
52
59
08
26
49
04
41
86
98
55
22
99
95
59
81
10
64
22
88
42
20
82
62
90
65
91
88
A1
15
96
A6
55
6A
6A
AA
6A
88
62
A2
6A
AA
49
26
1A
24
14
44
86
55
21
64
8A
85
16
65
49
06
05
92
52
64
A9
2A
86
06
A8
8A
8A
A9
4A
01
91
62
89
62
A9
A0
69
51
41
92
99
56
98
84
46
A5
01
22
A5
44
AA
16
05
61
45
60
8A
04
91
85
69
92
2A
61
6A
A9
69
2A
16
54
40
A0
A2
60
24
8A
14
12
08
8A
88
25
60
98
25
01
56
A4
58
86
A2
6A
89
16
15
92
90
AA
18
25
89
16
90
A1
69
50
A5
A1
52
A2
64
49
AA
98
A2
49
A8
90
55
64
15
64
18
24
46
A5
46
A8
59
9A
59
0A
54
69
0A
A8
55
66
02
6A
05
24
84
9A
52
64
96
14
82
69
92
56
2A
00
42
56
61
85
88
26
66
51
46
66
5A
26
49
98
5A
A5
22
92
66
90
80
62
28
00
94
14
59
26
56
69
65
0A
5A
69
06
8A
64
50
99
48
46
26
A4
A9
A8
95
26
AA
9A
A6
69
A5
21
2A
62
6A
54
A5
69
90
9A
59
52
09
5A
2A
A1
69
A6
55
A1
81
66
12
06
90
26
69
1A
82
58
A0
09
A5
61
91
16
A9
A9
AA
16
45
99
44
88
54
62
45
A5
56
A9
02
44
8A
56
25
29
95
8A
62
46
9A
51
29
29
69
88
88
68
16
15
62
98
10
59
1A
98
91
86
61
18
19
16
41
98
90
A2
06
65
65
1A
92
25
69
46
A9
49
56
98
96
60
56
14
54
50
4A
65
90
6A
92
01
14
96
69
46
69
25
66
16
59
96
95
16
49
51
50
A6
90
5A
A8
96
96
12
55
60
A1
61
24
A8
50
A0
5A
91
A6
92
16
6A
41
66
56
88
65
60
19
48
28
92
1A
58
29
A9
42
A1
41
9A
98
65
02
68
65
A0
29
54
15
01
A0
44
A2
09
98
A6
04
11
01
08
09
2A
4A
24
A9
81
65
00
99
51
85
00
59
5A
95
A5
81
46
54
A9
A6
4A
92
9A
94
92
A6
26
64
9A
19
86
98
82
61
94
69
50
21
09
56
98
62
69
65
65
4A
66
55
4A
56
A5
44
26
56
59
98
95
65
24
55
21
66
95
AA
A5
22
94
65
52
01
60
99
50
19
04
95
94
96
9A
A6
84
49
51
A5
A1
56
91
00
88
64
05
66
05
21
29
68
52
89
52
59
1A
85
29
20
80
94
21
19
95
61
A2
45
22
0A
A0
96
9A
41
89
00
88
61
55
94
64
44
9A
AA
A2
54
A6
94
18
85
66
86
29
61
69
02
99
96
89
A9
52
94
56
99
29
62
60
1A
26
56
95
A5
99
A5
29
AA
96
50
61
54
60
66
96
69
08
52
20
59
11
AA
54
95
58
66
66
62
56
A9
69
94
92
05
66
2A
94
95
51
98
A1
11
2A
96
51
1A
A6
96
69
A5
10
51
A9
96
A8
6A
91
09
55
02
9A
6A
68
AA
86
54
68
42
24
14
59
4A
11
6A
42
16
A6
A1
8A
41
66
95
42
26
20
88
84
05
89
1A
22
55
1A
51
8A
8A
A5
29
A8
A9
59
99
00
55
AA
96
25
56
80
A8
96
86
8A
42
14
A1
49
29
99
45
50
65
1A
61
48
55
94
41
16
A2
4A
28
A1
94
AA
12
55
10
A6
61
8A
28
45
1A
45
AA
5A
A1
A9
65
96
62
45
05
12
4A
05
6A
4A
29
16
56
A4
24
18
28
6A
85
02
59
51
54
15
95
90
66
51
22
15
54
22
A9
26
2A
16
A2
9A
25
81
64
99
15
68
86
85
48
44
66
20
66
61
19
4A
49
12
8A
A6
21
29
9A
96
4A
A6
19
A5
8A
A9
00
91
60
91
68
05
21
4A
52
88
52
A2
9A
62
69
AA
15
A4
A6
A1
A1
6A
8A
25
64
15
9A
96
1A
09
42
69
92
9A
49
15
A9
55
60
92
68
48
91
22
91
55
A5
69
26
29
A9
95
04
44
96
A4
A9
A6
49
98
A5
91
08
05
81
90
92
AA
88
94
A2
48
65
A9
19
45
60
29
5A
9A
65
10
61
15
19
19
AA
46
A1
68
AA
58
09
85
20
A2
22
66
64
A5
98
58
50
1A
19
94
06
14
42
51
AA
11
46
65
1A
AA
5A
2A
62
96
11
19
08
80
A8
82
4A
5A
65
48
59
48
99
A2
11
64
98
5A
04
4A
15
4A
95
41
21
24
46
A2
A2
45
A1
5A
18
5A
89
66
65
A9
61
96
4A
26
99
08
A2
89
5A
18
64
AA
86
9A
04
06
91
0A
45
42
62
81
50
06
82
AA
6A
05
88
AA
95
59
14
42
68
11
49
24
28
9A
8A
58
59
8A
99
55
91
58
65
92
90
65
94
64
2A
11
91
19
18
A8
99
A5
A5
29
46
A4
46
61
06
45
19
4A
45
A2
A6
42
66
64
95
98
8A
66
48
59
41
29
92
58
05
2A
48
69
55
96
6A
05
82
60
40
82
96
12
28
04
08
84
A0
20
08
4A
56
54
64
A5
AA
18
16
A0
6A
A5
6A
51
A9
06
21
59
A2
96
80
69
6A
45
6A
92
85
58
A8
25
92
69
8A
06
98
A2
69
42
94
55
24
50
95
60
22
4A
16
66
94
52
98
89
8A
99
99
26
A8
61
56
81
69
62
91
61
52
45
22
1A
01
20
26
45
0A
55
51
45
64
90
62
19
6A
18
92
19
91
8A
A6
96
50
85
86
82
46
04
92
64
89
4A
22
99
6A
1A
A1
64
00
54
19
80
AA
A8
99
5A
55
5A
84
41
16
42
55
91
A5
55
65
94
2A
A9
96
95
A6
52
19
46
A0
51
12
98
0A
46
25
92
A1
60
94
A5
45
05
66
60
91
96
99
42
22
80
69
04
89
5A
A1
98
A4
92
A5
2A
44
68
2A
19
1A
A8
95
44
24
85
68
48
98
AA
59
94
82
98
40
65
A0
65
AA
41
9A
AA
A9
55
01
69
08
21
85
10
89
51
9A
15
86
9A
09
01
58
91
96
A2
26
69
91
68
94
69
5A
96
A4
0A
2A
0A
6A
82
69
02
59
AA
8A
9A
2A
52
41
9A
10
52
99
9A
66
11
A9
A9
49
A0
64
98
2A
A8
84
64
10
AA
06
9A
69
10
86
29
A9
65
46
25
58
84
61
66
65
64
89
92
51
62
04
49
2A
05
A0
96
42
A1
5A
2A
48
A2
9A
66
62
64
01
95
09
11
AA
A6
0A
61
92
96
A2
A1
16
AA
01
21
15
62
59
49
64
A9
54
18
86
95
81
AA
61
68
24
85
16
A6
69
A2
9A
40
25
A6
A6
A8
62
95
95
59
4A
55
28
09
45
05
A8
A4
61
59
52
19
91
A0
86
4A
8A
51
96
22
51
95
80
A5
41
55
15
9A
49
A6
66
29
59
68
41
02
41
41
21
4A
66
58
59
62
54
44
06
85
15
40
86
8A
98
85
59
6A
1A
00
09
A2
AA
21
48
16
56
69
21
94
21
65
05
A2
91
16
2A
46
A5
96
61
88
62
41
68
89
42
89
8A
25
98
4A
66
98
99
A4
59
26
A4
54
6A
66
11
19
11
9A
96
59
11
A4
58
28
5A
5A
46
56
56
6A
62
89
A9
AA
28
19
62
66
56
04
45
62
A2
81
62
01
01
62
1A
19
52
12
A0
81
65
0A
02
A9
AA
A0
88
60
96
5A
85
A1
A6
68
09
A1
9A
5A
62
68
86
A4
50
46
58
A2
85
A4
06
81
96
51
AA
85
29
25
69
06
08
A5
85
95
21
9A
45
44
54
50
4A
42
55
40
61
0A
91
8A
A6
94
56
21
51
64
96
2A
2A
12
95
A2
59
99
99
21
05
22
59
59
24
6A
00
01
89
11
55
52
96
81
99
0A
46
26
88
29
1A
AA
55
49
9A
51
82
04
58
46
11
A5
95
64
05
84
94
18
61
92
84
A2
24
22
95
A9
4A
28
81
81
20
A6
0A
50
46
A2
90
A9
55
69
94
22
51
52
4A
99
85
24
99
55
96
55
5A
10
9A
6A
A4
A6
9A
44
01
54
96
94
99
45
04
90
95
59
58
09
56
19
90
9A
AA
A8
25
68
55
19
51
A9
A6
51
96
52
A5
55
06
45
60
91
26
6A
66
51
04
08
89
21
54
4A
61
81
04
68
54
9A
9A
52
91
24
19
9A
01
02
9A
28
A9
46
4A
A1
45
A0
65
5A
48
84
15
62
26
A1
49
69
80
2A
54
4A
A9
40
02
55
55
2A
28
1A
45
58
8A
58
82
94
A1
56
55
92
04
1A
AA
A9
98
54
A8
18
49
59
69
99
22
91
51
89
66
05
51
59
6A
29
5A
AA
85
98
A1
0A
26
96
04
95
46
A8
A1
61
2A
A0
42
95
50
99
55
12
95
28
AA
19
56
4A
18
22
89
86
58
26
65
4A
26
02
94
18
8A
AA
05
64
86
92
94
46
2A
68
A5
69
81
15
64
69
81
49
16
6A
46
51
2A
51
68
18
A4
28
14
4A
65
86
A9
61
48
00
20
56
28
84
A4
29
1A
42
48
92
AA
52
65
85
16
46
88
2A
09
9A
24
10
50
15
12
60
28
11
92
65
48
06
25
19
6A
A9
95
26
94
95
62
94
06
89
54
14
46
5A
A8
46
41
46
AA
AA
11
AA
60
58
95
16
86
06
94
AA
61
52
62
85
9A
09
A8
9A
A0
61
6A
89
A4
54
A8
86
6A
A9
6A
66
A8
62
58
96
2A
91
51
62
68
88
91
A5
86
58
12
A9
85
65
68
54
88
04
61
94
10
48
55
59
99
88
44
A5
89
2A
42
04
20
56
49
05
AA
A2
5A
45
A8
AA
21
56
16
62
AA
48
24
56
89
A4
00
19
6A
58
25
50
51
0A
98
A4
A2
65
A6
99
44
A1
14
10
2A
58
69
92
AA
81
66
55
62
48
85
91
62
9A
6A
40
56
28
52
2A
82
94
29
64
92
52
55
44
82
06
46
82
59
15
95
22
6A
0A
20
A4
89
69
56
01
09
91
14
84
5A
85
AA
86
18
96
A5
82
62
56
52
16
16
19
68
AA
12
81
25
21
06
58
26
56
66
55
86
A9
55
66
5A
96
5A
9A
A4
19
4A
95
14
A8
02
A9
28
86
62
A2
02
21
62
95
55
60
0A
25
A4
56
9A
46
6A
14
05
61
55
9A
64
A6
15
46
A8
20
4A
19
54
54
06
9A
02
AA
21
98
16
A2
58
A0
05
14
59
56
86
98
16
5A
A8
51
94
09
55
64
65
9A
58
A9
69
65
54
66
04
86
A5
51
62
65
14
08
1A
45
56
A6
42
52
18
56
15
10
A8
4A
8A
2A
55
11
A8
2A
20
24
A5
91
21
96
15
16
A1
40
6A
A2
58
51
42
99
62
1A
25
45
64
A5
91
5A
80
58
9A
14
9A
59
98
55
A8
A5
15
06
59
A5
92
46
11
0A
95
59
69
62
41
59
8A
69
A6
51
A5
41
45
55
8A
88
86
62
A5
51
81
54
91
5A
05
22
A4
56
82
90
6A
85
90
9A
28
69
25
51
01
92
25
8A
29
5A
86
96
51
A6
6A
A6
96
61
A6
54
6A
50
86
22
A2
22
19
85
86
51
40
16
55
12
09
AA
95
42
8A
9A
A8
5A
0A
60
A5
A0
95
91
95
29
69
66
A8
45
A8
69
89
59
9A
55
2A
0A
92
A1
4A
04
6A
AA
15
59
95
86
90
81
15
91
59
A6
45
90
4A
6A
19
8A
A0
65
A9
96
62
AA
2A
66
58
49
12
A6
2A
AA
91
65
18
65
26
02
96
95
6A
A5
A0
A8
AA
4A
21
81
48
89
98
28
68
40
50
59
99
50
44
85
56
44
A8
A8
A5
49
A1
6A
51
5A
85
4A
A8
A8
66
16
40
86
85
26
55
AA
55
6A
A2
54
44
99
54
56
05
64
50
24
29
29
60
15
A8
95
02
85
62
26
95
1A
82
68
96
18
12
A8
66
96
AA
95
98
52
69
16
80
59
A6
A4
55
54
29
A9
96
59
65
48
8A
5A
A4
56
52
AA
84
86
5A
2A
82
09
96
48
91
55
91
88
95
29
58
95
88
1A
42
55
54
AA
45
4A
92
60
45
65
16
52
95
A2
44
A1
08
99
60
A1
A2
86
20
65
59
A2
51
52
66
02
49
86
45
08
A1
16
90
60
20
8A
11
8A
0A
55
51
46
6A
46
18
0A
A1
A9
A1
18
1A
92
04
A6
55
59
A6
A2
6A
51
29
6A
20
59
55
65
42
96
69
52
89
AA
A5
69
01
98
26
96
45
9A
A2
2A
6A
A6
28
50
96
6A
6A
58
2A
A5
AA
62
56
64
66
62
16
96
10
AA
61
94
58
66
29
62
28
8A
A6
41
6A
14
55
48
10
18
59
06
55
95
51
AA
A1
22
66
92
5A
81
18
05
58
9A
85
06
8A
45
20
85
21
99
A8
80
88
64
92
AA
21
69
96
58
8A
62
92
A9
2A
84
90
A0
82
96
51
68
A6
A0
A9
50
59
84
52
96
96
45
A9
56
A9
58
11
41
24
A6
48
48
82
96
2A
A4
55
91
2A
25
95
AA
4A
98
A6
45
5A
12
90
04
25
52
56
A2
59
A2
60
54
40
55
A6
9A
A5
55
5A
24
61
15
49
A0
52
A9
69
A5
55
58
24
5A
0A
A4
AA
91
48
96
69
A8
61
21
65
05
06
5A
21
52
A6
09
19
96
A1
81
52
A5
A9
16
66
56
5A
52
68
19
40
99
66
99
60
29
61
69
05
29
68
A5
12
95
29
90
02
8A
94
69
16
69
64
54
99
55
48
21
95
49
21
85
61
15
59
84
98
40
56
8A
56
55
49
9A
51
20
A1
51
69
65
A2
56
61
04
4A
68
00
21
AA
91
52
5A
54
18
49
A2
89
58
52
96
61
24
6A
59
A5
61
62
65
96
5A
A6
54
5A
11
88
56
92
98
A6
92
A5
99
84
10
9A
61
A8
51
55
26
50
98
19
9A
95
51
10
55
28
66
A0
04
20
2A
5A
8A
81
09
40
60
41
10
69
60
81
94
09
A1
26
51
12
50
4A
01
20
26
92
95
28
86
6A
60
46
65
16
94
20
68
65
42
91
A4
25
0A
50
06
81
66
19
94
66
A6
61
52
49
88
58
92
99
85
9A
29
05
40
92
91
85
16
A4
22
86
42
85
9A
45
89
50
46
AA
65
49
49
59
58
9A
21
80
88
55
91
A6
1A
95
19
89
89
00
0A
26
86
95
9A
56
54
10
4A
62
16
25
1A
41
62
89
92
95
A1
66
A2
12
65
11
48
44
25
12
26
A1
99
51
52
29
48
99
A5
A9
45
99
82
86
AA
65
66
96
26
19
59
99
AA
12
65
60
04
A8
91
5A
49
64
A5
A2
95
A6
91
5A
50
9A
A6
59
18
86
25
9A
45
64
88
99
20
06
49
14
95
69
90
49
90
A8
64
45
A6
94
A4
05
29
66
52
95
A5
A1
24
8A
A1
28
29
09
A2
81
A2
4A
82
54
65
28
58
42
51
6A
AA
54
91
92
99
46
9A
A9
24
25
48
AA
96
59
49
52
29
64
28
1A
66
46
A6
A9
A1
85
86
A4
62
85
24
01
24
66
59
15
54
6A
90
51
69
50
4A
AA
45
92
29
49
65
54
90
45
25
06
90
9A
A8
1A
28
88
01
55
1A
06
51
A9
2A
A6
AA
91
04
60
26
92
11
08
5A
65
89
4A
5A
16
46
26
68
6A
69
2A
52
A4
AA
99
58
52
66
98
88
44
A6
15
40
91
45
20
9A
5A
10
5A
A1
54
59
58
94
69
42
85
A1
96
A0
41
20
09
2A
18
45
A1
52
19
61
AA
A9
22
55
A0
0A
10
49
45
A9
29
61
9A
91
A2
24
65
46
59
A6
62
56
26
54
66
14
54
46
80
56
55
56
00
95
6A
88
0A
66
56
26
91
14
96
11
15
A2
80
52
6A
25
A8
05
99
62
68
0A
A5
1A
92
58
48
66
9A
A2
95
A0
66
90
22
91
95
12
A6
A6
A4
20
48
12
5A
AA
99
61
06
9A
4A
62
02
58
50
6A
6A
46
64
4A
A6
84
19
66
9A
A2
05
A2
88
A5
08
4A
6A
25
14
2A
89
92
59
10
42
A8
0A
51
46
9A
54
56
66
95
62
55
52
90
A2
65
9A
6A
A8
AA
95
1A
96
64
06
11
55
A5
AA
82
26
90
55
21
59
58
5A
94
A0
A6
4A
29
A4
65
85
42
96
05
A6
A9
64
9A
18
68
1A
96
21
91
5A
60
61
10
AA
29
4A
A6
18
05
62
40
89
88
84
60
21
2A
95
06
65
89
95
98
16
26
62
49
02
19
96
56
98
62
04
54
56
29
5A
40
51
55
91
29
98
62
28
A5
A0
56
4A
A2
65
88
59
45
98
60
A4
01
24
99
1A
55
A4
08
01
0A
62
9A
98
81
24
6A
95
5A
25
A8
A4
02
92
49
85
90
91
4A
41
28
45
46
84
A9
29
58
29
51
15
28
28
66
8A
92
A2
16
0A
68
A0
59
65
06
49
84
96
95
A2
1A
65
A1
52
88
09
AA
A9
6A
86
A5
66
89
22
95
2A
94
21
26
85
A8
59
89
88
08
25
A5
11
8A
19
AA
99
94
68
00
A5
89
2A
20
86
91
55
96
42
A6
28
22
52
16
9A
56
69
95
19
69
28
06
55
1A
25
12
49
80
42
25
A6
65
20
41
90
61
19
AA
49
90
98
16
52
69
69
02
98
90
62
A0
41
89
88
45
92
94
22
AA
61
98
50
51
42
08
15
41
2A
59
AA
95
12
98
48
4A
66
A9
85
21
94
11
59
18
26
26
45
65
46
99
95
21
82
54
99
45
49
2A
9A
96
19
55
A6
64
01
5A
46
59
16
54
48
61
41
40
42
AA
29
25
26
A4
65
2A
A4
91
21
00
56
25
85
85
6A
95
89
68
66
A1
A8
95
56
26
62
21
04
8A
51
82
64
41
41
11
28
A4
84
55
2A
89
68
48
6A
56
26
64
29
94
9A
98
28
19
22
9A
64
2A
51
52
6A
45
21
06
19
00
66
42
A2
96
9A
51
42
49
69
89
54
A9
65
A4
29
0A
10
69
99
99
A0
56
85
54
04
29
04
AA
15
09
92
99
85
6A
A1
62
42
65
98
A8
A6
28
18
29
96
25
A9
40
65
90
56
94
98
A1
A9
90
59
A9
A1
9A
A6
62
94
66
04
8A
A6
1A
12
61
59
A9
52
49
85
A2
66
05
59
65
69
A6
11
1A
12
99
4A
A6
28
64
5A
9A
9A
8A
65
65
59
21
64
19
69
45
A8
81
82
20
A1
A5
95
96
08
64
48
61
6A
8A
8A
08
12
91
84
65
98
12
A9
95
22
69
1A
50
68
88
0A
19
20
91
49
56
54
56
58
16
28
88
98
84
0A
A6
51
68
08
24
58
58
A8
4A
A9
55
06
16
91
16
81
86
88
16
1A
08
68
02
68
66
22
96
56
A2
80
66
25
95
15
AA
68
59
65
81
A2
96
62
26
52
58
45
29
1A
52
4A
89
42
21
51
66
99
50
A5
02
85
66
00
15
66
A1
A5
65
9A
98
26
11
1A
66
44
25
24
20
09
92
40
49
01
A9
81
4A
9A
96
06
82
99
85
A0
16
6A
92
54
29
02
66
64
91
1A
21
85
99
09
95
A6
66
49
98
26
A1
A9
A8
99
16
91
44
66
AA
98
55
06
A9
69
26
A1
4A
62
A0
86
55
A9
21
89
29
91
89
05
86
56
15
24
A1
59
A2
68
29
61
6A
62
68
16
90
48
95
4A
54
59
89
88
2A
58
98
28
95
6A
80
A9
54
49
11
2A
04
49
6A
55
24
24
A8
A6
A5
A9
95
85
9A
12
96
62
69
68
5A
18
64
5A
49
A6
48
16
68
86
88
44
99
A2
45
00
A0
56
04
5A
19
92
69
56
15
82
15
82
10
82
89
09
26
A8
A6
89
65
64
04
15
86
69
86
46
89
A5
A5
69
AA
0A
2A
45
91
85
42
A1
9A
26
64
05
20
05
10
14
98
85
48
4A
82
1A
55
91
96
52
20
46
60
94
05
A9
45
15
85
54
95
5A
A5
50
66
8A
99
40
62
15
59
06
55
40
A5
A6
60
66
95
85
48
9A
65
19
8A
40
9A
0A
A5
89
26
66
A5
29
A9
12
98
0A
95
95
06
19
52
9A
1A
96
55
42
A6
44
4A
52
56
56
99
A9
88
66
A9
94
62
15
68
86
41
82
AA
A6
68
64
08
66
48
96
44
85
19
56
20
AA
95
68
A2
00
95
4A
56
98
86
64
46
25
6A
50
12
15
6A
6A
22
16
21
12
21
49
15
56
95
25
41
24
A6
86
45
80
59
A2
25
41
86
A6
00
6A
61
04
51
56
22
24
44
AA
80
46
66
95
A2
5A
2A
26
86
5A
99
8A
65
8A
59
65
6A
59
25
62
11
89
95
14
66
42
68
16
29
54
58
A8
86
51
96
2A
69
91
8A
54
A5
9A
54
90
56
6A
64
91
52
5A
09
56
84
A5
A9
25
0A
22
15
58
21
96
A1
50
52
89
5A
45
98
65
08
5A
94
95
09
09
A8
46
80
95
96
9A
46
11
6A
44
42
11
1A
A8
56
8A
14
28
65
2A
58
50
6A
45
96
99
52
69
49
4A
54
16
44
06
62
05
95
A9
95
60
2A
15
5A
91
6A
29
6A
52
48
66
28
9A
81
0A
81
06
21
58
16
16
94
2A
89
55
62
59
92
4A
92
18
89
8A
89
82
9A
4A
28
A8
96
00
91
59
18
46
96
42
A0
89
44
9A
55
A6
88
60
19
2A
99
A2
A5
52
58
A2
54
5A
80
44
2A
98
A6
08
65
54
64
A6
A0
66
51
1A
00
06
21
AA
55
A0
54
46
24
49
4A
A1
22
04
02
94
A9
05
85
A6
51
09
64
6A
A4
68
89
64
5A
16
A9
4A
88
4A
96
21
8A
52
49
59
21
A8
62
61
8A
A1
A5
04
55
60
A4
55
62
15
54
98
94
89
55
85
25
46
A1
A2
96
4A
2A
02
85
90
66
6A
10
A1
91
02
11
96
44
69
99
A4
40
55
18
50
A4
55
A1
14
15
4A
A0
44
89
A5
4A
81
45
AA
94
59
49
6A
51
68
55
98
11
62
11
52
95
52
26
89
9A
52
16
4A
05
06
04
21
A1
6A
22
69
59
15
01
AA
01
45
46
49
96
56
04
18
42
95
22
64
88
61
24
A5
12
98
60
56
95
52
14
24
68
04
21
24
58
81
89
62
64
5A
1A
58
56
55
59
84
90
9A
04
61
9A
95
62
00
A9
6A
22
89
A6
A5
56
5A
85
46
2A
6A
6A
A6
12
19
56
A8
1A
49
91
69
29
86
55
69
9A
56
0A
6A
25
02
96
A6
44
56
19
A2
11
2A
11
A5
44
A5
A9
85
28
12
42
2A
15
A9
56
68
A2
9A
94
AA
45
25
8A
A8
A9
1A
55
A0
52
49
8A
AA
85
82
91
69
58
42
45
44
54
81
20
91
6A
52
56
9A
21
90
61
A9
61
A9
94
62
15
22
65
01
49
2A
A9
96
11
50
95
65
42
68
01
90
99
AA
46
65
21
5A
26
5A
21
41
25
46
16
56
A5
9A
42
55
24
90
A2
91
06
60
A5
05
90
A0
22
21
95
A4
56
A9
A9
06
85
49
81
64
96
AA
91
29
1A
50
A1
51
50
69
66
19
AA
A9
85
46
95
99
A0
44
2A
62
2A
24
46
98
99
55
55
89
45
10
84
50
29
88
05
8A
4A
AA
69
91
19
29
44
99
94
25
98
9A
41
4A
15
59
1A
A2
91
49
A8
A2
A8
25
A1
51
29
26
86
98
92
09
06
9A
06
A8
91
42
AA
00
84
A5
65
84
9A
A5
06
56
64
9A
95
66
62
59
40
58
21
54
84
10
46
15
1A
24
45
60
18
A0
46
61
58
60
08
A6
62
A0
A6
29
24
68
85
95
A4
06
00
66
8A
80
85
10
15
45
58
45
20
26
51
64
65
5A
A1
52
A1
49
65
12
1A
19
45
42
15
45
51
52
15
A8
95
99
40
10
85
4A
68
66
A2
06
95
51
9A
69
62
94
69
28
95
95
12
44
8A
0A
A1
9A
4A
28
80
68
A8
18
60
9A
49
92
64
61
51
15
82
68
04
12
99
AA
42
48
15
99
56
56
95
68
00
84
96
8A
A8
52
A9
99
66
96
06
55
52
8A
20
68
92
58
56
6A
58
68
85
46
80
19
86
99
54
85
91
94
44
5A
05
95
65
19
51
96
92
62
AA
64
96
9A
9A
62
48
29
48
62
69
95
60
99
98
86
A0
19
11
8A
10
06
2A
98
65
88
01
95
66
55
19
4A
54
6A
A8
4A
98
69
84
AA
05
98
52
86
66
66
42
82
94
28
69
89
64
80
06
28
18
29
82
AA
15
22
64
6A
12
85
89
6A
24
A6
19
58
A9
24
A9
9A
62
69
A0
64
66
05
2A
01
52
0A
95
88
18
56
05
46
94
91
1A
10
26
55
64
64
01
90
69
19
55
21
00
99
60
86
6A
A4
91
45
29
52
A2
59
16
91
62
58
66
26
28
21
96
89
59
44
05
69
81
66
45
69
60
56
65
59
A9
42
95
40
89
54
96
65
66
55
4A
45
66
84
69
A6
16
64
46
99
54
95
09
45
05
85
19
48
91
42
6A
41
50
68
48
29
55
69
48
A2
9A
59
98
A8
22
A4
00
81
66
16
48
66
A5
A6
69
9A
A1
88
88
18
8A
95
2A
A5
2A
10
65
18
19
85
08
62
99
68
2A
91
5A
65
1A
56
26
19
69
A6
12
49
60
50
86
15
65
A9
96
19
86
A9
42
62
92
20
A5
2A
1A
42
A2
94
5A
A4
22
AA
A5
81
44
21
1A
51
6A
AA
85
66
A8
90
68
10
85
AA
89
A8
88
6A
24
66
66
40
95
25
91
1A
85
82
A0
9A
64
55
6A
49
4A
98
1A
12
A4
96
A1
21
22
40
AA
64
15
52
94
89
1A
89
45
4A
90
68
A0
A9
69
28
01
28
52
AA
95
52
55
08
AA
26
85
85
44
00
50
69
21
56
A9
01
56
89
4A
41
96
18
A8
85
59
26
A4
A9
52
42
61
5A
58
64
62
59
94
85
51
AA
A2
90
AA
64
51
09
04
0A
89
88
15
60
15
45
66
A8
5A
04
16
22
55
84
49
55
24
81
92
98
88
91
A8
60
65
11
69
64
54
6A
58
10
0A
85
09
16
A4
19
AA
09
49
55
92
41
14
66
15
49
42
65
28
19
54
56
65
15
58
58
89
68
85
65
44
21
28
5A
21
22
84
4A
09
56
2A
85
09
AA
91
6A
26
21
91
92
64
A1
65
18
60
08
54
A8
A4
92
A5
99
64
55
A9
64
A6
68
89
6A
65
25
96
99
08
61
40
92
A6
11
92
68
56
55
41
46
A2
1A
45
68
96
56
96
50
8A
5A
94
88
A5
69
92
00
86
59
45
44
9A
89
A5
15
20
28
69
60
29
A6
90
6A
A5
01
69
29
69
06
A0
16
96
05
52
2A
56
64
2A
56
96
00
9A
A4
20
22
52
55
42
06
95
82
26
55
AA
59
62
41
68
09
66
16
18
69
62
AA
19
A6
19
12
5A
66
88
61
90
69
90
81
61
89
96
04
16
59
25
0A
82
A0
90
52
A2
96
9A
A6
26
86
4A
86
42
48
A9
2A
90
92
A5
A9
29
59
55
98
A6
A5
56
54
14
68
A6
69
A4
96
89
64
4A
6A
44
A5
88
65
89
AA
06
5A
89
50
95
92
26
A5
29
84
25
A5
0A
56
95
4A
A2
56
54
6A
98
22
90
58
89
29
58
6A
49
60
91
98
26
65
5A
92
28
A9
52
58
22
9A
15
64
59
89
12
A9
06
00
12
62
A2
95
A6
22
68
A8
09
52
49
49
85
64
65
86
14
29
66
55
29
64
65
AA
A9
A2
61
45
54
21
86
01
AA
48
85
19
56
AA
9A
82
A8
5A
A6
A5
A2
A9
95
A4
05
A6
85
2A
69
65
65
59
58
50
A1
09
61
21
80
61
9A
91
64
62
84
14
A4
01
A4
0A
A1
5A
44
9A
29
41
60
96
1A
54
41
A1
98
09
A1
58
64
55
95
65
69
94
A6
86
09
A1
62
95
16
52
66
90
69
65
9A
95
16
24
49
92
92
9A
54
90
A6
99
18
61
69
92
99
05
55
5A
16
48
A6
62
04
56
9A
16
A0
96
A6
A4
41
56
60
58
8A
8A
A8
A8
94
85
94
52
69
A4
68
05
56
91
99
82
AA
66
6A
29
99
88
A8
01
98
85
56
A9
64
66
99
62
21
65
55
52
26
10
55
9A
91
25
59
AA
15
54
06
64
40
66
21
96
65
14
61
86
58
26
90
05
46
A9
96
6A
65
5A
A2
44
98
A2
44
06
15
25
5A
A0
64
89
60
AA
88
05
59
62
49
88
A9
24
8A
A9
A5
40
64
22
29
89
0A
A0
98
56
A0
19
1A
46
95
62
48
68
85
A6
14
25
82
A4
68
98
88
81
24
5A
66
01
41
65
60
A8
89
A8
52
65
9A
41
52
A9
94
14
2A
26
01
91
AA
92
5A
A5
A4
61
09
51
24
9A
A5
A2
16
5A
99
12
A5
91
28
85
84
5A
99
24
64
28
41
21
68
98
96
92
18
26
9A
94
69
05
64
59
82
21
51
52
22
92
A4
19
12
6A
12
86
29
56
15
45
45
26
1A
20
85
AA
81
0A
54
A5
A5
5A
A1
58
12
95
46
5A
94
A1
91
A5
8A
24
41
19
64
26
16
56
05
11
54
02
55
A9
92
46
66
89
68
1A
6A
15
96
98
A8
98
01
9A
59
29
55
10
86
9A
2A
19
0A
24
45
85
5A
5A
55
22
A9
2A
A1
50
55
26
51
A1
5A
A8
45
A8
66
68
42
21
05
55
24
0A
26
85
64
02
55
01
52
95
05
55
42
54
55
58
A8
41
89
19
04
61
66
15
95
65
55
4A
4A
91
4A
49
11
16
29
2A
41
66
A8
9A
11
91
66
26
02
95
15
66
94
AA
91
A9
46
46
65
16
15
8A
A5
18
6A
59
49
54
56
A9
A4
91
49
90
90
65
18
A9
20
95
25
49
66
16
60
1A
A8
81
05
49
26
A9
29
A4
AA
98
51
0A
46
A2
14
9A
88
99
25
56
96
6A
65
28
48
8A
4A
A4
45
A1
50
86
49
01
24
A5
94
29
99
12
86
89
90
41
26
25
61
85
84
22
64
69
A0
59
15
10
A6
A2
66
8A
A4
99
12
61
9A
99
24
5A
15
51
46
9A
02
50
41
95
5A
A5
12
8A
82
40
9A
1A
01
4A
4A
20
26
8A
84
4A
A2
A9
60
06
6A
96
86
8A
11
92
AA
A1
A9
21
42
4A
25
24
A9
54
5A
00
52
8A
5A
61
48
54
95
52
5A
A1
66
96
A6
AA
95
A4
44
A5
98
18
62
50
65
AA
5A
4A
49
04
45
56
94
06
62
41
2A
8A
45
41
11
49
A0
15
91
61
56
98
8A
69
A6
89
82
64
49
16
68
4A
9A
22
2A
18
9A
52
86
56
49
69
92
A1
01
24
59
65
24
46
64
28
AA
81
8A
40
68
95
58
69
98
19
15
91
A6
9A
A4
91
8A
25
64
45
96
84
49
21
A5
09
4A
A9
25
20
25
68
19
28
A5
A6
60
56
09
92
42
8A
18
58
AA
01
80
52
4A
A6
85
89
65
95
6A
A4
A1
95
95
14
A8
24
59
56
82
18
8A
21
62
0A
28
61
95
65
15
69
A4
06
22
A5
14
66
60
05
91
66
86
96
15
96
05
0A
84
66
25
4A
55
91
8A
25
60
91
22
65
48
69
56
91
41
49
26
66
46
44
98
65
2A
90
26
69
8A
22
22
25
50
92
51
A2
86
90
A8
12
62
58
6A
94
41
A4
89
A1
8A
55
00
65
1A
5A
A4
56
98
A8
94
AA
A9
56
26
19
50
4A
26
59
55
A8
22
58
12
51
94
AA
98
59
65
11
66
A0
91
6A
99
96
54
25
41
59
6A
A4
15
44
12
92
09
69
60
89
24
46
15
9A
69
6A
91
61
69
51
66
A1
54
16
99
22
28
A4
25
50
21
19
45
A6
54
90
29
12
A0
29
6A
85
96
9A
96
50
60
29
59
A9
41
84
25
58
58
94
98
96
56
A4
11
56
68
88
96
95
A6
56
40
06
1A
91
56
69
64
5A
A5
29
09
5A
89
51
66
61
80
2A
19
A4
6A
A5
99
89
68
A9
65
56
21
56
60
41
64
58
42
52
54
A6
61
A5
09
66
28
45
69
21
52
95
25
16
99
AA
A8
25
65
98
A9
86
A6
98
8A
45
15
A9
1A
19
14
94
61
56
0A
19
56
52
68
48
5A
29
46
A5
A5
61
56
50
94
48
21
66
55
58
81
69
5A
66
19
8A
52
59
69
54
61
95
49
4A
51
15
91
95
6A
21
A9
9A
11
44
A9
61
59
6A
62
65
25
5A
90
99
82
06
58
66
54
90
8A
65
54
4A
82
69
A5
25
A6
86
0A
42
52
A6
44
55
2A
A5
95
AA
6A
9A
14
A0
62
A2
8A
45
65
5A
59
84
4A
44
A4
68
95
15
15
58
64
96
5A
A1
44
66
A5
60
85
94
52
65
0A
65
86
29
19
19
A9
92
0A
59
14
62
90
85
A8
A2
56
64
A9
9A
AA
44
69
99
59
16
85
4A
59
46
14
86
58
A5
10
01
1A
15
92
09
64
88
95
40
52
85
12
84
85
05
99
59
92
A9
56
99
21
41
65
96
4A
A2
48
44
86
9A
46
86
A1
25
2A
00
45
05
90
65
26
46
52
2A
69
22
40
95
91
25
58
82
6A
86
65
12
95
86
99
A0
A0
95
19
90
A4
99
16
6A
86
55
9A
29
59
90
49
06
A2
A5
05
48
50
22
65
96
A1
96
24
85
A5
6A
45
99
28
54
09
41
81
59
15
4A
9A
16
95
94
19
24
19
81
61
64
15
48
89
42
6A
0A
59
11
06
88
2A
81
41
25
4A
4A
5A
A1
61
42
14
A9
45
AA
50
45
66
62
5A
5A
81
6A
98
A9
95
81
19
52
81
9A
50
98
56
62
21
52
89
01
65
A1
8A
61
49
A9
99
81
56
AA
69
26
A1
52
50
5A
66
01
65
66
11
82
52
52
61
09
89
11
A8
99
46
A6
99
69
98
6A
04
9A
45
5A
9A
1A
16
58
61
18
94
92
4A
66
58
58
95
69
59
A5
59
48
46
52
25
59
49
88
54
95
60
0A
8A
6A
66
02
49
59
95
89
25
22
42
64
56
AA
45
04
92
94
65
82
85
65
A5
A9
1A
59
46
54
8A
69
68
19
A1
52
A9
58
99
A5
64
94
65
49
89
64
62
A5
45
9A
26
81
59
95
50
68
55
69
29
52
42
20
55
82
A5
95
21
1A
52
9A
A4
A4
21
A4
12
99
A9
88
95
0A
99
96
A6
89
66
A9
0A
16
01
26
51
6A
AA
62
62
A6
56
29
A6
62
54
89
46
05
68
18
04
51
55
54
09
66
9A
44
99
88
59
62
AA
46
55
1A
19
0A
25
0A
A5
59
A6
62
56
8A
05
65
A5
19
16
40
6A
19
55
91
16
55
5A
82
8A
86
55
62
62
41
11
6A
40
14
65
4A
55
19
90
29
92
59
81
69
91
A0
52
A4
48
A4
65
24
15
61
48
A5
A2
05
54
00
A6
68
A6
91
51
56
A9
4A
49
96
A1
A5
4A
54
88
20
24
65
6A
A5
9A
18
5A
65
99
65
88
6A
89
24
66
05
8A
5A
02
50
4A
11
64
44
41
55
11
54
96
62
95
5A
02
45
90
64
12
91
99
62
AA
62
09
16
55
46
A4
81
00
68
A8
55
65
AA
69
05
28
55
5A
8A
55
81
A9
25
A5
AA
99
66
AA
5A
2A
89
61
50
0A
A6
04
56
82
1A
64
89
41
56
A8
95
9A
98
9A
81
A9
46
61
9A
29
98
46
66
A4
9A
99
19
29
1A
66
59
26
51
89
55
85
56
24
AA
54
19
69
0A
18
99
28
29
12
85
99
69
14
86
40
59
61
94
88
A1
A4
94
55
40
95
A1
42
99
96
08
16
8A
62
58
62
66
19
82
05
89
4A
68
94
80
80
92
85
90
01
A5
99
16
A6
91
95
54
61
84
A1
42
24
18
66
49
95
40
68
50
65
1A
61
15
24
52
00
59
45
44
65
68
A5
96
86
92
51
99
51
49
16
99
A1
8A
A9
5A
42
92
A1
02
94
12
54
12
15
0A
20
A8
A4
9A
A4
98
64
A5
69
68
84
92
A2
65
92
82
95
5A
05
65
86
A2
A2
9A
9A
65
06
60
05
A9
62
45
45
A9
94
25
5A
80
45
5A
6A
54
59
82
98
66
59
14
1A
85
84
95
56
12
A0
51
59
26
A9
56
62
65
91
A4
08
11
61
95
68
96
A2
69
55
91
08
60
29
9A
42
64
55
0A
49
80
96
81
48
2A
A6
86
9A
A0
09
A5
99
92
45
0A
45
48
46
64
89
A9
55
49
88
19
26
99
A5
A5
28
8A
99
55
52
19
29
58
24
02
4A
A6
68
24
25
15
88
91
49
0A
51
59
65
06
06
91
56
86
A4
A5
69
8A
91
05
9A
40
54
50
49
51
A9
28
85
14
00
25
8A
5A
50
A9
A9
92
95
19
66
51
92
95
90
48
45
95
A8
58
58
05
29
46
85
48
46
60
69
0A
A9
A6
55
51
AA
16
06
95
94
25
AA
55
55
59
A6
94
58
2A
56
94
26
68
81
92
44
26
61
58
4A
24
2A
89
19
66
18
25
65
99
29
15
54
91
A0
66
22
91
69
94
AA
89
14
4A
A8
68
25
61
44
A0
52
12
61
05
90
46
29
68
1A
98
60
21
99
48
99
A6
50
64
49
18
4A
A2
89
56
81
A8
00
85
96
A9
44
49
96
52
61
8A
2A
06
61
8A
49
51
A5
66
66
49
86
60
54
49
25
41
46
2A
0A
90
61
94
00
A0
58
98
54
A9
8A
69
90
4A
9A
89
A6
65
26
2A
5A
99
5A
2A
95
66
92
A1
96
61
64
24
14
56
19
11
69
06
54
48
62
A9
42
96
91
8A
24
4A
59
8A
44
AA
44
49
98
A2
54
9A
82
09
6A
65
5A
85
09
58
50
91
AA
96
60
42
59
22
6A
A5
85
5A
A6
69
9A
24
9A
AA
45
82
08
22
24
A4
52
A5
59
05
5A
2A
86
A0
5A
49
40
A2
24
51
56
80
54
4A
A4
49
A6
49
96
1A
98
A6
98
8A
61
14
A4
92
15
09
A5
04
25
58
46
60
29
56
AA
55
A9
58
9A
A5
A6
16
68
95
19
1A
69
A4
51
16
92
15
A0
60
1A
01
8A
89
10
92
52
99
A5
94
06
46
20
04
55
A6
69
82
52
88
2A
16
11
50
5A
1A
A1
88
16
85
1A
66
94
29
2A
28
99
61
55
49
84
49
99
99
AA
55
29
8A
A5
05
45
96
20
AA
4A
55
95
08
88
90
61
A2
52
49
65
25
92
AA
A5
2A
49
4A
69
21
08
A5
45
19
52
A8
69
19
94
82
4A
95
55
45
59
8A
A2
94
A0
69
85
65
89
52
5A
28
50
A6
A6
29
69
56
61
A9
5A
66
92
29
61
A1
9A
1A
26
65
08
94
A5
56
55
08
49
89
2A
66
6A
69
4A
92
64
A5
A9
A6
9A
09
55
19
60
A0
96
5A
08
45
11
65
11
24
19
51
94
A5
94
28
69
28
95
29
65
92
60
65
51
49
99
41
69
59
89
88
85
4A
A5
85
10
0A
19
25
98
8A
95
98
9A
19
66
40
0A
81
9A
82
89
A6
90
6A
9A
86
1A
16
A6
96
05
9A
51
8A
85
15
A5
86
54
A6
60
22
26
24
54
4A
99
51
5A
65
95
45
19
88
56
11
51
55
AA
51
A5
26
69
88
29
64
A5
91
06
A4
A2
80
45
25
60
92
51
51
15
46
68
5A
89
45
21
96
28
49
95
99
21
95
18
A5
11
8A
98
99
61
86
48
26
AA
95
25
84
9A
22
49
A0
14
AA
65
68
66
15
54
44
62
80
92
9A
1A
95
A1
91
6A
15
26
AA
65
55
A2
A8
09
A1
44
42
25
55
59
59
56
A9
98
A9
1A
50
8A
26
96
52
46
92
15
56
A1
A0
81
9A
99
44
5A
91
82
26
60
4A
A1
52
56
65
A0
0A
14
A0
25
66
25
8A
99
96
42
66
5A
96
19
95
5A
26
88
86
4A
A2
51
88
69
82
09
42
06
5A
15
A2
48
66
45
82
14
95
60
65
91
99
52
16
41
94
66
68
80
A5
62
68
05
85
15
49
AA
99
28
92
02
89
9A
A5
19
94
61
59
44
1A
69
20
25
49
89
A6
25
29
A4
98
AA
10
14
A5
59
5A
59
50
9A
A0
65
61
95
81
05
88
16
91
08
95
92
9A
19
90
85
90
0A
2A
01
A8
11
86
A1
A8
89
61
46
91
84
8A
A5
A5
68
02
91
99
05
20
62
82
44
60
92
A9
59
5A
A6
5A
59
52
95
66
A1
65
10
9A
42
09
98
14
48
89
A5
96
82
62
6A
68
A9
66
90
9A
21
0A
25
0A
44
A9
40
61
1A
69
66
A1
06
41
5A
40
AA
59
11
64
69
A8
64
92
95
62
69
54
A0
68
94
A5
45
82
50
9A
A5
55
85
52
44
21
6A
A5
50
02
45
95
55
89
66
22
AA
26
22
09
55
A9
89
65
A1
A1
A5
65
00
09
A5
52
65
A0
64
A9
28
49
01
26
8A
5A
85
0A
2A
65
16
14
1A
99
98
99
68
21
9A
95
6A
64
65
66
0A
61
29
96
01
55
6A
1A
A4
88
24
10
05
69
60
19
06
59
95
46
55
5A
89
59
A6
84
94
19
95
A5
54
88
65
25
26
A6
85
89
22
04
58
65
A4
69
11
89
55
19
58
51
46
A5
99
62
28
5A
58
25
45
6A
49
2A
21
92
49
00
88
88
8A
9A
56
56
A9
6A
65
A5
21
15
42
45
AA
AA
69
A2
1A
88
98
A9
49
65
54
55
49
15
58
61
80
66
65
62
A0
59
42
A5
5A
95
59
02
09
59
A2
A6
A8
18
A6
99
59
29
91
A5
18
99
A8
11
8A
58
A5
10
49
20
5A
61
0A
8A
25
A9
29
54
24
94
51
69
68
41
A6
A1
60
8A
89
9A
A1
66
A9
21
69
01
60
A8
68
A9
A6
65
88
26
55
0A
66
88
99
00
5A
98
22
14
95
0A
AA
59
48
14
6A
62
59
84
4A
06
66
1A
54
99
05
A6
A8
56
16
92
5A
59
4A
41
8A
5A
64
12
58
8A
4A
86
59
15
4A
8A
18
46
A8
65
29
05
58
96
00
01
86
12
54
A6
59
82
18
55
66
44
18
A6
89
16
5A
94
46
A1
01
A4
56
96
A4
56
4A
52
46
65
64
86
55
A9
55
65
68
20
A5
20
60
05
09
16
62
81
AA
A6
92
22
92
51
5A
15
19
2A
86
15
11
16
4A
12
0A
06
1A
90
5A
24
5A
2A
59
A4
05
25
68
64
99
9A
42
96
29
69
8A
22
88
16
22
56
52
54
94
91
26
85
A6
AA
08
A5
66
96
02
52
66
54
12
49
85
A9
82
04
4A
02
58
AA
4A
99
92
AA
96
56
05
A9
A9
9A
2A
06
69
AA
28
65
15
95
41
A1
A9
A9
9A
42
6A
66
55
59
5A
10
96
A8
51
25
55
45
54
98
51
A6
6A
68
2A
A6
86
A2
92
92
96
0A
15
68
5A
22
9A
52
5A
51
6A
64
16
A5
69
68
94
4A
49
66
A6
49
A5
95
48
1A
19
94
96
06
42
58
55
12
2A
48
86
85
A6
A4
56
69
29
62
09
41
6A
85
55
A1
52
A2
85
56
46
44
40
49
48
28
A5
A6
0A
65
92
80
1A
16
42
01
AA
62
A5
12
60
22
62
9A
20
61
A0
92
2A
84
62
61
95
84
1A
22
62
59
82
49
21
51
AA
88
26
5A
8A
81
16
54
56
9A
42
82
66
84
A1
09
5A
40
99
11
55
80
1A
5A
A1
68
A1
85
A5
91
2A
15
5A
65
5A
65
56
14
05
46
29
A1
04
60
9A
46
18
92
66
68
02
65
69
89
60
49
15
98
66
A6
96
AA
62
90
A9
92
99
92
66
06
21
18
28
09
05
91
64
A8
99
99
82
1A
0A
45
92
AA
4A
8A
22
56
61
15
56
42
15
96
45
65
61
96
91
90
02
96
29
26
A2
56
99
55
64
59
0A
62
56
48
59
56
55
29
6A
52
05
A1
68
99
92
A8
09
50
59
68
A9
40
81
95
10
95
A1
8A
95
15
14
44
45
56
20
A9
0A
60
81
91
82
59
66
66
5A
A5
18
66
61
91
A6
89
A1
AA
2A
92
96
08
55
A0
80
6A
65
89
66
29
01
56
A1
99
A6
52
22
28
22
02
46
66
95
54
A5
1A
45
A5
56
59
85
49
0A
49
A6
58
89
55
6A
98
81
42
91
48
26
69
AA
95
51
A2
A6
89
9A
59
61
A8
21
91
62
80
80
A8
59
66
29
96
96
44
4A
22
61
26
06
A1
A1
51
96
95
10
92
59
22
A6
20
0A
95
65
62
1A
96
56
68
AA
94
8A
29
66
56
92
11
95
68
48
65
6A
A1
90
90
2A
A1
AA
91
18
A4
5A
8A
A8
96
9A
80
49
6A
A6
52
65
50
22
06
52
A5
55
56
69
9A
54
92
4A
66
AA
54
6A
42
90
55
58
1A
92
05
42
56
58
26
95
99
45
16
69
29
49
86
82
0A
55
52
A6
55
19
91
00
62
45
24
02
86
51
18
9A
65
1A
08
18
99
68
6A
68
29
56
A1
04
86
96
86
61
69
21
68
90
09
68
65
69
82
54
96
15
52
56
65
6A
96
28
95
A9
91
50
A9
14
8A
46
46
25
82
6A
95
0A
96
28
A2
2A
80
90
68
44
90
56
19
69
92
11
24
51
14
A6
95
AA
69
95
A5
98
04
2A
58
59
11
65
25
AA
A5
64
AA
21
A6
60
4A
62
16
4A
84
59
24
55
28
58
26
92
62
66
A2
45
60
68
88
44
95
20
68
25
61
A1
44
A9
96
62
89
65
A2
29
68
5A
98
99
61
60
25
46
2A
A6
99
5A
6A
25
A5
6A
64
61
55
95
98
A1
98
19
46
95
9A
24
A8
85
54
1A
86
21
A4
A0
54
A5
16
42
9A
29
65
A8
55
41
20
88
A6
19
1A
05
62
69
54
AA
A8
58
69
A4
45
58
AA
A6
56
92
55
1A
25
62
92
56
89
18
06
1A
21
19
14
55
51
A2
58
61
12
15
42
22
89
85
56
42
59
56
64
5A
AA
09
95
55
AA
A5
68
85
01
40
91
06
19
9A
09
65
1A
56
4A
A0
46
A9
98
68
49
A9
60
8A
41
28
55
96
4A
90
0A
26
96
A4
12
28
6A
94
05
4A
20
A5
51
89
A5
A9
11
11
85
82
81
11
45
56
25
86
50
9A
49
25
45
66
26
91
89
99
9A
90
96
59
86
99
55
A6
24
91
4A
65
65
14
62
20
AA
41
A9
A4
45
69
95
0A
59
66
99
96
16
50
51
A6
65
54
A5
4A
92
96
16
68
16
26
44
95
96
14
95
A6
66
04
21
45
69
80
48
25
A8
2A
46
AA
69
02
4A
58
61
18
24
80
1A
1A
24
05
45
2A
15
62
68
48
1A
88
A8
29
96
62
98
6A
28
52
90
A0
66
15
4A
98
A8
A5
5A
99
18
AA
A5
48
A5
84
04
8A
99
A5
54
96
05
28
0A
86
A6
AA
09
54
14
82
55
15
AA
59
95
99
4A
9A
1A
44
A5
14
46
6A
6A
49
A5
94
A6
80
66
25
04
95
25
59
99
52
45
25
50
1A
6A
51
58
54
46
58
5A
00
48
86
90
52
65
28
55
92
9A
61
A2
98
66
5A
59
58
5A
51
14
44
A9
A6
18
42
22
2A
5A
81
86
94
A6
A5
A4
80
9A
A6
9A
A6
18
01
22
44
A6
1A
45
90
5A
09
51
85
86
15
2A
15
44
12
A2
89
A5
82
21
5A
8A
02
52
51
A5
59
6A
26
99
1A
11
51
06
68
A4
90
54
29
19
AA
85
AA
12
29
49
56
61
96
80
10
48
51
54
A1
69
46
54
20
91
5A
29
66
54
44
6A
A1
19
85
65
66
55
28
21
85
16
80
84
19
58
29
69
19
2A
50
91
95
81
49
89
AA
69
54
01
62
A2
06
05
A5
AA
55
12
51
15
A9
59
02
95
92
56
80
59
05
A4
21
59
66
84
26
A5
58
59
56
82
88
54
A9
48
44
48
65
8A
24
45
98
62
98
24
55
5A
A6
A4
65
08
94
68
12
A9
29
69
AA
99
9A
52
56
66
90
2A
61
50
A6
81
4A
42
A9
44
9A
94
66
A2
4A
86
26
90
16
46
96
01
A6
89
16
06
66
45
69
89
A2
61
49
45
05
69
90
A1
85
19
62
AA
46
91
62
59
66
51
05
A1
1A
92
66
46
8A
18
69
14
81
A6
09
8A
18
54
56
0A
69
5A
46
98
59
08
98
4A
50
46
44
05
26
5A
46
A1
AA
88
6A
29
89
86
22
4A
55
89
90
6A
69
18
91
50
A4
96
91
AA
85
55
54
16
A0
99
65
A0
A1
AA
96
25
42
19
1A
12
A8
15
A8
18
55
85
41
59
84
19
2A
60
16
60
46
16
91
99
A0
90
41
94
06
A4
56
8A
6A
2A
51
A1
50
15
15
51
96
14
29
46
11
95
64
2A
6A
18
86
64
28
50
A2
66
99
49
15
A9
8A
A9
26
AA
88
62
28
A2
A8
61
45
58
28
9A
01
46
60
92
95
89
95
1A
19
A5
6A
69
98
66
26
48
94
92
11
66
52
99
94
91
51
15
95
15
64
49
22
A2
94
2A
A9
55
A6
21
AA
A8
95
42
A2
6A
24
A9
A4
92
82
56
54
50
68
90
45
2A
94
61
AA
95
56
62
95
49
95
51
8A
92
85
55
84
A8
99
99
91
66
25
10
10
85
26
84
96
69
02
A4
41
29
06
A1
26
48
61
55
A5
18
24
45
58
46
99
61
86
60
96
5A
A1
68
60
A4
92
15
8A
29
95
50
65
22
89
21
82
42
59
62
A6
6A
95
6A
A9
49
64
49
55
28
65
88
69
00
A8
52
18
A4
61
A6
41
69
A9
49
68
56
48
4A
5A
88
95
05
45
8A
A1
58
11
45
A4
94
AA
46
62
88
11
55
9A
5A
65
4A
55
99
66
12
8A
84
29
25
96
55
56
49
66
15
42
52
A6
52
81
64
6A
20
6A
16
28
0A
59
51
AA
19
66
AA
90
A4
16
9A
12
99
18
85
A0
59
6A
4A
96
29
A1
26
15
12
91
62
99
54
68
56
62
99
20
A9
82
11
29
05
A8
5A
65
95
6A
94
59
94
24
62
8A
A8
99
16
25
A9
4A
96
92
26
26
66
04
65
5A
14
25
A5
1A
A1
22
05
A1
1A
66
98
86
81
A6
88
44
AA
99
16
A4
9A
6A
54
88
98
05
59
89
99
68
A1
96
62
15
16
A9
90
16
54
01
61
A9
8A
19
4A
91
06
50
94
91
86
A2
56
62
90
1A
04
A4
5A
58
8A
51
15
86
95
AA
55
05
82
68
0A
68
86
8A
04
46
99
A9
54
60
A0
2A
46
96
91
55
8A
95
90
16
68
84
99
98
4A
AA
68
08
29
56
24
95
80
AA
66
51
95
64
A6
69
84
86
69
86
A4
92
89
68
A9
61
61
A8
89
4A
56
95
20
59
24
92
11
54
66
95
56
66
25
21
90
44
48
96
A8
99
29
88
9A
00
A9
52
95
09
92
84
99
A8
A9
2A
95
59
56
86
9A
12
22
99
A5
80
86
56
14
66
64
28
A6
22
56
92
A9
AA
04
1A
08
95
82
12
84
0A
A9
A9
1A
04
62
61
46
51
82
50
99
AA
29
21
66
69
24
8A
6A
56
8A
6A
1A
65
12
1A
64
09
68
1A
69
68
62
41
55
96
69
19
56
16
92
15
50
56
A9
6A
A4
55
42
16
64
A9
44
4A
1A
65
1A
90
59
6A
06
19
54
58
66
65
15
90
96
81
9A
2A
66
28
5A
A5
A4
55
5A
81
05
A9
50
62
52
92
82
A8
96
55
81
22
18
4A
01
48
1A
18
18
21
41
2A
42
19
A4
A1
92
66
54
A9
94
54
55
59
64
68
14
95
58
24
AA
82
92
95
55
99
A5
19
06
16
29
42
AA
58
99
94
69
98
46
62
05
98
86
89
90
58
20
96
52
52
A6
09
6A
49
A1
A6
55
AA
AA
84
A1
8A
20
A2
8A
46
94
19
8A
61
92
84
91
9A
A6
98
AA
94
A5
91
91
A5
6A
16
50
A1
A5
68
16
95
A6
59
55
1A
66
49
A5
45
44
24
5A
95
65
89
62
64
16
6A
81
06
16
A5
08
A6
44
95
05
66
50
42
A6
06
88
19
99
A1
66
56
25
A9
15
94
66
91
99
09
90
69
62
68
4A
98
29
11
98
65
94
A9
26
89
86
A9
20
28
51
15
51
92
90
45
98
A8
96
48
25
69
15
A5
59
14
05
40
20
64
A6
14
A0
A6
66
54
16
06
AA
65
95
1A
69
8A
20
A5
00
2A
0A
A5
59
12
A1
19
A2
59
01
29
58
19
A2
44
09
46
9A
61
26
A6
86
86
69
11
44
06
66
A2
88
62
45
85
95
98
86
60
25
06
2A
A5
A5
91
5A
56
A4
51
55
12
9A
09
20
A8
90
4A
16
84
89
16
9A
68
56
94
45
90
58
9A
89
96
19
8A
99
66
91
68
A9
A2
89
9A
98
68
89
A9
A6
6A
A1
66
5A
10
A1
26
A5
59
15
95
A5
44
68
41
59
69
AA
66
20
A4
19
16
16
95
59
80
50
2A
51
60
82
4A
19
46
A0
65
84
12
8A
11
45
88
5A
94
69
A5
2A
82
5A
19
A4
64
A8
26
84
86
99
95
4A
2A
A5
46
55
11
55
91
96
A6
1A
55
81
65
15
A9
65
5A
86
AA
05
58
A0
26
94
88
65
91
45
06
5A
A1
68
68
0A
61
04
AA
54
59
6A
AA
50
62
45
59
16
A8
51
8A
AA
9A
05
AA
82
18
95
09
99
88
4A
62
AA
95
54
89
60
58
60
18
59
21
66
9A
58
A9
08
6A
2A
28
66
56
A8
21
12
4A
4A
20
02
55
1A
26
16
22
90
9A
55
8A
92
95
45
58
42
94
86
22
21
58
26
64
A9
85
61
42
08
29
85
56
65
A5
09
1A
AA
94
A1
64
24
A9
69
55
58
50
45
46
42
4A
81
62
51
A5
8A
86
98
65
69
88
2A
59
42
6A
45
49
64
99
56
46
85
51
26
55
59
95
62
68
08
92
84
06
88
A5
90
2A
9A
95
14
9A
AA
56
99
54
86
06
68
48
19
95
14
25
42
44
25
59
91
61
45
44
01
44
A4
49
85
90
84
A1
45
96
95
5A
A9
A1
08
50
40
16
60
61
51
4A
62
51
55
A6
A5
94
01
56
69
85
19
A0
A9
48
65
25
64
A5
14
92
6A
62
69
85
4A
55
69
59
65
96
22
68
AA
21
A9
59
59
24
96
05
02
5A
50
54
A5
65
86
A5
28
62
61
29
85
A1
85
48
50
52
08
89
12
51
11
85
82
54
50
50
88
59
9A
68
65
44
68
44
91
08
AA
50
09
21
A6
16
95
19
86
69
82
29
8A
60
62
06
64
19
91
8A
85
2A
12
50
28
09
41
46
05
46
2A
41
65
12
92
21
56
48
69
84
AA
09
59
64
21
04
11
25
51
AA
49
99
59
8A
A1
2A
9A
4A
89
95
26
2A
06
59
82
09
40
49
88
15
12
82
48
65
86
AA
A8
25
98
96
65
59
A0
82
61
A4
A2
18
55
09
55
91
04
41
6A
42
09
14
2A
86
16
60
25
42
A5
69
55
62
2A
05
8A
64
28
A2
45
29
58
9A
56
A0
49
0A
60
58
14
54
A8
49
56
42
9A
85
52
6A
14
8A
A9
60
50
09
A4
99
A8
99
98
59
64
56
12
A1
41
A2
54
4A
84
A9
58
A8
00
51
5A
12
89
11
65
24
66
42
65
42
A9
90
16
11
02
69
A8
15
52
20
A9
0A
00
96
A5
86
41
41
A8
A9
9A
48
95
A4
42
85
56
9A
22
52
49
69
8A
94
22
05
16
A5
54
89
56
8A
92
66
96
29
59
15
6A
96
68
6A
A8
88
96
A5
65
06
8A
22
A9
96
12
2A
01
61
91
64
02
61
66
A4
69
24
58
59
61
A8
42
61
68
A1
AA
94
96
19
85
24
09
46
62
18
60
26
AA
16
19
66
64
88
0A
22
A5
94
0A
59
5A
88
29
12
11
60
55
19
59
46
A2
26
96
41
96
02
62
62
52
15
66
AA
88
08
64
A4
08
86
49
1A
10
18
09
58
68
58
09
6A
54
AA
A6
56
95
62
22
6A
66
A4
94
49
08
26
48
15
52
16
2A
64
A1
41
66
29
91
59
69
95
84
62
A9
96
8A
A2
29
5A
09
A2
9A
55
66
68
94
84
50
25
81
80
86
A4
46
95
14
92
82
58
A5
AA
86
92
51
26
55
56
45
91
95
55
26
64
86
18
8A
54
A6
52
69
65
A0
98
96
90
A9
22
19
62
26
65
44
84
40
A8
96
68
2A
69
29
A1
41
65
56
49
48
A6
85
A4
02
A9
AA
A6
69
54
69
A0
80
8A
A8
48
AA
82
92
54
62
A1
5A
61
90
29
12
55
19
94
A5
19
4A
59
21
A9
19
A9
29
09
45
21
98
60
A5
88
61
21
5A
48
29
60
86
AA
52
16
A1
95
0A
06
64
A8
A4
20
45
96
5A
4A
62
89
92
18
19
09
16
12
49
19
06
AA
1A
54
99
05
45
2A
66
45
95
A5
A9
99
6A
96
96
68
66
59
96
55
56
60
A6
2A
94
92
95
59
59
14
12
10
96
A2
A1
54
50
6A
A6
49
62
29
66
44
59
52
5A
94
9A
64
A9
15
91
AA
15
69
AA
5A
85
88
28
54
25
A9
55
44
1A
9A
96
19
2A
48
4A
69
49
AA
14
11
42
28
15
A6
6A
99
68
05
6A
65
9A
26
22
A5
99
51
A2
A9
81
41
2A
68
95
AA
28
A4
42
A0
85
00
28
A9
85
10
54
5A
66
66
14
54
45
41
A1
98
45
48
A6
90
A8
59
26
A9
19
94
58
84
66
85
95
46
88
A0
66
6A
66
69
A6
59
49
22
45
94
66
9A
8A
84
40
14
96
62
6A
A5
65
84
A9
6A
A8
01
56
98
69
55
51
A8
89
91
9A
46
49
80
6A
95
69
1A
58
58
90
99
25
65
0A
16
A9
94
00
94
26
95
28
28
86
8A
2A
82
46
56
25
69
48
84
99
41
5A
65
A4
62
14
19
18
48
5A
AA
88
82
86
52
2A
8A
89
A1
58
5A
64
98
90
00
2A
A9
40
45
8A
92
66
2A
45
08
9A
69
54
A6
65
99
85
09
95
1A
85
66
40
48
A5
89
11
89
50
58
A2
46
85
91
6A
01
85
25
91
6A
42
52
82
95
46
24
A6
A5
A6
50
25
22
08
58
85
85
90
26
9A
A9
59
92
98
A2
A5
05
49
51
64
5A
92
09
26
22
A6
4A
15
52
69
A0
26
20
A2
49
12
21
15
88
15
25
95
95
86
5A
A1
12
68
26
2A
06
56
15
AA
15
66
49
59
09
11
42
A1
90
89
A6
6A
A4
44
65
5A
45
6A
18
A5
45
AA
94
59
94
15
41
A0
06
65
92
55
61
08
96
A8
49
8A
A9
91
26
58
69
48
A5
50
A0
95
09
86
59
A8
02
A9
6A
85
19
5A
54
82
A4
81
41
49
88
61
69
58
15
A4
81
A6
A1
54
98
A1
A9
51
96
A0
A9
69
65
6A
A6
8A
A9
0A
66
49
68
65
A5
A8
28
55
8A
18
46
AA
9A
6A
15
26
5A
54
54
66
28
59
68
58
54
51
62
48
60
40
A4
55
69
50
90
0A
64
62
94
89
61
62
04
95
44
66
A8
12
81
0A
5A
59
45
A5
68
60
95
98
A4
28
88
66
69
A8
9A
86
48
51
40
28
89
69
45
26
61
61
A5
92
A9
95
A9
59
4A
65
40
10
25
82
AA
16
24
6A
85
55
42
2A
15
A6
A6
4A
61
6A
8A
15
08
9A
04
65
16
58
64
A8
29
60
56
68
24
09
51
41
54
59
05
A5
A8
61
A5
96
98
46
66
94
9A
19
66
92
45
26
49
0A
A9
50
65
24
8A
95
AA
25
45
94
AA
59
25
95
59
95
58
A4
69
46
16
51
05
99
40
A2
61
45
11
62
02
99
A1
86
55
16
52
59
95
9A
A0
A2
0A
4A
11
14
10
56
68
15
96
A0
A9
6A
45
14
A5
46
6A
A4
18
45
45
49
85
56
1A
A5
42
68
16
2A
1A
11
54
14
06
94
15
A9
09
91
26
01
96
89
90
29
64
05
69
91
25
6A
5A
69
25
02
9A
9A
61
96
A2
6A
4A
59
62
02
08
08
00
91
1A
65
68
19
9A
28
68
05
16
99
9A
69
AA
28
A4
85
A6
49
8A
26
99
A8
9A
A6
69
68
81
59
15
49
24
42
45
16
65
16
66
5A
60
A6
85
58
51
9A
16
99
54
98
55
9A
19
29
14
55
66
65
45
9A
6A
44
90
62
28
29
21
50
09
09
5A
95
86
25
18
69
56
06
A5
66
69
1A
05
1A
52
28
21
50
68
61
24
5A
9A
15
99
15
6A
1A
21
09
61
66
66
58
66
19
26
29
48
64
46
99
10
9A
56
24
55
A9
12
A1
00
61
10
28
65
2A
65
A2
95
89
6A
21
65
06
19
18
62
4A
81
68
49
9A
1A
65
A9
98
59
8A
90
46
86
96
A8
62
55
42
5A
25
24
66
15
A5
A8
61
41
15
96
6A
60
51
25
10
86
99
89
44
08
2A
15
58
91
A4
40
44
95
A5
22
22
81
5A
42
62
9A
42
A4
40
0A
98
25
8A
59
89
6A
64
44
51
6A
5A
A6
62
95
12
42
68
68
94
59
A9
06
8A
51
58
19
A5
48
99
AA
49
5A
06
51
68
55
66
62
00
A2
58
59
19
26
64
65
52
95
91
41
40
92
A6
11
58
56
94
98
46
48
92
99
66
5A
12
91
61
88
21
56
0A
92
58
65
26
55
A9
9A
18
58
A6
82
69
2A
A4
59
61
89
65
56
21
40
68
29
89
68
91
98
55
69
59
46
11
88
8A
94
A1
86
65
62
18
66
44
14
6A
AA
25
06
5A
64
15
45
84
81
09
45
5A
9A
61
54
51
22
A1
64
40
85
A6
A6
60
90
25
4A
96
26
AA
51
6A
15
6A
A6
55
11
85
09
11
2A
68
09
86
21
64
86
56
48
60
A8
08
A4
99
9A
96
1A
42
81
10
64
A5
69
29
9A
45
69
55
86
6A
A2
60
8A
51
15
5A
69
58
A5
50
AA
42
01
55
90
29
61
55
98
56
94
6A
89
6A
95
10
9A
56
06
15
08
A9
24
11
49
28
5A
A9
18
65
56
86
9A
9A
98
22
16
89
56
66
02
10
69
19
A8
06
05
66
94
60
44
2A
16
50
14
19
49
A2
99
82
84
66
6A
15
86
6A
19
44
85
5A
60
92
01
21
A9
15
55
68
52
54
54
20
29
69
A9
28
A9
11
26
61
21
56
98
46
65
22
98
66
A8
6A
8A
56
51
0A
68
85
56
00
26
59
61
2A
09
5A
80
6A
A9
96
5A
96
80
A1
86
25
24
44
59
8A
A9
81
51
90
65
12
98
22
49
50
46
62
89
94
98
91
65
5A
52
AA
81
52
55
22
A8
60
86
A6
16
48
18
62
49
95
A8
69
A5
A1
51
5A
5A
64
6A
52
A1
18
59
64
69
A5
55
92
60
05
59
A9
15
96
22
9A
98
68
18
19
A4
56
12
A2
45
56
06
96
28
81
19
66
49
14
45
95
09
02
22
66
06
09
60
52
95
A9
11
8A
A6
49
26
45
96
9A
18
1A
92
66
99
86
6A
45
66
69
16
89
66
62
1A
49
50
40
12
96
48
9A
4A
46
A9
AA
21
95
24
65
96
84
11
89
84
A6
40
60
2A
06
88
65
A5
49
69
42
A1
29
92
18
99
55
52
45
15
86
25
A1
25
68
66
58
2A
18
86
51
92
96
65
56
64
61
A4
A6
42
49
51
6A
19
A4
94
65
41
06
42
85
25
65
45
6A
54
11
51
26
8A
29
6A
8A
92
66
A1
21
99
41
56
45
49
51
A0
6A
6A
15
69
AA
A4
29
58
4A
95
61
99
64
AA
22
82
18
05
19
11
68
A5
9A
A6
55
29
96
65
6A
99
95
96
00
24
65
41
69
88
82
65
81
1A
1A
6A
AA
86
AA
10
A5
65
A6
68
6A
85
55
96
12
1A
A8
5A
09
92
18
09
91
66
65
54
86
99
81
62
8A
4A
26
91
25
00
56
98
06
55
92
A4
8A
A2
A6
56
45
66
99
96
05
A5
14
A5
0A
62
12
A2
69
95
60
90
40
91
96
21
21
95
90
65
84
54
45
01
95
01
02
9A
96
94
50
A0
95
9A
96
8A
A6
66
14
61
AA
69
92
15
88
84
60
4A
4A
91
66
94
A6
95
95
4A
0A
12
28
4A
16
68
85
A5
95
8A
94
69
66
61
95
65
89
A6
44
24
94
A8
92
56
6A
94
11
45
8A
02
62
8A
99
A9
19
A0
54
50
65
92
55
04
A5
AA
80
22
1A
AA
50
99
54
85
66
1A
5A
56
52
11
92
51
A6
65
54
86
15
A6
A5
A9
88
88
65
65
28
08
51
08
69
08
96
85
99
81
A2
80
88
2A
65
41
4A
18
25
80
02
86
46
12
45
A0
94
92
85
94
A5
98
62
15
A0
A0
49
46
56
51
A9
44
A6
86
01
24
05
90
00
55
16
22
51
49
42
80
09
66
28
A9
08
A5
42
64
94
40
A9
92
94
96
09
61
62
6A
52
14
19
64
19
04
69
4A
15
56
6A
A2
0A
45
A5
A1
19
60
29
85
69
A2
95
26
06
99
52
99
98
04
25
62
6A
A8
A9
98
A2
2A
66
A8
11
12
9A
A6
56
50
64
50
82
51
26
42
98
A1
26
64
68
A4
86
A9
56
A1
19
28
52
5A
49
29
08
56
2A
25
45
29
49
00
9A
65
AA
68
96
2A
66
8A
A4
46
85
44
11
92
59
04
48
85
89
54
55
66
06
19
48
89
A5
29
96
92
22
0A
6A
51
49
89
92
99
55
4A
84
51
A1
88
18
5A
02
A9
16
48
12
68
94
56
98
65
52
AA
AA
A1
A2
24
66
A9
69
90
95
49
65
52
48
6A
41
29
05
A2
56
98
90
19
05
98
66
44
98
52
A6
A6
A8
45
84
A8
25
82
A6
86
1A
81
0A
60
48
04
91
09
A1
8A
51
16
09
69
04
44
A4
98
AA
A9
12
52
01
A9
56
99
5A
85
66
06
A5
A9
2A
82
66
55
0A
5A
81
06
59
81
95
09
A5
22
14
56
68
40
41
62
62
25
61
00
6A
46
89
A1
49
A6
90
AA
A8
88
40
91
04
A8
A9
46
A6
46
1A
84
91
6A
82
15
A9
94
A4
58
96
9A
84
69
AA
45
58
6A
24
64
A5
92
5A
54
96
A6
15
46
9A
56
45
90
68
46
60
A1
51
45
A9
A5
81
A5
65
80
41
22
86
56
A0
68
A6
6A
99
59
01
6A
91
19
21
9A
A4
02
62
15
64
62
02
91
04
A1
14
55
A9
49
68
65
AA
41
A1
28
A6
A6
58
98
99
99
25
86
56
16
58
25
A2
06
92
04
99
A4
69
A6
89
52
A0
46
58
1A
86
18
15
62
85
55
55
A6
45
89
92
10
09
A9
A6
60
44
14
A1
52
51
A5
56
68
66
14
41
56
24
42
69
1A
59
9A
96
29
15
95
5A
91
5A
41
0A
59
09
0A
92
45
42
64
A8
45
A9
A9
A4
6A
99
A5
AA
A4
51
8A
89
51
65
28
A9
82
29
81
64
52
4A
0A
98
5A
01
54
5A
94
A6
A9
12
21
69
88
55
90
58
A2
58
A5
61
1A
92
A9
48
A1
96
16
65
55
15
04
95
69
89
01
24
62
12
2A
61
49
08
A8
59
00
89
A0
19
66
68
89
26
A6
12
12
24
69
55
12
9A
90
95
A9
02
20
06
A8
21
A5
84
26
69
5A
A5
9A
54
A5
5A
99
99
2A
49
52
52
65
65
12
1A
65
15
14
81
46
48
A1
6A
19
65
24
85
A5
94
18
29
9A
50
0A
1A
59
69
4A
88
65
92
96
51
A9
96
8A
08
54
89
16
59
86
A4
46
05
58
14
56
5A
25
56
52
69
11
62
A9
59
99
90
61
69
A5
50
09
09
55
A4
A5
9A
44
52
58
25
A8
28
55
54
42
1A
A1
09
69
21
A2
A0
82
55
46
64
25
A9
66
54
12
41
A9
18
56
48
AA
98
A0
48
98
8A
50
16
49
50
28
48
61
65
65
89
26
94
09
89
9A
62
54
6A
61
A0
59
65
5A
86
A4
9A
44
A6
61
91
56
28
54
81
88
09
45
68
65
01
99
44
82
92
1A
51
19
55
90
84
96
A5
9A
2A
A6
12
26
56
56
98
59
A5
65
49
92
52
56
A6
09
24
55
09
A8
45
96
A6
25
62
19
65
88
5A
A2
95
AA
69
A9
44
65
49
81
01
8A
A1
99
89
22
19
06
51
AA
A5
96
A6
58
A6
42
A9
68
24
64
64
85
89
91
90
04
25
25
69
46
86
52
AA
1A
A6
99
86
04
A8
60
80
65
59
49
54
56
29
2A
65
66
A6
A9
51
6A
A9
41
A4
9A
A9
A6
80
50
69
56
91
65
12
45
41
55
A9
56
95
A8
65
A1
14
00
45
96
54
99
96
44
A9
45
86
59
18
96
20
AA
65
68
91
62
95
A8
8A
8A
50
29
56
24
59
25
65
99
0A
A6
8A
56
98
94
A5
11
05
AA
A0
99
29
95
A6
A4
59
86
16
09
29
69
52
16
61
40
6A
65
89
08
56
15
A1
91
51
95
A2
42
AA
6A
18
A2
64
26
96
61
25
86
40
66
1A
61
54
16
A8
96
A5
96
66
68
89
95
54
84
4A
94
94
96
05
A4
91
2A
59
0A
A6
12
42
95
A2
6A
45
58
49
9A
A1
4A
44
95
8A
5A
29
64
64
A6
16
5A
09
2A
A0
51
95
95
5A
A6
94
59
85
69
94
55
54
51
25
99
62
29
41
A5
A1
51
65
98
A2
2A
52
89
69
42
0A
42
18
22
51
66
51
99
26
96
62
92
5A
46
A6
89
A5
09
6A
56
94
52
26
69
A6
6A
01
99
6A
21
46
42
A9
69
A1
61
98
42
94
05
45
09
96
19
55
A5
92
69
96
AA
29
A8
9A
41
A9
28
A2
55
AA
98
41
91
19
6A
49
59
28
5A
25
5A
9A
5A
59
26
A4
51
58
5A
55
69
84
A9
22
60
5A
10
60
52
84
2A
9A
65
00
29
A1
14
62
59
8A
08
9A
11
44
9A
44
28
16
60
51
58
24
9A
00
65
59
64
AA
90
25
AA
02
6A
56
62
5A
A4
5A
25
A2
1A
56
69
45
85
A5
82
45
15
99
11
99
86
65
AA
6A
48
16
86
95
66
56
92
24
99
69
48
66
64
68
65
2A
26
66
09
2A
95
62
91
55
84
0A
59
66
41
48
59
54
14
18
21
66
A9
44
96
56
19
04
61
A0
95
16
A9
5A
88
46
94
16
A0
61
41
A5
56
91
28
2A
84
06
59
0A
15
62
2A
48
9A
06
A1
59
AA
2A
98
A6
55
86
21
06
90
2A
95
40
96
A9
99
A4
A5
A6
02
58
44
55
68
2A
A6
A4
56
64
15
22
2A
A5
50
A5
89
4A
69
9A
91
15
58
95
5A
49
91
58
58
A9
A9
56
80
58
21
54
A2
85
AA
8A
69
52
44
51
A8
69
92
96
6A
44
2A
84
98
66
46
61
91
52
A9
92
65
85
AA
62
55
29
9A
01
65
2A
4A
0A
2A
18
16
A9
42
59
A6
26
A8
52
69
A9
A8
A2
50
9A
5A
58
24
29
55
40
82
14
82
65
65
59
84
0A
46
5A
6A
59
49
59
85
94
91
55
A9
AA
51
A8
AA
A2
16
6A
95
16
A9
45
A6
84
24
52
18
88
A9
85
8A
45
66
28
04
69
88
62
A9
86
96
AA
A4
A8
AA
2A
AA
62
A6
69
96
29
82
69
1A
16
2A
15
99
25
60
44
51
60
6A
25
96
02
9A
41
8A
68
94
65
AA
A5
5A
25
A2
24
94
84
AA
1A
45
59
9A
49
8A
95
60
51
60
56
68
56
56
04
96
48
95
12
95
16
45
56
A5
50
5A
66
96
55
25
AA
94
64
65
96
55
55
52
55
89
05
52
09
A9
09
5A
A9
91
91
6A
6A
99
45
84
2A
54
A0
A4
44
40
89
14
26
86
56
60
46
95
0A
06
65
50
56
10
26
51
89
01
6A
56
94
AA
0A
12
42
14
88
69
81
45
8A
56
A8
69
95
AA
62
90
25
1A
18
8A
95
69
86
49
41
96
5A
65
45
18
04
15
59
25
1A
52
A5
89
16
94
56
28
29
52
60
16
15
62
62
A1
5A
6A
9A
04
10
40
00
58
44
44
86
19
84
6A
84
91
91
11
69
A8
16
95
55
51
48
66
41
82
96
A6
81
98
8A
06
45
AA
24
89
06
55
A1
59
A6
60
50
A9
59
16
49
02
66
9A
29
A0
AA
99
A6
89
08
92
AA
46
1A
11
99
81
8A
55
52
5A
69
49
45
65
88
1A
96
5A
95
95
8A
A0
06
99
44
44
50
05
26
A2
48
56
29
AA
25
54
84
45
26
A8
48
12
51
10
6A
12
A9
AA
55
99
91
95
92
65
2A
94
1A
1A
A2
09
A5
A8
81
6A
48
15
55
69
AA
96
59
40
56
59
28
56
89
A5
A9
52
95
69
A1
69
91
9A
8A
58
2A
6A
15
A6
04
A9
44
62
29
51
5A
28
A1
9A
80
42
08
49
A6
A1
08
16
52
98
69
62
00
56
68
85
A9
45
99
8A
59
46
A1
AA
1A
09
52
45
51
2A
51
54
1A
55
40
0A
15
89
09
A2
95
09
99
99
8A
48
45
01
06
45
A6
9A
29
69
55
26
81
90
A0
A4
61
62
64
65
2A
44
95
96
99
5A
16
19
55
16
90
92
4A
A1
4A
A6
9A
55
59
60
A1
29
19
26
4A
A6
A6
91
95
45
5A
65
28
95
55
14
82
62
64
51
A1
19
2A
99
28
99
65
46
19
68
18
16
84
5A
58
00
A5
66
64
58
AA
A9
29
45
4A
A9
05
98
52
91
6A
16
28
85
2A
46
8A
59
12
9A
94
82
6A
AA
12
A8
94
59
95
54
61
A5
16
64
2A
92
5A
59
19
15
99
16
55
AA
91
46
61
15
80
80
6A
A9
A5
19
41
68
20
86
02
99
5A
25
A0
A1
22
A1
42
42
05
25
12
05
54
69
55
A2
15
90
A6
28
61
69
46
8A
52
80
25
A1
19
68
6A
11
A2
26
2A
54
51
A2
98
A6
A9
56
19
01
6A
45
49
92
41
60
66
10
82
65
A4
29
98
A6
2A
21
22
89
A4
89
06
15
61
95
4A
65
84
16
A9
89
98
05
9A
49
A4
A4
59
A4
A5
14
0A
28
46
86
98
61
12
62
06
40
A5
11
58
58
1A
94
68
89
55
9A
55
21
A2
91
95
80
49
50
4A
22
89
56
4A
15
1A
6A
22
A0
14
22
95
49
A5
58
18
5A
50
95
6A
1A
56
81
58
96
A4
2A
4A
24
58
64
82
A0
61
9A
25
46
A5
9A
26
55
64
82
42
98
49
98
55
92
4A
04
65
21
45
48
56
51
85
49
12
A0
A8
89
68
21
A6
99
05
64
91
22
65
61
A8
46
95
52
16
68
51
A2
A5
09
19
8A
AA
1A
56
66
16
48
46
24
91
5A
05
A6
54
94
A9
1A
25
41
AA
0A
54
64
99
15
64
68
66
59
51
0A
52
A4
45
2A
21
22
AA
95
5A
99
A4
62
05
14
55
95
16
A1
5A
95
48
26
26
15
91
89
A9
18
09
A9
A1
16
95
A4
60
45
58
85
A5
A6
29
28
65
85
69
52
21
94
91
89
1A
A9
68
99
48
95
65
60
12
40
95
81
A9
99
18
98
59
AA
55
14
09
9A
69
9A
50
42
58
06
55
66
26
19
2A
A1
A0
2A
50
0A
55
2A
A5
4A
52
48
25
2A
12
A9
A8
19
64
25
82
96
56
54
92
65
A6
62
69
05
61
50
26
A4
91
A0
AA
9A
86
A9
65
94
26
A4
56
11
20
59
09
A1
96
81
0A
AA
A2
85
44
81
AA
59
98
96
AA
65
59
46
15
A6
19
9A
68
55
05
50
55
8A
AA
90
12
94
9A
55
85
86
A5
92
A1
A4
25
01
96
99
06
A8
99
A8
89
92
56
A9
A2
A0
81
58
0A
85
09
AA
85
19
66
45
1A
95
28
6A
50
A8
60
89
AA
55
42
95
94
55
96
15
01
92
41
91
85
22
82
90
89
98
24
64
14
85
99
15
48
96
58
44
91
91
19
99
59
19
81
54
55
1A
52
94
A9
46
51
45
09
88
A9
A1
4A
41
95
50
89
89
91
66
9A
45
4A
66
12
15
61
4A
25
52
42
8A
55
96
A4
28
64
A4
92
A9
55
A2
00
90
A1
94
5A
9A
46
A5
A0
15
15
AA
64
52
66
85
A9
51
29
A5
48
56
58
11
94
62
4A
19
6A
22
05
49
56
01
66
90
82
42
41
52
A9
66
8A
18
12
5A
AA
82
66
26
99
48
80
56
98
AA
82
50
50
59
AA
65
40
64
54
AA
29
25
18
54
02
51
41
42
29
99
98
66
14
69
44
46
44
48
21
54
65
42
15
98
50
00
52
A2
A4
2A
56
12
62
41
56
6A
A8
88
64
02
20
46
46
59
26
21
95
AA
61
69
61
10
26
90
A5
4A
A9
5A
60
12
44
52
64
22
44
4A
A4
15
48
6A
48
88
09
24
29
12
15
65
24
89
44
90
24
41
AA
28
6A
86
1A
42
10
56
1A
80
8A
50
44
41
58
98
4A
44
90
48
00
A1
2A
1A
08
14
8A
A2
A9
65
66
A2
15
99
94
11
6A
09
51
99
96
88
01
A2
11
69
18
22
25
8A
92
84
59
01
9A
8A
A5
A9
55
25
81
06
52
86
1A
86
16
54
96
42
10
18
15
01
A8
5A
16
54
A9
A2
98
19
A6
A0
11
56
8A
85
5A
5A
85
08
9A
25
54
A1
25
AA
10
42
29
28
4A
A9
5A
56
96
82
A8
6A
8A
16
10
88
29
66
98
09
69
A8
66
8A
58
A1
55
16
51
50
15
AA
69
58
46
14
A4
51
51
94
A8
68
91
91
11
6A
98
A1
66
55
15
5A
65
98
41
8A
25
61
22
21
AA
61
66
25
66
98
4A
46
6A
51
06
15
18
16
22
8A
28
62
22
15
52
15
A1
19
00
11
86
26
55
92
A8
5A
19
55
A9
45
12
A6
19
20
29
AA
84
10
A0
5A
5A
AA
54
60
48
69
51
4A
60
04
A6
59
99
A5
96
48
82
89
96
11
1A
40
14
49
A4
50
2A
8A
29
A6
A6
16
96
95
10
46
84
61
86
14
A0
05
59
61
69
01
46
48
A9
92
91
44
A9
AA
05
49
69
95
A9
04
16
50
92
85
65
84
21
99
58
96
11
84
A1
25
A8
69
49
29
09
9A
5A
6A
69
5A
99
19
52
16
59
96
65
85
80
A2
55
A1
68
14
29
95
5A
52
41
66
A0
2A
29
12
09
28
49
59
94
99
59
60
16
A4
96
09
AA
94
21
82
65
1A
A6
24
81
18
85
96
A6
52
40
54
26
01
99
64
A5
96
86
26
91
AA
AA
A6
09
44
81
46
61
24
26
85
96
18
84
69
96
65
40
81
99
48
20
92
42
28
16
50
50
89
99
21
50
06
65
94
66
65
64
29
A2
25
18
61
A8
98
42
A6
4A
45
A9
29
01
86
55
58
59
45
11
52
9A
A8
15
4A
18
62
24
40
A6
42
42
6A
86
91
98
A9
0A
88
54
51
5A
46
60
11
86
A2
A9
92
A2
49
94
A1
40
95
86
69
86
88
12
62
81
04
AA
91
20
64
80
62
14
18
09
AA
84
A4
A4
52
11
68
9A
50
56
94
08
20
AA
52
86
A2
68
02
89
12
19
08
06
09
95
58
A9
52
A5
A2
51
A2
59
99
1A
54
68
41
44
16
81
25
69
A0
86
61
49
92
81
52
A1
A2
80
02
A9
69
6A
69
29
11
16
1A
61
26
A4
49
A8
51
69
96
45
0A
A5
61
46
16
6A
90
46
82
16
42
56
96
A8
66
26
11
04
81
99
89
AA
16
69
29
99
6A
55
45
26
95
16
A9
6A
94
88
8A
50
16
26
09
62
41
92
28
62
0A
54
A9
00
A4
46
46
10
92
46
56
9A
46
28
60
56
5A
6A
A0
11
24
58
26
90
A9
66
9A
01
85
28
99
92
68
00
9A
9A
80
01
95
08
69
08
4A
96
90
01
80
A2
24
09
14
68
16
A9
A0
18
65
54
08
A0
66
69
18
92
18
52
21
94
55
16
A6
A9
54
25
14
A6
25
45
22
86
50
46
A8
10
96
99
18
24
A6
52
A9
94
59
A4
95
24
91
21
96
18
94
A6
29
8A
88
88
15
92
51
19
88
42
95
92
19
56
46
21
25
A6
5A
49
A1
A4
02
49
11
90
A9
22
A8
28
52
89
65
21
12
68
48
5A
19
54
14
28
89
96
91
20
A1
99
54
61
22
84
2A
89
91
86
19
61
89
29
59
5A
10
A6
04
16
51
6A
45
99
95
91
01
64
92
62
66
45
A1
06
48
60
A2
98
62
25
59
61
96
49
59
61
48
54
94
24
A8
55
6A
A1
80
86
68
08
11
A9
41
90
8A
8A
26
91
99
A5
A0
09
88
25
99
80
AA
06
58
A1
89
89
A0
86
64
56
62
62
15
66
A4
94
18
89
54
86
62
29
AA
08
55
0A
81
65
A5
55
25
56
01
22
5A
50
41
4A
60
09
96
56
8A
66
A8
40
85
95
8A
95
18
65
81
68
09
A5
AA
95
92
21
99
56
A2
2A
A6
65
96
04
41
A6
11
58
46
55
9A
45
46
92
55
98
8A
15
92
65
81
46
90
12
92
42
50
59
89
56
A6
95
81
14
96
80
56
A5
4A
64
60
22
A5
51
10
05
06
80
19
66
92
20
0A
65
46
A1
A6
99
46
45
25
61
0A
82
56
69
4A
48
04
99
A8
1A
48
64
A5
50
21
51
86
65
99
06
88
89
A4
06
92
04
64
A9
61
41
A9
96
50
92
A1
92
98
10
A1
26
A1
22
22
86
92
82
56
46
A9
04
1A
A6
91
28
48
62
98
60
86
50
60
94
0A
5A
11
64
96
19
A6
64
19
69
42
A2
61
50
AA
15
82
91
AA
95
09
84
2A
29
24
94
95
64
52
42
A6
58
56
12
59
5A
25
49
80
2A
A0
6A
89
62
65
48
81
89
18
A4
69
81
44
9A
62
52
44
09
AA
99
20
66
05
26
28
99
24
15
68
84
60
61
A9
8A
56
82
A0
29
85
66
45
41
61
89
66
80
98
00
26
1A
A8
A4
22
A2
06
A4
86
19
66
24
25
89
85
A4
A2
92
A8
62
16
86
40
8A
A5
58
85
40
88
A9
90
52
55
45
6A
A2
21
29
55
A8
01
A4
64
8A
58
98
A1
10
81
85
68
86
44
6A
A8
0A
A5
66
06
61
6A
22
20
65
42
62
A6
19
25
4A
92
64
60
02
46
95
46
AA
28
A9
12
10
2A
60
41
61
59
92
90
52
86
19
50
AA
88
88
AA
9A
48
1A
AA
91
A6
9A
94
11
69
65
A6
66
59
A4
50
12
1A
6A
69
28
65
56
45
21
A0
95
A4
25
82
44
16
09
18
22
85
18
90
99
A6
A8
60
98
29
01
A4
64
60
5A
45
62
65
4A
A0
2A
81
6A
28
10
51
19
2A
66
1A
48
A5
9A
12
85
12
64
59
A8
A5
26
1A
92
85
65
2A
95
20
61
1A
A2
16
81
24
21
16
05
94
59
99
95
18
81
80
69
95
56
5A
05
24
A5
A1
95
86
05
19
A6
80
91
10
A9
55
A0
92
A5
01
42
AA
68
5A
20
26
A9
94
06
26
65
95
5A
66
29
A1
98
98
82
65
84
A5
60
A5
16
92
56
11
26
61
46
04
65
85
4A
2A
66
85
12
55
9A
AA
69
22
92
98
52
64
45
64
12
11
6A
48
68
6A
04
19
01
58
25
52
0A
06
19
41
86
A6
54
29
92
52
56
92
29
88
29
96
A2
50
06
9A
AA
94
29
A5
56
15
68
59
5A
05
95
56
50
52
5A
84
A2
95
61
84
86
59
91
99
98
80
01
2A
28
40
A6
AA
81
61
19
60
59
89
51
19
AA
56
28
66
05
2A
68
69
14
A6
46
66
98
85
5A
5A
56
6A
A4
51
A6
80
26
59
56
14
41
69
60
25
84
A1
11
50
05
15
80
A5
69
41
59
AA
9A
41
94
55
9A
09
61
89
10
59
84
A2
28
14
61
49
94
42
4A
A4
5A
80
A1
02
41
A9
00
69
21
45
A8
69
A0
82
09
28
18
6A
69
26
69
69
52
4A
25
48
A2
14
A9
69
58
6A
16
49
98
21
61
95
91
28
61
25
A9
26
98
94
8A
28
04
20
11
8A
95
29
58
16
66
60
25
51
A2
56
08
98
88
A9
10
61
26
86
50
95
64
A5
62
24
16
82
45
A6
59
08
55
55
A5
9A
A9
56
64
56
15
52
6A
98
66
49
60
61
02
29
58
60
11
A6
46
56
12
24
55
52
42
A9
81
9A
4A
46
49
68
10
A2
51
66
9A
28
66
51
98
45
5A
2A
60
86
89
69
88
A2
A9
A6
14
18
A8
2A
0A
A9
15
44
49
A2
05
94
20
10
11
09
69
A2
50
69
A2
61
A6
42
A2
A5
A5
51
88
A9
46
A4
46
69
1A
40
46
44
20
25
89
A1
15
55
52
A1
08
22
91
69
88
81
59
59
80
54
96
22
22
65
1A
44
62
54
16
61
96
99
04
A5
41
A9
98
AA
58
02
A2
5A
62
A8
90
24
A5
94
98
65
A5
21
52
55
22
62
86
88
45
6A
06
61
49
09
05
50
92
85
25
86
0A
A6
25
40
58
81
5A
A9
66
46
59
95
54
52
A8
55
81
92
95
58
51
22
61
4A
28
2A
85
45
10
88
A2
25
59
AA
96
29
96
45
20
09
28
A0
42
A9
66
25
05
1A
81
12
64
44
A2
5A
21
68
60
99
81
48
44
5A
20
86
05
68
19
86
98
88
52
66
8A
04
59
65
62
51
55
66
A0
14
24
84
59
A2
A4
4A
09
01
A5
42
19
88
15
4A
09
25
05
49
62
58
86
2A
64
59
22
89
59
95
15
05
A0
A5
85
55
92
22
5A
99
21
A4
91
19
85
8A
54
15
55
85
66
02
55
91
A6
46
24
69
15
60
59
61
1A
59
99
59
80
28
95
A4
66
99
8A
19
41
AA
A8
46
68
A9
54
56
24
04
09
44
58
51
19
2A
66
59
15
56
A1
49
A5
A6
AA
4A
29
02
56
86
66
24
A5
5A
69
26
29
59
9A
09
92
8A
44
65
99
84
09
58
29
06
6A
82
56
A8
52
A9
95
24
95
21
96
60
00
66
61
95
65
98
A8
26
55
59
16
81
80
10
55
85
89
06
21
99
54
98
A8
16
99
A8
85
02
92
6A
60
9A
6A
61
94
00
46
A9
8A
05
89
15
49
A5
00
A2
42
1A
41
2A
26
50
52
54
40
A2
8A
29
95
45
65
86
96
8A
45
14
4A
99
51
45
50
A4
84
8A
16
A6
50
56
26
9A
08
96
61
22
AA
41
91
11
94
89
51
0A
98
A5
86
21
5A
95
90
46
58
15
55
12
99
AA
69
66
88
28
99
49
24
A8
A4
89
06
AA
96
20
14
A6
45
98
0A
20
28
09
95
A1
48
A8
A2
09
05
99
A5
41
62
60
49
20
21
99
28
4A
52
58
45
20
40
58
26
28
40
92
18
09
56
95
2A
19
19
AA
AA
4A
4A
A2
60
4A
52
A8
99
15
01
95
85
92
95
65
16
62
96
4A
49
AA
0A
A8
69
24
A0
61
51
2A
22
52
5A
06
14
A1
82
91
A9
95
51
A6
46
20
55
14
29
02
A6
A2
95
62
94
5A
90
49
4A
06
9A
66
96
9A
28
A4
25
99
92
21
59
61
45
46
90
98
99
15
12
54
44
A5
91
96
8A
86
55
12
6A
18
AA
16
99
A8
15
15
64
22
5A
18
AA
40
62
9A
6A
68
95
5A
9A
45
50
04
82
56
09
61
4A
06
90
95
80
24
1A
94
81
20
55
18
96
89
52
25
AA
62
45
19
02
A8
18
AA
A6
62
1A
15
61
A6
02
92
45
42
8A
55
51
14
A5
95
91
0A
20
44
61
19
46
16
25
12
54
19
65
51
AA
95
0A
55
46
86
46
46
5A
59
46
69
58
11
9A
A6
5A
52
2A
95
4A
99
24
62
89
65
01
25
44
A9
02
80
41
66
41
86
96
49
01
AA
04
4A
2A
61
45
68
50
12
41
11
98
20
04
55
90
8A
09
24
A2
99
99
2A
A6
A1
4A
88
26
58
A5
5A
69
95
A4
45
28
56
8A
65
56
95
50
1A
94
92
15
66
86
48
59
15
24
21
A4
94
41
A2
50
A1
59
05
54
04
61
A6
66
92
08
44
20
59
10
21
66
14
89
24
16
92
01
56
45
19
44
58
48
50
92
46
A8
20
A5
61
A8
65
64
22
20
A1
2A
02
82
92
86
01
66
15
A5
99
46
58
19
65
01
85
12
A2
18
16
8A
8A
85
08
19
01
A6
69
01
99
5A
A1
A9
A6
61
90
46
80
95
65
01
56
99
06
28
89
56
59
9A
15
92
22
9A
85
69
18
04
99
0A
88
2A
55
66
66
99
82
A6
A1
01
86
AA
61
28
20
65
81
85
84
AA
A6
10
99
8A
61
90
A8
0A
40
56
69
45
6A
56
51
29
88
66
08
95
61
25
96
A5
85
29
95
2A
90
99
2A
12
8A
9A
66
24
90
49
62
2A
12
9A
04
A8
44
5A
94
52
22
92
28
99
9A
42
A4
69
21
88
55
A6
25
48
A8
95
16
20
54
06
15
91
44
95
0A
A4
11
41
59
66
AA
66
A6
A6
94
91
25
A5
2A
66
8A
15
69
01
84
46
5A
82
64
51
99
5A
08
85
69
4A
51
A5
66
14
18
26
68
A4
68
54
26
55
06
45
19
61
56
10
A1
59
66
68
41
15
8A
15
24
62
42
48
66
21
58
2A
4A
05
99
66
50
58
68
A0
88
44
92
26
96
96
68
22
26
65
A0
91
64
82
08
01
29
05
54
22
11
20
69
0A
99
12
65
A6
5A
45
54
60
58
69
A6
66
12
99
40
82
2A
29
2A
A9
95
99
24
02
24
96
56
12
99
52
25
46
1A
00
56
60
94
52
52
48
24
88
84
68
66
49
A5
69
49
64
5A
41
A6
64
28
A6
26
42
A6
10
54
81
69
9A
44
49
24
66
28
11
12
98
A5
00
15
65
A9
25
AA
81
A2
81
58
48
92
69
51
09
92
95
65
61
68
16
14
12
40
05
24
50
41
69
98
99
29
19
A1
98
A2
AA
61
26
09
58
22
92
62
09
51
51
89
42
62
88
46
61
A9
92
05
49
42
5A
44
A4
44
94
2A
82
01
A8
A9
A6
A5
69
45
20
A4
06
64
A4
24
15
66
02
18
20
2A
81
28
A0
26
62
65
69
12
04
12
69
A0
49
6A
61
22
99
89
05
14
96
54
20
A4
68
5A
02
09
95
94
6A
56
82
80
82
9A
69
2A
81
66
64
65
8A
0A
A9
61
5A
22
55
6A
96
6A
15
06
86
09
A6
A1
95
9A
45
0A
18
A5
61
20
69
66
61
69
9A
19
64
59
49
66
99
95
69
66
65
54
24
66
5A
A5
55
0A
41
A4
16
56
18
15
2A
19
A9
99
62
08
5A
42
9A
A5
56
24
82
A1
95
54
41
64
29
15
28
99
44
95
29
06
95
65
55
A1
9A
14
14
04
A4
29
04
56
2A
92
59
96
85
A5
64
90
49
59
02
69
00
20
41
26
06
46
A8
44
49
01
A0
14
9A
92
15
41
20
05
98
49
04
81
11
18
55
65
62
61
14
86
91
94
68
92
84
48
25
A0
99
1A
91
5A
A6
4A
A6
56
10
11
69
09
06
19
50
04
95
50
6A
66
94
A6
56
45
52
94
1A
16
56
04
A2
AA
61
1A
A9
8A
02
91
92
81
05
81
48
69
90
20
99
1A
48
56
55
99
A2
86
55
5A
42
99
60
62
1A
10
55
A1
15
41
24
94
16
45
60
65
A9
26
25
12
42
90
62
94
24
80
64
91
92
40
94
89
19
44
61
02
41
58
A4
A6
40
84
46
25
84
15
4A
82
A4
28
A0
21
89
88
6A
41
12
09
91
62
18
64
A8
51
99
66
04
94
96
14
A4
60
5A
A6
95
90
8A
46
18
89
28
52
49
00
2A
29
92
4A
95
45
64
82
A9
42
50
96
AA
85
A2
92
26
00
98
05
A4
25
58
18
95
A5
A9
62
99
99
11
94
80
21
69
04
16
41
44
A8
62
2A
95
10
A2
82
A5
85
18
16
6A
95
40
06
91
2A
41
8A
69
15
50
25
11
9A
65
01
45
66
86
06
60
A5
A9
18
85
08
96
AA
68
96
65
15
62
25
A8
94
A9
42
A8
A8
49
0A
40
92
A5
15
82
5A
59
96
56
28
52
51
A2
95
56
A4
94
49
A5
66
1A
12
10
68
95
51
A9
50
05
01
95
58
51
46
48
84
42
21
55
55
A2
94
10
40
59
21
5A
55
0A
22
46
55
19
50
85
5A
69
A9
16
65
98
45
82
81
44
29
58
1A
29
A6
55
AA
94
66
59
A0
89
68
96
18
A9
86
9A
05
90
62
18
61
21
25
00
2A
A6
A6
98
A0
A9
68
19
A2
24
58
11
56
A9
1A
88
0A
AA
98
A4
54
22
65
16
61
64
2A
40
21
49
46
40
95
86
6A
86
5A
52
22
A6
64
28
59
16
8A
A9
69
69
A6
9A
4A
90
90
82
A0
2A
06
88
94
96
45
4A
18
54
61
18
25
A4
01
85
2A
94
48
56
A1
90
02
8A
51
58
A0
64
5A
6A
48
44
19
50
4A
15
A5
09
12
00
20
61
89
68
91
5A
26
A6
22
16
86
55
24
44
16
54
00
A4
6A
5A
84
A4
85
66
21
99
49
15
1A
42
25
91
98
12
09
54
A9
69
66
54
A9
56
42
18
59
65
45
2A
1A
2A
22
11
21
64
11
45
6A
96
95
59
81
91
94
29
95
95
04
41
55
86
59
16
9A
44
91
A0
89
A9
6A
25
45
94
68
98
9A
89
19
55
AA
29
20
49
89
14
65
92
20
10
0A
A9
4A
56
12
51
95
22
10
A5
49
61
A1
48
15
69
28
55
25
AA
94
8A
00
18
49
69
42
14
81
09
42
95
94
2A
48
56
21
60
52
28
19
85
5A
54
26
85
46
68
11
40
09
AA
9A
80
5A
01
24
8A
6A
94
22
40
91
1A
59
65
A4
98
49
19
A4
65
86
28
6A
A2
22
44
A1
A4
48
05
49
10
55
90
41
91
A4
A0
92
20
9A
66
18
86
9A
95
98
61
4A
29
6A
82
04
09
06
9A
90
98
20
86
2A
44
86
51
84
42
68
52
A4
14
59
09
86
24
48
55
25
29
85
A8
62
64
44
2A
59
55
A6
8A
9A
51
11
96
56
95
09
99
54
86
A4
92
06
44
84
19
15
61
A1
86
65
2A
A1
85
41
29
64
A9
AA
6A
88
2A
A2
29
24
A6
06
10
54
54
96
A8
18
24
84
20
12
46
95
5A
85
86
61
59
91
A2
11
A1
01
00
98
26
A6
22
50
68
01
05
95
58
A8
68
A0
54
A8
16
26
12
88
A1
52
0A
2A
8A
46
26
98
5A
5A
90
6A
04
54
0A
1A
89
56
2A
28
96
29
A6
66
A2
52
05
69
22
A1
09
65
66
14
45
A4
68
19
65
69
8A
8A
60
14
48
92
68
45
A9
09
A8
56
99
A1
24
41
54
56
A8
A8
60
94
26
8A
8A
65
55
51
1A
46
15
9A
A1
59
91
89
A8
94
56
68
61
69
5A
14
82
A9
50
89
18
64
10
99
0A
59
66
66
49
96
62
6A
51
85
89
88
A9
85
69
8A
86
19
86
A4
A5
68
20
99
40
45
52
14
42
9A
69
24
05
24
84
58
AA
69
A4
88
82
56
90
92
08
A5
22
18
42
96
05
A1
66
69
9A
95
82
60
96
04
91
A2
1A
65
28
45
62
00
22
58
26
64
1A
11
A2
89
96
69
A1
14
94
5A
65
95
86
5A
12
64
68
65
84
10
10
14
00
12
A8
A5
80
09
64
82
99
15
49
50
59
66
85
89
41
90
95
46
6A
55
24
84
88
28
92
09
A5
64
06
94
52
A5
29
56
81
12
04
22
92
11
19
69
A5
96
46
62
68
65
84
99
69
15
26
68
56
A4
A0
A6
5A
51
46
91
A6
A0
1A
5A
81
18
64
A0
41
02
19
56
A2
62
A8
68
61
A5
40
99
60
09
61
A4
A6
89
66
95
16
18
09
49
95
A1
49
85
66
56
29
00
81
84
5A
41
64
42
54
A5
56
0A
18
A4
A5
1A
52
42
92
45
95
20
26
14
A6
A9
50
46
86
1A
22
A9
04
86
A2
49
9A
92
52
55
80
A6
18
60
50
12
84
86
08
62
44
96
59
16
A0
1A
21
1A
21
59
A1
84
62
AA
0A
15
69
96
96
96
26
28
AA
52
2A
25
A1
5A
9A
9A
08
A5
80
26
82
86
69
58
A9
26
A0
51
A6
1A
42
22
41
65
59
09
52
09
AA
84
12
69
29
80
88
86
84
44
45
95
66
19
95
68
80
41
9A
A4
AA
08
84
90
A6
2A
55
95
89
66
29
21
60
60
99
24
99
65
5A
22
A1
8A
95
AA
A8
69
82
02
A0
89
66
0A
14
56
5A
95
55
0A
28
29
80
11
80
56
02
61
62
94
41
5A
A4
62
69
54
61
92
90
52
A1
49
54
12
59
49
19
A0
48
89
20
69
A8
59
2A
5A
95
6A
66
A5
1A
A6
5A
49
10
A1
A2
12
68
A9
62
06
A8
A8
59
64
62
A1
95
86
58
62
5A
56
29
29
68
44
69
24
5A
56
A6
50
A5
A5
16
02
01
45
6A
90
25
95
2A
28
19
A9
06
22
A9
65
98
66
96
6A
82
68
54
54
9A
A5
52
84
AA
19
29
01
A0
52
45
15
50
25
8A
99
64
42
6A
85
A6
69
41
20
49
59
14
15
49
65
41
51
05
44
A1
02
68
51
65
A8
26
8A
6A
96
14
18
15
4A
89
95
50
98
A6
92
66
A6
16
88
41
51
92
86
22
58
05
19
56
55
22
15
56
90
96
24
66
A2
90
05
9A
55
49
40
95
59
A5
95
59
45
4A
54
A4
91
61
8A
96
A1
A5
81
96
5A
8A
99
40
90
65
41
45
A9
66
9A
54
A8
14
60
08
A6
9A
44
16
59
AA
92
80
22
84
84
80
89
A4
91
9A
69
41
55
A4
80
12
44
88
29
65
21
56
69
88
9A
16
10
18
86
45
65
89
91
4A
12
26
69
84
A0
25
88
68
96
55
80
A2
84
91
66
2A
91
12
62
A1
A8
68
8A
64
A5
68
51
66
61
00
40
61
60
84
46
04
A2
A9
41
4A
44
55
20
58
8A
6A
96
44
60
65
9A
52
98
A9
51
59
14
66
41
12
41
2A
A8
99
89
81
61
9A
2A
81
A8
A6
89
49
A6
16
A6
22
51
A0
9A
45
64
51
99
89
A4
84
11
88
15
2A
A1
A4
06
55
56
42
85
46
86
90
1A
55
81
2A
55
6A
92
40
24
12
25
84
00
82
52
55
86
82
94
2A
18
42
9A
6A
95
A0
14
41
A8
09
00
51
48
16
21
45
20
96
A5
A6
A1
88
A9
82
16
86
54
69
95
5A
45
65
89
29
92
02
95
8A
A2
6A
A8
22
59
41
96
59
50
11
85
44
52
18
02
16
A8
99
00
9A
59
14
58
94
24
68
19
09
88
90
A1
55
61
0A
6A
05
A6
54
92
65
09
68
26
A1
96
29
91
A5
45
06
24
56
84
16
89
98
55
61
A0
A9
60
14
15
66
86
14
52
A6
25
A9
86
91
84
16
4A
1A
64
84
44
6A
80
A6
2A
A2
A2
55
62
51
85
52
66
05
14
05
08
89
52
90
25
56
56
A6
10
95
48
25
A5
28
40
26
52
6A
09
04
4A
A8
45
54
15
88
91
25
46
A8
24
55
6A
A0
92
25
69
86
50
55
95
69
AA
89
A5
A8
56
56
12
18
45
60
90
2A
12
06
48
99
58
52
28
18
11
51
14
94
19
09
A5
A5
8A
5A
26
64
2A
51
46
02
95
51
59
80
89
5A
24
22
46
68
96
A0
61
10
64
A6
66
59
11
2A
86
11
66
01
9A
56
19
59
69
6A
69
20
26
11
46
59
94
64
A8
00
90
A9
A9
A2
06
09
A6
54
52
10
10
68
A6
56
8A
AA
45
18
2A
15
26
21
96
66
80
A2
05
9A
62
25
A9
54
49
2A
54
1A
90
08
09
96
A0
12
55
89
89
58
48
85
88
96
A5
22
A8
8A
22
40
81
6A
25
A6
88
5A
59
66
45
96
56
A4
5A
55
16
41
16
A2
25
56
46
62
45
4A
A6
A9
11
42
06
45
48
68
A9
56
99
6A
96
5A
55
09
84
52
94
29
52
50
94
89
58
92
94
81
98
59
A0
95
04
91
4A
25
29
18
54
52
91
56
49
A2
92
A2
85
9A
42
69
02
21
A9
45
64
0A
99
44
66
44
96
85
20
4A
55
AA
95
06
A5
69
66
5A
5A
42
9A
09
56
69
A9
1A
55
28
14
41
25
66
51
64
94
22
A2
16
12
22
49
40
48
16
46
15
96
49
65
05
29
A9
A9
11
56
A8
28
99
A4
A1
A2
59
A9
00
8A
81
64
A5
54
92
42
98
52
89
28
62
26
55
2A
45
21
56
94
54
81
98
28
55
A5
66
58
46
26
1A
A8
8A
65
2A
1A
86
48
5A
86
99
54
21
2A
26
11
A1
89
64
81
48
12
02
05
02
90
99
86
44
2A
A9
A9
16
6A
56
62
48
44
58
00
AA
05
2A
A9
A6
90
58
96
59
41
51
89
2A
A2
18
10
A5
A5
1A
51
A8
29
51
15
11
26
65
01
40
96
29
19
54
69
AA
59
6A
05
82
09
A6
80
41
99
69
61
15
82
99
59
04
82
A9
9A
58
00
66
A6
69
16
99
1A
82
56
2A
15
65
25
8A
85
AA
59
06
81
09
01
89
4A
0A
45
9A
24
40
86
96
84
54
46
54
55
50
61
59
A5
69
A4
05
58
24
14
62
48
50
60
84
61
29
A4
68
A0
00
2A
15
00
65
19
61
19
54
04
A6
A6
0A
21
98
68
96
12
A5
94
09
86
65
A9
9A
49
26
14
18
62
6A
12
82
89
A4
51
21
60
12
46
04
46
AA
0A
41
59
08
21
21
25
06
14
96
88
5A
99
12
48
88
41
46
19
26
65
55
09
08
48
82
49
02
69
56
A8
99
1A
66
96
29
66
A6
29
06
98
65
58
95
40
6A
15
42
96
01
09
19
45
20
26
29
48
00
91
A5
AA
A5
42
8A
A5
6A
98
A8
50
96
AA
A8
A0
56
A9
42
1A
59
A0
82
00
89
10
50
01
A6
84
59
A6
11
2A
2A
56
65
A9
94
84
84
91
62
56
A6
29
9A
90
98
89
65
A4
94
21
25
12
95
9A
68
1A
A8
65
25
6A
1A
19
26
99
9A
A2
2A
96
28
5A
95
18
95
58
94
84
58
90
51
56
A2
25
88
16
12
62
45
68
22
55
4A
28
11
99
95
01
89
11
55
56
95
59
95
A5
49
14
29
21
65
AA
96
44
28
82
99
91
05
94
65
14
98
A8
9A
90
15
99
28
4A
64
10
86
88
98
99
64
64
55
AA
6A
96
89
10
54
AA
A5
86
05
55
6A
11
A9
11
01
5A
24
59
81
62
59
40
59
A4
80
A2
51
A8
91
58
98
16
50
08
A9
95
95
92
96
44
05
9A
62
50
84
A4
64
5A
55
05
62
9A
00
A6
29
11
01
42
42
1A
A1
8A
19
18
46
49
86
40
A6
0A
91
51
80
4A
62
99
44
25
22
8A
66
51
24
26
86
AA
25
42
29
44
59
4A
1A
85
65
25
65
99
88
88
94
45
69
A1
46
66
82
11
15
81
A8
88
12
64
55
AA
64
88
A8
A0
98
98
41
26
48
66
59
64
16
98
69
A2
64
65
58
55
50
64
65
18
6A
6A
62
09
9A
42
41
52
9A
6A
95
14
5A
42
89
66
18
86
A4
51
52
52
A9
64
15
A9
A5
20
15
12
52
59
85
46
4A
55
A4
55
49
59
96
66
44
59
85
45
90
51
68
A9
A1
10
80
54
52
94
42
6A
1A
6A
48
44
68
62
29
1A
09
42
56
00
90
99
6A
95
98
52
A6
41
84
9A
A9
60
86
48
42
2A
46
06
84
29
A5
85
5A
99
00
22
94
51
58
A6
65
68
0A
60
4A
41
56
4A
49
9A
58
11
20
91
59
99
66
29
26
AA
4A
06
A6
99
94
A2
06
46
15
22
99
10
58
29
95
05
65
42
65
94
91
21
54
94
15
92
04
25
05
A0
1A
1A
A9
66
69
29
09
84
A0
21
A6
A6
51
80
24
02
62
08
92
50
45
A2
58
28
A6
16
40
52
98
6A
A9
66
6A
68
81
A1
62
25
80
59
4A
62
A4
65
46
4A
A1
04
09
82
65
61
96
A5
15
29
9A
91
6A
5A
46
82
9A
48
A0
49
04
41
25
48
60
98
89
15
04
89
2A
51
89
66
50
A9
01
A4
91
A4
65
82
54
A4
98
5A
84
AA
91
02
0A
55
40
A4
09
45
16
49
19
92
80
68
A9
91
49
09
48
52
51
12
49
56
A0
4A
5A
5A
89
49
80
10
62
10
92
46
52
96
48
19
A1
A2
94
44
92
45
52
59
04
8A
56
A4
9A
AA
46
95
68
50
84
2A
51
9A
88
6A
05
55
A5
02
66
95
A6
96
85
58
48
09
95
AA
5A
55
14
AA
4A
44
05
49
55
26
25
60
06
A4
9A
44
19
14
16
95
A1
02
62
50
92
66
92
65
09
95
95
86
A5
19
A5
81
A5
92
19
98
61
80
6A
4A
08
A4
86
49
11
88
64
9A
02
A9
8A
69
89
22
1A
A6
26
A0
A6
91
28
99
09
A8
8A
55
99
26
52
22
5A
11
66
9A
A0
55
8A
0A
9A
10
98
85
56
46
55
68
5A
61
45
64
68
90
51
61
5A
29
45
85
54
A8
96
A8
26
56
54
6A
99
60
94
90
4A
50
16
52
66
AA
99
69
91
A6
59
1A
94
54
22
AA
91
54
05
06
A5
45
02
26
58
A5
52
48
95
65
55
2A
09
61
51
59
81
16
98
64
12
6A
56
45
54
69
62
12
85
89
2A
68
90
A8
26
9A
91
46
45
2A
29
95
82
55
88
99
28
24
59
99
4A
91
16
91
02
0A
A6
45
51
95
21
84
62
6A
14
82
26
22
88
4A
90
52
91
28
01
A4
89
66
96
A8
99
A5
62
88
64
2A
10
51
80
05
A6
6A
54
A0
6A
95
59
44
45
A5
A2
16
5A
24
4A
29
90
00
95
69
61
56
58
52
9A
96
A8
A0
AA
61
89
40
92
45
AA
1A
52
14
28
65
91
66
85
50
99
65
59
02
52
69
94
68
22
58
52
91
A0
16
A6
88
A5
51
85
18
A4
42
A5
A6
92
19
A2
96
40
49
A2
98
6A
AA
11
5A
8A
9A
6A
98
99
6A
10
A4
45
59
46
66
00
46
69
52
56
09
91
08
09
42
92
85
82
A9
86
86
6A
55
86
62
A6
A0
56
98
66
99
48
4A
9A
AA
15
08
96
86
99
65
A8
99
29
29
AA
81
A9
04
86
08
09
51
A6
A8
19
21
8A
2A
24
86
99
04
A6
48
45
8A
64
12
64
04
69
15
02
56
AA
16
2A
A0
2A
9A
55
A5
61
26
0A
55
5A
14
A1
28
A4
A1
91
46
24
80
55
88
61
02
92
95
28
96
88
10
45
5A
60
A2
9A
40
56
40
96
15
85
19
99
51
5A
08
69
5A
5A
82
52
A9
19
60
A9
A9
49
56
18
44
44
29
51
16
06
65
21
94
21
54
5A
5A
4A
48
95
01
06
15
65
95
22
12
91
A6
58
01
16
49
68
54
69
09
A0
98
46
65
82
18
29
48
A6
92
58
55
52
95
6A
AA
18
96
99
64
AA
60
29
54
11
06
80
90
16
45
40
96
99
08
51
16
8A
68
06
54
02
5A
25
15
64
1A
A2
54
44
8A
A6
66
6A
65
28
65
A0
91
5A
92
29
29
A1
14
48
52
98
96
91
0A
5A
15
20
58
60
02
84
4A
22
A1
88
66
96
A6
52
42
56
46
22
05
29
15
19
6A
56
A5
94
12
2A
92
92
44
1A
99
20
AA
94
A5
5A
9A
42
92
16
A6
62
9A
81
15
06
16
10
96
46
A0
98
68
45
48
14
69
10
6A
04
44
46
94
68
99
06
A0
AA
59
A9
15
A2
14
82
58
64
59
52
95
A8
58
A4
11
A6
65
8A
4A
6A
9A
04
6A
28
50
09
95
A2
06
A5
86
92
89
54
5A
64
96
29
04
59
6A
19
05
60
89
5A
95
02
A9
88
98
92
92
95
A2
14
4A
56
61
18
25
89
59
0A
A9
59
89
1A
40
52
96
56
55
A6
A4
A4
99
80
99
65
94
46
49
9A
19
A0
05
15
92
1A
62
88
5A
25
19
46
A8
11
15
82
A6
05
04
84
29
A0
A4
A1
26
05
10
48
2A
12
A0
99
56
14
15
01
4A
8A
19
A9
69
84
A9
98
8A
94
90
00
50
90
9A
8A
4A
45
A6
95
48
A8
A9
46
10
62
21
A2
46
64
88
02
95
69
1A
09
08
A5
88
98
25
90
59
55
20
A9
55
69
54
00
5A
41
6A
94
65
41
A8
92
09
95
29
1A
19
16
58
92
85
A8
66
21
59
25
02
28
08
8A
69
56
16
56
84
65
42
09
29
82
55
94
A5
50
89
01
54
41
55
16
68
06
91
16
25
A5
5A
66
24
A0
95
AA
0A
84
AA
5A
91
22
0A
58
A4
5A
59
2A
68
85
09
2A
4A
91
51
4A
49
15
45
2A
5A
55
A8
45
55
19
08
62
6A
24
89
58
91
AA
52
A9
55
61
26
6A
21
52
52
56
56
92
69
A9
A9
8A
90
99
82
94
42
56
96
19
06
19
22
48
85
46
98
6A
50
98
A4
22
91
52
A5
15
A9
09
5A
65
92
A2
15
22
91
96
64
90
42
55
01
68
20
90
A2
05
AA
6A
A8
56
28
46
54
16
A6
62
92
69
44
91
A1
6A
5A
66
11
2A
95
58
5A
08
A8
40
55
85
61
41
11
52
A8
99
86
05
2A
A0
69
25
10
19
60
5A
A1
52
66
24
42
04
58
6A
59
6A
45
96
85
99
42
54
61
99
26
64
54
29
A1
59
55
65
04
AA
0A
A5
94
44
86
09
58
62
9A
16
94
A6
A8
09
25
A6
69
52
90
A6
96
0A
68
89
A9
89
A4
40
14
91
0A
81
12
41
A2
20
99
A5
AA
25
04
51
4A
66
A4
6A
98
12
11
06
54
52
66
0A
96
95
1A
49
08
96
91
55
46
A4
16
44
88
99
59
24
51
68
44
94
2A
16
A0
8A
05
91
86
50
9A
24
48
16
44
A9
82
22
A8
88
98
22
5A
18
11
18
A5
85
65
A9
55
45
A2
A4
18
94
85
60
8A
51
11
41
49
46
16
1A
24
50
50
AA
8A
1A
9A
89
5A
55
56
66
51
99
A6
65
56
A6
89
51
A0
A8
62
49
49
95
4A
21
8A
49
45
01
24
20
01
55
05
42
1A
2A
95
00
62
26
10
22
60
69
AA
94
5A
48
15
86
50
59
55
85
AA
86
96
89
A6
68
86
A4
54
95
24
11
46
12
96
55
55
89
85
61
52
4A
6A
01
A8
94
82
89
64
49
42
01
2A
46
16
A0
52
58
A6
56
06
A2
89
A5
64
49
26
5A
84
29
2A
4A
89
99
98
12
20
61
64
AA
92
14
12
28
62
62
46
16
46
02
96
99
64
85
90
26
08
22
A9
4A
44
88
26
48
20
05
4A
14
59
28
04
08
68
22
5A
69
95
45
1A
95
89
66
52
22
0A
A9
5A
04
06
1A
A5
A2
4A
6A
14
45
51
6A
59
68
50
99
12
16
68
9A
44
58
46
66
26
80
28
99
64
61
15
99
9A
10
45
09
19
65
84
54
84
56
65
50
16
66
99
22
99
89
25
28
A6
A2
85
45
62
55
A6
15
58
55
68
66
15
16
69
A2
16
85
52
95
A1
96
66
94
AA
55
6A
18
81
16
42
48
51
45
2A
91
A0
16
54
28
62
99
29
48
94
82
66
9A
15
84
68
19
54
22
08
12
91
A5
56
22
58
65
49
01
85
11
14
89
66
91
64
59
95
98
52
66
46
89
40
48
A6
AA
48
95
51
65
06
04
5A
A5
21
A6
4A
16
81
66
90
86
26
69
66
82
69
2A
52
41
AA
12
5A
54
59
66
51
92
81
66
4A
A1
06
20
62
5A
14
A0
26
56
15
59
61
A0
1A
69
91
05
54
6A
05
AA
68
42
2A
94
59
5A
96
88
51
55
5A
81
89
29
A1
65
46
25
20
16
25
54
9A
18
19
4A
14
A5
65
90
2A
69
54
5A
A8
6A
19
44
A6
58
20
56
00
45
81
84
94
68
26
96
29
A9
18
62
88
A1
84
05
19
62
1A
52
56
60
66
5A
66
89
14
A8
A9
96
9A
48
18
65
20
11
66
5A
88
65
89
04
89
49
54
95
A2
11
A6
88
65
82
01
1A
92
A6
89
9A
46
90
8A
14
26
2A
14
52
A5
80
99
11
68
0A
90
16
12
16
65
A6
A8
59
26
15
59
18
10
09
04
68
04
59
86
55
52
A4
A1
91
8A
69
91
96
95
50
55
0A
A1
0A
A2
99
64
61
54
95
95
A1
29
1A
84
46
69
59
65
6A
62
48
86
91
25
25
41
A0
A8
46
64
A2
29
00
02
84
10
1A
91
95
A9
85
51
69
88
96
9A
25
2A
48
84
21
69
1A
12
26
05
95
08
20
6A
15
1A
88
44
55
A6
06
19
50
65
26
8A
82
86
28
61
52
A6
94
A9
09
42
25
A1
12
8A
8A
48
06
95
99
61
89
42
59
69
50
44
24
19
21
02
69
45
A9
90
A8
49
AA
96
98
18
58
81
69
A0
1A
0A
25
96
82
09
A4
94
12
16
52
84
85
89
A8
5A
52
52
A5
50
9A
9A
06
91
29
52
61
5A
68
6A
08
AA
1A
A0
A4
A0
6A
66
AA
94
42
5A
0A
26
8A
10
0A
A1
81
99
12
64
62
51
00
65
96
89
92
94
A6
A6
19
55
28
41
56
52
18
41
00
A8
65
11
46
65
29
15
44
8A
20
21
8A
54
A6
51
94
58
4A
1A
04
89
A6
41
48
42
91
4A
04
58
A9
06
69
02
4A
A9
14
56
6A
9A
1A
69
89
A5
08
56
08
18
59
92
6A
64
16
24
41
54
24
2A
45
58
51
64
55
A8
41
9A
08
26
A4
16
69
85
A8
01
91
51
0A
42
09
A8
89
1A
44
96
11
89
86
15
59
A2
82
A6
5A
02
A2
09
99
04
8A
AA
45
12
96
95
AA
A0
44
66
51
AA
80
65
24
96
AA
94
02
95
A9
02
59
A0
25
16
84
49
A6
51
19
04
A6
94
99
11
A8
5A
86
99
91
A9
92
85
59
6A
81
86
25
12
55
84
A2
A1
12
26
68
58
24
16
16
48
4A
89
54
64
82
49
00
56
95
62
98
12
96
56
A5
AA
24
22
45
0A
12
15
91
84
69
69
19
42
15
29
91
8A
2A
82
09
44
14
25
08
25
24
A2
55
52
89
16
21
59
68
29
50
60
88
64
A9
92
A6
A8
A6
AA
20
A8
51
A4
94
18
96
96
A2
59
14
A2
6A
60
49
99
96
A5
65
85
AA
48
2A
5A
60
46
18
A9
96
26
21
18
68
96
54
A2
A9
4A
82
48
8A
A1
64
09
99
95
A8
65
82
51
A8
62
14
A6
14
A1
A4
08
59
14
29
20
89
41
95
AA
66
21
94
49
09
42
99
80
A9
AA
09
65
99
90
49
11
81
49
49
A2
56
68
10
60
26
95
A1
82
85
95
A9
A8
6A
A5
66
64
06
56
60
90
AA
A6
89
65
52
55
5A
86
20
A8
59
2A
09
99
40
81
44
92
59
55
65
68
96
09
58
50
69
01
65
19
42
56
59
65
A5
8A
05
61
62
A5
1A
A6
1A
49
46
81
58
65
68
16
80
65
48
64
12
20
18
06
51
68
AA
52
A8
19
2A
A5
65
92
0A
89
54
99
89
64
04
64
5A
61
99
98
AA
62
8A
48
08
96
65
4A
66
9A
09
8A
61
61
82
1A
95
15
46
89
95
94
05
16
41
66
95
46
51
59
92
50
52
9A
A5
82
68
48
45
44
00
8A
08
46
A4
68
05
66
82
24
20
8A
A0
92
94
5A
0A
95
A1
A9
AA
16
8A
98
9A
54
14
A6
AA
1A
6A
8A
02
89
96
20
61
00
AA
4A
61
A6
86
08
96
9A
66
99
65
52
59
9A
4A
68
06
02
92
50
24
45
A9
5A
62
52
96
59
50
96
A5
A6
96
8A
25
A8
89
AA
40
22
90
99
01
8A
A0
96
29
A4
60
A8
49
50
64
92
16
5A
01
66
A5
21
92
21
12
64
29
02
98
49
A9
26
51
60
62
A5
22
91
64
12
48
95
A4
A6
09
A1
98
12
54
1A
55
A9
25
AA
2A
09
42
85
82
9A
58
09
A1
16
86
25
A8
10
46
48
49
64
94
54
16
59
5A
49
69
A4
88
51
19
A6
85
09
20
46
55
11
2A
99
5A
19
65
A5
02
16
60
88
52
92
2A
48
55
94
88
A5
95
41
A1
51
52
52
69
90
A0
8A
94
65
20
11
11
15
86
92
14
92
98
5A
04
20
AA
89
A8
1A
49
56
45
94
55
41
28
48
59
94
61
92
00
98
65
21
68
00
56
49
18
84
A1
69
25
62
1A
42
5A
49
14
18
50
14
29
58
92
A0
68
69
55
52
AA
29
A4
91
69
AA
69
46
59
56
44
14
0A
15
49
94
55
56
52
41
54
89
A0
55
24
59
49
58
A8
92
0A
68
AA
A5
15
6A
16
56
66
48
94
19
41
A9
48
18
60
95
64
52
59
9A
54
92
A6
0A
12
89
95
14
26
50
A1
64
51
98
49
82
4A
6A
10
A6
2A
19
1A
56
25
59
A6
8A
95
24
52
90
A1
54
90
A6
98
26
58
45
88
02
95
96
0A
6A
A2
86
56
61
96
15
88
62
84
50
61
49
62
45
14
90
A9
8A
6A
81
28
81
64
12
64
55
6A
60
98
95
82
61
56
51
69
14
49
65
52
44
18
49
AA
59
69
A5
40
A2
5A
50
41
40
56
45
A5
6A
A0
A9
46
A1
99
A0
9A
45
6A
59
14
29
00
04
6A
41
52
46
08
92
86
1A
A9
A9
A9
28
A5
42
A4
51
2A
44
85
24
A1
50
65
16
A9
A8
0A
65
28
4A
08
98
A6
2A
24
9A
85
26
82
96
A4
A2
69
08
28
41
66
18
25
26
A4
8A
04
52
86
A4
89
69
85
A9
58
42
52
66
61
49
9A
5A
61
44
15
A1
82
86
25
95
22
A2
66
61
A8
61
65
60
89
A2
0A
69
20
91
51
56
AA
A2
51
59
50
49
42
A8
09
12
15
A5
AA
44
62
88
41
92
00
A9
69
08
08
01
1A
46
A9
00
52
58
49
51
09
46
AA
90
65
AA
28
A2
2A
A0
A1
8A
86
56
A5
9A
A0
4A
88
89
62
92
52
8A
96
90
42
41
59
A2
15
58
20
50
A8
89
50
88
60
49
19
5A
59
66
A1
A2
28
64
28
61
46
A9
65
06
9A
52
9A
21
14
A2
65
50
40
91
46
19
0A
25
0A
A1
58
A6
11
69
5A
A4
22
5A
62
A9
A9
49
11
1A
96
A0
24
22
54
54
45
90
25
A8
16
54
41
45
49
85
11
61
11
A0
92
99
6A
A8
A1
81
82
88
65
A5
94
24
65
2A
02
50
A6
29
A4
11
A2
96
45
2A
89
9A
69
86
64
86
9A
A1
A8
21
06
6A
A9
25
94
12
54
61
55
06
56
18
19
16
A9
28
A5
84
54
58
A6
22
A1
99
64
94
41
42
1A
64
95
45
9A
20
99
A8
86
A5
80
81
01
68
58
50
94
55
55
68
65
51
49
65
9A
68
AA
A6
81
65
59
A4
58
A5
09
A9
68
19
5A
59
42
26
A4
10
A1
50
54
66
A9
9A
65
95
42
96
26
A6
99
45
56
54
89
64
41
26
92
91
94
48
90
54
58
25
89
58
0A
A9
A5
56
81
69
50
A5
45
28
9A
2A
8A
55
A8
25
04
19
52
50
A9
64
4A
45
56
52
A5
9A
59
1A
20
06
59
59
90
91
64
21
A4
AA
40
A4
22
28
96
5A
64
50
26
90
60
59
16
26
02
91
89
12
A6
A8
66
5A
19
06
58
A1
01
58
18
AA
19
49
1A
41
8A
14
50
19
28
54
A9
55
25
99
25
44
20
81
64
19
12
15
82
5A
81
9A
25
09
20
29
24
69
2A
68
15
94
85
04
6A
65
A6
68
A5
00
A1
12
A8
26
62
62
19
86
85
5A
85
88
A4
96
62
61
85
8A
02
95
16
42
1A
64
45
0A
06
52
A1
A8
48
50
48
8A
68
80
52
96
A6
29
5A
61
51
15
11
A2
A4
81
00
19
55
01
56
88
41
8A
99
82
49
A8
64
50
21
68
91
A0
02
9A
18
9A
80
56
6A
52
0A
96
50
02
24
06
A8
95
00
49
9A
21
2A
15
55
96
A9
82
61
A6
84
00
99
20
65
48
22
89
92
56
A4
09
15
50
05
62
91
58
0A
51
10
11
59
8A
12
91
62
1A
50
22
A6
82
6A
22
89
52
AA
65
05
A0
12
84
09
98
61
54
A9
14
A0
01
84
A4
40
28
95
11
2A
62
90
59
A4
95
66
96
50
58
A4
54
96
85
42
5A
62
1A
81
60
61
A0
00
61
89
60
9A
08
48
A5
90
08
89
12
66
A8
54
08
86
22
11
96
85
91
46
90
50
59
18
98
21
46
64
68
28
96
98
A9
25
92
26
55
00
A1
52
84
45
58
05
16
58
02
A8
05
2A
02
06
89
A8
A6
12
62
51
05
40
59
52
56
65
29
A4
19
95
89
99
51
95
01
96
00
45
58
42
82
18
42
A1
81
20
84
50
51
12
A2
99
6A
A6
A6
A9
99
84
62
49
96
66
5A
24
A5
56
59
55
06
00
15
94
86
24
02
29
A5
A4
96
51
59
62
58
66
55
45
9A
06
A6
11
A4
12
A5
91
15
90
61
69
24
82
59
95
A6
01
8A
0A
86
49
91
26
02
24
98
55
90
55
9A
96
91
80
04
A6
04
A4
60
50
1A
92
49
26
21
A1
44
1A
25
40
60
84
05
A8
86
A6
A9
94
09
80
AA
6A
15
94
66
2A
55
44
1A
26
58
02
09
A5
11
20
22
8A
40
21
46
96
0A
25
14
18
88
59
8A
A4
22
06
19
15
59
05
21
0A
64
A6
61
94
21
4A
22
01
81
59
01
6A
60
16
80
61
A6
9A
05
58
A9
9A
52
91
66
49
94
22
15
A1
14
59
A1
51
AA
6A
09
91
04
04
95
09
96
24
91
6A
56
A4
5A
26
62
49
90
91
0A
80
98
05
66
55
1A
A1
96
84
69
25
9A
16
62
66
A4
29
85
90
05
1A
60
A1
62
64
45
A9
5A
A5
52
09
85
1A
94
45
0A
14
56
16
9A
82
A0
59
A4
26
46
48
50
04
A5
95
AA
A5
6A
5A
01
9A
40
64
A4
4A
84
99
42
84
A1
99
A5
69
26
24
61
86
51
69
89
86
09
96
54
14
18
1A
82
96
40
88
44
19
81
65
28
64
64
25
58
66
48
90
15
24
92
42
A8
60
5A
A4
A9
A6
AA
58
86
49
29
54
08
A8
21
66
14
8A
92
84
A4
58
49
46
A4
AA
01
5A
08
A0
26
52
59
96
08
89
96
81
49
A8
16
19
89
88
56
1A
12
51
48
6A
81
A1
2A
0A
92
28
46
86
A5
99
94
98
40
99
56
48
2A
50
95
58
45
69
16
4A
19
55
11
49
21
A4
00
89
4A
69
A8
AA
61
05
05
91
19
5A
42
16
49
56
98
18
A9
62
90
14
22
58
9A
69
16
A4
50
52
49
68
A1
0A
50
41
20
6A
15
A4
41
A2
52
1A
1A
29
88
56
90
69
5A
A5
92
41
55
01
88
11
0A
A8
20
05
99
15
4A
25
A4
82
59
52
99
54
94
60
64
81
46
69
86
94
15
22
29
26
08
59
9A
4A
A1
99
66
64
82
44
69
46
84
14
98
A2
55
41
49
1A
49
4A
19
99
82
95
68
49
16
A5
98
9A
A5
49
A4
68
89
60
02
95
52
85
4A
A6
99
99
29
45
4A
11
85
91
91
91
99
64
9A
59
68
92
41
29
29
55
42
10
09
55
91
44
62
22
12
56
2A
12
98
A5
49
60
06
66
6A
65
55
85
46
84
5A
A8
A8
54
92
85
51
69
04
99
21
52
55
11
AA
5A
A0
02
95
49
69
55
49
29
55
89
12
92
A4
85
16
02
46
A4
22
09
65
01
16
98
9A
05
5A
25
44
48
41
A9
86
99
46
66
92
26
9A
18
9A
61
9A
49
A9
95
00
0A
88
09
81
04
80
61
A2
96
66
80
40
A8
9A
11
09
60
A6
68
95
24
86
69
94
A6
0A
20
52
90
15
10
86
98
00
9A
25
94
52
A1
A2
04
62
55
82
A5
1A
01
85
A2
95
98
54
AA
1A
96
52
65
45
50
9A
A9
86
49
A6
95
A4
1A
61
21
51
00
26
61
62
24
04
89
91
05
66
69
1A
06
81
99
05
08
56
22
5A
19
01
A4
55
85
04
A6
59
98
89
58
A5
00
15
0A
29
54
16
46
64
21
A1
42
59
A6
A8
96
4A
49
64
69
94
89
09
50
6A
88
99
20
60
96
49
1A
14
05
A8
64
21
95
69
A2
84
1A
62
50
10
59
09
45
26
A9
51
55
12
96
4A
A5
41
50
52
19
98
40
48
42
69
60
88
98
58
19
05
59
A8
01
6A
82
82
94
AA
45
15
49
9A
50
4A
06
18
45
96
80
50
9A
02
5A
01
99
68
9A
22
14
50
12
56
A6
14
15
89
28
82
06
51
98
01
00
69
84
52
05
05
4A
A0
95
5A
48
04
56
49
44
5A
05
89
2A
8A
89
92
46
A9
05
04
5A
24
8A
50
4A
90
65
24
95
98
06
60
A9
21
68
66
42
25
96
66
26
46
91
91
24
88
6A
94
64
5A
6A
58
82
55
A4
69
69
8A
AA
28
05
19
46
12
42
A9
95
52
94
46
92
8A
A6
89
54
A0
8A
A8
22
1A
19
11
15
55
5A
18
9A
5A
88
08
51
14
69
16
99
A2
58
A9
94
49
26
54
60
59
A4
62
A4
11
54
68
22
68
49
20
94
61
08
01
14
00
6A
05
24
11
64
64
AA
06
25
89
A1
86
19
91
98
A0
26
99
68
08
4A
05
68
96
A9
98
20
29
54
68
A6
AA
64
A9
A9
69
82
26
89
4A
60
00
42
8A
46
50
59
11
90
49
89
61
64
10
52
54
99
A6
25
42
A5
2A
2A
46
AA
04
82
98
A4
86
48
82
A1
86
A1
24
66
52
46
09
AA
A2
66
14
9A
86
61
59
92
05
2A
42
16
58
51
5A
94
A9
90
A5
04
89
81
A1
29
09
1A
16
81
6A
10
55
18
68
9A
A9
55
56
21
91
84
15
21
88
56
16
46
96
54
91
66
45
98
A9
45
98
19
A4
9A
89
56
49
68
29
6A
95
95
66
44
28
A1
11
09
85
A1
84
16
29
91
98
16
A6
8A
A1
45
19
58
90
49
AA
61
61
05
99
A6
66
99
06
8A
15
92
02
1A
A2
62
52
89
44
1A
42
18
40
54
0A
69
45
62
59
6A
95
15
8A
41
1A
51
05
85
99
8A
65
96
64
98
A1
04
94
62
9A
65
19
A1
91
85
49
A5
18
15
A8
61
98
61
16
8A
0A
88
52
82
48
61
46
89
46
66
51
29
65
00
AA
A8
85
A0
A9
09
62
15
A1
88
46
64
09
29
A2
16
29
6A
04
95
05
95
29
AA
98
40
10
69
98
85
26
56
20
11
88
26
98
02
40
02
9A
60
A4
86
4A
45
64
01
18
A4
AA
0A
A9
09
6A
66
11
95
A9
45
69
85
22
05
A6
11
21
5A
12
19
29
10
A8
68
65
00
12
46
99
A2
22
55
94
50
65
09
A6
64
61
95
05
51
A5
85
64
58
2A
9A
A6
0A
56
80
A0
44
4A
49
98
12
88
95
05
8A
22
09
06
A9
11
95
26
51
55
96
56
59
2A
00
8A
46
5A
85
5A
90
84
1A
98
18
48
0A
A6
54
91
69
60
A5
42
5A
2A
54
A4
85
48
28
A2
41
98
A9
05
2A
92
14
A4
6A
29
82
48
02
86
A9
51
10
42
09
9A
52
46
64
99
98
94
16
51
8A
61
86
56
66
61
0A
52
19
54
59
66
94
09
A6
8A
58
50
49
6A
22
18
A8
96
66
05
14
AA
2A
69
A4
05
15
65
6A
A6
22
11
68
86
29
41
22
A4
18
98
A2
19
2A
05
84
58
62
05
9A
46
50
1A
AA
64
29
51
90
41
69
65
49
8A
A0
16
2A
A0
99
80
8A
A4
61
66
00
5A
90
90
06
66
49
A6
90
51
19
92
92
91
02
9A
64
91
06
5A
A5
18
24
29
54
95
66
11
98
84
09
64
05
62
55
28
98
59
56
02
58
01
26
88
96
A4
92
A2
59
05
A8
88
26
55
11
84
42
01
10
41
86
64
90
86
88
A6
2A
01
55
99
A2
21
A4
86
25
96
A6
05
A2
89
A4
05
41
69
12
5A
81
02
06
62
84
99
58
88
15
41
A5
05
2A
09
96
80
A5
59
51
68
41
42
12
12
99
11
A5
65
A5
09
88
86
9A
19
25
A8
01
40
A8
A4
26
54
16
44
A2
51
A0
A4
68
22
52
42
29
08
A5
A0
9A
49
A6
81
A2
56
4A
12
11
06
5A
65
54
42
60
56
1A
62
90
6A
14
26
A5
5A
5A
61
52
64
99
15
56
45
62
AA
20
05
AA
24
81
6A
18
58
58
54
94
62
01
28
A1
28
65
80
2A
9A
A5
48
51
9A
61
58
59
04
09
6A
94
26
94
9A
20
5A
42
44
60
91
A0
68
11
16
28
4A
40
42
48
59
A5
69
62
55
16
44
84
96
6A
59
56
51
40
58
A0
55
5A
16
19
84
9A
84
4A
18
55
41
12
98
04
19
05
A4
84
99
56
28
91
2A
58
64
9A
22
56
45
06
58
A0
02
85
20
A9
99
8A
26
04
8A
96
06
69
A2
92
96
04
A4
69
19
66
4A
96
0A
A8
96
25
46
94
69
40
A1
A5
52
18
A4
54
19
2A
88
00
99
A8
58
24
8A
54
68
02
24
24
82
45
64
A5
56
04
94
65
68
19
12
A8
28
84
65
A8
54
40
09
2A
11
21
41
14
82
55
69
45
16
54
A6
82
55
18
94
24
A6
92
95
A5
64
05
98
58
69
56
1A
66
9A
44
18
48
AA
01
56
54
04
2A
89
84
86
0A
A9
89
A4
60
16
84
28
A5
A8
59
06
84
98
40
98
62
15
44
84
16
4A
A4
99
50
65
6A
84
85
98
20
18
48
0A
46
42
A4
86
99
01
6A
99
90
04
09
A6
6A
00
A5
59
84
6A
28
A5
24
21
1A
04
A9
80
02
80
80
45
19
46
06
22
A8
14
94
99
48
46
92
65
66
22
94
90
55
14
09
10
52
94
45
00
14
A4
46
48
58
51
14
44
81
60
88
22
24
95
10
16
62
82
A9
58
42
10
82
40
24
68
60
19
94
68
66
05
A8
10
80
55
A2
00
68
16
24
84
A5
25
A5
88
28
65
92
24
01
A0
99
41
A4
56
04
61
82
88
86
21
A4
95
44
56
2A
62
19
88
A2
14
54
A8
92
64
61
50
89
10
44
29
24
AA
61
92
98
02
16
6A
99
29
16
95
60
2A
41
65
2A
09
A9
95
A9
A6
9A
89
A6
55
51
A2
45
01
46
59
54
2A
11
A0
24
A6
56
04
68
89
26
82
A6
61
42
A6
65
22
A1
44
59
A1
95
62
29
0A
68
94
94
A4
A9
52
A0
88
18
51
26
91
A5
A4
16
2A
A0
04
A1
65
05
06
4A
14
99
A2
48
A0
A9
94
41
25
18
90
46
90
59
45
06
18
10
69
41
65
18
82
A1
92
14
66
2A
89
94
09
A0
89
4A
69
5A
15
92
52
15
A5
44
22
46
96
96
28
82
18
19
AA
85
91
61
98
95
61
A5
56
02
86
48
51
49
A8
06
45
19
19
84
81
91
19
24
92
18
11
AA
51
25
98
69
95
46
06
48
AA
42
58
69
92
1A
88
25
59
10
25
15
22
45
69
0A
88
A6
20
49
60
89
26
55
64
69
56
99
44
51
45
A1
52
16
A9
54
12
41
99
95
00
9A
25
49
02
94
89
65
26
45
64
6A
5A
A6
44
1A
41
96
24
21
85
24
60
00
04
95
AA
8A
46
66
15
19
84
8A
11
66
26
26
59
98
11
99
69
A2
8A
95
6A
2A
A5
9A
66
45
82
00
44
01
88
19
59
24
24
26
A1
46
A6
22
96
95
22
60
A0
19
51
61
84
29
92
95
51
8A
88
92
96
A1
09
A9
15
51
02
2A
51
42
86
42
49
A8
54
29
88
16
62
02
10
08
85
65
A4
2A
52
99
44
46
26
01
A1
48
04
A5
A8
18
AA
2A
2A
19
86
19
96
5A
55
6A
89
28
1A
81
05
24
A8
86
A9
A1
A6
96
91
52
84
8A
98
92
68
52
65
81
65
AA
19
49
2A
40
68
95
9A
66
48
A9
69
81
66
59
01
06
1A
59
20
25
50
50
66
58
89
08
A2
45
10
41
94
56
10
A6
2A
45
60
59
61
6A
42
40
14
21
0A
85
A0
66
52
02
48
92
5A
09
06
29
11
04
5A
98
20
6A
28
09
42
04
92
A0
AA
16
00
59
84
22
91
90
52
06
A5
85
46
19
84
01
A0
29
5A
49
21
69
10
82
02
85
A5
49
25
A4
12
4A
24
A5
98
21
A5
6A
00
52
05
64
95
60
59
08
00
1A
11
21
18
46
62
00
86
05
28
42
45
59
21
65
26
9A
24
81
4A
60
60
96
62
84
19
12
16
81
A6
61
5A
28
65
08
82
16
48
18
21
48
08
5A
01
1A
54
59
95
59
82
52
11
21
6A
A8
55
41
22
00
95
11
2A
16
09
A5
95
12
49
92
02
A9
10
59
58
51
2A
69
A0
95
86
16
58
85
29
02
A8
22
A1
46
95
68
44
11
94
A4
94
16
68
69
91
A9
05
15
1A
92
A4
99
02
91
95
98
89
04
21
11
12
19
25
82
48
14
44
98
05
6A
58
02
52
85
09
11
0A
A2
60
51
60
12
06
56
12
95
99
59
40
4A
16
A0
0A
14
81
91
A6
0A
15
42
68
69
69
42
46
19
86
54
25
A1
64
64
19
A9
A6
08
82
40
69
40
68
91
29
66
A6
A0
16
02
59
11
20
25
09
10
62
22
81
11
24
AA
50
11
06
84
59
50
52
A5
1A
01
45
51
94
26
86
A0
49
66
60
22
22
95
42
95
58
00
55
A2
08
11
24
A9
94
55
95
49
19
68
58
01
1A
61
26
28
96
49
26
1A
18
66
A6
A0
61
18
45
59
09
A8
28
88
84
05
9A
95
95
66
06
AA
25
A6
2A
49
A8
85
49
51
26
24
69
14
96
69
5A
25
0A
69
10
AA
56
AA
20
A6
95
28
95
96
A0
16
82
01
A6
A2
11
96
66
85
15
A6
16
28
20
60
69
A4
2A
52
92
66
5A
44
88
45
A2
A0
24
52
95
92
29
8A
AA
6A
19
22
89
96
44
51
82
84
20
99
24
90
46
58
59
98
2A
68
56
8A
01
85
02
86
A5
22
20
61
64
A2
8A
46
80
44
4A
58
59
18
86
62
46
9A
A6
80
90
98
54
1A
89
54
9A
91
8A
64
06
29
05
85
40
44
58
61
09
55
A8
50
41
90
99
91
85
14
15
86
06
98
5A
64
46
02
54
91
60
45
18
84
52
02
2A
9A
26
11
41
52
81
66
58
64
1A
64
12
24
94
56
48
54
12
A4
61
94
80
42
98
81
06
12
42
95
12
24
5A
59
84
95
96
05
12
19
18
24
65
65
A6
95
84
86
A5
90
95
46
89
52
9A
10
88
64
29
91
A9
54
12
69
80
29
50
1A
45
89
15
29
65
86
55
19
20
62
A4
29
A0
00
9A
46
6A
A5
48
19
A0
91
62
59
44
68
56
A4
A9
56
98
41
59
25
95
11
66
A8
98
1A
16
A6
A5
61
8A
6A
6A
AA
5A
A2
A0
90
16
92
41
A9
66
05
99
14
85
94
0A
0A
95
65
94
88
91
A1
52
86
88
09
5A
95
AA
62
91
88
AA
16
6A
21
82
55
26
05
96
46
69
55
06
94
68
60
A5
4A
49
06
82
69
55
94
84
29
26
A8
4A
66
99
91
05
18
29
A0
59
69
1A
49
09
86
48
14
11
A5
58
88
29
2A
81
60
80
15
59
25
62
61
49
9A
19
55
5A
26
5A
21
59
69
59
40
A4
90
09
65
00
01
18
08
AA
00
01
28
91
64
06
94
54
51
14
68
11
90
99
95
80
61
21
60
09
94
91
64
55
68
25
16
A6
45
42
98
A9
16
45
25
A9
82
98
90
5A
6A
28
61
52
65
82
81
25
05
20
99
84
10
69
26
9A
82
04
99
49
06
40
2A
54
51
A9
A5
6A
94
22
49
AA
55
40
05
20
51
22
41
68
22
59
49
81
95
AA
26
1A
80
8A
94
55
56
54
56
22
44
8A
62
81
92
89
A6
89
69
55
59
55
A0
62
84
A1
4A
05
85
22
28
59
2A
95
69
8A
49
42
6A
01
48
95
1A
6A
81
56
A9
86
01
20
40
25
44
46
99
22
A9
52
99
20
04
84
A1
08
86
54
61
50
90
69
11
25
69
94
96
65
01
A5
25
95
16
56
24
AA
A8
56
60
80
90
41
A6
A0
18
61
11
66
84
12
15
12
95
A1
AA
56
66
58
58
44
AA
A9
8A
A6
69
49
18
65
48
11
2A
A0
98
90
A8
64
24
8A
95
66
56
1A
8A
A2
85
95
A8
86
89
95
11
91
09
52
10
65
61
15
A6
59
96
29
02
A0
49
92
20
94
12
60
22
89
95
61
4A
96
29
51
54
9A
8A
05
05
02
92
6A
A9
95
62
0A
09
15
99
86
19
8A
59
01
28
68
40
25
5A
0A
04
58
A6
48
99
19
54
A6
19
8A
6A
16
02
24
62
82
1A
A9
A6
05
21
52
99
59
00
68
68
41
12
40
A8
8A
4A
A2
69
99
51
A9
6A
9A
06
16
09
8A
08
8A
06
99
2A
01
29
91
22
12
28
20
99
1A
A6
59
25
60
AA
20
82
86
60
10
A2
48
52
0A
A9
14
9A
6A
8A
10
0A
46
04
68
69
64
5A
16
66
02
11
52
00
AA
64
41
52
14
62
29
15
AA
16
16
16
99
98
A6
9A
26
A2
51
99
81
92
26
40
54
89
24
45
6A
06
A2
16
5A
54
29
55
25
55
89
09
A4
40
81
89
40
91
94
4A
04
A4
85
44
64
95
65
A2
9A
14
65
18
4A
55
81
45
0A
22
65
42
29
A5
6A
60
24
92
41
84
10
00
AA
89
4A
58
94
02
12
88
89
A0
55
59
2A
95
14
15
69
14
60
51
24
A5
14
29
29
46
26
95
20
89
54
66
26
A6
8A
96
4A
A5
51
16
61
60
54
2A
59
18
1A
91
A6
95
10
56
40
AA
09
61
59
82
10
26
54
05
95
12
21
06
66
01
98
2A
89
61
90
02
40
41
6A
66
46
1A
06
A4
82
09
95
5A
82
66
11
69
29
24
AA
48
18
80
42
90
24
A0
68
55
19
A5
A9
48
10
52
A2
A1
2A
8A
58
9A
A6
89
A9
99
68
56
65
84
20
62
08
92
62
6A
89
42
9A
92
60
21
92
4A
58
A5
46
26
A6
45
69
A2
12
56
10
61
98
56
88
68
90
28
8A
46
86
02
29
42
85
68
46
49
19
A1
62
18
A0
25
5A
82
06
20
59
0A
92
05
90
A2
51
05
80
85
41
85
40
11
A8
92
42
90
1A
85
A0
29
19
44
95
8A
44
66
51
11
25
96
85
86
51
4A
25
00
96
15
45
41
58
5A
55
66
A1
12
61
16
86
55
A6
A4
64
28
42
06
18
04
5A
58
28
19
56
04
52
20
49
A2
05
52
58
16
65
61
41
60
26
51
49
56
62
86
86
02
62
6A
96
64
A2
10
64
A2
95
66
98
A5
60
15
61
0A
AA
A1
8A
AA
45
99
65
40
99
A9
86
A8
A5
A5
18
95
99
51
4A
68
12
49
49
92
96
42
95
9A
A4
08
88
9A
80
A2
01
42
A1
15
60
11
86
22
6A
69
60
86
41
52
81
82
46
A4
68
6A
A0
69
42
19
4A
41
20
91
91
05
9A
51
06
60
04
10
65
04
59
AA
16
16
5A
92
5A
29
54
95
A6
21
9A
9A
6A
92
4A
66
85
5A
51
8A
4A
54
06
62
00
06
95
16
45
1A
22
59
11
99
A2
69
68
5A
94
94
22
44
91
15
4A
66
A6
62
59
28
9A
A2
89
94
84
95
16
12
09
98
85
96
99
21
40
64
98
A4
06
14
6A
94
61
AA
68
22
54
45
64
49
95
4A
40
24
01
41
0A
64
A0
09
AA
85
9A
A4
46
25
95
51
99
86
12
46
52
95
46
59
45
92
09
26
19
51
56
81
15
45
98
55
58
40
6A
69
A5
84
04
06
A4
A4
4A
51
21
21
61
59
12
82
01
21
85
A9
61
69
6A
04
8A
1A
99
2A
81
59
42
51
0A
2A
4A
24
46
88
5A
69
89
12
18
A9
25
4A
98
98
26
6A
A2
62
90
24
68
99
22
95
28
A9
48
96
18
45
91
62
1A
4A
86
A8
51
84
51
65
56
00
A0
15
02
49
62
45
94
0A
59
48
98
68
05
A4
85
A9
66
15
62
9A
91
A4
4A
45
94
0A
04
59
25
02
42
19
95
41
94
95
51
25
10
50
56
26
55
2A
54
62
96
12
9A
61
88
69
24
A5
96
89
68
4A
98
28
68
11
44
6A
A4
95
65
96
82
09
49
A9
52
A4
29
0A
12
88
1A
A2
94
61
29
A4
42
64
9A
58
68
66
12
2A
A8
A1
64
A5
42
0A
99
A6
45
80
49
9A
61
16
91
A6
95
60
A6
59
44
98
25
A8
59
50
1A
1A
11
A2
2A
50
81
96
40
59
99
A8
A9
56
00
64
9A
18
11
14
51
9A
56
A5
05
28
66
41
50
A1
46
54
46
66
A2
80
51
55
48
69
A1
A4
09
94
AA
04
A4
25
96
89
54
A4
12
99
62
8A
86
25
02
04
19
19
62
15
11
24
62
84
08
26
6A
46
42
91
1A
65
A2
99
0A
11
AA
26
A1
09
86
69
46
2A
85
64
50
56
05
25
16
9A
19
5A
50
16
84
1A
44
51
15
10
05
26
61
86
10
82
00
58
24
66
9A
20
11
22
92
49
6A
6A
0A
94
14
54
5A
84
12
A6
00
50
82
55
29
62
84
89
A8
40
42
54
68
6A
6A
65
A8
94
48
96
29
26
0A
59
66
80
64
19
21
A2
25
89
9A
11
95
05
56
40
41
0A
A8
05
96
2A
90
A1
A4
88
81
59
A0
66
59
4A
66
64
42
62
80
45
40
20
26
62
16
81
90
55
99
59
65
64
11
10
25
09
96
66
65
28
14
51
52
AA
08
92
99
01
A4
55
69
92
84
98
08
A4
6A
28
A2
68
41
29
44
92
16
48
A4
45
61
AA
50
91
69
54
99
61
9A
08
42
15
42
1A
19
58
A4
5A
01
02
09
92
58
8A
A6
6A
58
62
82
45
A5
16
14
68
09
55
AA
84
26
68
AA
04
16
11
56
02
14
62
20
89
59
11
92
44
5A
15
50
68
92
84
40
90
6A
16
A9
19
A5
52
A9
85
A5
85
04
91
54
58
A1
10
1A
01
26
98
10
92
65
55
84
A6
94
A8
55
56
56
8A
69
91
A9
82
0A
69
61
69
91
90
42
89
94
51
50
48
25
48
24
A5
90
45
02
64
90
50
90
19
20
89
1A
A4
14
59
00
50
01
58
96
96
64
A4
91
10
29
25
9A
52
4A
68
82
2A
A0
26
9A
65
9A
25
82
42
65
56
94
98
51
24
90
4A
20
51
5A
04
A1
59
44
91
52
40
21
84
55
46
29
A8
91
A9
05
96
46
40
68
44
85
44
A1
98
28
26
20
A8
44
89
96
A0
02
22
54
84
AA
AA
11
A5
19
51
42
96
20
5A
A2
51
86
55
64
95
1A
95
09
62
1A
19
16
02
22
42
68
22
18
24
44
25
69
09
05
89
04
99
40
06
02
12
11
14
8A
65
04
02
6A
A6
68
89
16
55
18
55
69
A9
55
15
6A
68
2A
94
18
19
05
84
46
28
06
16
91
A5
A9
05
A6
68
68
85
6A
4A
A9
05
18
86
19
2A
19
21
82
09
11
54
4A
16
2A
A0
90
50
62
95
91
12
A5
0A
A8
44
69
56
89
60
25
69
25
09
60
50
02
65
64
A1
A5
25
94
49
14
49
54
2A
49
81
14
20
29
68
06
91
19
69
64
88
46
86
28
49
64
AA
A6
29
98
98
65
06
AA
81
A9
6A
A4
08
8A
20
4A
A4
64
02
29
01
68
A5
58
19
19
16
40
86
09
22
A1
AA
46
05
28
28
A2
56
49
09
45
09
A1
48
00
01
00
12
29
88
48
59
1A
54
A1
46
05
92
88
28
84
99
66
25
1A
21
15
54
50
66
12
26
45
1A
55
A1
9A
A1
9A
10
81
05
28
64
25
99
A9
A2
24
66
00
A6
65
00
52
11
A5
02
26
69
22
26
65
1A
24
0A
25
18
A6
2A
A9
28
82
28
04
2A
98
26
5A
88
68
04
81
08
88
10
28
81
24
26
29
88
66
52
99
65
95
05
94
16
54
8A
20
69
22
91
99
29
61
49
1A
18
88
02
1A
55
54
9A
46
65
62
16
80
1A
59
0A
10
60
21
AA
1A
A0
48
55
15
92
52
05
88
A1
A1
06
54
A5
11
59
62
29
50
24
08
02
60
28
64
2A
51
04
1A
64
01
16
A9
5A
95
89
9A
5A
12
19
62
60
AA
46
A6
41
26
24
11
66
06
10
AA
62
01
15
A5
46
08
08
0A
20
02
29
AA
46
16
45
56
92
08
02
18
59
24
A5
64
02
28
A0
21
06
A4
25
56
26
91
14
94
A9
52
94
52
49
92
09
12
9A
09
88
0A
65
56
51
1A
62
A2
0A
20
46
01
51
25
08
98
12
A4
9A
28
16
50
56
02
81
5A
59
56
58
58
06
29
01
49
55
A8
00
AA
2A
41
A1
28
96
65
64
84
0A
88
60
55
98
A2
96
90
42
04
A4
15
69
41
59
25
14
5A
96
5A
01
22
06
12
A8
04
A1
59
99
96
56
6A
42
80
96
22
1A
24
06
69
92
14
04
40
9A
4A
14
26
61
94
06
A9
61
1A
51
0A
22
0A
94
09
15
15
A2
05
46
2A
06
A2
98
02
86
90
81
85
19
95
59
A2
A4
46
A2
18
A1
61
69
A9
28
68
29
A2
A2
91
60
54
A6
95
95
86
59
06
54
14
46
A0
69
10
1A
8A
81
29
14
02
15
21
01
02
28
50
24
60
42
8A
91
29
24
24
11
AA
A6
45
65
A9
56
04
09
55
68
AA
1A
94
12
55
84
29
AA
95
91
02
A5
14
A8
90
29
8A
94
98
58
92
15
26
1A
05
11
24
A4
66
44
46
91
19
00
08
0A
88
24
0A
80
58
AA
61
40
24
05
18
29
6A
09
A9
01
A1
58
4A
A6
16
96
29
48
A6
98
02
54
8A
1A
A6
84
20
84
54
68
40
59
14
10
04
29
25
60
A1
05
A4
65
66
88
86
58
99
55
96
54
A0
60
52
52
44
10
68
54
94
15
01
48
1A
A6
16
14
16
05
69
5A
94
