82
19
45
A8
19
0A
95
14
15
90
09
62
8A
92
51
6A
51
94
91
00
00
81
04
1A
92
15
06
92
A1
A6
52
6A
99
25
98
88
19
56
01
59
16
65
04
96
A5
48
02
A1
99
52
84
22
6A
1A
92
90
A6
28
48
68
58
65
A4
4A
02
20
18
60
20
85
12
50
59
21
15
A8
84
14
28
06
25
81
29
65
59
49
46
06
88
14
9A
A5
9A
08
62
69
1A
A6
04
A5
A8
59
05
58
A9
66
1A
A2
A6
A6
59
80
92
1A
14
24
26
88
06
95
A1
68
89
66
92
69
A1
AA
94
2A
40
22
15
6A
10
A5
26
61
99
99
26
14
28
08
A1
45
59
44
24
19
18
11
55
48
44
52
A5
24
52
55
19
6A
55
9A
51
08
55
48
12
1A
51
40
A5
20
51
82
A6
21
05
20
84
0A
20
15
45
25
0A
40
6A
14
10
A6
61
50
9A
04
11
49
48
A6
19
29
19
85
45
00
00
45
14
49
24
98
10
90
2A
20
46
00
6A
21
08
00
00
12
11
22
95
08
04
A0
26
28
66
05
50
62
15
28
86
15
68
25
54
12
25
24
62
18
81
85
16
92
12
16
09
01
89
21
26
86
21
99
10
99
10
94
61
20
18
91
05
08
64
25
A4
26
10
06
22
06
24
44
22
45
2A
22
AA
A2
5A
29
44
AA
26
91
A8
91
56
2A
8A
02
50
9A
46
6A
A1
26
95
88
42
05
95
52
66
02
92
46
61
69
99
28
54
96
8A
24
65
A9
0A
8A
56
A9
85
82
95
48
A4
82
55
1A
05
5A
25
A9
5A
2A
51
69
66
52
48
85
25
46
21
8A
11
58
92
51
A4
64
A6
11
69
98
84
40
58
A5
68
6A
49
11
51
A8
46
45
54
48
A8
18
81
5A
96
A6
A1
66
28
50
68
20
A5
A4
92
02
68
91
28
1A
82
5A
AA
52
A8
80
AA
98
80
91
19
85
02
00
82
25
04
50
14
5A
A5
A2
88
5A
29
4A
85
A5
15
41
96
A4
59
A1
02
59
A6
40
08
06
65
26
45
28
A8
A8
86
52
84
82
15
00
45
24
19
65
84
12
49
81
A6
25
92
06
A1
96
A4
8A
11
0A
A9
11
52
52
89
5A
AA
65
01
6A
45
62
12
16
58
49
2A
A1
9A
29
6A
21
04
10
68
4A
A8
11
5A
08
21
65
19
26
A1
2A
85
92
45
5A
84
46
66
42
49
64
82
65
54
82
61
26
A6
5A
1A
A4
05
29
92
28
5A
49
A5
01
65
AA
62
A9
49
18
58
29
61
05
A9
86
0A
16
22
95
80
01
14
A6
89
A4
61
05
A1
89
AA
98
06
89
14
66
68
44
A8
51
19
49
59
99
A6
A5
91
24
A2
49
18
21
50
64
A1
A8
0A
41
00
05
94
A8
88
24
8A
60
24
00
91
19
40
48
85
A2
A0
56
26
54
A8
98
90
40
05
00
04
41
A2
24
12
21
8A
46
48
24
15
49
1A
40
50
80
26
A4
00
90
90
91
88
A4
49
80
44
04
04
2A
24
08
10
44
45
06
4A
92
60
40
59
50
0A
50
A9
21
84
00
02
58
A6
01
40
62
20
81
22
0A
40
04
19
06
05
69
40
02
42
1A
48
54
00
90
42
15
A1
80
02
0A
60
98
69
85
16
22
86
91
64
8A
29
85
60
A9
95
AA
49
16
98
45
06
14
5A
29
85
45
94
8A
55
68
21
A8
04
85
40
60
88
49
96
61
19
04
60
9A
A6
84
96
A4
95
5A
42
91
55
92
05
84
21
92
A0
49
15
9A
10
59
0A
1A
96
1A
96
92
92
04
58
80
95
56
99
94
02
09
05
45
88
62
09
92
01
69
69
25
14
08
2A
9A
25
82
A8
A2
45
0A
8A
99
9A
AA
58
A6
92
54
A4
66
98
05
18
24
68
64
89
05
18
82
A4
61
61
66
15
00
41
A1
66
A9
25
06
10
66
A0
2A
04
86
5A
42
22
04
99
AA
0A
19
42
18
92
99
09
1A
2A
5A
69
02
10
88
88
9A
61
26
25
21
16
A5
68
41
99
66
25
00
82
A2
00
65
82
A8
01
16
50
90
A4
80
56
66
29
69
56
55
84
81
26
9A
40
86
18
68
95
45
95
24
49
AA
A9
46
16
41
42
46
01
59
22
AA
04
21
A0
5A
AA
42
09
25
85
95
12
4A
28
56
AA
86
11
55
68
A1
4A
2A
64
49
29
A9
A2
A0
66
24
A9
A6
49
42
84
42
16
49
49
A5
1A
50
51
58
45
29
98
9A
44
51
92
19
96
56
64
A2
5A
20
A4
05
24
54
84
80
58
24
14
80
5A
8A
4A
51
0A
09
58
20
68
56
26
19
80
51
84
44
02
54
04
02
12
26
22
98
40
4A
44
A0
54
61
AA
86
51
82
10
61
51
26
A5
0A
22
00
4A
26
10
26
09
9A
98
A0
60
00
22
40
00
9A
61
40
A0
44
29
99
28
12
94
21
01
A2
28
55
02
40
80
00
82
21
90
15
82
40
12
88
15
00
89
2A
09
81
54
9A
92
86
15
29
81
50
62
41
56
50
6A
16
26
14
A5
14
6A
66
6A
86
60
48
81
96
99
94
59
09
60
86
92
A6
52
A2
55
2A
68
44
98
2A
51
62
95
05
42
95
02
22
95
95
49
16
92
99
A1
29
61
A1
56
18
21
59
A9
10
68
82
98
2A
05
A5
62
19
18
A9
85
A9
29
59
54
A4
4A
52
55
22
26
16
98
92
A1
AA
14
69
26
90
88
90
04
10
A8
18
04
90
66
18
10
14
52
6A
44
90
24
9A
90
05
84
18
00
A1
48
25
62
5A
69
92
84
61
40
22
21
45
20
A6
A6
A4
96
1A
28
A1
96
62
92
64
66
69
21
64
16
40
04
02
6A
26
15
22
5A
42
49
41
55
8A
51
92
5A
99
54
A5
8A
08
44
45
40
69
95
65
81
48
11
25
89
AA
66
9A
69
55
59
64
96
84
A4
85
66
28
A6
22
45
55
81
55
66
84
91
60
28
8A
A1
59
40
66
12
56
44
A6
A4
96
1A
A9
95
45
6A
49
A6
56
55
56
80
12
26
08
48
02
59
88
25
05
46
82
29
04
9A
A8
44
0A
05
65
98
48
82
51
81
09
55
96
A4
8A
55
68
12
40
40
89
99
88
A2
54
61
5A
54
69
A0
26
A4
49
8A
55
19
A0
96
A9
A9
22
95
96
99
82
64
02
0A
2A
20
4A
01
6A
45
41
85
00
10
10
A8
5A
12
65
95
44
6A
12
A8
94
A8
05
81
59
66
80
96
11
1A
20
82
18
12
0A
2A
56
01
59
86
49
82
04
28
08
62
11
51
14
08
04
20
24
A5
84
26
50
91
04
18
81
50
26
2A
26
42
15
06
A0
84
A0
25
61
54
08
48
48
40
82
A2
98
89
12
94
08
5A
12
A9
69
69
89
29
51
18
A9
84
49
64
26
A8
46
44
69
00
1A
5A
68
16
A8
59
29
86
81
41
65
A4
20
58
A6
5A
56
A6
44
12
21
54
68
08
56
85
69
69
26
18
96
A0
A5
AA
19
26
2A
11
12
92
45
26
65
26
09
56
A6
88
82
88
A2
18
2A
A4
51
6A
50
58
25
58
88
65
80
99
66
56
09
4A
18
A0
2A
29
82
96
A2
64
42
95
65
16
50
85
95
94
08
95
08
82
54
8A
91
90
12
86
50
91
96
08
48
A9
96
98
45
45
95
61
46
A2
95
49
44
89
A6
9A
A6
25
A9
5A
29
19
46
56
A2
A4
02
65
AA
50
89
A2
14
45
21
90
41
05
86
01
90
20
96
02
6A
65
45
69
A8
55
21
95
99
62
40
90
96
A8
50
29
A2
A5
6A
A0
A8
84
A4
2A
49
6A
40
66
60
A1
81
10
04
A1
21
99
58
09
44
2A
AA
6A
14
29
52
59
24
19
8A
A8
42
56
19
19
40
16
AA
19
95
66
61
48
59
06
10
14
99
49
2A
92
29
86
A8
6A
98
A8
51
5A
A6
6A
51
00
95
05
55
6A
AA
25
06
AA
12
89
44
4A
88
25
59
86
21
96
A4
99
5A
84
59
85
19
69
11
41
10
95
88
15
59
16
25
12
5A
16
2A
AA
08
15
51
26
54
49
55
25
02
22
56
91
26
66
11
29
08
46
24
19
9A
A4
89
20
19
51
A4
15
96
86
4A
41
85
59
45
40
A1
5A
29
40
81
92
60
64
91
45
40
40
0A
02
42
20
91
15
04
10
10
62
21
06
48
42
01
89
81
40
11
05
61
01
24
50
91
59
80
21
18
21
05
A2
66
18
60
0A
60
18
58
A8
81
99
28
86
12
24
2A
0A
61
04
46
05
22
00
2A
54
91
11
85
29
06
9A
48
85
10
21
15
02
56
4A
A6
04
49
89
60
09
44
82
20
A0
42
56
46
65
18
69
96
28
16
80
4A
69
55
80
68
56
55
26
61
25
45
10
55
22
94
95
95
10
88
90
58
A2
10
26
09
A0
16
92
69
69
01
68
66
48
49
56
46
15
86
18
99
16
92
12
A5
A2
40
95
62
62
8A
A9
A9
26
55
16
15
25
19
0A
6A
95
69
55
40
69
95
08
89
95
51
82
90
10
2A
96
51
16
56
80
69
91
41
A4
66
5A
96
8A
19
68
19
05
A4
A4
26
55
04
86
04
8A
86
89
45
2A
95
9A
98
12
22
58
24
95
2A
18
24
92
24
15
94
26
91
04
46
09
61
45
1A
66
90
11
A5
69
25
42
20
68
66
16
A4
6A
26
55
45
54
41
94
A0
A8
99
8A
41
16
19
2A
85
82
A9
A2
54
62
84
06
A4
09
69
40
2A
51
06
85
0A
46
99
24
15
5A
46
84
85
68
A0
65
48
86
64
22
49
24
59
91
28
22
6A
A6
56
90
20
A4
86
86
09
26
69
09
28
5A
60
49
45
A8
29
52
4A
88
4A
45
50
88
54
86
98
98
26
0A
09
55
09
89
55
19
05
15
95
66
2A
42
24
62
A4
14
01
8A
6A
29
A2
A5
54
52
89
A9
28
59
56
59
59
54
16
6A
11
84
09
11
08
01
56
69
58
A9
44
A6
16
12
26
85
52
AA
59
90
08
18
91
44
A8
01
86
95
A0
40
48
68
06
40
44
6A
18
80
25
A8
08
50
81
80
21
06
02
A1
19
51
24
58
04
61
84
29
A1
01
46
19
52
08
42
26
91
50
52
A8
50
16
A5
80
20
16
12
92
A0
99
14
50
11
80
92
44
84
A0
8A
08
25
46
21
94
08
91
21
51
A2
48
15
58
58
2A
15
99
91
96
84
68
65
56
4A
58
19
66
19
55
61
01
65
95
64
24
40
6A
55
62
5A
86
49
68
92
29
84
65
A0
61
24
9A
14
28
60
15
22
59
20
98
29
92
95
14
25
56
69
46
6A
81
14
04
91
A0
86
45
56
A5
84
6A
96
A4
94
21
80
4A
94
15
69
94
0A
A4
24
28
A0
28
18
19
55
69
91
12
1A
09
65
22
48
21
08
49
80
A9
09
AA
12
04
01
82
86
96
09
56
9A
86
4A
91
A6
51
66
52
44
6A
89
02
94
01
41
A6
48
51
02
A5
48
08
6A
54
46
94
11
66
69
20
56
56
99
94
58
90
96
58
56
80
96
89
9A
84
5A
99
00
65
58
09
A4
84
21
94
48
58
08
4A
69
12
65
60
A6
98
A5
A6
69
11
66
64
22
81
65
91
A8
05
55
84
49
51
88
80
2A
06
6A
AA
86
8A
96
62
6A
86
06
A9
14
15
5A
61
24
91
16
86
64
6A
49
90
80
61
81
5A
95
46
98
98
20
5A
A9
55
62
84
96
6A
88
84
A4
29
95
80
A1
68
01
29
86
98
04
85
85
51
45
26
55
A5
60
9A
05
02
55
94
A8
52
99
A5
06
15
A9
2A
99
84
54
66
41
51
2A
04
29
44
95
10
55
29
55
19
A4
90
25
62
A9
01
88
15
06
A0
54
14
54
A9
12
A8
52
81
19
A4
1A
20
18
98
61
1A
84
80
6A
AA
00
22
80
90
05
41
04
54
58
24
05
06
04
84
20
9A
AA
55
88
25
55
60
04
99
88
02
42
44
00
64
60
20
21
98
55
85
44
80
81
04
80
66
49
1A
21
2A
55
18
02
48
80
44
00
46
08
44
05
04
21
00
41
80
04
10
64
89
98
8A
A0
19
45
29
9A
6A
25
50
56
01
18
09
96
22
6A
49
12
44
51
84
46
6A
9A
92
8A
05
99
92
56
55
29
AA
14
A5
9A
29
9A
49
85
86
25
AA
66
A1
05
9A
68
2A
2A
A1
92
A4
42
95
26
1A
22
92
18
95
1A
08
65
59
1A
85
A5
5A
21
12
25
95
96
24
A9
59
64
98
8A
A5
91
14
81
69
29
9A
61
91
42
5A
89
19
69
A4
04
46
62
50
A4
10
52
02
09
50
45
42
00
49
49
18
66
A4
60
9A
45
42
61
25
01
21
4A
19
46
05
08
4A
58
51
AA
59
0A
29
AA
51
12
69
56
25
9A
A5
89
94
64
62
18
00
82
05
09
AA
A1
A6
80
A6
A2
42
59
80
12
26
51
AA
68
28
A6
2A
56
1A
82
51
54
5A
6A
A0
46
66
56
92
58
5A
A9
29
6A
A5
A2
12
16
12
95
12
01
96
9A
01
AA
16
95
0A
65
62
51
86
2A
91
58
15
40
25
65
05
86
42
4A
6A
80
56
86
46
9A
95
92
61
A9
25
26
8A
29
90
89
58
66
11
A4
1A
5A
2A
A1
96
65
22
92
12
16
65
59
A6
68
99
19
92
0A
88
28
AA
A5
6A
A1
94
24
9A
6A
65
91
A1
45
21
89
A9
09
66
A8
69
96
66
04
49
92
A0
9A
A9
45
55
99
68
48
99
4A
12
50
80
00
86
40
02
10
01
81
08
22
46
5A
56
09
01
40
68
20
50
00
52
20
12
88
81
40
44
64
58
45
21
80
18
40
40
40
84
92
51
12
06
A1
05
06
18
04
46
88
09
86
66
50
44
25
98
04
92
94
02
85
49
0A
15
24
08
60
90
26
81
A4
48
22
40
80
60
65
4A
11
00
80
09
45
22
46
44
10
60
0A
45
48
44
08
46
44
14
04
28
12
61
62
59
55
54
8A
12
11
49
49
80
81
02
6A
96
86
22
4A
A6
96
99
8A
96
0A
66
59
A5
46
16
A8
68
A0
A6
86
65
86
98
A1
56
6A
91
61
14
1A
02
6A
48
8A
16
A5
99
22
09
5A
44
84
80
88
06
95
9A
21
25
05
50
56
A2
51
28
11
55
A8
19
86
66
46
A4
19
19
80
59
90
16
15
60
15
92
11
6A
5A
45
52
61
21
46
A9
56
41
55
6A
25
45
4A
65
04
46
22
25
4A
12
A9
21
44
1A
25
61
62
62
4A
A1
12
44
82
90
44
61
A2
80
29
14
A5
11
8A
5A
99
62
A8
19
69
26
9A
00
66
91
6A
98
84
29
55
59
05
98
12
66
51
06
A6
21
26
51
62
41
82
25
A0
52
96
AA
09
61
58
A9
22
5A
9A
01
A9
81
91
41
46
29
A1
52
98
96
90
96
04
62
01
95
A1
95
8A
52
40
41
85
65
92
55
81
85
A6
01
A2
55
82
56
95
64
69
55
46
44
08
85
02
25
15
29
66
19
A5
45
19
40
99
A0
11
95
99
41
96
60
99
11
15
94
60
62
A5
89
99
99
A5
59
65
96
05
2A
A6
99
91
55
92
99
94
94
94
66
A1
92
90
46
59
92
6A
A4
40
A2
94
22
11
91
A4
5A
A4
A9
09
A9
50
15
9A
62
66
09
14
11
18
00
08
10
25
99
18
04
88
60
A2
A2
2A
86
0A
90
89
98
06
08
A6
40
94
15
52
05
04
06
01
54
A2
00
A2
26
28
62
65
91
11
21
19
18
06
A2
A4
48
89
6A
01
04
66
42
08
49
09
86
99
6A
04
21
01
19
AA
12
62
99
89
50
11
04
05
85
41
81
25
42
12
80
64
90
09
40
04
A6
11
61
26
60
11
05
11
55
A8
55
45
89
04
0A
45
46
92
69
44
55
45
95
02
A6
4A
66
A6
16
89
99
60
01
41
86
15
45
89
90
96
0A
44
AA
22
11
05
65
A0
A8
A8
99
10
99
85
99
52
86
8A
98
66
AA
60
AA
9A
25
89
02
80
12
6A
54
56
64
16
55
56
92
64
65
5A
92
16
86
15
A9
98
22
51
15
59
94
16
5A
65
84
6A
46
9A
5A
81
66
61
42
A2
64
25
50
98
80
00
88
44
98
89
A0
86
A4
19
96
A9
49
52
08
06
A1
18
64
65
86
48
A4
12
61
A5
56
99
14
25
21
48
65
A1
94
95
A8
64
1A
26
06
10
41
92
25
85
50
85
56
12
4A
66
16
28
44
10
21
42
A8
0A
12
08
92
40
65
95
21
21
64
59
24
65
94
10
99
25
10
89
A5
21
41
85
86
29
8A
20
04
28
64
62
46
49
A9
A5
41
14
A1
AA
50
69
64
A4
59
80
1A
59
48
62
56
26
26
55
99
19
84
65
89
A5
68
59
5A
A2
5A
25
94
68
28
06
09
59
82
51
19
6A
59
95
00
91
26
98
6A
02
11
44
56
82
12
45
12
05
08
55
0A
A2
95
5A
A4
49
12
55
64
62
25
1A
54
A9
69
56
82
65
A5
5A
42
89
99
19
91
98
49
59
29
15
92
80
54
62
66
96
21
68
80
06
01
14
10
11
A6
01
82
81
11
11
40
24
41
00
21
44
20
01
82
20
91
41
52
50
90
02
05
09
18
80
AA
54
01
51
28
50
A5
1A
9A
A6
48
08
25
8A
AA
61
28
A4
41
40
50
68
86
16
96
98
02
19
26
48
00
40
81
61
80
02
A6
45
AA
86
58
80
50
86
62
54
18
05
24
0A
11
55
02
10
2A
11
91
05
55
01
0A
20
88
96
10
04
60
11
95
88
66
92
55
65
20
18
55
42
18
A2
94
61
44
99
19
95
18
06
41
96
80
21
88
99
A5
AA
A5
20
A9
A9
80
98
91
59
88
A4
9A
2A
19
82
66
96
82
A1
05
25
10
59
19
44
55
81
89
28
82
55
10
A6
95
A0
84
98
91
A9
9A
15
25
A8
92
66
84
45
98
99
26
46
24
A0
89
09
05
62
A9
19
A9
46
46
49
55
4A
84
28
69
60
18
69
14
20
9A
09
52
24
5A
52
11
50
68
58
25
90
66
42
5A
69
9A
96
89
82
A2
14
86
16
A5
A0
58
50
24
9A
82
12
49
55
A6
98
96
42
59
55
14
49
14
24
80
2A
80
44
02
A8
02
86
09
5A
46
19
49
2A
09
95
4A
66
54
A4
48
20
52
46
A1
86
48
9A
15
A1
1A
90
90
A2
A5
59
52
41
2A
09
89
81
91
56
15
29
2A
81
52
99
0A
58
09
5A
4A
99
0A
95
2A
A6
A5
66
51
00
1A
10
65
99
66
08
68
29
5A
40
AA
95
40
69
28
15
55
84
85
46
6A
69
42
66
86
49
54
95
29
4A
0A
A0
99
A2
98
09
A1
15
64
0A
26
82
94
28
62
28
96
49
A2
41
44
A2
51
88
91
56
51
94
25
A5
45
6A
25
A9
A9
89
59
51
A6
49
A8
81
2A
94
45
42
88
91
65
8A
4A
A0
55
02
24
14
28
58
94
00
04
16
96
52
A9
AA
5A
24
12
84
52
01
80
40
02
94
66
48
05
2A
29
0A
68
22
14
60
00
42
04
41
46
82
A1
20
29
A8
25
24
16
12
16
52
A4
01
59
19
06
8A
18
A2
0A
04
55
20
48
A0
80
09
22
88
88
05
A9
02
90
4A
A2
00
04
9A
26
4A
24
4A
08
05
52
50
50
05
68
05
60
19
14
4A
AA
60
16
40
A2
4A
A8
A2
50
58
89
91
66
58
16
45
56
08
69
1A
06
28
50
A4
26
58
65
94
25
08
A5
24
12
50
49
56
58
06
A6
99
28
25
59
6A
94
48
25
88
41
9A
09
25
94
96
65
96
A6
54
A4
26
19
84
19
89
1A
68
8A
96
A6
20
8A
18
1A
A2
21
09
61
92
95
95
42
A1
66
42
64
0A
1A
28
18
42
50
A8
24
58
16
A5
94
81
89
A1
12
01
68
04
46
16
4A
61
02
81
A9
06
8A
46
45
14
09
99
28
29
62
80
AA
65
A2
62
40
16
96
26
19
04
66
A4
49
54
2A
52
A9
86
48
82
49
02
58
91
46
60
92
64
A5
16
28
A2
24
45
0A
9A
00
A6
60
50
59
90
88
44
86
90
19
61
69
49
A6
59
A6
84
55
A5
02
A4
A9
59
29
22
20
18
25
29
54
04
A2
05
69
01
6A
4A
25
AA
A2
05
A0
8A
AA
68
A2
88
10
A6
28
A1
65
61
9A
50
14
A4
1A
15
62
81
84
A8
16
08
A8
21
56
49
96
22
9A
25
A5
06
51
65
28
A8
80
50
88
A2
99
1A
14
04
55
08
86
11
40
92
10
99
A1
A6
40
A5
8A
54
80
A5
29
01
21
A0
69
A5
9A
66
A8
44
5A
11
94
A5
45
96
85
99
51
59
A2
A4
54
54
08
18
29
40
00
02
10
40
98
01
A8
56
A4
91
09
20
06
56
20
42
59
00
A8
08
49
82
22
8A
28
84
26
86
45
85
40
14
54
51
29
2A
18
A4
40
60
04
42
48
51
42
22
A9
66
00
81
41
40
21
18
04
44
89
52
44
14
46
08
21
86
56
88
40
08
A9
A2
58
80
80
80
A6
08
02
00
50
00
11
61
02
50
19
41
41
58
21
42
40
6A
14
18
A0
86
08
20
90
81
66
A1
61
04
66
68
92
29
45
52
8A
05
5A
05
02
96
49
A8
60
92
45
85
16
89
11
9A
9A
54
40
68
AA
A9
16
62
28
68
A9
98
41
92
42
09
25
46
5A
59
98
4A
09
10
18
68
96
19
8A
A6
99
44
60
19
15
25
49
14
54
A4
AA
81
A6
28
AA
5A
59
51
A2
61
58
69
A2
AA
85
9A
59
02
12
04
91
80
AA
89
40
09
45
18
64
40
96
51
05
94
84
88
99
44
54
22
14
86
26
40
14
20
A6
A2
50
62
82
82
A2
84
94
A6
22
25
29
46
62
26
94
62
5A
00
94
46
90
60
82
02
10
99
60
A2
59
8A
AA
09
0A
06
81
40
42
59
20
58
22
60
A4
92
A8
62
4A
00
44
09
69
54
65
A2
16
40
A0
94
68
45
94
18
19
59
98
09
9A
80
92
50
50
95
24
A2
05
15
A5
48
59
94
88
52
99
91
29
45
58
0A
05
A5
29
42
28
86
88
25
15
A5
59
55
A2
4A
24
46
0A
55
69
58
88
62
A6
5A
95
6A
95
88
92
6A
12
14
21
05
89
29
9A
21
A9
15
65
59
A6
85
2A
65
8A
24
2A
54
A6
0A
44
05
A9
55
82
84
81
41
26
2A
66
90
59
95
64
A0
98
69
08
98
69
18
91
62
19
00
58
11
06
48
11
A1
11
42
02
40
00
A8
20
01
15
81
25
89
80
90
98
4A
A5
40
10
04
02
80
02
61
40
09
18
A2
A0
21
20
0A
44
52
4A
20
40
40
94
6A
62
14
22
24
55
80
84
68
61
42
20
99
82
21
40
41
29
81
1A
00
46
10
65
14
6A
06
16
05
21
22
16
15
05
05
96
90
09
21
04
02
A8
81
85
50
40
48
58
88
58
82
92
00
50
49
22
94
05
51
25
19
AA
49
66
52
1A
19
21
24
96
A5
A6
12
A4
65
44
89
24
A9
54
96
90
98
25
19
15
81
89
92
66
90
68
49
10
60
65
26
82
08
86
65
59
A2
4A
24
A0
28
81
56
46
12
2A
AA
08
50
6A
04
14
98
A6
49
66
15
0A
99
62
64
46
8A
26
A4
85
08
00
56
66
A2
65
64
A8
A5
82
14
89
65
42
09
56
16
65
82
21
69
50
05
40
45
41
10
62
1A
56
60
61
80
11
42
20
12
69
A1
6A
12
52
21
01
42
04
45
96
06
85
06
99
22
A4
68
44
88
09
55
41
41
82
51
A2
28
46
82
46
90
46
81
19
98
02
09
55
18
16
41
41
08
A1
45
91
55
1A
A5
25
11
55
96
48
0A
66
55
95
22
A2
09
94
89
88
86
69
22
1A
98
0A
54
92
21
28
AA
19
6A
99
98
16
4A
45
11
42
49
98
51
95
95
64
60
62
A2
60
95
0A
84
81
6A
16
2A
88
22
40
66
55
5A
28
25
16
A8
84
56
1A
49
61
A5
06
06
15
89
61
A5
50
69
46
A6
5A
16
2A
5A
61
A9
69
68
25
88
00
69
49
1A
81
29
A9
92
5A
A2
65
98
96
66
19
59
48
92
56
86
69
29
9A
61
50
A1
A9
A9
29
89
A6
06
0A
06
00
09
44
61
02
28
06
A2
41
14
01
20
81
59
81
90
44
02
52
91
19
28
00
0A
69
09
4A
A6
02
06
80
41
A4
A8
6A
20
14
88
64
14
A0
92
12
25
90
06
60
19
09
25
42
90
06
20
81
02
56
82
66
42
86
28
14
19
8A
04
A0
15
A0
96
50
40
59
54
86
85
91
48
8A
69
A2
05
10
A1
50
04
60
A5
80
24
95
88
A2
88
50
29
85
A6
AA
62
56
82
15
11
19
59
19
A0
24
A2
84
52
4A
86
4A
85
29
48
16
91
00
98
28
62
99
11
86
15
6A
66
1A
0A
85
29
52
86
29
85
11
41
92
54
69
49
A4
94
14
41
1A
26
01
5A
89
12
00
86
68
66
A9
99
19
65
20
94
66
9A
58
85
94
48
50
28
58
22
64
05
08
60
84
86
61
61
25
68
68
95
6A
94
42
8A
01
40
11
01
40
02
28
20
8A
40
58
AA
45
A6
12
40
40
49
82
14
8A
55
60
82
A6
05
5A
50
49
26
08
1A
68
51
59
18
52
24
56
20
84
45
5A
8A
46
45
0A
64
0A
90
64
4A
24
8A
66
66
45
AA
58
21
45
18
48
50
06
AA
21
10
58
15
16
55
40
9A
15
21
A5
A1
18
20
61
94
51
95
99
48
46
10
A5
25
96
2A
62
55
A0
A8
49
AA
59
88
51
01
85
84
66
98
A0
59
99
5A
59
52
25
81
95
05
49
82
52
09
98
12
59
AA
11
84
01
A5
A5
69
69
89
21
49
1A
29
26
29
62
50
5A
A9
A9
40
66
AA
12
54
8A
12
AA
A5
26
49
64
9A
20
95
80
59
46
18
95
81
45
25
19
99
58
11
9A
95
12
42
61
81
99
AA
68
86
95
99
9A
6A
89
18
52
42
55
95
AA
02
A8
28
94
08
86
44
A2
05
10
19
44
4A
61
50
0A
44
84
42
96
02
9A
11
A6
40
02
92
48
40
16
54
16
01
08
02
40
6A
60
18
02
49
61
84
0A
98
44
49
88
AA
54
02
A1
45
56
95
16
85
01
22
04
90
01
4A
4A
66
04
89
A0
22
69
08
80
08
01
89
46
20
48
91
00
04
9A
52
0A
18
84
16
51
51
40
18
98
22
09
21
12
66
62
14
81
26
82
29
55
A4
54
10
A6
65
55
46
86
92
A8
40
26
99
88
A2
15
49
96
41
96
06
96
66
6A
98
49
25
42
54
40
A6
58
45
69
2A
48
91
96
08
66
54
61
08
62
0A
62
41
95
06
58
91
82
66
24
A2
89
AA
6A
48
86
66
6A
50
5A
89
95
59
68
55
15
AA
12
40
28
26
86
61
60
65
85
11
56
91
96
12
06
94
22
41
88
96
90
9A
86
92
8A
61
96
90
62
9A
58
50
88
8A
92
86
82
AA
44
54
82
68
86
69
A6
59
A6
54
21
61
69
9A
65
95
05
92
55
96
45
99
AA
65
96
96
60
94
68
61
41
12
89
65
50
90
65
65
69
82
86
9A
69
82
58
41
69
90
41
98
A6
98
92
69
A9
96
89
A9
51
64
51
64
65
96
65
26
69
49
9A
69
61
61
69
82
69
65
61
49
92
51
96
69
86
92
8A
6A
69
82
9A
69
81
8A
AA
69
96
5A
65
01
51
86
45
96
12
16
49
42
98
96
92
65
28
80
90
69
A5
65
92
9A
A6
69
69
69
45
94
86
65
4A
96
9A
41
60
49
64
6A
96
A6
49
64
82
51
8A
96
86
44
96
16
AA
5A
1A
11
A4
0A
26
96
96
96
41
65
69
96
96
88
45
19
82
52
A2
69
92
96
61
42
61
41
9A
A5
62
9A
69
01
89
65
82
42
92
68
48
A6
82
49
56
48
48
96
82
02
69
28
80
2A
9A
05
8A
86
61
96
8A
48
88
45
28
02
2A
61
8A
04
29
A4
95
61
86
96
96
92
5A
50
65
85
96
61
46
9A
94
49
61
41
06
82
49
45
A9
A0
05
65
92
61
A2
85
68
16
65
88
69
65
55
96
82
96
29
9A
11
56
82
61
5A
69
95
8A
69
08
92
81
46
49
49
A6
00
95
5A
9A
10
96
92
8A
60
69
A9
96
45
12
92
84
A6
A4
82
59
65
5A
65
9A
69
94
19
55
0A
62
99
8A
68
51
69
69
9A
A9
61
94
61
99
86
61
49
61
68
98
69
65
A0
41
96
A5
9A
51
45
58
94
96
65
45
92
51
51
48
95
5A
96
51
24
61
61
92
96
A6
96
69
8A
91
5A
92
50
40
96
12
0A
15
56
16
92
92
82
05
01
40
16
14
A9
88
59
59
1A
08
69
28
96
A6
61
41
61
AA
50
6A
42
50
96
AA
40
A9
88
45
51
48
12
52
50
41
56
94
21
09
90
9A
21
52
29
05
2A
A2
6A
01
6A
14
46
51
95
18
0A
95
98
98
41
42
80
48
15
24
26
59
52
0A
56
44
92
41
25
68
11
69
09
2A
19
64
99
A5
96
60
68
85
55
40
28
10
89
59
85
A2
96
01
15
52
55
A5
91
A6
64
64
22
2A
04
81
50
91
6A
88
96
99
65
6A
A4
6A
19
A4
5A
26
22
81
69
12
92
45
96
99
16
18
26
26
40
15
A6
90
A1
A6
45
21
55
96
61
96
A8
95
5A
01
AA
69
64
98
5A
4A
2A
91
85
A9
22
91
10
92
A6
16
95
16
21
1A
61
04
62
56
AA
A1
16
05
92
26
52
19
92
A6
15
29
11
49
40
25
54
40
05
69
81
28
02
84
81
04
24
28
21
A8
00
50
A5
20
50
69
A8
50
18
55
95
21
41
02
21
92
14
04
00
14
60
4A
14
25
52
00
25
00
52
05
82
46
12
0A
4A
26
21
98
92
A0
94
06
01
4A
25
15
85
55
04
A2
59
A0
22
81
15
49
89
95
50
26
05
50
25
20
94
56
85
80
89
90
28
54
42
50
92
24
9A
96
65
A6
10
A8
28
58
A4
8A
A1
94
68
46
26
99
89
A5
56
6A
1A
05
29
56
A9
A6
94
25
2A
49
61
19
A1
24
54
94
45
46
86
82
58
15
99
09
69
45
96
04
49
16
A1
60
11
21
68
65
A9
1A
5A
60
A1
51
94
95
84
81
A5
89
86
4A
A9
26
02
95
19
11
22
5A
9A
66
A8
58
A1
56
24
05
6A
56
A8
60
45
9A
26
68
A0
64
21
24
8A
A1
61
85
45
69
55
89
AA
42
24
56
80
25
61
54
A1
81
65
96
86
86
95
65
12
29
A5
98
68
2A
58
95
A5
9A
02
65
45
96
66
04
51
65
A6
95
A0
66
82
42
99
AA
95
84
42
05
18
26
20
AA
1A
A4
5A
69
09
A1
14
1A
02
0A
54
6A
A8
24
65
54
A5
99
51
11
28
85
1A
06
24
14
44
90
9A
89
49
8A
9A
20
80
A8
98
10
50
02
42
66
A8
18
56
25
16
5A
55
25
66
A8
A9
29
92
54
95
AA
A1
55
AA
42
89
81
52
5A
06
64
10
58
54
55
95
09
81
64
48
99
48
46
62
AA
84
94
00
46
54
15
42
18
24
16
42
62
80
5A
49
21
60
89
A9
98
AA
16
58
5A
AA
A5
55
56
96
6A
49
58
98
16
64
45
59
A9
44
6A
65
15
85
16
61
A9
24
A1
92
22
91
80
05
51
50
20
65
58
94
28
21
42
11
12
28
22
04
2A
5A
08
02
92
90
41
18
00
05
06
61
98
10
60
20
66
22
42
96
26
2A
24
95
01
66
10
65
A0
99
8A
60
19
22
22
04
28
10
01
44
21
50
15
90
AA
40
28
12
24
91
02
12
00
AA
58
A5
15
5A
99
40
50
8A
60
02
62
98
28
84
AA
02
25
28
60
18
66
05
A4
21
90
A1
0A
14
48
24
69
96
51
68
89
A8
59
85
90
15
46
11
A0
A1
45
40
20
29
49
54
85
51
21
41
80
45
4A
15
49
91
94
96
89
88
49
49
08
85
91
A5
9A
4A
41
00
A0
28
58
66
08
26
91
10
4A
68
08
26
11
01
59
AA
84
92
A5
14
24
95
52
AA
51
68
1A
A1
A6
06
9A
56
1A
68
52
04
45
6A
60
6A
85
48
41
9A
51
94
09
8A
14
29
09
59
A9
28
59
29
56
29
98
64
19
66
86
59
0A
AA
59
28
58
A6
26
19
A1
98
15
9A
56
28
62
0A
56
26
59
12
90
AA
68
A6
29
64
55
9A
A6
8A
69
06
59
26
56
16
A9
08
06
42
09
45
44
56
29
09
88
86
59
46
25
40
68
A4
28
A9
59
AA
05
99
49
A5
12
86
26
56
96
16
29
96
1A
66
46
29
46
54
94
56
A9
06
54
16
56
A9
06
49
A5
68
A9
A9
61
A6
09
A9
06
90
99
68
24
6A
25
46
65
16
6A
56
A0
69
85
A6
05
A6
A9
A9
64
62
46
29
46
51
56
89
A9
A9
16
55
56
54
A9
69
16
54
0A
48
56
46
64
86
44
A2
19
44
16
19
16
59
99
28
24
58
AA
8A
51
68
14
99
81
89
AA
29
A9
06
A6
56
69
89
59
56
96
59
91
99
06
A9
69
56
16
96
84
A9
59
96
88
86
02
89
06
28
85
29
54
65
68
28
16
86
04
04
29
69
40
26
50
48
18
2A
24
49
10
54
29
09
54
49
05
96
90
61
16
09
50
06
99
08
16
69
89
A9
19
04
04
16
48
A9
06
A5
59
A1
16
16
94
AA
09
05
16
58
0A
56
16
49
06
0A
98
00
84
56
68
46
66
84
A9
A8
89
06
69
82
09
89
54
01
06
19
59
06
4A
99
98
46
26
66
19
50
89
90
29
99
29
88
59
46
96
59
69
86
22
69
19
99
09
89
54
64
65
56
A8
2A
4A
61
04
98
A0
51
69
54
95
06
26
A1
41
96
29
06
A9
09
86
92
54
96
29
96
56
29
46
99
51
89
44
A6
12
59
28
56
85
99
66
62
65
A1
55
A2
80
69
56
56
09
18
0A
A9
15
48
6A
42
61
54
96
19
22
50
A4
05
5A
52
14
0A
44
01
A5
6A
09
55
20
A1
91
A4
12
55
0A
52
64
8A
80
90
25
24
09
A2
44
2A
11
20
25
96
65
42
92
81
02
85
51
AA
98
69
09
86
A4
0A
04
18
20
15
44
82
29
41
55
61
98
80
50
19
44
9A
42
46
66
90
8A
92
06
45
59
0A
42
9A
29
66
92
14
85
52
91
01
41
44
22
A8
54
5A
05
2A
A9
A8
05
28
6A
92
89
61
29
99
16
49
81
AA
91
82
12
A1
95
91
86
84
AA
9A
58
20
1A
A5
51
98
AA
A4
69
86
4A
A4
28
0A
06
88
24
4A
85
6A
A6
A9
92
89
90
88
4A
66
A9
18
24
9A
45
99
84
18
45
86
AA
10
89
60
95
25
06
20
2A
45
26
84
49
04
04
59
6A
15
2A
16
90
9A
64
22
6A
14
58
15
66
29
8A
96
55
49
5A
91
88
62
40
26
08
89
60
02
90
05
02
48
68
00
A8
48
06
85
88
09
A0
00
01
A4
00
20
01
40
A9
58
00
60
42
14
82
84
84
94
05
25
95
60
80
14
42
94
84
AA
26
09
06
29
91
99
91
89
20
44
44
82
88
01
81
51
A0
02
92
06
04
11
00
A6
01
40
68
89
40
15
10
10
58
86
AA
08
01
24
00
20
15
84
A0
22
12
40
14
95
40
A6
05
18
96
6A
21
06
41
98
88
09
06
60
2A
24
AA
52
58
81
9A
49
02
19
54
52
24
2A
42
52
48
11
A8
42
5A
81
82
26
90
25
1A
1A
A5
22
55
50
A2
56
01
64
02
59
80
02
09
80
99
48
8A
89
9A
9A
2A
A4
25
2A
86
18
94
26
8A
8A
59
6A
82
16
5A
92
62
55
15
02
24
A1
41
85
26
85
94
6A
04
49
82
19
6A
52
12
51
A2
54
44
18
25
69
05
A9
84
18
15
A5
68
41
86
68
64
6A
85
66
49
95
91
98
02
80
A2
86
A8
96
21
2A
80
05
59
18
52
69
91
16
96
09
5A
44
86
09
91
66
12
52
44
24
11
02
55
45
18
58
41
AA
80
85
59
26
01
02
59
89
20
21
15
68
06
85
6A
6A
4A
56
62
00
44
00
12
49
62
14
54
55
A0
2A
95
A9
15
29
64
4A
98
49
29
8A
29
21
60
98
86
51
48
11
21
11
46
04
86
41
59
6A
41
69
48
84
59
91
62
66
55
04
AA
61
56
28
82
5A
A6
59
14
A9
A1
0A
49
56
69
A5
69
89
02
1A
9A
45
65
04
90
90
12
84
6A
46
18
A0
49
04
56
11
05
68
50
86
28
88
65
40
66
49
66
24
A6
96
82
86
84
69
18
52
09
99
64
12
16
A9
05
5A
56
A1
01
60
A5
00
08
01
42
01
2A
96
94
62
25
84
08
85
25
85
58
49
25
68
58
66
9A
A2
24
20
89
44
50
40
16
01
18
26
05
65
55
0A
46
50
0A
02
98
22
8A
18
01
02
22
56
44
65
58
45
5A
48
08
66
50
50
16
A9
51
0A
92
98
10
86
A6
50
90
00
02
61
62
82
98
10
11
95
11
05
04
98
48
41
90
21
14
00
85
50
05
20
12
05
49
A9
42
99
14
89
82
92
A8
AA
28
9A
8A
15
05
16
91
48
68
81
56
AA
9A
14
98
95
24
5A
52
08
24
A6
82
A0
01
69
98
41
86
51
15
58
94
28
16
21
9A
22
09
41
64
69
99
55
91
61
11
A9
A9
50
02
1A
64
45
A5
82
69
50
A6
A0
95
96
05
44
58
26
65
A6
96
88
99
69
6A
96
05
6A
49
8A
A1
55
A9
2A
69
82
21
84
24
48
65
A1
16
15
99
29
82
18
14
08
99
9A
A9
28
95
68
62
14
41
10
11
62
6A
2A
95
58
68
42
26
56
25
91
09
A5
6A
52
58
96
09
91
9A
42
40
9A
08
A1
92
16
AA
46
94
2A
60
91
40
1A
A9
A1
A8
41
22
A6
5A
A9
25
95
29
65
55
00
59
62
28
9A
22
A4
15
50
51
19
A9
9A
4A
56
56
AA
41
6A
15
51
A0
19
42
16
40
A2
62
12
86
68
86
68
02
A6
AA
46
96
0A
94
49
09
49
22
48
58
22
66
81
89
9A
41
61
98
25
58
28
95
42
11
62
62
A1
0A
66
80
41
66
16
90
56
68
00
54
64
66
A6
99
59
9A
99
55
A1
99
44
04
62
94
64
15
AA
91
90
99
05
A5
99
22
4A
48
A9
51
A0
AA
58
50
01
A9
A9
96
96
91
54
6A
65
80
89
69
16
91
1A
26
60
81
14
24
52
86
26
04
21
61
41
50
56
A5
69
11
20
08
92
09
A1
81
05
25
05
45
89
00
20
14
18
81
00
10
12
04
16
2A
64
11
20
01
90
56
20
56
A9
60
29
A0
A5
82
14
80
A9
06
69
8A
24
12
46
50
28
99
28
4A
16
42
14
64
A5
02
11
64
0A
88
25
95
50
52
92
A1
15
22
50
01
54
A2
A8
26
2A
16
0A
A9
95
55
A2
58
98
56
12
01
59
49
0A
19
59
62
25
89
00
09
84
84
95
AA
16
59
A9
04
92
29
02
8A
51
29
46
A9
52
55
66
00
42
A4
95
4A
40
04
92
44
10
28
11
A4
52
24
22
90
26
6A
96
24
9A
86
80
28
21
98
85
02
A5
A8
04
25
65
45
94
A2
00
48
00
66
58
2A
86
A9
65
09
22
86
10
58
98
0A
21
56
61
55
0A
14
80
90
16
94
62
84
A6
85
A1
56
A9
44
61
04
90
15
22
55
A2
58
4A
02
60
56
20
A8
46
94
A4
68
A5
52
A8
58
2A
45
19
25
49
19
A6
96
1A
66
59
14
20
10
61
85
9A
88
1A
01
5A
58
9A
80
09
49
18
09
00
96
06
19
65
45
08
46
69
48
58
9A
51
28
04
26
5A
89
01
A1
A8
A9
A4
40
9A
4A
A4
8A
0A
0A
6A
11
22
56
50
A8
55
AA
1A
56
00
49
55
51
29
60
A8
1A
8A
52
25
01
69
98
2A
41
98
55
A6
A5
14
85
A1
56
A0
44
94
42
A1
50
19
49
82
45
51
11
55
26
4A
02
42
41
54
96
19
55
91
61
A2
86
50
92
64
9A
A8
AA
A5
66
95
92
49
A4
44
15
56
45
58
A5
62
55
11
69
9A
AA
21
8A
2A
56
22
A9
4A
A6
A2
9A
96
88
50
15
22
09
22
20
01
0A
42
94
A0
62
44
0A
5A
08
08
12
A0
18
01
00
21
29
96
20
98
AA
00
98
A9
A9
91
84
80
88
A0
90
90
80
59
A4
21
42
6A
20
05
A8
A8
40
09
22
59
09
25
10
99
06
80
44
51
26
68
91
15
89
40
88
52
91
95
68
90
16
A6
60
95
02
4A
50
01
05
A4
95
A8
88
92
54
58
14
A0
98
80
54
51
6A
54
62
00
66
4A
42
50
01
25
59
68
90
55
1A
A6
68
49
51
A5
56
55
00
44
81
A1
90
12
21
59
60
41
8A
25
01
6A
61
9A
1A
55
68
44
1A
62
96
24
4A
61
98
84
26
AA
0A
A6
58
81
1A
20
62
99
24
88
6A
09
A9
41
A4
69
A1
29
24
54
A0
05
A0
9A
28
8A
66
81
2A
68
06
96
68
A0
4A
15
41
95
05
64
61
61
56
16
A4
51
48
50
85
51
51
41
26
4A
52
14
96
29
48
95
45
A4
18
58
28
4A
51
42
16
01
84
41
84
2A
06
11
42
10
91
A0
94
91
44
AA
21
4A
68
15
69
61
68
92
A2
49
41
92
50
A6
15
56
10
59
A5
52
62
06
84
21
A2
06
05
98
6A
16
81
06
82
82
52
2A
88
44
94
68
15
12
A8
92
96
81
45
84
4A
98
95
8A
98
69
A5
A5
99
59
29
95
88
A4
96
2A
84
69
49
18
64
95
99
A0
29
1A
18
15
4A
5A
A5
54
A4
A4
55
A0
95
86
64
10
59
98
06
15
41
64
85
94
28
18
A6
82
95
40
65
69
9A
18
95
04
6A
6A
06
A8
6A
46
86
44
26
89
A5
2A
6A
A6
81
5A
81
58
84
45
55
96
48
18
69
26
28
A8
59
05
62
A2
42
AA
91
A6
68
26
44
9A
86
59
45
AA
85
61
44
8A
00
92
A0
20
04
0A
00
19
90
19
80
06
01
48
92
21
25
69
22
88
24
82
02
6A
06
88
04
89
51
02
2A
49
A2
A0
66
22
42
04
00
12
00
58
19
02
18
82
52
20
88
66
65
69
64
81
12
88
16
6A
02
00
41
08
10
91
02
12
44
68
90
10
04
22
18
10
A8
01
02
62
25
00
60
90
84
92
41
02
21
A0
66
A6
00
69
40
41
92
48
22
A2
98
A2
44
90
65
90
49
5A
42
95
66
9A
A2
6A
A5
8A
65
58
A5
96
10
48
1A
5A
91
08
10
6A
99
21
40
09
55
1A
50
92
56
55
69
9A
65
91
29
60
20
84
00
65
40
29
96
18
16
85
A8
69
85
82
86
42
29
58
04
06
58
11
46
09
89
A9
9A
96
66
01
52
80
92
25
94
85
88
65
5A
66
44
0A
82
94
52
6A
58
54
42
01
80
9A
06
88
A6
AA
44
60
A1
86
2A
68
20
44
44
6A
60
52
56
99
80
19
24
84
95
62
44
80
A4
44
62
04
09
A8
46
86
66
95
A6
0A
64
28
24
95
51
6A
0A
84
68
95
85
82
94
08
A1
6A
6A
89
65
66
15
28
99
81
50
A9
61
21
22
92
95
42
5A
A9
18
5A
44
62
8A
22
10
84
49
95
45
55
A5
89
A8
84
05
85
05
69
55
90
A8
65
86
21
99
92
95
2A
44
01
5A
01
0A
1A
16
1A
5A
A5
A5
25
60
60
8A
A5
0A
29
A6
61
55
45
90
45
0A
6A
99
46
16
69
A6
A2
A8
29
AA
5A
90
99
A2
98
61
21
81
5A
65
52
89
5A
A2
64
65
44
A6
55
80
62
A1
95
59
42
94
42
25
69
24
15
96
52
80
98
15
58
28
55
8A
85
62
54
A8
08
49
28
54
24
AA
5A
4A
89
A0
84
99
42
10
A8
40
A0
49
A1
29
54
82
59
48
04
48
90
82
28
94
52
1A
10
50
21
A2
14
50
10
28
40
28
02
4A
62
4A
52
06
20
66
06
89
06
20
49
98
00
99
6A
06
6A
42
21
12
A8
42
40
25
82
66
28
20
01
6A
69
50
A0
85
01
2A
14
11
04
81
41
10
26
80
89
48
21
29
92
42
08
62
55
62
18
60
A4
06
66
15
68
A4
51
58
46
98
55
05
25
A0
04
A8
12
50
A8
50
60
26
85
45
56
4A
25
A8
81
02
0A
42
55
A0
A6
A5
0A
6A
A2
14
88
2A
2A
90
42
69
A9
24
11
00
94
10
99
6A
16
61
6A
80
54
01
95
19
91
91
2A
12
40
A2
19
54
02
A9
61
AA
A9
96
15
59
20
2A
18
99
82
01
92
95
95
A6
4A
6A
56
A4
6A
66
60
9A
40
94
4A
01
82
04
46
91
62
95
96
81
60
10
4A
61
12
94
98
20
42
95
9A
60
84
A6
40
A8
02
9A
21
A6
14
82
50
52
A8
A9
00
44
85
82
88
45
6A
82
80
82
50
52
64
42
24
49
0A
0A
02
92
42
00
51
26
AA
99
66
52
95
6A
89
08
21
28
84
69
52
10
25
88
92
0A
5A
95
99
90
99
16
56
46
98
86
88
15
44
21
16
21
56
81
25
1A
AA
6A
24
90
81
A4
A0
88
8A
85
A8
0A
A6
2A
0A
58
96
65
21
66
05
52
A6
A5
A2
41
86
22
41
86
9A
0A
14
6A
2A
42
A1
10
A6
82
96
94
21
56
A2
08
88
9A
29
45
58
44
40
59
55
52
44
04
66
00
45
AA
05
82
AA
82
10
50
10
82
59
85
A9
56
15
68
0A
5A
66
6A
61
12
41
22
A5
55
84
52
42
25
91
49
06
96
01
89
20
02
A4
02
51
A8
40
16
00
60
61
44
96
08
01
82
4A
21
19
A2
45
80
1A
20
81
08
59
00
AA
00
46
10
80
64
29
44
04
42
A2
80
15
00
A9
59
8A
50
56
89
41
02
69
08
65
04
92
14
94
24
05
52
22
98
41
A8
08
A0
14
81
19
28
01
50
18
14
12
00
15
16
01
06
00
50
06
18
8A
A1
54
91
44
20
56
A0
A9
A8
89
21
22
90
92
95
69
40
8A
A6
94
85
84
50
21
05
55
14
94
66
11
26
19
A6
A9
58
A9
59
60
58
A6
45
98
96
66
12
99
5A
99
48
2A
58
A6
45
84
58
81
50
01
44
29
42
66
54
62
69
16
21
95
59
26
94
A8
68
40
00
99
88
A6
96
41
9A
81
56
A4
85
A4
44
22
89
49
46
88
82
59
99
44
6A
9A
80
88
91
01
A6
AA
19
60
46
05
01
09
80
92
96
94
A0
68
A4
0A
28
99
10
65
84
42
88
19
68
69
65
01
AA
12
A1
19
95
A0
05
44
94
05
A5
04
46
54
91
66
64
29
68
AA
AA
18
50
A6
09
95
2A
15
69
A5
08
62
68
65
86
08
61
62
52
96
18
60
40
65
A0
09
AA
A0
62
66
2A
0A
18
62
2A
89
91
45
A6
18
A9
A4
4A
A2
88
55
15
1A
20
62
A8
05
12
84
28
54
A1
98
A5
60
A6
5A
60
66
16
66
19
0A
95
60
5A
92
86
66
5A
64
21
89
59
69
10
9A
8A
42
69
65
99
68
64
24
A8
64
A1
06
65
84
5A
19
95
6A
A1
84
90
52
06
91
55
66
06
A1
12
A2
52
5A
92
80
85
90
64
42
58
00
68
1A
15
68
90
A9
9A
86
A8
88
A6
62
84
88
24
26
28
59
15
26
68
45
99
81
69
5A
10
80
62
A8
48
90
05
92
90
68
A6
02
26
08
50
04
91
9A
18
41
40
80
06
18
24
06
A9
80
22
2A
44
28
08
14
18
29
11
10
10
11
15
20
A9
06
22
89
A0
64
29
14
25
80
94
86
40
99
00
40
65
A0
58
06
01
1A
A1
46
16
00
11
04
68
20
19
A8
20
28
84
14
90
A4
88
44
12
20
29
59
15
26
9A
09
50
08
50
16
66
98
94
05
48
A6
A0
42
42
A9
95
86
49
68
52
19
56
61
4A
96
50
40
04
59
48
81
1A
50
65
58
0A
64
A0
59
21
2A
99
55
4A
A2
08
52
46
61
1A
69
96
01
62
4A
68
11
5A
18
0A
66
65
68
18
82
50
55
84
94
99
59
06
18
95
A1
55
45
29
58
29
92
60
89
24
19
A5
A8
52
A1
A1
A5
45
80
56
A5
80
08
69
04
AA
A5
49
4A
99
28
02
08
98
81
A5
A5
59
08
65
10
81
58
1A
48
1A
A8
20
61
08
59
14
51
02
9A
4A
84
A6
46
46
26
99
46
64
66
59
82
02
44
99
49
69
05
8A
42
06
16
19
66
98
86
22
61
A4
4A
66
8A
99
25
60
42
90
09
81
42
99
60
96
96
9A
5A
00
A4
09
09
69
42
02
2A
84
66
16
6A
99
56
95
5A
02
48
04
89
52
AA
26
66
28
56
94
14
04
51
56
41
24
10
29
95
15
65
99
10
28
62
A8
00
44
10
62
06
55
96
A5
61
A6
5A
55
26
64
4A
58
69
86
56
A0
26
26
02
96
18
A6
55
62
62
A6
54
89
99
50
91
A4
81
16
58
00
2A
04
A8
59
91
06
9A
A8
64
92
28
66
A4
66
80
88
4A
A8
60
A5
52
56
29
2A
42
AA
62
61
64
95
6A
54
98
59
10
66
64
61
14
94
58
A8
24
92
50
A6
4A
42
02
10
29
01
19
8A
68
11
92
28
44
60
6A
09
10
20
51
28
91
16
06
14
61
98
82
48
A0
29
82
42
01
AA
4A
21
1A
46
05
44
84
20
01
25
41
85
04
14
90
5A
10
2A
40
A4
99
50
96
48
62
50
12
21
16
18
06
40
01
46
8A
89
26
90
44
49
42
01
9A
98
29
48
05
28
19
10
44
62
90
65
88
91
65
A4
99
0A
52
65
14
69
61
88
22
86
25
99
99
19
08
55
66
95
44
52
69
55
A9
21
9A
59
68
99
62
89
A0
91
5A
58
81
12
42
15
80
66
16
49
90
2A
22
1A
65
81
92
00
86
44
26
12
60
44
1A
12
98
89
A0
50
69
96
6A
91
60
24
51
99
A9
A9
61
18
59
26
A0
20
A4
64
98
95
A5
A6
16
56
95
9A
15
89
99
24
26
01
01
26
24
A6
22
66
69
A2
05
54
A6
49
69
55
52
05
19
AA
14
52
11
58
A6
25
41
2A
06
92
6A
46
82
61
86
AA
82
64
86
65
A5
55
0A
08
86
50
89
26
18
66
24
98
0A
99
10
0A
26
06
88
12
40
28
66
A6
40
24
6A
06
22
46
80
89
6A
28
21
54
46
42
40
69
86
A8
82
99
90
54
8A
66
86
19
21
A6
04
9A
91
59
AA
22
18
90
50
90
85
85
28
86
A0
29
9A
42
46
64
2A
66
A2
69
86
18
96
61
91
A9
16
54
25
88
05
86
99
26
A9
85
28
99
08
9A
99
80
56
59
85
A4
A1
12
22
56
AA
26
42
A8
0A
66
85
5A
52
51
89
58
91
66
10
9A
9A
08
48
82
00
54
24
59
6A
AA
41
98
9A
54
65
46
A2
92
26
88
59
69
42
06
6A
1A
95
88
99
59
52
90
41
A0
00
50
15
A2
98
06
90
86
05
22
64
10
54
46
80
28
10
22
08
40
62
10
82
2A
86
94
16
A0
A8
49
A0
48
20
A8
28
88
05
95
A8
A0
0A
26
86
24
05
A1
54
64
10
90
08
89
A8
54
44
94
22
19
80
AA
A2
1A
54
49
41
88
9A
51
25
04
40
84
54
61
A8
49
58
89
10
01
9A
65
46
69
20
61
06
26
84
88
19
8A
81
28
19
09
A6
A4
1A
00
01
29
89
91
59
85
51
58
A1
A2
15
64
90
85
85
86
50
51
24
96
69
96
95
45
22
55
52
5A
42
58
52
A9
A4
51
91
81
16
A2
A8
09
10
66
A2
88
A2
95
8A
96
20
08
82
98
25
29
25
26
55
99
65
12
55
12
9A
80
49
80
4A
66
A0
84
58
68
60
80
A6
99
05
24
61
66
12
4A
98
AA
51
69
66
06
2A
89
82
62
1A
26
19
42
44
46
A0
52
51
54
90
5A
92
60
10
51
62
46
42
21
A1
9A
64
00
56
88
46
42
82
15
1A
10
A6
52
68
A1
64
64
6A
59
19
51
55
52
01
46
86
48
59
A8
59
15
86
45
88
14
98
80
2A
60
22
58
42
A9
06
04
A4
A6
A6
94
25
5A
91
A6
28
8A
24
49
8A
21
A5
68
12
21
5A
8A
AA
84
A5
12
88
42
08
A9
95
A0
58
88
A0
4A
20
62
48
A1
56
A5
A6
9A
1A
5A
64
A5
12
94
1A
0A
92
A8
19
52
59
56
18
A9
64
48
62
64
85
58
56
1A
94
26
04
92
55
86
95
61
81
12
A5
91
25
04
A4
40
A5
09
52
A9
58
06
95
A5
54
52
16
25
A8
62
54
56
94
A6
25
9A
A1
51
4A
56
00
A8
51
4A
A4
0A
A8
62
89
16
04
86
42
68
16
56
05
24
18
A9
28
42
01
62
A4
A2
56
84
41
21
14
80
45
01
56
0A
62
40
29
52
51
48
40
08
02
44
4A
24
14
00
20
2A
00
00
AA
62
88
81
15
80
88
44
89
00
86
A9
16
52
15
80
60
2A
42
22
80
28
94
0A
04
01
01
05
08
11
A4
11
91
90
22
81
68
02
40
01
10
40
51
52
81
82
A0
00
00
46
08
44
A8
45
45
44
14
9A
65
A5
5A
92
65
48
A5
1A
01
14
80
25
64
28
81
54
59
2A
9A
65
A8
65
06
24
95
54
65
69
A5
59
25
46
A9
A1
86
22
22
64
AA
8A
12
29
89
08
29
99
69
1A
1A
66
58
44
40
98
AA
19
1A
60
96
99
A6
95
56
48
54
90
96
12
64
64
5A
82
04
16
90
58
86
64
94
02
66
08
99
14
54
65
41
48
05
A2
20
89
A9
24
6A
20
94
40
A9
09
56
80
06
A8
84
15
58
16
65
84
49
16
28
66
26
1A
55
95
01
61
A0
21
65
24
89
25
62
11
89
41
88
09
80
54
4A
12
A9
49
19
55
44
A8
29
44
61
96
69
41
96
19
66
09
12
18
05
14
8A
45
54
00
2A
04
94
10
51
02
89
84
2A
60
A1
96
08
81
82
64
29
08
41
15
50
66
88
69
11
62
2A
64
69
68
A9
6A
A1
90
96
09
46
19
86
95
62
64
42
92
99
5A
68
08
68
94
4A
9A
61
56
66
49
88
A4
91
60
04
11
49
26
02
A6
A2
01
4A
1A
69
4A
92
92
56
5A
98
44
25
85
A6
49
46
89
19
96
46
85
81
28
42
96
41
60
91
9A
5A
98
28
55
0A
5A
26
64
86
6A
66
9A
2A
A5
50
64
44
88
25
A9
80
16
62
19
A1
55
91
A5
44
99
92
66
91
88
A1
12
12
08
04
56
48
22
65
29
16
02
09
04
00
94
68
01
A0
4A
94
28
25
80
04
52
58
10
84
14
08
02
00
82
16
92
10
08
01
A1
12
18
02
00
11
02
4A
51
06
2A
A5
42
80
86
09
61
00
14
24
00
00
01
19
01
A0
A9
21
08
4A
45
00
49
80
68
19
08
22
20
9A
52
98
89
92
00
06
A1
51
54
1A
80
A0
0A
21
48
89
56
09
59
91
88
40
08
81
68
60
95
46
5A
45
12
92
45
09
10
54
69
18
92
89
48
A2
28
69
96
42
54
5A
92
95
59
96
95
89
98
68
46
15
54
69
A0
20
92
65
52
54
0A
69
01
89
56
88
49
19
88
99
9A
81
6A
28
15
AA
A1
24
10
A8
05
96
A9
A8
9A
AA
46
91
18
91
49
69
59
69
06
5A
92
86
65
61
91
66
89
28
64
90
A0
55
00
10
54
26
14
05
80
AA
00
8A
A4
28
A8
4A
66
15
90
56
59
84
56
98
06
61
A9
10
12
A9
A0
59
26
41
26
5A
89
AA
04
46
56
91
81
68
A8
06
80
69
41
88
9A
11
44
81
2A
14
56
A9
50
20
A9
15
AA
21
89
41
19
AA
10
20
58
48
A4
42
99
65
61
11
49
48
25
28
60
68
98
16
A4
A6
40
99
44
1A
66
0A
90
22
62
28
58
94
6A
86
A9
44
A9
A5
85
2A
95
21
88
AA
91
55
68
91
92
29
A6
A0
96
68
85
26
65
04
66
65
A2
56
61
8A
91
6A
6A
62
A0
69
06
12
69
89
4A
62
91
81
4A
19
89
55
98
52
0A
45
08
99
59
90
6A
19
25
61
99
24
29
A8
58
81
A5
02
95
82
9A
A0
01
96
05
2A
19
68
25
86
86
66
6A
68
A2
50
94
89
91
0A
58
04
62
A4
02
12
00
48
AA
48
8A
85
2A
00
0A
59
01
10
00
80
51
20
40
85
84
28
A6
10
59
82
04
01
06
61
82
A0
80
98
A4
19
91
89
69
A6
60
40
42
44
4A
90
15
41
01
06
81
AA
24
20
28
00
84
21
40
22
48
40
54
82
41
8A
10
95
54
A4
25
14
04
28
40
42
54
56
56
A2
80
6A
A1
60
84
42
82
A0
81
84
41
11
05
60
A1
91
14
62
69
15
40
AA
96
84
55
44
91
14
46
19
6A
10
A2
62
94
A9
96
90
94
60
45
16
10
56
06
4A
19
52
68
5A
55
A6
15
22
A6
6A
4A
66
49
11
94
4A
16
96
09
14
A9
21
85
28
59
22
04
AA
44
04
80
A9
06
15
50
20
A4
6A
94
25
11
24
08
41
A1
96
49
51
A8
06
11
95
11
5A
48
AA
00
85
4A
2A
8A
46
A5
22
26
0A
82
0A
AA
96
55
8A
AA
01
42
05
49
2A
28
66
9A
8A
26
05
15
52
45
19
14
A6
A5
12
5A
11
25
51
16
49
69
66
A2
69
86
15
98
A6
85
06
9A
65
8A
45
21
69
42
16
45
66
12
21
19
01
A2
22
0A
49
92
51
29
51
29
41
26
12
84
26
28
A2
01
A9
00
49
59
55
51
45
A6
51
A2
65
29
8A
45
11
65
45
02
41
09
89
41
A6
55
86
65
A6
A6
A6
98
55
8A
9A
29
91
9A
96
69
26
15
44
00
54
54
59
68
92
AA
54
55
89
98
96
A5
45
11
54
61
52
55
A2
A6
A6
59
25
55
50
A2
8A
55
85
0A
80
11
10
A1
19
14
AA
82
15
49
AA
68
28
99
0A
09
22
48
1A
29
15
6A
89
82
29
A4
96
86
54
65
19
AA
A8
10
55
55
98
6A
9A
49
A6
82
45
48
01
59
06
04
21
A2
18
85
96
25
24
40
86
61
80
04
9A
49
A1
0A
51
88
16
62
04
62
86
20
20
21
A2
A4
54
82
06
65
52
10
04
0A
8A
61
92
05
45
5A
50
41
86
96
80
A2
A5
01
01
84
02
59
99
12
A5
52
51
0A
A1
82
18
10
56
08
10
62
A4
81
20
A8
02
91
A1
68
41
09
15
12
22
A8
51
16
41
92
82
11
96
59
A2
A0
65
84
86
26
05
59
55
24
55
16
85
90
A6
98
20
06
A8
05
A9
A5
15
90
68
08
66
49
56
14
A8
96
49
A6
45
A6
51
54
62
55
A2
8A
84
59
91
41
96
19
49
6A
19
06
A6
59
A2
45
49
1A
68
A8
A4
46
1A
82
AA
10
59
AA
00
26
59
61
52
49
62
92
96
11
21
52
A1
49
41
A6
AA
02
A2
45
54
06
25
84
0A
69
A8
02
45
88
00
64
40
65
69
08
49
88
62
96
66
19
61
98
64
58
0A
05
59
08
66
96
A8
A9
50
42
66
8A
26
24
50
A8
61
8A
A8
99
95
65
82
8A
25
51
4A
65
A0
10
A2
10
01
90
11
65
92
14
44
12
05
54
24
54
54
99
55
A9
16
A0
16
A2
29
25
A4
5A
56
98
12
59
4A
45
80
02
22
01
10
45
06
98
04
A4
05
AA
89
55
5A
81
21
62
4A
89
9A
66
02
05
19
28
41
6A
28
5A
29
A4
15
09
AA
A4
89
19
58
0A
16
02
A5
91
02
58
85
90
2A
41
02
09
9A
06
A4
A9
96
26
12
89
A9
A4
69
98
52
88
6A
A2
89
66
4A
60
25
21
85
52
88
58
52
46
66
16
85
56
6A
15
00
81
56
21
A8
99
68
82
90
8A
19
A5
02
62
94
11
69
61
65
45
15
41
16
91
09
A9
42
58
62
52
15
A5
02
15
48
42
A1
44
05
04
89
06
10
99
29
05
14
90
00
20
29
21
0A
28
80
09
61
02
20
14
24
00
00
52
91
29
26
64
58
26
10
A8
20
80
55
42
A1
09
09
10
96
56
14
22
02
66
98
25
14
8A
14
4A
A5
A9
42
20
5A
05
84
21
24
15
59
95
04
15
A9
49
81
25
08
1A
09
08
02
01
18
54
40
10
06
91
65
12
22
A8
42
44
A9
11
65
68
41
0A
8A
64
25
98
A8
0A
44
15
61
41
45
81
6A
51
85
A0
61
15
65
81
61
A9
81
A4
84
A8
84
A0
A9
61
25
5A
89
A2
86
91
98
24
1A
66
66
85
45
99
92
19
21
A6
A1
41
22
41
26
02
A0
91
91
60
95
A0
22
95
16
54
02
04
91
11
89
0A
15
69
49
00
9A
64
82
68
92
90
52
14
05
5A
65
88
94
64
55
A4
02
15
85
01
1A
41
A9
A1
0A
25
02
05
11
1A
89
4A
60
8A
25
A6
29
61
6A
15
25
90
56
99
25
A0
64
91
50
10
05
48
42
65
50
26
A1
55
85
26
29
91
05
2A
19
A5
65
68
98
61
98
2A
22
9A
8A
62
A8
90
10
A4
82
60
1A
9A
51
04
62
8A
40
80
05
88
56
91
95
A2
82
95
65
99
2A
81
44
20
81
A0
45
81
94
45
42
51
82
66
62
54
48
0A
14
48
AA
64
28
2A
6A
19
54
A8
05
44
46
26
94
54
68
5A
4A
25
24
A9
A0
94
02
88
20
66
86
62
AA
6A
A8
51
82
95
54
58
92
06
A6
91
A0
69
95
6A
86
15
91
9A
16
15
62
51
A8
95
96
A1
A6
9A
55
A8
92
05
8A
A2
A6
60
58
22
05
22
55
22
82
59
98
15
5A
50
9A
11
98
A0
99
15
00
58
A0
90
2A
09
81
11
99
54
28
82
10
14
06
14
89
10
01
20
84
84
61
00
50
40
48
89
28
01
00
0A
12
58
4A
40
A9
60
A1
19
40
24
15
94
80
56
1A
5A
80
2A
20
08
25
65
01
01
81
00
2A
AA
05
00
10
4A
16
26
64
10
85
99
65
1A
26
00
89
08
14
8A
12
18
06
18
20
4A
02
20
0A
48
08
46
40
00
02
A4
2A
86
66
5A
94
1A
61
06
92
99
AA
5A
88
52
19
4A
02
A2
64
AA
62
99
89
18
A8
44
89
9A
51
A9
84
82
09
82
06
2A
65
96
56
AA
48
A5
56
A1
29
A8
62
8A
64
14
81
02
50
29
82
4A
45
44
54
44
99
05
99
84
29
98
96
45
28
96
22
14
05
49
94
A5
56
24
A9
80
66
28
41
52
20
89
68
11
91
46
91
55
05
6A
6A
1A
41
02
A2
A6
86
52
54
A1
59
55
01
09
0A
A6
22
AA
41
14
92
8A
A2
21
45
58
56
2A
85
05
59
61
A1
A0
68
45
85
49
09
82
41
28
11
2A
69
16
A9
A1
00
16
28
14
21
12
45
19
18
08
51
22
48
00
28
84
01
90
A6
29
A5
02
64
10
6A
A9
69
AA
41
80
62
21
66
42
91
24
A8
9A
91
5A
6A
95
56
69
26
69
99
62
29
90
81
00
09
A0
59
A4
9A
06
A0
5A
58
A8
61
25
51
49
68
1A
64
64
42
44
89
65
92
26
A8
59
46
2A
59
41
59
24
90
A6
24
01
A6
01
A0
AA
05
46
A5
24
A5
25
26
5A
16
51
24
09
A5
66
A6
59
95
98
59
66
A0
A1
A5
9A
85
A0
19
49
69
82
88
54
59
58
45
52
85
A9
A6
92
48
46
26
66
92
8A
55
1A
11
51
A5
A6
16
51
00
99
05
41
68
88
90
29
29
91
12
10
04
20
61
82
62
04
29
90
98
68
12
00
25
02
10
00
49
29
84
25
50
44
60
26
14
69
60
48
50
15
0A
18
80
92
04
90
60
15
90
65
44
A2
18
A1
19
98
96
A8
40
51
58
10
49
60
84
46
11
60
A1
18
A5
52
0A
22
18
19
A4
64
69
04
0A
49
11
04
92
02
60
41
00
10
91
1A
11
28
92
22
51
0A
51
48
18
66
61
29
14
81
A2
20
A2
01
A2
86
A9
52
68
16
1A
94
80
94
25
94
51
A8
6A
91
62
11
00
0A
16
05
A9
29
1A
54
AA
68
1A
09
A2
60
A0
40
48
54
54
A9
8A
94
06
05
AA
24
14
A8
62
68
22
9A
51
62
52
59
19
29
61
69
92
19
20
14
54
48
90
44
51
58
56
68
02
28
81
9A
52
04
54
26
46
A8
88
64
91
99
88
68
A0
98
84
00
59
90
94
5A
11
22
40
96
15
28
50
49
5A
10
69
18
56
69
A2
01
61
11
A5
99
41
65
06
A1
1A
5A
94
96
12
2A
81
91
05
98
66
8A
64
05
06
A6
A8
44
22
2A
16
88
91
A6
00
51
04
A5
40
48
6A
59
08
96
AA
82
5A
A8
69
05
2A
66
58
86
2A
56
85
68
40
4A
29
51
6A
41
25
20
64
A2
26
55
69
94
A4
08
A2
14
A6
06
6A
98
A6
69
20
1A
65
99
22
25
56
A2
62
A4
A5
95
9A
6A
99
2A
96
59
A6
10
84
64
65
91
26
A4
A5
46
09
60
0A
16
A0
04
09
81
20
41
98
4A
12
69
09
56
00
A8
66
81
85
16
A4
8A
51
60
81
56
42
99
4A
1A
59
98
45
46
A6
69
A4
94
10
16
20
2A
66
55
9A
21
91
5A
18
55
6A
A8
04
45
84
12
00
22
51
8A
14
80
12
46
01
88
60
50
54
69
80
18
69
88
59
82
69
20
48
08
0A
46
60
42
66
00
60
80
10
12
40
24
14
54
06
88
89
A4
10
84
12
96
AA
88
41
22
6A
10
12
84
A1
51
01
82
02
4A
59
58
25
A0
85
A2
62
42
12
96
A0
04
04
92
08
08
A4
5A
45
12
84
41
80
65
02
00
1A
65
41
44
00
85
88
0A
12
64
5A
01
14
04
24
42
65
62
95
59
A5
59
94
08
92
41
9A
62
26
59
5A
54
55
29
82
98
49
29
01
08
62
66
6A
19
28
95
A5
16
06
96
48
85
9A
A1
A2
12
22
56
8A
A5
60
44
62
89
1A
89
50
94
91
A9
02
18
91
62
48
98
15
94
25
65
62
A5
AA
20
45
84
21
16
91
9A
94
68
A1
26
68
08
44
41
66
9A
61
55
20
98
20
51
59
49
51
8A
85
46
81
24
08
01
98
9A
15
4A
21
66
91
16
62
51
58
99
68
A1
49
12
A6
10
92
58
45
54
56
6A
A2
61
40
15
80
A5
05
A6
59
45
0A
15
88
82
4A
A2
24
A1
69
61
20
26
86
24
01
06
2A
56
A6
19
04
A1
A1
95
A4
A2
11
99
94
18
85
A9
91
58
19
10
8A
24
A4
6A
84
A6
66
46
A9
AA
A8
60
82
14
05
9A
15
A8
81
A1
00
61
66
09
28
95
19
69
96
64
96
91
49
96
4A
96
9A
60
28
4A
A2
25
86
A5
A6
6A
69
61
A9
5A
68
1A
62
0A
05
42
42
84
A5
82
85
55
58
05
61
25
69
9A
24
9A
86
25
54
41
28
92
90
05
61
A2
85
A6
9A
12
65
8A
91
6A
05
A6
98
62
62
28
18
28
A1
11
46
49
A9
64
85
92
58
68
48
52
AA
2A
8A
01
55
A4
AA
15
88
A5
01
20
85
22
10
00
10
41
58
02
60
4A
00
00
41
15
84
44
15
19
01
21
20
90
29
14
52
44
60
89
21
81
26
00
A4
42
00
96
69
A1
06
55
10
00
2A
4A
2A
00
61
A0
42
10
11
A8
21
90
A2
1A
6A
A4
A0
4A
9A
25
90
1A
89
19
00
40
9A
44
01
81
A0
61
42
50
01
06
05
A2
A9
A0
29
12
11
91
48
11
69
05
08
0A
19
1A
A6
26
91
11
16
20
A1
09
A1
49
A4
51
48
48
89
12
66
62
54
55
92
59
94
18
9A
91
16
89
12
A9
69
60
46
81
18
88
94
05
82
21
91
61
44
56
81
11
28
21
54
95
54
94
41
9A
45
56
64
48
86
90
48
89
95
65
54
A6
95
12
50
04
16
8A
A2
85
5A
42
81
44
29
9A
96
52
49
18
12
54
86
09
60
9A
50
24
50
08
85
25
16
89
62
5A
81
49
60
85
56
9A
58
4A
14
99
A8
55
A5
45
86
89
41
A1
A4
A6
6A
51
89
65
6A
84
84
59
56
A9
04
06
AA
00
A6
45
00
A8
00
26
A8
08
15
0A
82
5A
A9
56
01
92
90
22
2A
89
00
26
20
20
A9
15
04
68
A6
A5
A4
55
22
A6
89
59
21
95
41
A2
69
48
01
98
96
AA
AA
85
A6
95
54
2A
44
8A
41
A2
5A
55
42
8A
4A
59
89
A9
89
95
1A
02
50
55
96
2A
61
A4
AA
00
94
68
A5
90
45
16
05
52
65
50
84
62
59
A4
05
16
62
2A
28
80
04
40
56
12
81
00
59
96
40
92
46
92
14
06
65
A8
21
12
50
55
20
52
59
26
40
A2
90
90
49
96
A0
96
65
19
A6
A5
92
55
54
58
A4
54
05
19
0A
5A
64
00
21
20
41
00
52
15
56
12
2A
60
64
21
94
86
49
54
48
49
01
A8
52
22
90
15
11
41
02
24
48
28
02
44
41
51
00
28
A6
68
82
28
16
12
21
50
21
20
82
A1
04
25
14
00
52
00
56
00
20
15
94
4A
12
08
96
00
80
89
10
21
A0
41
69
29
0A
80
80
40
88
90
02
50
68
21
28
69
80
55
96
98
49
A8
00
40
94
28
69
12
41
46
A2
62
45
A5
94
98
A6
A5
14
58
6A
86
46
89
09
14
8A
A6
65
21
88
99
9A
61
85
9A
18
59
96
65
05
18
AA
49
49
95
69
86
44
A5
64
09
08
A5
94
48
2A
11
01
89
29
AA
66
AA
64
86
96
A2
08
6A
44
62
64
A9
80
62
81
55
58
A6
95
6A
0A
90
66
64
40
49
69
21
82
6A
99
86
5A
A2
91
40
AA
A2
0A
9A
48
92
80
24
15
49
10
50
8A
65
55
65
84
68
85
06
14
01
00
94
94
69
24
64
85
62
10
54
84
41
A9
61
2A
9A
24
94
41
55
42
69
50
24
6A
44
61
45
84
65
1A
54
28
04
05
60
45
64
90
61
22
95
62
69
18
65
45
42
18
91
9A
96
AA
90
85
A8
92
92
A2
51
49
A2
24
19
40
85
62
48
91
5A
02
49
55
01
61
09
59
AA
82
25
26
AA
AA
A5
61
25
2A
29
60
49
61
A6
44
1A
9A
58
42
A0
02
58
49
26
AA
52
05
18
68
68
22
14
2A
9A
99
44
8A
98
14
65
01
A5
A9
55
95
AA
54
22
10
89
40
56
96
46
11
A2
64
50
A0
66
96
06
66
95
86
A2
85
AA
98
42
81
66
26
29
81
A2
06
62
A5
86
18
15
58
AA
56
81
95
22
66
66
A9
52
15
A5
A8
24
A8
A8
24
04
84
04
00
A9
45
48
95
60
40
24
10
01
20
4A
85
26
89
08
22
51
64
0A
64
10
55
01
59
48
0A
66
48
06
11
82
00
89
08
45
4A
06
10
0A
55
48
8A
09
00
91
88
80
46
0A
42
46
50
2A
86
96
14
A1
10
49
00
05
0A
A9
85
8A
42
A2
45
88
20
45
0A
02
10
05
65
28
09
94
45
42
2A
16
00
11
98
24
60
01
64
0A
08
0A
09
A6
98
19
48
A9
94
2A
A2
A6
69
54
AA
82
81
21
1A
A5
15
49
94
08
28
12
2A
A6
A9
56
29
A5
AA
40
96
02
86
2A
AA
60
64
66
A6
49
A9
91
01
9A
65
58
06
09
40
85
08
26
A4
A4
22
12
9A
4A
92
64
6A
95
AA
45
A8
52
91
49
96
A8
1A
5A
44
96
02
61
05
56
16
45
A9
56
94
49
82
64
06
A6
28
A9
92
29
54
24
A0
42
69
60
61
5A
69
2A
1A
08
4A
56
04
AA
1A
2A
86
14
50
46
6A
86
A6
25
68
A8
50
A4
29
15
80
22
62
02
82
12
95
A0
6A
09
11
52
62
25
59
11
A4
2A
24
86
20
04
20
0A
66
59
09
02
65
66
6A
4A
82
29
65
46
58
A8
49
A5
64
AA
51
69
89
28
49
41
96
6A
4A
80
0A
46
16
56
92
A2
A4
6A
04
59
89
91
46
AA
98
42
58
69
91
A2
08
54
25
95
56
86
92
24
94
55
90
A4
4A
4A
68
55
AA
45
AA
50
14
A6
6A
99
56
66
69
28
26
18
88
82
88
06
51
18
55
64
0A
1A
61
28
04
69
96
91
59
66
A5
A6
A5
A8
65
00
28
85
99
A6
58
20
A6
51
91
58
86
15
46
8A
2A
95
1A
5A
49
A1
54
60
6A
08
46
45
66
61
40
26
82
0A
86
95
62
02
20
48
10
05
09
06
09
20
A9
6A
4A
06
40
24
40
21
84
A6
80
01
A6
16
99
95
49
01
04
15
12
62
19
68
04
19
00
10
02
50
19
21
49
06
01
94
68
24
08
20
04
51
48
08
56
A0
02
A1
42
29
4A
90
42
56
28
42
88
54
0A
21
82
85
82
01
84
A0
81
00
12
04
80
00
60
04
06
10
40
90
00
10
06
80
18
19
A0
92
59
65
A4
11
62
AA
66
94
08
20
A4
59
12
61
69
40
55
22
89
12
55
02
94
00
A4
12
A9
49
A5
02
99
82
26
59
50
46
26
59
54
5A
A1
54
55
46
02
8A
14
21
18
61
82
A1
49
28
25
A2
8A
6A
44
2A
61
24
15
85
98
50
22
89
2A
68
60
40
29
12
A9
11
2A
2A
96
A6
00
46
A2
9A
04
6A
69
88
60
89
A2
81
92
24
46
9A
18
95
A6
29
69
AA
68
80
11
91
96
68
89
09
95
01
90
A9
52
02
59
40
64
41
25
65
61
99
91
A6
84
61
16
64
58
09
A6
29
59
6A
A4
14
69
96
82
5A
02
81
44
80
64
04
01
0A
68
A6
80
55
46
09
58
08
00
8A
9A
10
54
50
A6
AA
94
42
48
26
A6
26
A1
49
51
5A
96
68
56
22
84
46
18
9A
26
85
48
98
52
A2
64
26
01
48
58
55
26
5A
88
29
16
52
64
18
59
22
59
92
19
29
44
A9
68
5A
10
44
91
64
52
A5
AA
55
91
56
91
24
09
56
45
45
A2
14
44
59
A8
50
84
4A
11
59
01
AA
46
94
59
9A
59
18
96
99
02
46
A2
04
25
91
25
68
84
A2
94
46
29
A9
24
59
A9
12
18
09
A9
61
62
61
82
26
59
96
52
68
A2
42
89
95
91
96
81
81
A8
04
0A
42
08
2A
12
09
50
00
99
82
10
02
84
A2
18
A2
59
A8
A2
45
8A
09
49
46
02
06
80
25
04
22
00
AA
42
82
A0
8A
11
14
21
45
14
20
10
22
61
11
60
42
81
18
11
41
20
82
28
80
00
04
51
80
92
68
09
11
42
08
05
58
48
81
98
54
46
04
29
00
16
4A
92
19
02
82
5A
00
80
98
10
90
00
02
51
45
01
02
20
8A
16
18
A0
88
11
88
6A
85
11
A8
12
02
A9
A9
A9
56
49
98
9A
81
9A
59
64
AA
6A
06
51
A4
56
A4
20
0A
15
92
86
69
09
6A
05
25
A8
08
58
95
69
04
86
A5
08
61
0A
A2
54
19
18
0A
04
56
AA
98
A9
5A
AA
6A
66
40
64
28
56
86
A4
21
15
49
8A
29
24
94
84
94
16
59
A6
62
89
A9
96
5A
58
24
54
A6
95
56
66
00
51
40
42
52
42
18
18
51
64
52
56
88
29
98
5A
AA
54
55
66
A2
8A
88
52
85
A2
A6
56
0A
19
66
21
89
15
26
A1
28
2A
0A
1A
56
98
45
16
A8
66
5A
A9
52
A5
19
10
A2
5A
11
5A
62
25
48
99
52
22
95
81
29
25
64
66
42
A1
A0
86
A6
56
98
A0
82
56
A9
68
A6
25
A8
89
86
A5
A5
64
A8
59
A6
91
00
95
18
18
61
40
19
56
29
80
A0
06
12
6A
59
55
8A
18
85
A5
56
26
95
48
12
8A
90
A9
90
29
56
A8
14
A8
88
A9
5A
6A
45
A5
94
20
91
61
59
42
06
54
A8
51
01
61
52
56
05
98
41
1A
25
88
22
11
44
9A
46
45
29
95
04
54
02
09
52
42
5A
42
51
06
59
51
54
68
56
50
59
60
05
A9
1A
5A
56
99
51
96
A8
68
A1
86
4A
15
11
21
89
42
14
54
02
A9
41
2A
00
16
09
92
62
99
52
A0
01
52
A1
60
16
A2
20
90
60
94
82
94
5A
06
52
28
56
00
60
02
28
16
24
21
11
2A
08
16
01
01
41
56
0A
0A
06
52
46
15
22
52
09
06
86
1A
00
A1
21
41
8A
09
A1
28
09
85
A9
08
A1
91
09
A1
0A
89
42
19
19
24
20
56
66
11
68
14
29
2A
A5
60
81
40
40
85
08
66
49
80
96
69
81
25
26
59
66
A4
46
4A
66
9A
A4
69
9A
41
61
A4
95
0A
16
18
85
A9
18
A2
09
A9
56
54
9A
61
44
92
66
A1
96
81
18
59
91
28
46
09
A6
96
98
81
49
22
66
18
A2
10
09
00
09
14
40
08
A0
A4
06
92
A6
46
69
06
5A
64
61
08
25
81
41
89
66
95
1A
86
A0
20
98
45
45
44
55
5A
59
01
06
64
55
40
15
05
91
50
AA
69
2A
26
90
86
A8
02
14
9A
28
14
68
61
A6
99
42
56
25
A6
95
45
9A
02
A0
A5
58
59
0A
94
61
06
4A
96
49
A9
A5
19
41
26
91
68
22
66
48
48
A2
81
11
AA
88
80
A8
41
99
A2
A5
9A
88
86
09
99
98
0A
25
01
A2
15
24
25
26
A6
4A
98
88
8A
4A
06
65
21
25
16
A8
25
A4
82
90
62
80
21
AA
48
56
16
05
09
84
25
24
06
50
56
88
A0
65
98
62
99
52
84
A9
68
19
12
A6
2A
46
A1
9A
05
54
96
55
61
96
41
85
8A
54
51
01
46
64
A4
A6
A5
58
48
AA
15
95
15
64
66
69
06
40
04
60
52
91
08
99
9A
49
08
96
65
A8
44
18
19
16
61
65
1A
A1
6A
08
64
A2
80
9A
90
41
26
2A
A0
A4
5A
18
59
50
28
A4
21
88
90
A1
40
5A
80
09
10
28
10
82
21
40
86
02
99
42
50
10
42
56
09
11
00
19
10
90
54
45
51
54
25
80
16
06
06
00
54
25
54
08
21
12
82
A1
1A
A4
48
10
59
50
50
56
56
45
80
A8
58
10
52
04
88
A8
A4
21
25
04
A9
20
04
81
04
21
80
18
00
02
04
80
A0
85
24
19
16
50
00
20
A6
21
49
04
44
85
48
85
55
94
59
55
24
91
65
90
A1
09
1A
90
8A
61
0A
59
91
5A
2A
42
AA
66
11
59
56
99
86
92
98
60
2A
81
A0
58
99
1A
65
06
88
5A
65
A5
48
52
52
81
05
42
86
12
18
A9
90
A6
09
19
94
52
11
26
56
24
58
88
81
A5
19
22
AA
8A
15
56
16
20
16
A5
14
A9
45
A4
92
16
52
28
51
91
02
59
61
55
A4
96
18
15
88
26
98
82
98
10
91
1A
54
61
85
88
54
84
46
99
10
05
04
22
82
55
69
49
1A
A2
84
28
24
54
66
95
61
90
56
55
49
84
51
A5
2A
A1
08
A9
84
96
A6
99
26
98
6A
A0
40
51
19
A4
A5
95
40
26
29
1A
91
4A
A9
10
24
A6
95
59
5A
61
19
90
A2
A2
00
89
A2
20
14
62
20
25
A9
19
6A
02
51
A5
00
54
48
05
12
9A
82
59
2A
55
06
56
80
68
85
24
14
20
55
98
95
69
59
A0
62
A8
25
4A
45
22
18
A0
89
54
82
92
05
65
02
95
25
15
10
26
28
1A
42
84
96
68
8A
65
69
A4
68
04
05
48
80
22
96
95
00
49
A0
69
A6
95
5A
69
95
6A
8A
9A
A9
08
AA
05
A1
90
88
66
95
51
98
54
A5
84
55
66
40
A4
20
9A
42
69
95
96
15
6A
56
82
A1
08
20
95
10
22
40
15
59
05
92
04
41
09
04
40
06
00
18
49
10
42
51
18
49
42
25
50
65
48
6A
41
40
04
02
02
10
04
02
22
51
20
84
41
96
42
41
44
02
25
1A
92
9A
48
42
29
45
08
08
08
10
81
95
00
15
9A
4A
A2
26
98
08
00
A6
40
62
10
20
84
00
24
40
58
4A
45
82
80
11
02
60
42
05
28
92
52
88
08
19
50
68
5A
11
55
40
49
48
59
A2
A2
11
A1
91
A1
4A
80
51
06
A6
66
60
28
08
54
15
98
56
25
AA
A8
29
41
65
15
85
99
52
98
64
42
19
95
14
4A
50
1A
8A
85
10
64
02
22
89
0A
66
A4
59
69
29
18
16
89
59
6A
89
42
48
61
41
55
51
66
89
A1
15
56
2A
26
5A
11
68
A6
92
95
82
6A
54
15
04
12
25
88
95
16
04
60
19
25
18
54
52
A8
24
09
86
82
0A
A9
4A
60
2A
10
56
A6
5A
40
18
A6
A9
59
A2
09
A9
85
11
46
41
19
A0
64
28
48
19
A8
91
20
11
45
90
A9
A4
02
25
92
68
24
08
14
16
19
09
6A
91
8A
89
06
60
12
08
A6
5A
14
19
56
A2
09
89
1A
55
42
6A
51
92
54
A8
44
62
64
51
84
19
A1
94
A8
9A
A0
A9
15
65
20
21
A8
14
51
44
19
56
A8
56
A6
A6
48
A1
52
18
99
68
16
26
A9
81
50
54
00
59
26
9A
A1
A6
A4
52
25
A5
56
46
A4
A4
6A
90
55
62
2A
16
AA
A1
55
A9
41
AA
04
6A
A8
1A
22
25
A8
68
92
89
A0
A2
94
05
19
16
92
2A
44
84
A6
5A
62
52
89
18
81
9A
A6
01
A4
61
66
65
64
21
9A
96
42
99
45
24
55
9A
69
5A
62
11
89
11
05
04
11
48
42
49
55
69
52
85
91
4A
41
A1
06
88
58
51
89
41
98
16
A1
10
54
12
A9
82
5A
02
40
40
88
40
40
68
58
44
18
1A
46
08
45
A5
A0
12
01
12
08
44
22
85
10
11
55
14
68
08
06
15
21
11
68
09
A5
00
A5
62
46
08
85
A5
59
98
06
62
A2
60
06
45
10
51
01
20
46
62
A1
20
59
1A
80
9A
61
62
46
42
48
66
52
0A
88
21
94
46
46
26
54
42
96
86
1A
A1
69
89
8A
18
98
5A
54
66
9A
6A
19
52
94
95
26
99
95
95
A2
5A
A2
16
92
58
A9
41
9A
69
A1
A9
22
29
65
92
29
55
21
41
84
55
21
06
44
00
81
1A
0A
28
68
A8
56
29
60
24
A4
AA
90
54
29
A6
28
85
55
A1
AA
66
56
92
48
16
65
69
82
18
66
06
49
14
AA
28
44
29
54
80
00
10
96
4A
A1
96
40
12
9A
A4
81
5A
92
04
12
98
19
49
A6
85
4A
56
5A
06
89
02
12
52
40
94
55
52
9A
88
12
01
81
16
56
59
29
96
A9
16
02
01
56
59
4A
84
24
80
09
40
48
21
12
86
40
10
59
05
90
86
48
A0
88
94
96
96
90
86
65
0A
99
4A
20
08
48
81
56
55
58
66
09
62
24
A8
06
86
46
54
A6
29
4A
4A
62
91
92
A4
19
86
41
A2
48
60
20
98
95
84
45
55
AA
59
96
48
59
98
92
A2
59
82
22
61
95
29
94
95
8A
96
90
69
50
69
46
22
A4
20
2A
64
66
41
41
56
45
12
99
85
66
96
55
14
54
51
16
54
10
AA
56
50
90
4A
5A
A8
65
99
64
85
94
A4
84
00
55
44
16
99
29
A6
6A
95
48
68
02
2A
81
A2
46
00
6A
00
80
60
00
88
22
20
2A
02
06
02
94
50
56
86
81
69
12
99
84
40
89
82
6A
06
16
10
69
02
60
10
41
29
59
50
1A
14
20
5A
42
89
92
41
A9
A9
0A
01
A0
65
40
42
46
92
84
A5
50
66
40
20
09
22
60
80
88
82
19
20
51
08
88
88
60
14
48
49
20
02
69
12
09
19
42
90
90
21
49
A8
02
20
92
08
06
48
60
81
9A
21
48
25
84
8A
A8
98
60
61
51
15
25
24
A8
21
18
8A
04
65
11
49
55
25
5A
A2
55
62
26
26
24
46
1A
51
80
86
94
25
95
55
86
89
88
48
29
A2
59
86
25
A9
1A
50
5A
22
99
9A
56
50
01
61
61
2A
55
21
94
60
59
15
04
11
96
1A
A1
6A
42
62
92
A4
16
9A
A9
24
68
A9
6A
A6
98
A5
95
45
95
58
96
29
64
A0
60
86
A1
08
18
98
29
11
56
6A
4A
91
65
68
44
56
9A
58
45
25
19
05
5A
84
26
A5
2A
41
49
A1
25
61
98
99
A2
16
A5
21
45
06
AA
59
50
01
86
58
94
59
50
66
69
46
99
80
A2
54
98
41
9A
0A
89
69
90
92
9A
21
98
A9
52
A2
91
2A
69
40
64
A8
55
20
81
49
6A
AA
8A
89
81
48
05
52
A1
28
1A
09
50
51
89
A9
05
20
85
8A
A6
56
28
46
50
91
18
0A
99
85
5A
86
62
42
24
80
12
A4
58
05
29
68
2A
A6
56
A1
50
46
49
82
90
26
94
98
54
14
AA
6A
41
10
09
98
66
48
18
4A
81
58
A8
16
A4
86
84
4A
2A
A9
41
65
81
19
29
26
51
51
4A
24
59
82
20
59
60
14
06
5A
08
48
A9
44
86
56
59
A8
54
AA
64
60
21
A4
16
29
09
00
29
64
A0
00
20
24
A8
80
09
51
09
A0
99
48
88
06
81
A1
52
21
90
86
12
A0
54
68
26
00
80
44
98
09
92
06
08
12
10
60
40
40
A0
44
21
84
86
82
A9
06
86
40
16
40
01
09
85
06
00
40
44
68
88
A1
04
80
86
A2
28
A4
A0
11
09
80
09
00
90
46
10
89
96
29
A0
08
86
46
20
8A
90
82
A0
40
61
60
54
AA
51
51
52
AA
AA
54
45
90
94
81
98
2A
99
5A
60
10
68
56
19
54
19
16
64
95
1A
AA
98
11
A0
9A
61
85
58
0A
94
46
68
81
55
80
52
65
56
45
80
A5
14
55
A8
46
82
A1
40
44
94
AA
96
54
04
96
19
59
15
1A
45
29
00
15
6A
44
65
08
1A
A4
94
65
A9
82
88
18
40
41
66
40
9A
15
54
A2
90
2A
06
51
49
54
A6
80
15
8A
A0
1A
4A
04
60
69
45
A6
4A
61
04
55
99
85
46
22
54
95
04
52
61
2A
21
82
11
59
0A
66
09
99
A0
59
A9
AA
61
89
A1
19
69
2A
56
85
9A
8A
0A
81
16
18
85
18
A4
02
A9
4A
16
58
A9
11
52
55
92
24
98
12
92
6A
2A
45
80
4A
05
66
22
A0
65
56
A4
08
81
19
89
89
56
44
66
08
61
5A
98
28
A1
28
41
6A
05
00
29
26
4A
54
95
56
66
15
A1
A1
4A
69
89
86
24
95
58
55
56
A2
A0
62
52
20
61
96
25
81
5A
99
10
08
95
65
A9
66
25
42
4A
62
41
19
52
69
08
4A
66
05
A8
98
81
60
5A
08
96
A8
90
80
00
2A
09
65
04
44
6A
85
85
14
90
A9
15
14
61
88
55
0A
51
46
65
99
09
0A
44
52
44
69
68
A2
4A
14
A9
11
45
8A
1A
52
82
04
18
28
91
9A
49
98
62
81
A9
09
50
84
65
88
99
92
80
06
05
60
00
1A
06
91
99
41
98
1A
11
A9
84
84
85
49
08
2A
48
48
80
52
8A
89
8A
84
9A
41
81
60
65
50
46
52
46
26
82
42
94
56
09
98
21
20
A6
0A
98
48
06
14
A2
80
AA
61
96
98
20
A8
11
22
50
42
42
82
56
81
08
85
60
02
4A
12
29
2A
A1
89
49
12
99
24
89
89
61
95
65
16
88
94
A5
85
46
94
8A
95
58
69
00
40
94
66
25
62
6A
A1
60
8A
A6
01
96
00
A8
21
90
61
5A
19
02
A8
6A
A5
09
49
81
18
16
61
58
9A
51
55
9A
49
A5
95
05
9A
94
AA
16
40
09
65
06
05
16
A5
6A
10
90
6A
A9
16
06
64
01
0A
69
06
49
46
11
A5
69
60
10
52
91
52
15
20
49
99
01
95
6A
50
12
9A
56
55
94
4A
51
25
54
A0
2A
80
42
A5
05
59
60
85
50
59
A6
AA
89
66
58
A6
20
12
55
19
A0
04
44
28
28
16
29
81
4A
59
92
28
96
A9
A0
0A
2A
56
A1
14
14
A8
24
92
64
01
90
A1
46
19
A8
29
88
82
A5
40
21
8A
8A
46
80
80
08
81
82
4A
89
29
01
A2
49
48
01
0A
90
12
08
A9
1A
0A
14
45
6A
86
05
55
64
2A
15
89
04
22
58
A4
AA
59
45
25
18
05
56
55
06
A8
A1
11
A9
A6
18
86
9A
52
84
54
5A
15
64
14
6A
86
42
56
5A
25
88
A8
0A
52
14
14
0A
A0
A5
99
A6
8A
82
5A
15
60
50
9A
59
48
45
01
91
94
A9
86
A0
A0
AA
15
99
82
91
2A
86
54
58
A4
80
A4
95
54
45
8A
55
41
18
45
41
55
15
A2
00
2A
12
09
A8
65
15
A0
A0
22
05
45
02
A4
04
45
02
00
00
80
58
A5
48
86
41
08
94
60
60
11
81
41
10
A2
51
51
09
A9
20
21
95
1A
0A
85
60
40
08
1A
00
02
02
44
58
51
80
0A
08
82
15
15
19
A0
68
84
21
14
08
82
AA
88
46
80
A2
18
22
59
00
42
25
00
14
A1
8A
90
81
59
81
28
49
8A
88
49
01
04
68
90
90
6A
9A
21
0A
40
A5
A8
65
84
A6
66
A4
82
10
15
91
65
48
59
42
9A
1A
56
A6
A4
18
46
45
A8
6A
62
84
89
14
69
68
05
95
12
95
55
6A
2A
59
81
55
60
01
48
00
12
69
48
6A
6A
50
45
61
8A
40
4A
90
68
56
42
A8
64
16
52
16
55
2A
5A
56
61
54
59
6A
01
14
96
5A
56
95
96
84
41
A9
88
99
0A
48
40
5A
99
05
A0
60
08
80
14
68
96
41
AA
19
20
42
61
06
5A
85
59
86
5A
09
A1
A1
14
66
80
55
25
51
12
8A
09
69
86
A0
8A
09
49
9A
99
A4
41
56
4A
81
A2
02
24
18
A5
24
55
1A
15
A5
51
09
61
4A
94
04
49
92
56
8A
25
10
45
92
82
25
94
AA
18
52
69
95
24
44
29
A2
A6
48
6A
15
48
29
59
21
40
19
8A
56
84
05
02
82
26
92
69
AA
08
56
02
55
A9
AA
44
46
11
5A
91
A4
25
06
05
92
64
46
A9
9A
A2
51
A1
01
05
A6
61
15
65
A5
66
96
61
91
9A
58
61
16
96
A0
96
A4
A0
59
49
06
A0
44
01
56
81
88
2A
25
A4
65
A8
26
68
89
59
A8
99
AA
46
51
A0
82
66
18
A6
84
04
15
26
A9
45
99
A5
99
A6
56
8A
41
51
49
81
10
A6
41
08
25
1A
82
06
58
22
04
A0
58
05
68
86
66
25
90
94
60
25
A1
40
18
12
02
60
90
28
02
65
86
02
60
95
21
02
15
10
02
90
50
44
10
20
28
11
00
80
48
4A
A1
40
51
85
02
94
0A
28
28
42
00
84
50
1A
01
80
00
14
81
49
65
41
21
48
80
12
40
20
A4
10
90
65
A1
96
51
00
18
24
51
04
04
A8
59
00
10
44
95
48
98
44
A6
40
88
54
20
69
64
62
56
59
28
68
46
12
15
86
52
AA
95
40
91
15
A5
60
80
8A
59
A6
98
16
82
29
01
60
A8
AA
1A
55
16
A8
5A
24
6A
92
04
14
51
55
96
04
40
20
00
08
A1
25
61
A4
82
A9
85
45
09
55
56
68
44
91
29
10
A1
19
58
A4
86
54
88
16
51
99
19
A6
0A
01
59
85
A4
4A
69
6A
22
AA
04
92
61
54
90
40
00
89
9A
14
A0
2A
40
64
40
20
69
20
09
45
14
1A
12
A6
8A
A1
64
98
25
AA
60
00
02
05
04
64
92
91
24
68
22
55
2A
A6
46
11
61
40
46
21
02
91
66
48
94
95
86
9A
1A
04
96
66
24
42
A4
48
90
98
A6
6A
96
45
69
6A
41
2A
42
99
96
AA
55
51
8A
84
54
06
98
01
A4
25
46
A1
26
86
29
50
AA
85
18
54
16
26
24
56
8A
99
51
A2
05
21
92
49
54
88
59
2A
82
60
96
55
8A
66
A8
99
66
10
52
60
88
29
92
8A
AA
A6
AA
04
16
81
65
AA
58
56
65
90
81
00
48
0A
51
56
69
99
10
16
18
80
69
49
29
56
41
4A
A8
98
86
19
89
9A
A9
85
99
85
59
91
56
95
24
99
29
46
46
55
99
92
66
25
85
69
29
51
16
84
59
04
A6
45
64
2A
80
86
08
50
50
40
21
20
62
52
81
64
6A
80
81
14
10
51
05
A0
00
00
80
09
5A
A0
21
00
20
84
48
00
52
96
10
40
A9
11
58
90
01
00
5A
4A
21
20
5A
00
02
25
20
62
15
2A
01
01
09
40
84
12
04
15
16
04
05
16
00
A4
45
28
24
A2
59
45
28
54
A6
41
46
A1
A6
58
0A
42
24
4A
A4
91
92
01
05
40
AA
09
16
08
58
20
16
45
99
24
84
98
A6
16
5A
89
25
A5
41
48
A4
95
A8
89
10
99
26
65
20
90
16
04
68
91
A8
02
94
59
26
95
89
18
25
45
85
65
44
18
00
45
88
55
64
16
A1
26
A4
06
95
A4
A5
61
05
29
A5
A9
55
49
A2
44
26
95
21
10
24
65
51
99
A9
19
41
66
6A
8A
81
9A
84
A1
1A
66
91
81
15
5A
92
86
01
01
86
56
8A
16
90
48
26
82
8A
69
94
61
85
8A
98
A6
A2
9A
61
A4
11
18
98
89
65
14
66
4A
10
81
85
61
42
41
81
51
25
64
64
18
61
5A
2A
A0
56
A9
56
A9
29
A5
29
54
09
82
5A
58
94
61
02
90
48
19
5A
98
66
A9
51
0A
01
64
25
1A
49
A4
62
98
48
85
64
52
84
A8
49
01
49
9A
24
98
54
68
52
4A
64
08
52
08
41
61
55
80
48
49
AA
58
55
2A
AA
1A
84
50
46
88
88
6A
A0
82
60
01
90
86
04
A9
51
55
9A
88
A2
01
99
A0
A5
91
25
95
59
10
0A
94
01
65
45
94
12
6A
98
25
49
29
9A
41
99
45
8A
96
44
A9
85
A9
85
52
0A
19
09
88
A4
40
09
52
84
80
49
82
84
86
16
A8
14
A9
88
40
68
16
4A
55
65
65
64
86
42
28
58
89
9A
94
48
65
88
01
50
14
08
88
45
40
28
60
40
68
28
64
A8
24
58
82
1A
A4
08
90
45
18
26
82
08
69
46
04
00
08
A2
84
0A
9A
05
80
94
04
92
52
88
48
50
A5
2A
A1
A5
80
A2
54
60
20
24
A4
04
91
64
10
82
61
08
00
48
A1
10
10
25
2A
84
01
14
40
82
10
60
A1
11
50
14
46
4A
14
A8
28
88
A0
61
65
4A
61
55
99
A4
20
49
92
00
8A
01
08
4A
54
6A
46
91
A4
A0
26
81
5A
49
19
5A
52
62
84
6A
16
8A
28
92
25
A9
91
96
45
A2
86
62
62
46
44
25
61
92
64
46
58
68
12
A5
40
A9
62
96
44
A2
16
64
58
12
00
88
24
A1
8A
0A
28
89
92
2A
51
92
62
06
94
19
62
12
69
92
5A
66
12
84
69
46
88
54
98
85
54
68
00
81
58
58
6A
68
29
40
60
61
20
59
04
88
99
90
20
41
4A
92
62
62
9A
59
0A
98
A1
08
54
99
95
A9
88
86
A4
99
25
89
29
A4
A1
40
26
68
55
92
89
16
84
22
16
04
A8
41
05
16
48
A6
62
96
A4
80
40
A0
91
92
A0
56
60
54
96
44
25
21
98
52
A8
55
11
02
99
05
25
01
10
42
16
14
85
16
6A
55
91
48
02
51
15
28
65
15
1A
91
A8
44
28
4A
62
95
54
A2
69
41
64
9A
16
85
0A
69
68
A6
A5
99
96
46
A0
68
A9
16
64
A1
96
42
56
19
2A
94
A9
55
A6
66
85
A9
A4
85
A1
AA
22
65
99
22
58
95
94
49
84
01
6A
54
09
15
64
54
19
21
46
46
28
A6
96
88
90
49
9A
51
51
4A
A6
A9
91
55
86
68
52
2A
A1
95
09
99
11
5A
56
58
A5
04
94
A4
40
08
20
69
85
84
61
00
0A
28
2A
40
81
28
A1
22
2A
24
18
08
90
94
06
15
08
12
19
61
12
48
50
08
00
0A
60
00
90
49
14
86
18
92
20
51
89
A5
42
28
62
68
84
42
21
40
5A
84
A0
0A
48
24
88
28
00
14
15
A1
51
69
0A
98
90
20
A4
22
01
18
85
61
14
40
98
8A
25
9A
00
20
64
0A
1A
86
18
84
12
A0
A5
20
28
20
15
A0
11
A2
98
2A
04
01
59
46
16
2A
25
8A
41
62
90
5A
9A
05
AA
48
65
5A
99
02
55
65
A0
58
66
A1
A9
40
68
6A
68
65
90
96
59
88
96
5A
25
68
60
85
05
A2
12
59
15
80
48
02
A1
48
16
51
A6
06
64
52
54
55
08
49
6A
80
08
5A
14
80
10
96
06
45
41
56
2A
09
52
65
95
29
50
48
8A
58
62
86
8A
AA
49
19
11
2A
88
20
1A
62
42
94
26
12
18
69
11
20
54
05
04
88
21
A8
A5
A0
48
89
0A
08
1A
A0
24
59
0A
26
45
18
54
94
24
14
96
86
8A
4A
06
08
24
86
65
90
4A
06
55
56
66
A0
26
28
42
46
66
69
26
A0
91
09
20
9A
29
59
09
2A
95
A2
A2
21
99
8A
1A
15
86
96
A6
81
16
4A
01
91
94
85
26
41
46
80
65
26
89
24
29
A6
84
16
14
A5
96
69
9A
92
92
48
2A
65
19
A9
11
24
56
86
55
55
22
85
9A
22
91
05
00
9A
64
58
8A
55
59
66
52
56
40
60
80
A0
A1
51
09
64
2A
46
89
99
A2
96
45
A8
55
89
A9
25
64
49
52
49
85
15
12
05
69
4A
16
65
16
10
50
18
68
6A
22
A4
96
11
55
69
80
A0
A1
AA
59
46
58
5A
82
A5
12
61
49
4A
04
49
06
98
5A
89
59
61
9A
82
84
01
6A
A1
01
26
A1
49
4A
10
91
A2
19
52
18
80
48
9A
86
58
00
24
20
A6
51
05
04
00
00
88
1A
26
41
20
59
50
98
49
A9
45
61
52
09
84
45
48
19
A8
00
26
A0
4A
82
86
0A
AA
84
64
5A
44
A0
40
94
58
12
6A
A6
26
A0
02
48
A4
2A
6A
08
86
14
20
96
A6
18
19
22
50
59
82
94
26
80
A8
22
42
16
14
A8
01
61
19
21
1A
6A
59
A1
20
68
22
99
16
95
14
82
1A
84
89
8A
98
5A
65
56
A9
04
58
86
18
84
6A
52
A5
A2
09
14
59
68
86
06
16
26
98
66
92
95
92
59
8A
0A
25
86
44
58
99
0A
66
91
09
52
59
92
5A
A5
18
2A
96
22
55
49
11
58
14
90
A9
84
18
50
56
04
4A
09
02
08
48
98
29
60
18
50
89
98
26
21
56
92
09
89
01
50
42
10
96
44
45
28
A0
42
A8
8A
19
42
A2
AA
62
64
42
40
4A
69
40
A0
11
68
A8
96
81
26
28
15
49
40
A0
09
96
01
24
69
42
91
50
01
6A
41
26
5A
48
61
84
4A
29
98
26
00
61
6A
A0
6A
49
24
96
A6
01
80
81
A2
69
01
06
68
15
41
A6
22
94
10
08
11
92
A6
A5
92
29
92
29
0A
16
66
A0
AA
81
86
29
01
86
0A
81
A2
15
25
89
5A
22
54
15
4A
48
A0
59
59
8A
0A
AA
61
26
8A
45
55
82
52
22
08
A9
52
A0
88
52
16
09
21
40
16
88
95
49
6A
44
44
82
69
A5
5A
A5
58
60
A8
5A
54
15
A5
5A
61
95
99
52
61
90
A8
25
99
50
81
41
99
A5
46
14
09
95
15
85
65
92
00
A0
4A
68
18
A6
96
42
18
66
10
49
6A
58
2A
10
01
41
62
41
0A
90
16
62
48
A2
A8
01
69
08
10
68
00
69
05
49
05
41
15
14
8A
64
54
18
66
90
88
80
45
49
90
A1
08
11
28
56
59
06
62
11
58
04
48
80
48
05
86
A0
46
6A
00
61
14
08
29
11
68
58
91
20
40
29
91
19
44
40
88
46
09
09
89
16
06
06
64
92
48
80
88
05
5A
49
A6
25
52
52
10
06
25
89
96
22
A6
09
56
28
55
21
A2
99
0A
12
65
16
05
98
A5
19
59
12
96
56
1A
50
96
66
9A
80
92
51
A4
12
A8
85
82
48
A5
09
26
54
92
04
56
5A
8A
A1
52
06
90
92
84
45
92
A5
55
82
9A
92
2A
90
64
58
9A
A4
5A
85
A2
20
58
8A
A0
44
45
24
11
5A
98
A9
86
A2
42
21
A4
48
92
45
85
42
65
A1
A5
2A
94
01
59
14
58
06
54
05
94
98
24
60
61
05
54
22
41
55
89
2A
44
95
02
1A
69
69
02
55
51
0A
58
AA
45
26
62
20
94
90
60
01
11
19
04
45
24
09
82
4A
28
A2
84
05
84
58
14
29
91
1A
9A
98
8A
9A
04
22
19
A1
44
29
44
58
90
6A
2A
8A
1A
1A
42
61
A1
44
96
6A
08
24
52
94
0A
10
26
44
85
20
19
65
95
05
16
20
84
16
51
09
55
49
40
96
55
19
62
22
25
95
A5
46
A1
65
91
42
21
09
01
82
24
95
16
A6
A4
62
49
91
91
AA
94
42
A2
89
9A
55
15
90
94
91
20
09
8A
09
80
45
A2
88
20
A6
51
8A
08
90
02
18
A4
28
6A
15
A2
5A
95
06
26
22
44
22
85
A4
A8
45
28
58
89
AA
95
1A
5A
55
6A
1A
22
09
21
86
98
85
15
2A
05
2A
91
19
AA
0A
8A
4A
95
56
10
85
58
14
01
06
22
61
92
21
80
98
10
00
18
18
45
4A
29
61
01
80
65
02
11
00
8A
82
45
98
01
05
08
85
88
00
A2
84
10
40
99
44
20
08
22
6A
9A
00
20
12
40
40
84
90
21
95
A2
04
64
80
08
61
40
0A
A0
8A
20
00
48
98
AA
20
05
02
68
00
09
40
18
69
15
48
29
10
06
48
1A
14
69
58
58
16
A9
55
A6
88
14
48
6A
1A
61
56
A4
26
AA
62
AA
A2
12
80
9A
94
50
89
15
A6
66
94
59
4A
48
84
25
06
58
A6
01
82
06
25
55
84
41
A5
88
55
09
19
48
65
48
95
6A
02
96
88
49
81
A1
A5
6A
9A
66
26
96
A5
A6
0A
A2
42
01
A5
86
86
A8
09
19
85
26
88
59
A9
06
61
64
21
08
A5
20
62
21
64
8A
11
65
01
29
00
66
19
60
48
6A
02
19
A1
82
22
91
04
95
06
26
91
A5
51
16
A8
AA
64
61
08
69
2A
A5
A2
54
59
68
A6
55
AA
94
51
56
00
48
21
A5
AA
A2
12
60
08
A8
12
55
61
90
29
9A
A6
65
A8
65
25
96
2A
40
14
61
25
05
A9
A8
A1
A4
A9
A1
95
96
94
A2
55
95
15
56
5A
50
A1
85
48
55
A5
41
A9
5A
65
86
05
A4
54
69
26
66
61
84
95
29
42
29
18
A5
19
A5
56
56
52
65
1A
45
52
4A
15
9A
66
9A
55
A6
99
81
29
56
A9
A5
64
A5
01
28
A4
49
85
58
55
91
82
90
89
AA
40
A1
81
02
61
52
94
A1
84
9A
18
41
98
A5
48
AA
90
46
10
12
14
55
16
65
62
AA
21
55
A5
26
2A
69
2A
68
4A
94
12
85
A4
80
85
11
A0
20
A4
80
60
40
A8
65
10
58
22
A5
28
90
81
1A
1A
24
58
A0
61
A0
A4
0A
21
10
51
21
22
24
84
52
08
88
09
44
A4
49
40
02
20
A1
91
20
09
58
66
42
28
00
00
A2
22
41
28
66
6A
81
45
90
10
11
08
A4
84
29
12
1A
24
20
04
20
58
14
5A
95
00
62
21
00
98
00
40
28
94
A0
90
68
55
8A
90
91
69
98
69
88
54
2A
A2
A2
82
21
06
98
2A
10
1A
04
64
66
61
59
92
99
54
50
A6
A6
A9
66
5A
90
02
06
A6
88
82
49
88
64
1A
09
55
46
99
28
60
05
48
69
08
58
50
A9
44
64
1A
A4
18
29
20
6A
42
A9
10
52
A9
41
62
65
AA
68
59
26
16
58
90
9A
01
1A
A1
A5
4A
12
AA
5A
02
09
8A
98
1A
80
18
0A
98
82
42
A0
91
11
28
00
95
18
44
26
15
45
40
A5
11
89
85
48
06
42
8A
96
80
A2
48
96
14
11
56
A6
A9
69
69
81
90
56
80
19
88
49
99
84
A0
62
41
86
94
62
00
40
84
50
88
92
16
82
16
52
66
21
4A
20
44
48
91
52
66
00
65
16
A5
99
21
8A
44
4A
0A
66
25
11
A4
6A
89
29
65
48
24
62
14
65
55
84
29
A9
92
6A
51
29
62
94
25
09
56
06
94
26
20
11
8A
92
94
60
96
69
69
96
81
69
66
95
80
89
66
95
19
60
68
08
A6
52
61
64
9A
51
82
98
65
A6
26
99
25
18
68
51
96
8A
15
96
08
88
55
68
45
09
99
51
2A
19
29
89
8A
9A
59
8A
A9
00
A6
5A
82
50
90
A6
66
16
A5
19
12
A9
45
00
90
A5
A6
9A
61
8A
15
AA
9A
99
8A
68
18
24
05
14
A0
46
40
48
24
22
21
42
98
20
2A
12
90
50
08
A6
61
98
00
19
09
61
48
65
48
0A
24
66
A2
80
82
42
50
1A
65
01
92
49
64
10
20
06
14
98
69
02
04
A4
18
0A
06
45
20
90
90
26
41
44
29
48
51
86
88
25
89
20
10
44
09
88
64
96
15
68
0A
29
00
60
A8
99
49
08
85
06
8A
82
69
45
55
51
69
86
80
62
14
81
01
60
16
A1
94
29
66
02
14
5A
20
66
A9
96
68
19
A2
41
08
51
40
82
66
1A
95
51
A8
29
86
2A
26
61
58
A5
99
A6
8A
4A
04
41
A4
A8
91
00
56
01
86
61
84
42
55
98
8A
12
84
0A
65
A2
A0
A6
49
AA
01
51
A0
05
51
05
00
62
88
21
68
19
00
82
65
61
12
26
44
51
55
88
96
86
86
96
A2
10
A9
41
25
12
55
21
59
44
55
65
68
62
20
55
50
51
84
54
51
59
A5
80
28
89
68
A9
24
66
89
A6
06
85
28
20
28
A1
2A
56
65
66
AA
60
A9
A8
92
A0
99
9A
80
46
05
25
64
94
5A
25
91
15
20
69
89
06
A4
AA
55
55
51
A0
A9
82
15
40
26
22
A4
15
15
46
25
55
16
94
AA
2A
56
4A
88
55
85
86
42
05
86
60
58
41
09
66
41
6A
41
90
08
96
66
11
68
88
0A
9A
A9
1A
56
65
06
86
82
4A
A8
62
85
25
A5
A4
56
0A
9A
96
25
51
81
85
55
45
50
58
96
A5
A8
99
88
96
AA
04
15
16
A8
09
A6
91
00
09
A5
94
60
96
8A
22
40
10
60
09
40
41
49
84
A2
25
A2
92
44
1A
66
50
8A
A1
12
A9
0A
60
62
56
51
81
1A
4A
9A
16
56
A4
24
A4
14
28
68
8A
1A
91
12
65
10
16
08
28
69
00
20
60
61
86
28
10
00
90
26
86
08
22
02
40
44
10
00
05
A1
01
61
20
05
85
06
84
96
80
82
50
00
96
09
29
12
55
24
01
95
21
61
05
11
04
21
08
82
25
90
01
28
40
21
08
16
96
5A
52
00
96
1A
90
10
88
00
48
86
56
25
16
00
16
26
18
92
A1
60
A5
4A
58
96
84
60
84
96
16
58
91
04
11
61
15
5A
6A
9A
26
09
66
80
14
95
01
84
28
11
1A
A9
62
A4
5A
46
22
41
46
26
15
80
69
59
16
68
2A
69
58
A8
52
45
52
50
96
00
06
A8
A6
68
80
00
94
66
05
59
4A
1A
11
90
02
49
02
82
86
56
20
A5
61
64
08
6A
65
01
96
A6
59
52
A8
14
20
AA
11
80
44
94
2A
49
66
A5
A6
2A
6A
88
48
25
49
69
92
52
AA
68
68
41
18
A9
85
82
60
55
08
20
11
29
A2
00
01
69
46
90
64
96
56
81
66
60
16
25
59
29
2A
86
95
A1
06
A4
A6
1A
49
55
49
18
64
98
64
65
52
5A
0A
69
26
9A
28
10
05
58
22
84
65
68
0A
84
80
9A
29
52
5A
0A
AA
44
82
24
A6
42
64
46
01
66
46
9A
46
61
A9
89
96
21
65
54
45
9A
24
22
48
25
14
A1
AA
49
91
AA
68
51
66
19
A2
A2
46
51
14
A1
29
02
52
05
98
96
26
92
19
29
2A
86
92
A8
09
9A
65
00
61
56
98
90
91
98
61
68
55
65
51
98
1A
A1
51
18
A0
96
A6
46
54
01
42
56
48
69
9A
59
0A
01
49
85
90
21
51
94
65
25
14
64
18
6A
99
1A
21
46
95
29
29
A1
65
28
66
16
24
82
29
91
66
65
06
AA
89
45
66
80
10
45
50
20
89
A8
95
04
91
89
55
42
66
10
92
A2
15
91
24
44
08
45
44
10
15
12
90
01
12
00
88
99
54
11
08
02
90
10
84
08
88
61
19
90
05
68
24
8A
6A
42
51
40
44
02
A4
64
A4
85
94
14
84
52
45
52
18
91
95
50
00
42
51
95
84
29
04
24
10
A1
22
A0
A8
A1
20
A1
10
4A
98
45
98
89
65
A9
08
AA
A8
65
A1
52
58
26
25
88
84
09
42
9A
12
69
AA
99
90
A4
51
51
AA
89
84
16
95
14
16
A2
25
86
49
A8
56
0A
45
15
26
5A
05
21
A8
94
62
49
A6
29
26
64
62
25
94
92
11
95
1A
42
54
16
19
8A
05
11
16
62
66
65
A1
65
2A
A8
46
65
15
4A
49
00
45
58
29
05
9A
6A
A8
01
A5
8A
56
61
11
10
46
A0
12
91
00
12
98
82
81
58
44
41
A0
42
99
01
A6
98
12
09
52
4A
02
58
46
65
29
92
20
A0
19
29
99
AA
02
69
48
89
84
9A
56
A9
52
A2
66
52
06
02
25
5A
15
51
6A
48
5A
44
9A
82
16
11
10
50
10
00
A0
94
51
10
A5
49
50
A5
25
9A
96
56
95
29
91
25
80
99
64
00
84
41
48
06
86
AA
45
25
A8
94
22
40
A6
A2
56
26
01
A0
95
92
11
85
56
55
8A
80
AA
A6
A6
14
99
54
18
48
AA
99
AA
A9
8A
26
51
69
50
62
89
50
45
6A
A9
58
45
26
09
49
49
8A
64
05
A0
A9
81
55
55
86
52
52
95
A4
40
66
26
51
40
54
28
96
A2
5A
6A
66
61
60
A9
55
A1
54
55
AA
A5
66
04
49
14
66
69
26
A8
05
41
59
45
A8
15
66
26
92
19
51
88
04
88
A4
12
9A
25
05
24
90
80
44
A9
A8
99
98
01
28
14
12
64
44
08
12
09
4A
81
28
25
28
64
45
81
50
92
60
66
49
42
24
8A
46
86
A9
40
90
89
40
06
91
1A
00
21
84
60
66
65
98
48
20
05
44
25
88
81
95
98
5A
40
92
10
00
65
90
A8
84
95
A4
88
41
41
01
9A
65
9A
50
00
40
04
19
64
02
24
08
41
14
0A
0A
A1
AA
01
98
40
AA
92
11
94
28
4A
56
11
A8
A2
54
9A
98
61
94
64
5A
69
A2
16
65
2A
09
16
A8
A6
61
80
A2
2A
9A
22
19
29
66
4A
51
22
26
21
99
1A
19
94
29
28
99
90
8A
11
58
08
62
88
56
A4
26
60
24
19
9A
6A
08
A8
69
46
99
51
1A
20
A6
A9
16
26
A8
4A
40
60
11
22
91
6A
A8
09
06
86
50
6A
95
42
41
69
08
94
44
1A
60
45
55
16
25
59
00
A9
40
24
A4
15
58
04
20
84
96
91
9A
A4
A5
56
86
60
22
06
24
9A
96
14
92
21
A6
9A
44
86
05
49
5A
41
A9
42
95
5A
09
60
92
20
82
80
88
90
8A
68
90
2A
98
88
89
AA
59
A2
8A
11
69
2A
24
94
01
04
96
A9
65
68
16
1A
45
99
86
14
80
22
22
41
14
A4
68
25
69
4A
86
92
04
69
52
A9
92
59
09
8A
64
A2
95
61
94
A4
14
1A
9A
6A
A9
88
64
09
29
A0
2A
0A
56
26
98
65
51
55
5A
6A
52
6A
A0
05
98
00
21
92
02
26
58
12
29
99
96
94
AA
61
08
16
A6
A6
8A
92
55
05
14
66
08
A6
44
A5
2A
15
08
99
A4
25
A9
46
A8
90
A8
5A
88
48
12
1A
80
18
6A
64
0A
26
14
99
95
51
A1
11
89
50
98
00
A0
10
80
00
09
18
00
40
06
61
82
4A
18
86
84
1A
00
24
02
A5
24
5A
85
00
A6
18
90
11
00
24
90
15
84
01
89
28
A4
48
40
04
41
91
09
A2
14
08
A2
60
09
94
18
8A
00
66
84
58
85
4A
91
A2
85
5A
01
40
4A
81
06
88
22
A6
52
AA
49
50
46
64
90
61
22
64
41
90
28
20
14
98
84
01
01
60
29
59
19
A2
4A
54
4A
54
26
A0
20
19
96
4A
28
A2
68
44
15
64
6A
69
5A
14
55
48
46
96
21
56
88
24
94
56
28
24
99
14
10
82
06
20
25
A2
88
49
54
89
29
69
11
25
84
A5
21
25
29
01
95
A5
80
85
12
5A
64
18
99
60
A0
24
55
24
5A
8A
9A
18
58
09
95
52
88
A2
41
69
04
58
A1
44
64
99
19
98
92
98
5A
9A
2A
54
40
60
52
26
00
2A
2A
51
91
91
14
06
01
58
A2
A8
A8
A2
11
55
22
58
22
29
44
09
A9
65
86
81
A6
94
96
A2
26
49
69
25
04
6A
04
4A
28
92
94
16
66
15
A0
95
24
6A
00
69
10
10
45
96
95
41
22
16
24
62
6A
0A
A4
99
28
59
96
15
14
4A
4A
29
15
48
A9
A0
10
52
50
15
A6
61
98
A6
11
61
90
05
A9
55
11
55
05
46
55
6A
95
66
65
66
A9
5A
46
89
0A
A0
81
04
18
6A
9A
A8
66
52
19
02
49
84
A2
A1
20
94
41
60
19
66
01
1A
58
AA
59
52
69
22
9A
A2
A9
54
41
54
12
A4
94
6A
56
A8
A5
91
84
92
65
12
A6
44
50
16
68
80
A4
96
21
28
92
58
A1
85
16
81
A5
06
A8
41
82
59
55
58
A6
2A
AA
84
82
86
54
26
55
64
A6
01
10
00
11
42
A4
21
00
08
84
25
21
80
50
24
44
94
09
01
09
21
52
94
02
9A
02
01
11
69
42
A2
22
A4
50
94
52
16
56
52
14
20
A2
06
09
82
A8
48
54
A8
01
A8
A0
28
2A
28
82
28
20
82
11
06
AA
20
09
24
54
06
0A
12
A5
00
15
92
05
20
01
A2
59
65
46
54
40
51
42
92
16
64
28
55
52
49
86
8A
92
86
51
05
66
14
48
95
96
98
95
80
A6
85
20
AA
A5
5A
94
58
A1
59
50
59
28
9A
99
A8
95
98
11
96
66
A5
51
A9
55
04
A5
69
11
58
A6
A2
A2
52
55
81
59
92
00
40
04
A6
9A
6A
85
5A
90
09
82
14
94
A4
58
18
22
56
0A
19
26
A5
A8
69
6A
6A
92
66
64
51
59
A0
62
94
19
51
06
42
49
6A
99
92
54
54
6A
56
18
AA
85
20
90
80
86
88
A5
52
85
95
98
6A
06
9A
15
1A
18
12
95
A6
14
81
98
10
0A
04
6A
15
56
62
51
54
69
22
01
04
A1
95
64
A2
69
A6
19
62
95
94
62
09
80
48
84
58
86
09
66
88
42
11
84
82
05
62
56
A8
00
19
40
49
88
15
44
40
8A
6A
11
05
66
42
46
46
20
04
09
49
69
09
84
56
56
A9
92
60
5A
40
96
A4
09
56
80
96
52
85
54
89
68
96
5A
59
A4
54
A9
5A
42
A8
15
9A
16
5A
A5
9A
58
A5
94
82
59
26
82
09
16
58
21
91
9A
1A
4A
96
66
25
91
A5
98
A5
48
8A
6A
64
85
A0
22
59
98
99
14
86
66
60
21
92
2A
85
96
A4
18
49
85
62
28
81
A1
92
65
00
50
02
09
56
55
A5
6A
05
26
62
8A
11
61
65
98
22
44
45
6A
82
92
14
41
02
01
11
50
51
08
64
15
04
55
0A
61
94
92
99
91
61
2A
56
60
82
4A
58
48
24
42
88
59
19
10
42
90
80
19
14
09
25
06
12
A2
84
60
52
52
66
A4
85
25
02
21
9A
80
58
9A
65
86
51
A0
66
08
54
02
61
54
84
12
04
22
11
94
A8
25
0A
A2
61
80
04
9A
98
11
14
11
66
51
24
01
99
15
08
95
6A
08
90
4A
11
A4
69
92
85
64
4A
54
28
08
86
91
8A
15
08
51
84
65
A2
98
A2
09
52
29
08
A8
41
68
85
86
69
25
0A
55
2A
85
AA
56
55
20
92
81
42
56
8A
66
26
04
4A
11
85
19
91
A8
80
A8
90
89
24
51
A6
00
10
6A
90
10
16
21
18
96
0A
20
59
A1
02
46
A5
00
A9
51
65
66
69
92
81
29
65
26
96
99
95
59
85
65
64
18
64
91
29
A6
61
84
5A
18
05
98
8A
A9
40
25
A1
58
45
5A
85
54
86
92
5A
1A
92
A6
69
11
51
69
19
66
94
2A
49
96
9A
A6
A1
06
4A
5A
95
58
48
21
50
29
12
49
06
59
41
96
45
04
21
94
14
A0
52
56
8A
45
06
A5
09
A9
56
AA
05
AA
61
49
84
69
A4
48
99
A4
18
10
86
A6
92
A1
2A
19
19
60
85
51
A5
6A
61
02
16
A4
85
22
5A
85
06
22
89
94
96
96
56
68
16
58
58
45
98
25
94
05
19
55
69
95
06
18
29
56
59
55
66
05
1A
A5
A6
4A
2A
66
62
A5
49
95
A1
66
6A
04
52
09
A4
12
21
85
A2
65
21
11
48
A5
81
A8
60
06
6A
6A
6A
08
16
46
A9
99
2A
56
94
59
16
00
19
99
08
54
42
55
55
8A
94
14
44
84
55
24
08
18
A9
11
60
62
01
82
02
60
48
88
00
85
10
15
12
A6
81
22
44
A5
80
A1
19
22
82
82
89
80
69
22
28
66
8A
88
8A
09
2A
A9
6A
AA
08
18
84
11
80
24
09
02
25
09
6A
A4
28
25
10
02
8A
18
18
80
01
25
90
28
10
22
25
A1
18
42
45
06
2A
80
4A
14
68
98
04
14
06
41
09
01
00
10
0A
09
A4
19
28
89
41
08
1A
0A
1A
26
52
12
05
A4
08
44
6A
60
0A
19
09
8A
99
9A
99
55
94
58
66
A0
44
50
4A
55
00
0A
45
61
A4
26
25
68
65
15
96
92
69
24
52
96
89
55
26
06
60
65
51
89
4A
09
A8
A5
0A
6A
94
9A
48
29
06
56
25
41
A6
25
A9
95
91
94
A0
01
46
25
60
A9
28
29
02
A9
95
66
29
55
62
19
26
06
68
20
A9
28
18
90
16
92
1A
94
00
46
58
92
11
6A
60
96
24
66
92
94
08
96
69
58
99
10
02
82
95
65
29
41
2A
69
16
6A
51
4A
15
65
09
02
44
45
44
41
A2
5A
10
AA
6A
98
A6
4A
96
90
60
84
65
42
41
61
88
A2
95
99
6A
98
40
28
91
20
66
52
64
59
A9
11
59
49
2A
58
88
22
0A
56
50
19
45
66
16
05
65
92
22
56
86
60
91
64
56
A4
29
94
49
09
A8
45
99
28
18
12
98
82
91
22
66
A1
25
60
60
42
25
66
86
60
A0
89
A9
5A
22
21
2A
61
09
62
69
A9
85
89
56
56
2A
95
5A
68
91
80
A1
6A
44
69
69
91
80
60
20
82
16
A9
80
25
64
45
AA
40
56
AA
15
6A
55
1A
89
4A
A8
09
2A
A9
55
20
98
06
6A
86
56
56
A6
56
01
08
AA
29
16
69
61
95
98
59
0A
A9
02
24
65
00
98
81
00
98
40
09
69
82
10
06
89
48
06
84
00
29
80
44
19
21
10
92
90
04
2A
52
90
80
82
85
20
1A
90
00
11
4A
18
02
61
19
AA
28
19
21
98
60
A8
94
40
90
96
40
51
49
82
0A
01
2A
50
29
14
60
A0
20
25
61
08
10
08
10
92
40
12
08
08
49
21
05
06
62
60
00
91
A2
64
26
11
A0
92
00
64
00
10
59
64
6A
99
84
69
42
61
62
51
1A
12
2A
68
90
18
04
15
12
29
A8
20
81
5A
A8
14
90
25
88
55
59
29
0A
40
9A
80
65
95
4A
A4
06
40
66
66
11
A0
40
42
96
94
99
95
54
5A
40
A5
A0
40
A5
94
41
88
16
59
89
44
2A
9A
92
A9
89
96
55
28
A1
98
61
02
1A
60
62
61
09
91
10
88
91
9A
A5
25
9A
AA
82
9A
81
16
02
11
04
45
91
A4
80
94
02
60
95
14
96
20
1A
5A
58
A9
85
9A
19
22
90
A2
91
42
12
56
81
95
84
18
65
66
62
69
95
1A
2A
19
AA
04
69
25
A4
51
85
62
11
52
02
5A
26
95
16
99
08
90
08
5A
20
91
64
59
49
9A
A6
19
56
1A
22
18
29
A8
12
A8
19
22
5A
40
48
41
51
08
A1
58
94
15
41
94
54
66
15
68
11
6A
64
61
26
15
00
A9
01
A1
00
85
69
55
59
15
51
06
91
88
58
42
89
6A
80
16
98
1A
40
99
55
9A
80
2A
95
A5
A1
58
42
99
55
49
A1
91
95
81
1A
66
62
64
80
81
01
11
21
58
92
A6
68
6A
6A
01
15
66
0A
45
69
56
5A
81
56
1A
96
61
99
91
4A
29
95
58
98
99
21
A6
44
4A
50
89
99
8A
88
89
18
40
04
A9
20
62
AA
42
00
89
44
88
01
2A
80
44
90
11
89
11
20
9A
19
05
44
88
26
4A
20
58
50
16
04
14
68
81
68
50
02
60
01
22
20
80
94
08
10
95
64
90
01
68
25
05
24
11
10
9A
91
98
28
96
05
01
68
92
00
10
00
0A
86
28
28
46
5A
68
48
44
58
45
46
AA
50
00
15
02
02
00
09
02
10
A1
94
60
41
42
04
12
90
91
68
09
00
06
82
25
41
00
04
6A
14
60
1A
15
90
2A
A5
29
A0
48
A2
A8
94
A2
89
95
61
A4
68
80
A9
95
95
68
A9
29
A9
85
19
A6
05
81
8A
A6
61
AA
65
12
95
1A
54
62
99
86
02
25
A0
1A
A0
56
06
6A
29
86
69
15
10
06
06
16
A8
21
61
56
AA
22
A8
95
56
49
62
42
55
62
65
25
92
69
66
46
28
04
92
49
60
14
19
16
18
92
0A
0A
AA
88
91
06
AA
59
1A
A2
12
A5
96
25
AA
A9
11
50
5A
86
A6
08
A1
45
4A
92
80
49
11
AA
52
66
29
21
54
10
96
21
95
A2
99
58
06
16
10
20
06
2A
50
92
40
18
00
8A
42
25
55
92
19
04
45
91
92
60
05
90
49
8A
0A
58
A5
86
90
99
86
86
A5
55
05
A8
45
09
49
A1
46
2A
26
9A
46
56
9A
AA
9A
02
29
64
8A
48
26
21
08
82
58
19
0A
1A
05
19
99
62
49
96
60
98
15
A4
0A
A4
69
60
45
1A
8A
A4
24
0A
5A
98
2A
A0
94
58
22
24
56
11
10
16
A6
6A
2A
A5
41
49
6A
56
80
50
2A
66
09
92
81
99
88
42
A6
A6
05
95
64
65
19
25
55
16
95
45
99
98
48
18
94
9A
14
22
16
62
54
98
A8
95
62
69
85
44
05
65
51
A4
60
A2
82
98
41
40
5A
02
20
20
A0
1A
4A
11
61
90
51
42
08
41
64
08
40
14
18
84
2A
18
40
62
40
9A
11
02
04
A2
90
95
94
29
41
29
68
12
A9
04
61
24
A6
58
16
88
41
18
41
A4
01
59
60
08
84
9A
88
A6
10
40
95
00
42
25
04
04
A2
84
62
00
8A
82
54
15
10
22
46
90
95
28
94
14
91
5A
85
95
A5
95
A0
40
A1
6A
2A
64
4A
12
80
A6
41
54
69
A5
59
8A
40
51
85
99
54
60
55
26
64
60
95
52
59
00
8A
24
88
82
6A
64
66
5A
45
48
A2
45
51
21
1A
18
02
A8
A8
96
26
80
69
4A
92
A9
85
8A
51
59
21
A4
A5
55
9A
62
26
14
5A
19
A0
89
24
A9
A4
14
58
5A
86
96
05
69
28
A6
05
64
48
59
48
81
61
05
49
62
82
55
52
8A
A4
12
2A
4A
52
52
14
52
91
11
4A
12
58
89
A1
49
26
55
1A
55
2A
29
85
6A
A2
10
80
15
56
92
A5
28
65
85
52
AA
46
41
68
90
10
55
AA
2A
69
A1
5A
A5
50
A1
20
81
2A
5A
A8
09
50
A0
88
85
52
28
1A
84
68
89
26
A8
4A
20
42
22
61
49
0A
56
91
5A
86
85
A5
A6
A5
A4
2A
91
44
A6
A4
48
85
08
A9
25
28
62
10
84
65
66
85
14
89
59
9A
8A
61
69
66
66
A5
00
11
AA
A2
68
58
96
94
05
19
69
54
99
55
2A
56
15
19
5A
06
1A
62
85
85
09
29
18
5A
21
21
4A
99
06
42
5A
14
61
20
5A
92
A5
86
61
60
04
49
24
01
80
69
29
69
96
90
8A
49
49
65
64
54
15
46
AA
22
59
51
94
A0
86
15
59
6A
84
80
49
25
44
A9
51
12
A8
48
84
20
48
82
48
18
49
12
02
02
40
52
06
19
89
9A
20
88
5A
05
10
02
12
19
08
8A
80
08
08
00
98
41
85
5A
58
49
09
69
10
01
48
26
19
80
86
86
20
21
82
06
12
9A
58
41
61
04
62
01
44
8A
54
0A
82
28
05
00
64
94
82
96
25
94
88
25
81
06
10
45
61
0A
A1
81
41
48
46
59
02
08
22
19
01
49
49
21
96
56
64
91
64
A9
85
22
61
95
A2
4A
89
1A
A6
46
64
9A
A9
52
08
49
66
6A
1A
5A
52
5A
15
26
01
20
A1
68
92
5A
18
8A
1A
89
95
52
28
99
A0
A6
88
85
A9
52
A1
46
55
21
24
22
99
4A
85
04
58
85
56
05
65
8A
A1
A4
68
51
84
56
00
55
8A
54
26
08
26
81
95
86
A2
2A
14
5A
92
90
84
48
A2
5A
A8
88
1A
44
64
90
41
A5
40
20
56
51
A9
94
69
06
96
24
A2
02
11
A6
68
24
61
05
19
15
86
AA
02
01
49
A6
45
1A
29
81
5A
80
A2
81
96
A4
5A
81
61
18
AA
A1
41
64
28
06
80
16
52
21
22
11
A2
94
15
A1
05
25
A6
52
10
52
5A
66
11
50
41
15
25
AA
45
60
A9
81
44
55
5A
95
A2
9A
99
24
42
89
A2
11
4A
89
A4
28
5A
80
94
15
45
82
65
18
15
81
A5
68
55
A5
99
19
15
A5
8A
69
02
61
02
21
4A
8A
99
94
99
8A
29
49
24
62
9A
81
26
66
A9
64
A8
25
40
A4
A4
06
45
9A
5A
96
95
6A
52
12
55
66
56
55
42
05
02
59
42
55
4A
92
9A
46
92
48
98
92
A5
AA
49
92
A8
61
68
1A
86
62
60
62
59
56
4A
44
65
61
99
A5
42
99
15
50
25
A8
88
99
58
20
00
00
40
06
40
20
04
25
46
10
92
80
05
A1
16
48
20
10
42
50
02
89
20
28
56
96
96
12
54
28
91
06
14
12
85
05
00
49
81
62
10
80
4A
20
00
04
21
08
61
20
21
00
65
42
08
12
41
A2
61
01
06
00
4A
89
A2
40
80
A4
56
40
82
00
10
28
00
02
80
64
A8
22
01
82
05
84
0A
8A
60
90
14
91
81
19
15
41
A8
48
29
8A
01
12
55
50
80
21
A8
98
29
A6
66
6A
16
69
8A
26
00
10
09
45
49
55
2A
94
1A
24
62
96
16
8A
46
5A
16
48
86
25
5A
14
59
A5
81
14
98
A0
8A
45
04
10
21
A4
88
65
6A
60
26
64
85
55
89
01
82
41
00
64
92
11
55
99
58
02
A5
5A
2A
96
09
A9
90
68
86
15
25
98
29
00
A9
1A
A4
AA
00
8A
14
0A
44
14
50
96
A2
A5
04
99
AA
46
66
A0
A9
55
09
04
94
92
A2
1A
9A
51
86
28
55
A5
A6
12
A8
A4
19
48
A9
A1
94
86
66
6A
66
08
6A
56
8A
A8
88
52
21
06
05
60
55
80
46
68
8A
94
45
88
48
22
5A
44
52
00
65
62
99
A6
29
66
16
28
9A
26
01
60
6A
18
A8
25
55
56
85
86
91
11
59
09
56
99
12
55
81
64
68
A8
A8
09
55
98
62
69
A4
A6
55
51
54
81
A2
65
48
59
86
95
82
A5
66
59
A1
A2
90
42
99
64
99
51
A6
66
66
62
A5
64
22
A6
52
99
06
AA
5A
19
16
68
88
45
A4
99
19
A2
9A
88
28
09
54
89
56
98
A4
A6
06
99
5A
AA
65
82
19
06
96
99
81
A1
16
48
61
A6
A6
22
94
25
9A
0A
A6
1A
91
99
51
51
10
81
88
2A
01
04
11
15
02
A1
46
00
51
A0
01
89
46
02
20
45
41
A6
58
81
82
10
01
81
2A
A5
8A
04
02
44
86
81
22
05
89
A2
24
04
24
10
12
19
42
0A
20
28
09
60
91
09
A2
28
06
22
80
86
40
28
AA
19
66
80
26
24
81
01
09
01
4A
15
01
59
91
01
A8
16
18
42
90
01
05
A1
91
01
09
64
AA
00
01
65
05
29
6A
45
01
29
0A
26
48
26
A0
94
99
05
A9
9A
90
82
56
A6
41
92
96
15
65
44
A5
A1
A5
94
54
89
26
1A
A2
9A
55
18
05
16
98
9A
61
61
16
A5
48
86
69
91
59
89
8A
10
55
16
44
2A
00
10
29
0A
94
22
44
A6
8A
A2
AA
46
A6
98
A9
94
A6
28
59
46
A6
45
A5
69
88
61
20
98
24
59
95
56
08
99
22
2A
98
1A
94
A1
46
85
62
41
26
29
66
24
64
64
24
01
24
64
29
00
15
A0
61
94
A1
25
69
64
89
42
24
25
29
58
6A
28
25
A0
85
61
90
0A
01
61
59
61
52
1A
81
56
86
50
89
9A
94
24
90
69
18
80
A2
55
84
99
22
61
60
59
8A
61
00
55
55
25
9A
90
62
A8
82
88
55
5A
26
10
A4
A8
22
61
5A
99
94
8A
19
89
95
56
54
25
A6
5A
82
05
0A
66
44
1A
99
0A
A1
10
55
99
59
91
52
90
98
92
84
89
45
25
2A
8A
24
28
19
26
14
86
41
A8
54
95
AA
05
89
A4
A1
12
6A
6A
22
89
68
06
A6
08
91
62
58
42
49
06
42
19
96
81
A6
92
16
28
51
2A
99
22
12
84
5A
88
51
9A
A5
15
11
A1
41
85
29
A5
A2
51
21
1A
46
46
92
95
82
A1
69
68
55
2A
04
69
29
A8
20
A9
40
20
0A
10
10
40
20
82
12
28
21
06
41
06
00
06
50
09
04
84
21
0A
98
46
81
98
86
09
A4
80
09
00
05
00
10
08
00
92
58
06
05
28
80
55
2A
04
14
8A
10
14
60
20
20
21
21
10
14
00
68
90
04
09
44
20
04
A2
20
26
92
05
29
00
18
51
12
AA
54
90
09
06
02
24
02
52
12
02
55
00
10
22
08
82
20
82
02
5A
08
44
9A
24
85
59
21
16
9A
11
49
44
95
06
8A
41
A6
60
85
00
65
91
99
26
48
20
A5
68
94
11
46
66
59
A9
A8
A8
2A
A6
68
A5
59
48
02
22
40
44
45
8A
9A
11
58
91
66
06
88
41
9A
A4
91
16
45
54
99
2A
42
80
A2
54
65
62
A2
16
69
62
11
54
09
A8
89
4A
48
9A
12
45
62
64
15
55
41
AA
95
26
81
61
88
10
45
08
60
68
80
A1
2A
81
29
10
A2
15
5A
0A
6A
8A
A8
A6
92
21
1A
A1
A2
86
54
94
A2
04
20
6A
8A
06
14
22
62
68
15
46
28
8A
09
A8
25
0A
09
69
6A
01
94
88
00
20
90
15
26
61
20
40
A5
56
A9
AA
08
55
00
20
85
61
56
46
01
69
28
A2
52
05
04
65
16
A1
26
02
81
15
16
09
55
A8
99
96
50
16
A1
05
2A
49
85
95
91
86
22
9A
22
40
68
A4
68
9A
95
28
60
56
A6
AA
84
A8
69
16
89
A4
1A
66
AA
A8
58
96
91
49
A6
6A
60
65
A4
12
06
42
95
69
6A
A8
0A
0A
85
95
11
68
54
14
66
69
66
04
89
86
48
91
69
A4
56
AA
80
14
42
65
28
49
5A
88
96
6A
52
61
A9
28
69
29
09
29
19
01
05
2A
A8
99
55
91
99
AA
2A
02
9A
09
00
41
04
11
04
A9
AA
80
02
15
50
10
18
29
01
15
84
29
AA
1A
02
61
12
59
29
00
A0
48
A9
A9
2A
19
14
24
41
0A
4A
82
40
56
A5
69
10
94
41
16
10
25
51
50
29
20
02
10
08
64
41
56
40
9A
4A
AA
10
08
04
9A
81
02
26
00
04
81
20
59
88
64
85
05
5A
28
A0
10
94
90
64
60
0A
A2
12
4A
A1
61
02
44
44
96
45
12
14
29
19
86
05
41
16
69
45
24
18
18
56
99
A9
15
19
A5
A5
29
64
26
51
64
68
09
5A
21
86
11
99
61
04
AA
58
96
11
16
89
6A
42
41
80
2A
66
84
82
58
06
26
80
16
89
80
92
01
01
65
55
88
22
64
45
6A
96
45
A2
58
9A
96
42
46
55
A6
99
90
52
85
58
A4
A4
91
88
29
29
25
58
2A
81
96
54
91
A2
66
58
04
5A
0A
22
6A
4A
1A
86
95
86
06
94
0A
A1
15
62
2A
62
A4
0A
89
88
51
54
29
95
59
A6
6A
16
50
59
AA
68
09
09
65
A5
65
59
9A
12
95
1A
22
15
0A
91
46
99
15
14
50
15
46
46
81
99
91
58
05
12
85
AA
84
9A
A4
41
6A
26
42
22
9A
29
04
29
1A
16
48
4A
A6
59
55
51
16
84
9A
91
08
62
86
99
9A
59
18
95
24
24
91
22
28
46
29
59
09
19
14
A5
66
66
21
18
58
08
64
69
92
98
0A
51
A8
69
84
19
94
29
20
96
15
00
19
AA
01
A9
69
28
99
46
89
95
28
59
A5
A5
68
46
95
4A
25
A2
49
44
59
86
94
81
90
62
68
51
AA
65
A6
46
01
62
A9
01
16
84
62
45
65
44
51
16
40
91
85
28
16
61
86
01
58
91
0A
6A
89
AA
46
49
81
28
60
06
88
95
04
84
29
A1
49
86
44
90
02
44
60
94
99
21
42
88
28
94
1A
40
4A
A5
00
80
05
94
80
40
14
85
92
92
51
91
24
1A
49
06
89
09
29
21
A9
02
10
88
62
10
40
50
29
20
68
94
41
85
A1
6A
24
80
98
50
20
22
25
40
20
08
A5
66
01
98
84
99
28
89
00
04
92
41
1A
A9
06
01
49
51
4A
A0
99
26
24
A4
49
69
12
09
9A
84
61
52
A9
98
AA
29
6A
5A
26
12
48
4A
15
16
86
96
20
95
60
4A
68
22
A5
8A
40
69
AA
64
45
21
80
92
6A
54
89
92
58
26
A4
A0
A6
12
6A
28
18
11
11
98
A8
99
69
A9
51
62
94
26
49
19
24
20
50
62
A2
46
19
26
26
58
59
48
56
64
50
04
64
02
01
54
51
1A
29
48
48
88
05
56
14
5A
24
06
10
10
12
51
19
12
49
90
92
A5
0A
24
24
50
9A
0A
82
A1
55
98
A6
10
44
AA
9A
A6
44
90
9A
41
88
9A
46
22
04
41
9A
99
01
08
55
88
A6
15
12
24
50
A2
29
69
20
54
A0
5A
65
29
40
01
41
49
24
99
50
A4
89
88
10
A9
65
25
11
99
56
06
10
81
6A
16
02
91
01
89
21
20
96
41
AA
49
91
98
55
5A
68
85
96
94
44
56
46
40
9A
66
51
46
A8
15
25
44
A0
A0
1A
42
AA
56
21
15
14
16
88
66
59
22
55
24
2A
29
04
20
20
A8
66
85
16
60
24
42
14
44
99
AA
84
16
5A
80
85
28
02
A8
AA
A8
A2
A5
98
65
45
51
58
04
04
2A
61
58
66
62
28
99
09
54
59
95
82
A4
89
25
65
11
05
A4
84
49
45
99
58
25
54
58
48
15
60
81
88
84
11
50
AA
84
58
40
09
A4
01
58
9A
45
10
21
20
82
94
81
00
46
02
46
68
01
19
61
22
6A
14
51
19
58
4A
59
51
46
68
8A
08
69
94
61
01
92
8A
92
96
68
80
01
14
88
02
A2
44
98
96
81
44
49
88
11
11
04
64
08
A2
08
06
A0
80
26
88
50
44
29
00
45
11
21
A1
60
29
08
61
92
01
02
01
00
45
40
91
19
96
A6
86
52
A0
06
89
40
60
A9
51
A5
90
A6
11
A4
2A
80
A6
64
A2
95
86
26
99
55
61
14
64
69
19
A4
26
09
66
90
9A
52
A6
A0
05
92
06
A2
61
64
24
A8
51
44
14
5A
89
94
00
5A
92
12
68
2A
A5
69
6A
A6
11
90
1A
0A
99
A9
86
16
89
8A
6A
98
9A
A6
A2
95
59
A1
42
A0
15
4A
A5
99
2A
0A
10
69
21
24
06
95
20
80
90
16
44
10
52
48
21
66
88
54
60
A2
20
16
55
98
82
40
80
04
69
52
92
49
00
95
48
8A
51
49
21
6A
0A
29
15
12
65
95
01
45
26
A6
A2
66
96
29
16
A1
29
29
05
A0
41
95
96
1A
92
69
92
96
95
48
48
A1
6A
54
12
40
60
51
49
96
59
81
6A
58
01
00
41
61
01
09
2A
10
62
62
69
94
68
48
20
84
A1
49
54
55
49
86
21
A6
01
2A
02
8A
45
84
06
94
44
A4
A6
8A
85
8A
21
49
80
49
98
68
A5
52
61
68
AA
6A
5A
96
14
5A
A9
91
51
62
89
96
42
95
45
56
48
44
90
92
45
94
49
90
16
45
52
62
A2
85
A6
95
21
18
A1
82
85
42
AA
96
A9
A2
40
14
62
51
22
A6
92
92
A6
19
69
59
62
89
8A
55
20
66
66
86
20
95
A6
50
A1
41
44
86
98
51
86
65
19
09
82
0A
00
11
08
44
82
85
21
92
25
28
A2
60
88
09
26
81
80
89
60
09
06
20
90
04
01
61
0A
A0
0A
0A
41
8A
89
41
80
06
51
82
94
00
A6
84
62
61
18
82
60
40
A4
18
81
80
45
68
04
44
62
89
2A
24
58
86
50
25
54
91
96
08
40
01
01
2A
81
54
A2
41
49
45
02
8A
0A
22
29
88
59
04
90
10
45
8A
A1
24
89
61
84
58
A8
50
5A
2A
14
28
64
24
91
95
45
A5
90
16
61
56
A8
AA
59
81
1A
99
90
59
20
95
4A
89
82
85
64
21
0A
5A
20
A9
61
14
55
02
25
49
88
65
88
25
AA
12
08
84
20
10
66
58
65
0A
40
86
20
9A
64
19
82
5A
12
9A
29
5A
44
69
90
10
92
A6
65
85
9A
09
55
66
52
08
19
64
18
A1
11
11
54
61
A8
8A
61
08
A5
95
99
48
61
A2
09
24
91
12
5A
46
54
95
69
01
A5
62
80
55
25
60
9A
44
86
58
80
2A
50
A6
0A
02
99
A6
69
96
08
A4
98
45
A2
05
55
80
AA
20
55
81
40
A0
4A
5A
15
41
00
A8
8A
51
89
95
42
A4
AA
45
84
45
50
8A
51
A6
56
05
48
81
89
2A
0A
66
84
59
62
46
05
A9
A9
6A
48
92
28
08
A0
96
58
92
26
06
84
A8
90
2A
68
61
26
56
69
A4
A2
2A
98
AA
A6
A6
56
16
68
0A
6A
59
06
46
58
19
A5
01
A9
AA
16
90
9A
A1
52
90
28
48
61
05
41
99
86
95
45
A0
45
69
8A
A6
90
A5
85
54
6A
69
A6
A4
64
99
A1
82
91
85
AA
21
65
99
00
96
22
16
06
02
91
A6
95
82
6A
98
18
52
69
A8
9A
02
A8
44
40
88
02
05
86
00
AA
06
02
00
A8
86
42
19
00
A2
24
66
04
61
08
15
49
15
54
86
9A
95
04
42
24
02
15
49
00
9A
06
00
0A
4A
01
02
42
11
52
00
42
92
81
00
82
80
4A
45
42
88
06
21
A9
02
A0
8A
A9
24
55
10
62
29
56
41
50
95
22
84
61
21
A4
80
05
84
86
10
92
09
A0
99
90
95
16
00
0A
0A
64
58
04
82
08
84
6A
18
A9
42
56
85
15
22
19
41
1A
98
A5
86
98
25
92
21
58
88
65
80
90
84
59
69
99
69
99
02
19
89
89
46
55
45
92
46
6A
89
A1
A5
01
26
51
21
02
60
65
19
81
A5
6A
64
60
2A
50
16
49
1A
AA
86
55
12
68
92
89
94
81
56
15
11
96
69
58
9A
45
26
4A
01
09
1A
64
A5
A9
41
96
52
0A
68
56
20
01
06
21
02
25
46
15
64
91
16
14
19
06
2A
5A
56
06
A1
10
92
01
10
18
12
49
9A
86
25
A6
8A
25
89
02
20
44
45
80
65
06
52
45
A5
9A
98
69
54
96
29
06
09
51
98
59
46
01
66
66
A8
88
14
50
28
42
60
25
98
08
0A
26
2A
69
05
64
61
40
A0
09
19
A9
5A
51
69
A8
21
10
84
66
A4
45
A1
AA
08
81
AA
16
AA
65
65
A1
A6
A1
24
A9
46
81
04
81
28
40
48
59
59
89
92
11
99
55
A9
A1
69
A0
6A
5A
2A
5A
82
8A
19
10
52
29
25
45
A1
64
16
A9
52
66
5A
A1
A4
69
69
96
12
42
22
66
96
1A
88
8A
9A
96
91
0A
96
28
56
29
54
A2
94
A8
99
92
AA
69
98
55
26
28
94
52
A1
55
09
08
A9
16
18
25
91
92
98
48
66
54
05
50
A0
A6
00
A9
10
06
68
45
AA
A6
1A
A2
04
56
20
61
18
5A
44
41
50
50
61
06
10
1A
61
02
1A
12
4A
28
44
90
08
56
46
40
42
41
82
01
50
24
51
02
A1
40
48
A1
50
12
9A
50
14
50
48
24
06
A9
18
54
02
A4
85
60
20
20
A4
98
20
21
49
80
00
81
65
90
A0
99
80
41
82
A8
69
56
66
10
98
22
28
25
40
50
11
61
9A
05
01
61
06
9A
AA
19
81
81
19
86
61
15
68
25
16
54
28
82
20
19
25
85
A5
A5
81
66
82
84
68
8A
AA
46
29
A5
98
86
46
81
64
81
21
9A
48
9A
5A
61
08
94
01
25
24
2A
21
55
61
45
29
09
81
84
66
10
18
96
29
80
5A
99
A9
26
16
A9
94
46
58
A5
29
69
26
A1
29
A9
50
96
5A
81
24
4A
1A
54
A0
29
45
59
6A
29
26
20
20
A5
08
46
25
A5
62
48
25
41
5A
81
6A
64
25
61
5A
51
A9
16
94
12
81
51
26
A5
06
14
82
58
86
04
0A
6A
A0
48
42
0A
15
08
94
14
46
69
9A
61
8A
11
45
46
09
1A
11
89
26
0A
28
88
26
09
60
68
58
A9
82
91
44
85
08
90
AA
69
59
99
81
A4
16
8A
26
02
9A
58
18
92
85
15
84
16
25
A2
25
62
80
85
25
15
2A
9A
6A
64
5A
26
60
66
A6
09
6A
A9
A1
A0
49
48
25
8A
A1
A1
49
9A
A9
11
26
68
10
25
56
84
48
66
94
96
62
99
29
95
69
49
68
11
62
95
85
61
56
21
88
21
2A
15
18
A6
28
66
1A
94
08
41
29
A9
68
66
61
A6
49
11
A2
45
66
1A
94
1A
50
56
41
59
A4
90
99
4A
4A
24
56
64
89
9A
99
82
46
68
94
48
95
45
68
10
90
51
01
24
41
46
64
0A
12
A1
92
4A
28
05
28
18
25
00
62
51
56
29
52
88
55
54
29
41
82
46
49
59
58
99
A0
19
81
26
88
A0
56
A4
68
14
48
4A
A8
48
02
80
16
81
6A
84
8A
5A
21
51
60
11
20
08
82
A6
40
A8
12
61
45
A5
68
00
81
21
85
51
81
A2
11
58
60
88
05
50
54
80
29
98
88
90
AA
19
46
A9
66
A0
80
94
91
A1
AA
A9
92
55
25
04
69
41
A1
52
81
48
50
A6
58
46
A1
55
60
69
88
22
19
55
9A
A1
51
A8
90
09
AA
52
98
99
98
40
95
01
02
42
50
62
69
29
92
68
80
88
A8
A5
00
90
9A
18
64
62
21
66
01
90
2A
26
08
A9
64
54
10
82
51
15
82
94
66
42
4A
89
49
91
16
A0
1A
51
11
82
69
1A
41
22
22
62
1A
62
18
12
A8
A5
95
66
69
A1
90
88
A9
A0
52
55
64
58
1A
60
AA
61
44
95
51
14
41
59
98
56
81
AA
50
42
8A
25
62
08
8A
96
94
51
91
68
91
49
89
11
08
21
99
64
21
58
55
66
19
21
62
59
02
1A
15
55
00
85
84
54
50
66
10
65
A5
56
16
A5
AA
54
A5
11
90
44
90
86
A9
15
2A
95
95
04
04
69
A5
04
5A
88
62
92
46
48
88
50
06
1A
84
52
45
60
56
4A
84
96
A0
01
85
9A
02
86
66
69
2A
45
15
A1
84
A2
40
AA
96
65
68
84
A5
84
40
A2
AA
8A
96
89
16
20
80
26
18
45
65
92
96
91
61
16
25
6A
14
12
94
99
61
49
56
29
50
6A
5A
29
64
A0
28
95
A9
21
42
A8
A5
01
95
41
2A
81
91
0A
66
88
4A
01
28
6A
84
81
90
06
26
60
91
46
88
10
02
80
84
26
1A
10
12
60
00
15
A9
28
A4
89
20
19
55
A5
54
00
20
64
84
48
44
6A
A6
48
62
65
9A
A5
24
96
21
00
12
22
25
84
48
00
1A
64
A1
49
01
10
80
14
02
44
1A
92
26
58
81
28
89
9A
48
10
41
82
01
A1
14
06
82
40
2A
40
89
19
A1
62
0A
20
46
01
52
21
A5
A5
A5
99
18
46
00
0A
52
55
A0
26
50
66
59
24
8A
69
48
A6
86
A2
86
48
58
20
69
49
68
69
A6
61
15
10
69
5A
18
49
55
26
49
85
AA
65
08
2A
06
44
18
90
56
16
05
40
68
60
09
56
89
51
5A
45
A5
A4
59
18
4A
16
21
80
9A
82
14
44
49
A6
16
52
51
88
66
19
80
92
45
91
19
AA
66
84
62
81
AA
26
99
A0
06
62
4A
49
06
14
9A
81
98
98
41
24
A1
86
A4
66
18
18
94
84
89
15
9A
05
02
A5
64
46
46
A0
06
89
41
46
04
66
49
06
A5
06
65
65
92
66
16
49
A2
54
90
95
A2
40
20
45
16
02
12
40
12
58
A6
A4
AA
05
66
89
65
55
95
42
2A
52
48
20
60
24
22
A4
20
24
89
4A
92
4A
66
68
98
14
01
61
01
24
24
96
88
A6
40
99
50
55
50
A9
1A
49
08
5A
6A
94
55
24
16
62
12
50
AA
A0
54
68
54
09
86
56
56
69
1A
16
10
54
A6
A0
0A
52
98
A2
44
18
41
A1
4A
99
92
94
06
45
A5
96
99
16
42
21
A8
A6
9A
86
86
1A
A9
96
41
1A
95
52
99
91
16
1A
A4
58
A1
24
56
85
09
0A
66
2A
21
9A
55
66
65
4A
22
84
52
20
66
64
AA
62
A2
AA
2A
29
65
62
20
40
94
89
2A
51
06
02
40
51
40
69
82
81
64
44
22
A1
82
05
49
11
42
04
06
98
49
01
41
58
12
A4
12
49
A4
10
80
40
A6
44
5A
AA
06
00
00
65
14
44
A8
80
60
A0
68
A0
08
00
64
54
00
94
22
28
60
04
49
66
45
56
48
01
14
80
08
01
11
05
14
01
85
8A
01
60
45
82
24
A2
68
2A
94
A4
11
A0
28
09
02
01
A9
18
16
25
A1
69
82
00
15
55
91
20
56
80
98
89
66
4A
44
56
5A
45
48
85
59
80
64
05
69
0A
52
A4
54
65
91
82
84
61
16
92
A9
92
62
51
09
8A
92
51
04
81
A4
90
8A
48
86
95
04
59
41
85
21
48
99
5A
89
62
66
98
56
05
98
2A
24
8A
98
A8
84
65
59
59
94
89
80
88
52
46
2A
55
56
45
81
6A
24
00
25
41
1A
A9
64
82
1A
26
9A
A0
01
20
96
5A
01
0A
AA
6A
56
82
09
64
0A
94
05
45
99
58
86
66
68
12
60
04
A8
41
A5
A5
98
54
56
40
59
4A
25
1A
58
26
81
15
9A
29
0A
98
A2
15
10
5A
98
15
56
46
41
28
90
82
60
85
81
96
84
55
15
A9
14
28
48
58
05
04
A9
02
A5
25
40
45
25
11
8A
22
A1
12
08
25
61
1A
91
4A
04
54
56
56
64
05
65
A1
91
0A
A8
29
41
29
85
16
A1
22
86
69
56
50
6A
A5
11
8A
6A
86
80
42
0A
60
18
A5
A8
61
55
28
65
51
9A
65
85
19
51
04
09
92
24
69
0A
86
2A
68
92
A5
05
69
61
2A
6A
9A
41
51
10
5A
50
A9
69
25
89
40
AA
9A
0A
5A
05
65
41
45
A0
52
06
66
86
52
91
15
6A
95
05
A2
86
4A
50
05
00
00
50
8A
82
45
62
22
00
96
86
01
02
89
05
10
95
52
20
41
42
10
48
41
00
55
69
92
82
66
42
AA
20
90
29
11
80
00
82
A9
46
89
99
62
91
44
60
41
A2
51
24
64
86
02
52
0A
2A
05
0A
48
80
A8
A0
20
81
85
45
45
21
45
82
11
2A
45
68
82
48
85
85
50
51
14
04
86
28
11
40
19
02
41
02
21
A8
81
99
96
24
44
5A
20
05
11
4A
66
21
05
00
18
90
28
85
5A
68
66
50
90
5A
11
20
99
A6
A5
28
98
54
A6
4A
51
44
52
94
9A
24
66
56
08
19
94
20
5A
2A
81
A5
45
12
66
95
14
10
06
88
01
18
18
65
22
59
88
99
05
18
52
44
94
9A
84
51
26
AA
A6
88
5A
64
61
45
10
01
61
02
21
42
18
99
85
05
A2
AA
89
99
59
85
1A
12
42
59
82
00
91
58
24
10
86
24
84
A4
26
2A
24
1A
4A
85
15
22
28
89
A4
59
89
60
66
6A
41
62
45
5A
80
29
6A
95
5A
5A
11
19
86
09
90
29
09
48
40
A5
56
45
05
01
88
6A
62
96
AA
24
59
16
6A
40
56
84
A8
68
05
98
49
06
19
58
16
84
99
91
01
5A
91
1A
54
09
99
12
20
80
A1
A1
46
5A
99
85
A0
29
04
A9
21
AA
99
16
1A
66
56
96
4A
56
A9
8A
40
1A
9A
45
56
66
A5
A9
58
6A
95
58
A4
40
08
46
18
A8
66
59
5A
56
66
21
60
40
41
69
21
60
66
AA
99
90
28
28
56
26
02
00
2A
A5
24
45
86
19
89
06
64
59
A9
48
2A
98
45
21
65
56
A4
49
A6
45
4A
12
44
29
22
65
44
2A
21
96
42
69
A1
90
51
22
19
09
09
6A
22
81
05
88
09
48
84
00
0A
99
90
98
A8
60
49
1A
A0
18
02
81
21
60
24
26
64
42
85
08
06
6A
11
25
6A
00
04
01
51
04
08
94
50
A2
66
14
92
50
00
82
81
48
89
40
0A
5A
04
20
66
20
04
44
88
42
A6
18
01
18
14
26
04
90
81
11
20
26
80
22
18
20
16
00
48
19
42
91
10
25
55
86
56
99
01
9A
40
64
05
41
94
60
66
88
99
2A
19
80
44
94
16
A4
91
A5
09
99
56
24
64
AA
94
22
AA
64
99
95
26
5A
56
2A
15
A5
69
95
12
95
52
64
A8
50
26
2A
56
86
58
81
15
66
98
85
62
52
12
56
10
89
09
6A
8A
96
59
84
44
46
A1
45
52
18
A1
98
69
21
12
00
09
66
05
56
6A
81
98
24
19
25
6A
21
A5
55
04
26
A2
66
06
4A
91
01
2A
50
09
49
29
0A
A9
A0
61
AA
14
01
29
11
A9
A4
12
91
20
9A
09
15
10
14
54
55
A2
21
10
96
48
28
51
06
15
96
64
26
14
2A
16
94
55
01
59
56
56
60
19
94
60
44
85
00
86
9A
81
51
0A
A0
58
06
96
45
09
92
60
04
10
AA
48
24
49
60
04
12
2A
2A
69
81
82
01
A5
66
89
65
98
81
65
10
96
68
52
6A
59
A2
16
10
22
66
84
29
04
69
91
A1
59
52
A6
91
60
66
A6
91
99
51
26
99
56
06
81
12
A1
9A
4A
88
95
9A
98
15
89
49
99
19
40
69
45
56
91
18
41
65
98
95
52
AA
21
69
66
60
82
69
14
46
1A
05
62
28
68
48
A2
89
A6
56
66
26
94
88
1A
91
26
2A
68
9A
4A
68
94
50
00
24
64
15
49
96
94
05
18
1A
9A
6A
96
25
28
01
44
A1
10
52
21
95
9A
51
06
08
56
28
44
58
20
10
5A
90
06
80
A6
52
24
08
04
42
22
54
21
55
54
28
10
46
49
01
14
41
16
29
84
22
49
16
52
09
28
46
05
2A
01
20
68
46
64
56
A8
64
94
08
16
49
15
0A
84
AA
09
54
20
16
99
56
20
40
81
99
69
86
99
10
0A
16
12
46
08
08
58
51
88
51
96
28
82
90
11
01
6A
11
29
26
00
12
54
11
61
11
05
24
50
52
51
85
1A
85
48
86
55
02
59
15
8A
1A
08
60
15
A2
29
55
45
A2
A5
48
24
04
45
81
18
A8
A6
55
49
59
28
84
AA
29
29
25
66
04
41
81
A1
20
95
89
15
A1
20
25
26
A6
99
86
55
50
95
86
40
65
A1
49
56
81
96
AA
A2
11
66
59
59
A8
89
16
00
62
08
00
45
20
51
12
00
26
42
55
06
15
28
24
99
2A
62
85
06
49
90
54
9A
01
81
44
10
1A
A8
54
41
A0
54
96
5A
82
8A
2A
6A
95
40
A5
A2
16
04
99
64
A8
41
59
96
1A
04
98
54
98
9A
96
15
96
2A
14
65
00
69
98
14
65
92
99
45
58
A8
02
50
59
49
21
A2
58
65
6A
6A
A2
A4
9A
1A
61
41
4A
02
A1
55
19
92
06
52
56
59
48
98
68
48
6A
21
8A
68
64
99
A6
90
92
A9
A8
61
50
59
99
98
96
9A
46
22
89
68
5A
A2
49
54
96
56
A2
99
51
24
95
9A
A1
84
9A
2A
69
6A
90
06
22
84
51
49
69
86
64
49
09
06
59
09
49
99
58
28
42
85
42
54
06
52
15
06
95
59
45
16
A4
44
A6
19
2A
A4
11
A4
A0
16
A9
19
96
41
A5
62
99
9A
89
42
80
89
AA
01
69
45
8A
68
06
41
85
21
04
48
A9
61
04
05
28
20
26
28
95
81
21
04
A1
01
A4
16
18
54
21
06
66
41
04
40
62
22
50
20
A2
A8
05
85
80
48
A5
68
00
80
18
29
00
12
42
02
44
A0
A9
A8
55
AA
24
50
45
40
00
08
88
12
01
14
40
99
28
54
4A
01
10
11
66
24
50
82
4A
4A
05
86
40
A0
42
A2
40
81
80
A2
94
86
11
41
58
6A
10
26
51
99
A9
5A
A2
68
A6
89
AA
A2
50
66
05
01
25
82
69
11
56
55
52
10
A0
9A
8A
2A
6A
54
A6
69
40
A0
AA
59
5A
09
49
18
82
06
48
26
96
25
04
62
82
A2
86
91
91
92
9A
5A
29
88
81
80
91
5A
90
89
18
8A
09
68
65
29
58
69
94
06
9A
14
46
59
19
8A
A6
24
12
69
A9
86
95
65
9A
29
26
45
69
92
04
20
45
21
20
68
81
8A
56
11
21
A6
12
5A
51
55
92
A5
50
02
A6
89
66
24
99
A8
69
54
5A
A5
A9
24
54
A6
4A
A5
61
15
16
2A
81
1A
AA
AA
46
01
5A
41
08
11
68
2A
44
09
A1
65
90
28
96
A4
21
16
95
21
A9
86
61
41
5A
58
A9
50
25
65
16
81
24
50
06
82
14
02
6A
6A
1A
A2
89
A0
05
8A
80
89
98
28
96
96
40
A8
80
46
62
AA
59
A0
11
28
14
08
14
26
8A
92
45
A5
89
55
0A
18
56
05
4A
A0
95
A9
15
92
65
19
95
8A
A0
85
96
4A
64
66
16
46
84
81
A0
14
06
A6
09
96
68
65
A9
26
58
56
66
95
11
9A
44
69
61
52
65
46
51
58
68
96
90
65
64
88
54
A6
A5
22
88
45
88
9A
12
99
61
59
4A
98
52
52
96
28
85
45
92
82
98
25
68
A8
98
41
A4
0A
41
A6
61
82
40
82
61
14
01
04
A2
88
10
29
11
A9
22
91
01
88
02
14
61
00
00
94
16
81
56
41
22
2A
42
04
18
64
16
86
84
84
40
69
49
15
A9
1A
82
12
1A
16
48
05
68
80
85
11
A2
60
9A
20
94
A5
22
A1
25
AA
05
29
86
49
95
15
A1
80
40
11
06
40
14
44
10
11
02
41
01
08
22
55
90
02
A5
A2
8A
A9
6A
00
96
16
86
20
00
14
05
5A
9A
69
