0A
22
65
12
01
A9
21
5A
51
45
05
95
9A
88
59
89
00
96
09
22
A5
96
25
8A
56
81
A2
41
5A
A1
85
A2
66
14
25
91
12
91
28
89
56
25
28
16
59
91
24
85
92
A1
A5
00
94
4A
94
10
09
19
60
51
91
66
65
1A
4A
62
15
29
1A
92
29
51
94
95
05
99
6A
91
86
6A
50
15
A9
59
61
08
A1
20
90
46
26
4A
86
59
49
69
26
29
59
A9
81
95
A6
26
16
A4
06
12
29
9A
15
01
08
65
25
AA
88
58
5A
12
29
58
49
6A
92
A9
81
A2
95
5A
04
21
08
68
98
15
A2
8A
19
55
99
A5
16
5A
6A
21
94
25
A0
52
59
69
60
24
65
66
05
62
52
52
15
55
92
59
19
9A
82
9A
62
49
04
49
22
58
24
95
4A
26
85
96
29
86
42
50
A4
65
81
64
46
05
16
00
1A
28
91
8A
65
25
46
69
A5
04
65
55
94
82
68
1A
26
05
41
A2
A9
16
42
6A
2A
45
96
59
A9
6A
1A
19
8A
A5
85
12
96
04
56
51
29
A5
99
95
59
51
56
A6
62
A2
00
68
14
56
5A
16
04
2A
59
69
49
81
A9
A2
12
6A
52
98
10
96
95
86
64
65
45
12
5A
46
66
66
5A
44
54
4A
25
9A
6A
95
99
49
25
56
86
42
A0
86
A6
80
11
A0
12
68
A5
A9
90
6A
A4
44
46
99
59
91
90
8A
48
2A
91
66
88
60
AA
9A
4A
18
15
14
02
10
59
91
26
88
A8
A2
A4
49
62
46
85
AA
18
48
45
14
49
46
A5
08
56
98
54
09
20
04
98
A6
21
A5
65
96
45
88
24
11
06
4A
54
29
81
09
06
68
65
0A
2A
65
02
95
58
92
1A
A1
A4
A9
14
56
66
22
24
54
99
96
9A
A8
AA
64
4A
05
56
51
A6
29
41
99
15
A9
56
A5
44
06
20
10
1A
91
41
24
6A
44
45
5A
66
95
A5
29
54
60
61
16
6A
69
92
99
54
A6
21
46
84
49
61
1A
8A
95
54
40
19
95
A1
08
86
98
95
2A
AA
69
8A
55
28
29
A5
AA
26
06
48
28
95
4A
12
99
64
2A
A9
5A
2A
99
66
16
19
65
25
A2
11
84
65
15
5A
25
08
44
05
26
59
A5
A4
46
5A
24
96
65
88
66
64
21
A4
95
40
22
18
9A
8A
61
1A
54
15
4A
A9
49
24
29
A9
2A
AA
A0
95
51
82
59
16
A6
62
55
58
55
20
44
99
A9
6A
02
80
95
9A
59
8A
61
A0
A2
24
66
92
16
65
A5
66
55
54
89
69
42
81
46
86
A6
16
45
45
64
59
41
19
A4
4A
5A
A8
29
55
48
56
65
A9
91
94
88
62
55
45
94
A6
9A
24
95
19
A5
22
5A
A1
90
42
68
95
40
55
5A
89
29
A6
26
69
98
26
A5
58
66
01
29
A9
66
04
15
A4
96
4A
46
94
40
4A
60
09
65
64
28
92
92
88
64
19
81
A2
54
46
56
92
96
0A
88
A6
8A
11
05
50
45
04
9A
69
A9
21
A1
A1
49
18
89
65
62
04
45
9A
69
A8
9A
84
11
99
45
22
0A
5A
A6
99
60
AA
A8
45
89
2A
26
61
59
89
58
42
6A
48
A9
92
15
20
94
29
86
28
16
04
2A
66
16
14
68
1A
40
05
61
24
29
96
14
59
64
54
88
88
85
A9
62
41
16
A2
61
02
48
45
19
05
66
8A
68
28
08
25
25
14
11
21
48
52
86
65
66
99
92
55
A0
64
18
A0
0A
61
A9
88
12
88
81
04
29
81
A1
A0
16
14
A2
95
62
06
64
98
90
21
A2
A9
82
25
52
82
56
92
48
94
91
65
50
5A
61
6A
A0
5A
56
15
65
59
56
91
58
65
A6
45
44
54
51
2A
11
59
60
89
60
82
25
A6
65
56
02
92
A8
55
4A
96
44
69
92
62
60
62
61
60
26
14
96
0A
66
51
42
4A
64
19
55
59
5A
45
88
62
2A
21
85
02
64
2A
68
64
0A
A6
60
A5
44
9A
46
06
98
08
6A
69
50
AA
8A
98
55
98
A4
68
89
69
65
28
00
68
A9
88
94
06
19
26
A8
45
91
66
A8
96
9A
2A
58
91
0A
48
6A
98
8A
09
22
58
09
08
29
99
2A
08
80
29
91
56
99
99
92
80
AA
50
A6
16
51
15
62
A1
12
92
68
14
91
95
05
A4
21
52
A5
A4
14
56
86
A2
05
96
61
46
A4
5A
5A
86
6A
0A
0A
16
58
AA
89
98
21
80
52
96
1A
86
96
95
42
81
56
25
59
95
94
46
19
01
60
61
12
51
54
62
9A
66
19
89
A2
5A
A6
21
60
81
58
AA
48
A5
85
9A
AA
AA
99
5A
68
20
4A
95
68
41
24
95
5A
46
0A
88
A2
A5
A1
18
01
92
46
54
89
12
26
99
A6
00
20
A6
56
29
96
48
61
A1
26
50
24
86
41
5A
06
60
9A
16
69
85
96
A5
88
54
68
56
92
06
65
0A
96
89
24
68
90
8A
08
51
1A
A1
85
91
99
06
6A
9A
15
52
00
22
95
56
41
02
24
20
22
98
8A
85
4A
66
6A
2A
96
05
80
80
02
98
61
94
89
A9
86
50
48
28
2A
16
1A
55
51
11
05
68
AA
42
54
94
02
A2
A9
8A
9A
26
08
64
40
15
45
90
59
59
49
54
04
5A
14
65
49
65
42
56
45
A9
02
48
19
A0
99
55
02
92
66
98
16
89
18
56
44
90
54
50
55
58
49
59
06
84
A6
95
86
16
A8
A2
4A
94
05
68
62
A0
99
50
14
55
A0
06
6A
48
94
02
05
94
59
45
90
45
84
89
68
26
89
05
08
91
5A
52
49
81
69
08
22
69
15
25
2A
58
8A
09
A9
2A
12
59
56
60
A6
20
25
46
91
25
94
01
81
A9
12
41
16
66
A2
56
1A
68
69
09
11
09
41
92
00
21
05
56
10
46
49
6A
02
5A
60
A1
91
9A
14
54
55
05
1A
1A
96
59
18
28
A9
86
65
A0
82
9A
45
01
48
58
A9
A8
41
8A
6A
4A
99
25
89
06
95
99
11
56
09
96
25
48
49
95
AA
2A
6A
65
96
A0
A4
96
A9
A9
46
89
A5
24
9A
55
61
68
0A
08
A4
15
01
A5
AA
99
9A
69
82
A1
0A
5A
00
9A
90
A8
A6
5A
55
51
58
69
A6
59
16
60
1A
48
60
25
9A
41
21
01
85
95
9A
50
59
50
60
21
AA
01
05
56
89
95
6A
64
41
65
86
69
91
21
52
86
8A
A0
48
A9
55
51
90
84
9A
A5
69
65
A9
21
85
02
96
16
54
65
6A
19
18
19
90
A8
81
86
A1
1A
08
8A
6A
86
98
11
61
91
59
24
A6
A6
68
A0
89
4A
21
52
AA
8A
22
98
40
15
25
06
A4
95
98
25
84
A5
A1
81
90
86
96
12
04
98
09
65
45
64
59
85
12
80
60
A8
64
A0
6A
56
26
66
09
04
A5
95
56
61
2A
80
01
A5
89
49
16
64
45
2A
14
52
04
91
58
84
61
64
45
9A
90
6A
5A
5A
65
55
05
52
AA
58
89
4A
5A
8A
22
28
85
88
10
86
14
6A
9A
64
01
61
28
56
A8
86
65
55
91
A0
49
09
65
A4
46
61
81
45
90
15
A9
44
84
55
94
29
51
18
14
61
59
61
56
AA
9A
92
01
98
1A
04
51
94
25
51
86
29
08
4A
A4
96
A2
42
96
15
81
80
29
A1
A1
94
52
2A
A1
05
28
64
6A
8A
5A
60
58
01
41
22
4A
08
A0
1A
61
52
99
19
59
29
84
1A
0A
4A
00
65
61
99
69
42
66
05
A9
A8
91
4A
52
4A
44
19
25
98
50
84
54
AA
88
51
94
8A
98
65
65
A6
05
66
A9
28
85
AA
92
41
08
22
61
49
01
94
89
1A
59
00
56
60
89
6A
A6
26
2A
A5
19
59
89
6A
90
A8
A9
42
56
A8
09
85
26
91
16
A2
56
A4
81
58
68
6A
A6
00
20
25
25
55
51
26
58
80
1A
19
6A
41
98
62
66
68
56
60
9A
91
15
98
25
49
21
94
89
91
29
54
1A
0A
95
24
A9
58
92
86
48
91
A6
58
6A
59
A4
65
9A
64
01
95
65
65
69
92
4A
81
88
81
10
96
55
92
02
88
69
A9
44
A6
92
15
05
19
15
51
82
1A
98
95
95
81
68
88
21
A1
05
82
6A
4A
16
A6
5A
09
9A
66
00
52
08
01
A2
56
91
61
55
81
66
59
80
A5
60
A0
A9
5A
AA
69
2A
40
8A
89
65
12
0A
1A
14
A0
0A
48
1A
16
61
69
6A
9A
51
94
A5
95
A5
15
A5
02
65
92
45
AA
46
61
88
A9
A5
64
11
29
6A
2A
64
95
66
88
69
06
90
24
69
58
69
86
40
20
A8
6A
61
86
91
6A
A8
A5
80
51
54
40
60
51
99
89
24
4A
86
A6
A1
99
55
66
49
0A
24
85
A4
54
69
55
05
52
11
2A
96
92
A8
81
24
56
25
08
19
18
14
96
55
12
28
01
10
A9
42
60
85
65
68
91
4A
61
94
49
51
52
82
9A
62
28
66
48
20
65
62
86
25
44
10
85
98
01
1A
26
85
54
AA
A8
66
62
69
16
16
82
86
40
55
48
98
56
5A
04
A2
6A
A1
40
56
A4
58
90
98
99
61
55
4A
54
54
62
24
65
56
65
62
0A
65
59
60
A5
45
11
14
AA
8A
65
49
64
89
90
9A
A4
90
9A
68
A1
48
66
50
19
A5
A5
85
00
A6
88
15
55
46
21
54
25
85
54
81
98
99
09
12
98
90
59
29
A8
4A
82
95
54
55
66
88
8A
81
A0
19
A2
41
26
A6
10
0A
16
98
9A
45
01
A9
42
29
A8
64
5A
4A
94
2A
25
45
95
61
A0
66
55
19
04
85
28
28
25
91
45
48
69
96
A6
9A
65
41
92
1A
24
46
86
22
06
95
69
15
49
95
6A
04
5A
24
40
19
24
A8
21
49
59
64
66
16
60
66
AA
68
59
28
45
02
14
66
55
02
69
11
66
45
42
82
18
A5
A8
26
69
40
99
96
85
52
95
A2
96
12
22
59
15
12
0A
A9
5A
80
8A
92
94
12
52
29
96
12
56
20
65
12
41
90
46
54
14
55
15
69
58
95
98
A4
A0
14
86
AA
95
26
65
08
29
54
AA
54
6A
61
51
91
60
A9
46
21
48
50
51
49
25
28
0A
08
09
00
45
22
68
15
A5
69
29
56
81
60
5A
9A
49
6A
41
86
11
12
59
41
90
99
29
05
19
99
6A
10
99
95
19
62
01
89
1A
55
09
29
00
60
9A
82
62
A5
08
41
45
99
86
90
95
54
22
06
64
94
20
45
28
98
94
80
59
1A
02
80
2A
AA
95
A1
48
A6
A9
82
8A
55
62
09
65
42
28
60
14
56
58
06
9A
85
16
A9
94
A6
6A
51
00
14
86
52
22
56
11
25
61
56
00
A1
9A
86
AA
82
A0
64
99
59
15
88
1A
09
24
61
89
95
06
59
00
04
92
A0
59
16
48
99
55
66
69
26
24
A9
66
56
A8
22
29
0A
A1
25
89
86
16
A2
49
96
28
96
50
48
4A
4A
29
A6
54
6A
24
61
19
61
29
A8
A5
9A
44
04
85
89
28
28
56
81
16
55
59
A6
41
92
26
A9
49
65
20
99
19
88
24
92
10
41
64
96
61
88
85
59
80
58
94
80
21
42
85
59
62
26
55
18
04
95
52
42
12
A5
52
99
A1
61
11
15
A8
58
59
2A
66
88
68
92
A5
29
81
91
85
62
A6
66
0A
96
45
AA
8A
59
4A
A5
56
89
9A
45
49
55
95
40
A2
14
49
04
98
9A
45
21
96
69
05
41
52
A5
A9
92
49
84
29
A6
6A
61
91
88
46
54
98
95
62
98
86
62
26
49
4A
19
59
66
A9
A4
06
4A
21
59
91
A8
51
16
9A
24
25
5A
99
41
21
4A
86
51
10
46
19
68
A0
94
A1
05
06
51
40
29
66
A9
8A
66
55
45
94
19
06
85
A0
5A
42
A1
92
A1
0A
AA
92
46
A8
2A
66
52
04
69
81
96
19
25
85
68
A8
A9
22
65
85
AA
69
4A
62
99
9A
5A
44
81
59
59
64
20
56
16
95
A1
55
84
99
A0
61
19
4A
98
54
48
69
65
A9
55
45
90
1A
9A
26
58
00
46
A4
81
A9
49
68
96
59
24
66
45
46
20
65
99
A2
0A
62
92
45
42
21
56
10
96
59
9A
A9
41
56
24
64
A9
56
94
49
9A
61
16
69
66
56
02
05
86
44
AA
9A
44
95
19
95
A6
81
A2
09
A0
85
04
15
50
90
A2
29
89
85
54
22
2A
92
84
A2
26
21
61
48
4A
98
48
94
94
1A
21
62
19
A5
AA
8A
86
A8
60
95
81
41
52
00
26
28
1A
48
12
95
65
4A
58
50
62
86
56
95
8A
98
11
9A
66
06
64
55
08
A9
05
09
55
54
62
28
5A
0A
66
64
65
46
46
A4
56
20
80
6A
26
62
44
4A
85
1A
4A
11
AA
66
26
42
46
49
A1
94
25
82
65
44
60
46
A8
94
15
86
94
12
55
90
94
19
62
08
A6
AA
A6
AA
96
25
25
09
9A
64
88
0A
A6
49
52
AA
A6
A9
95
9A
A8
50
86
26
65
99
14
64
19
99
48
12
50
A9
29
19
22
19
42
26
28
62
4A
19
98
10
52
14
15
46
46
A4
A6
05
64
0A
01
61
16
91
66
A8
92
08
AA
85
81
99
59
56
54
98
66
09
40
94
56
A9
18
55
62
69
AA
59
44
96
50
21
99
64
12
A2
A8
AA
65
04
AA
A4
A0
99
25
98
1A
56
65
85
A9
65
A6
46
92
99
86
62
66
99
16
86
52
51
29
88
64
21
99
61
90
95
59
A6
54
0A
68
46
92
6A
01
04
54
29
28
AA
95
08
4A
26
14
A4
08
4A
16
0A
A9
09
25
6A
62
A4
90
A9
82
88
50
09
A6
8A
50
95
10
96
65
29
85
25
28
9A
81
6A
22
81
6A
24
01
80
56
91
02
45
09
29
A6
90
15
55
99
26
29
28
15
99
44
56
22
58
A2
95
A5
94
86
58
48
4A
A6
6A
55
22
02
A0
09
44
6A
62
8A
99
50
54
85
85
41
59
15
89
2A
18
89
65
66
60
AA
59
28
05
46
29
A1
41
68
08
04
66
66
19
AA
68
64
96
5A
48
AA
11
24
91
62
54
48
A8
14
A9
20
62
1A
68
A0
66
52
05
86
9A
9A
54
44
91
10
10
44
06
1A
A6
24
22
40
A1
55
20
4A
60
89
99
29
96
A2
11
2A
49
A6
94
44
25
66
6A
55
55
25
82
5A
96
54
84
9A
49
28
AA
59
0A
A9
05
91
65
40
58
90
98
62
96
92
56
55
AA
51
28
91
26
80
1A
54
56
A4
96
99
90
62
5A
2A
50
96
48
55
94
25
55
62
25
41
A5
12
A9
81
28
15
41
98
21
98
60
94
8A
4A
94
9A
65
55
14
64
85
95
1A
A2
46
0A
88
56
95
16
A6
00
89
86
08
4A
54
19
62
82
91
A1
28
56
4A
51
A4
84
65
92
11
8A
AA
46
05
8A
19
6A
99
24
86
96
A6
56
62
29
06
16
40
89
61
55
29
26
59
A8
A5
66
1A
1A
8A
46
59
05
82
94
1A
80
12
A4
68
85
58
19
A6
98
A9
86
92
68
8A
94
46
99
A0
16
14
56
4A
59
5A
62
6A
0A
68
A9
96
A5
14
88
89
59
60
A9
A8
A6
86
51
A4
9A
59
2A
A2
4A
08
52
41
41
25
80
02
0A
42
62
96
55
85
AA
A8
02
26
45
68
49
64
22
45
16
66
1A
A2
A8
65
89
10
01
A0
46
5A
0A
88
A6
85
95
A8
98
46
10
1A
60
95
56
55
05
15
56
00
1A
41
56
8A
04
5A
62
91
64
82
A5
42
56
A4
94
22
A9
88
08
28
A1
98
69
45
69
06
02
59
25
28
98
9A
59
4A
9A
05
96
48
60
5A
21
09
54
84
11
60
05
09
55
56
9A
15
62
1A
A1
81
2A
40
A1
41
09
A2
A1
44
A8
A1
46
51
A9
40
50
9A
48
92
A9
9A
40
15
44
4A
A0
16
46
45
65
92
A8
A4
29
10
14
65
49
69
26
65
48
49
91
15
58
A4
42
5A
80
A6
69
12
1A
99
99
68
85
51
86
61
18
96
69
94
44
40
49
1A
99
01
94
4A
54
4A
05
94
5A
51
6A
81
15
56
48
A9
24
46
61
11
06
26
41
99
19
A9
54
9A
52
A8
05
95
6A
55
56
92
A8
2A
19
A9
04
A6
1A
15
61
08
1A
62
0A
59
16
28
69
9A
98
9A
22
81
56
89
A4
85
A9
98
06
10
8A
52
6A
29
92
85
86
52
4A
9A
81
46
49
A9
A8
96
58
50
A1
95
2A
28
A2
9A
90
91
42
85
96
19
2A
52
5A
84
92
51
51
12
0A
80
20
5A
6A
9A
A9
95
26
92
01
65
A1
59
65
45
22
12
66
55
2A
A2
29
4A
90
5A
91
16
54
61
65
2A
69
48
90
92
A2
55
84
A5
49
A1
59
19
01
49
5A
95
A9
61
62
61
25
A8
69
55
40
58
88
89
55
A5
44
65
A4
2A
62
6A
24
92
84
25
2A
40
A1
25
0A
11
06
65
69
68
A8
15
62
58
A6
56
99
91
85
A6
84
10
2A
56
18
65
80
14
41
69
91
96
81
5A
46
19
A0
18
A6
61
89
02
89
A5
41
95
54
01
85
21
49
90
22
66
A5
66
95
29
A6
28
94
45
A6
45
65
91
4A
26
40
61
94
59
A1
21
AA
01
4A
24
59
11
85
81
85
A2
84
46
89
28
5A
56
82
65
19
9A
06
21
09
01
AA
A5
98
81
14
44
49
25
1A
28
10
66
48
62
64
56
46
95
01
14
19
50
A1
00
9A
49
45
64
10
50
54
61
02
92
25
12
A1
56
96
A5
06
08
1A
AA
AA
85
88
60
91
88
60
02
6A
1A
6A
92
20
91
11
06
51
86
86
65
14
02
12
16
85
65
24
68
68
49
85
8A
48
11
62
5A
21
2A
05
84
61
1A
86
58
65
46
6A
19
51
A0
48
55
A0
18
82
26
4A
1A
A6
28
98
18
15
45
49
50
59
46
52
16
01
82
29
A4
60
9A
54
19
8A
20
80
18
5A
2A
59
2A
21
65
51
69
82
2A
96
5A
8A
55
96
14
66
95
A6
49
62
95
61
94
A5
1A
90
85
54
86
04
25
45
58
46
4A
2A
64
69
44
6A
6A
19
42
96
51
59
0A
46
40
62
2A
A6
22
21
95
29
16
55
AA
99
88
A2
89
9A
88
A9
12
61
65
A0
90
52
48
59
86
A1
20
68
26
59
A5
94
69
46
1A
58
21
59
A9
29
68
94
65
A8
0A
44
96
10
12
54
A9
51
1A
9A
09
98
62
91
55
92
2A
59
14
52
A9
2A
55
05
5A
A2
98
A8
A5
91
41
6A
95
92
55
45
90
01
20
06
49
60
56
90
15
02
69
25
A9
88
26
91
A4
29
66
15
95
A8
95
69
26
45
61
86
01
59
6A
12
45
58
A9
94
28
28
2A
99
A6
42
46
AA
46
55
55
80
00
A2
09
8A
55
95
29
44
58
2A
5A
96
29
A6
94
86
92
96
1A
62
56
60
24
A5
A2
22
61
2A
59
A6
AA
A5
99
40
1A
12
6A
14
0A
65
80
82
22
1A
88
92
86
28
4A
54
85
26
92
59
18
45
58
A5
49
68
89
69
05
52
85
56
16
54
88
95
45
42
85
99
9A
29
96
0A
95
9A
61
99
59
A6
66
A9
52
99
8A
06
1A
16
40
A2
62
12
52
2A
6A
5A
1A
0A
A5
25
69
66
A5
16
56
86
29
45
65
19
00
82
65
85
44
88
40
19
22
2A
55
08
AA
92
86
04
64
56
50
29
89
22
6A
95
15
46
51
14
15
A6
16
AA
26
5A
49
99
50
60
56
45
95
81
2A
86
29
89
40
65
82
58
69
08
2A
15
19
0A
A4
12
85
16
51
21
96
A1
48
2A
02
08
94
08
16
46
9A
66
24
55
55
92
44
6A
60
10
56
A4
91
69
94
80
56
89
8A
85
41
4A
54
48
16
54
65
52
86
59
51
45
94
46
94
A4
45
45
A8
9A
68
21
A8
22
96
8A
95
A6
60
88
2A
A6
2A
86
A8
A6
44
91
91
08
05
64
18
95
A6
12
52
A0
59
86
41
58
05
98
2A
0A
1A
19
60
AA
20
58
86
15
54
96
45
01
85
66
49
18
12
A9
61
22
26
22
25
8A
65
65
69
A6
A5
66
2A
66
18
51
16
61
4A
96
24
A6
01
A1
55
A6
95
29
92
99
AA
5A
06
44
52
52
5A
42
82
A6
4A
88
A6
69
AA
51
28
96
16
19
26
95
58
1A
86
29
41
14
1A
2A
66
69
42
A6
A6
69
59
02
64
1A
91
AA
68
65
1A
24
22
AA
24
94
54
0A
90
95
08
A8
6A
86
99
95
06
42
19
26
81
04
A5
A2
A1
65
5A
69
65
42
59
51
25
A5
96
14
69
A2
09
56
46
9A
02
09
98
46
95
9A
26
40
88
A4
16
54
A9
91
09
22
55
02
98
98
80
5A
55
0A
68
62
5A
98
51
85
26
65
96
91
09
56
A2
84
8A
58
22
6A
A2
12
A2
15
55
04
6A
A5
21
49
52
6A
68
2A
54
56
56
86
6A
56
9A
06
96
69
99
85
54
89
09
98
59
A8
60
69
61
60
40
54
9A
A6
A6
A5
A8
42
04
A9
54
42
22
A2
12
12
28
49
A9
AA
5A
88
01
14
09
55
28
86
01
22
9A
04
94
69
10
14
48
84
A6
AA
60
59
40
16
42
95
56
24
A1
11
16
08
02
61
25
50
99
68
A2
01
24
54
88
05
05
54
6A
92
40
64
0A
29
26
66
A4
12
0A
4A
52
02
05
68
49
96
4A
55
04
8A
92
28
5A
06
A6
1A
65
6A
25
4A
19
05
44
62
65
1A
91
99
02
92
95
05
65
66
24
94
99
81
61
A0
55
41
04
6A
52
25
90
92
66
62
55
2A
A6
A5
6A
15
AA
56
A4
9A
19
2A
61
96
48
01
99
81
A5
44
20
56
90
A8
11
19
0A
29
69
09
0A
52
99
69
24
8A
28
99
9A
85
56
91
40
56
A4
11
A8
42
A9
92
16
89
14
91
5A
52
11
92
AA
95
5A
06
96
24
A5
86
98
6A
88
20
69
51
82
61
81
80
10
55
51
85
58
49
55
91
A5
94
11
56
81
41
65
96
82
49
50
15
05
55
6A
2A
55
49
A1
56
8A
8A
AA
01
9A
AA
45
12
44
9A
61
05
89
88
A4
AA
59
60
25
04
12
A0
18
62
61
16
95
6A
88
52
11
05
26
49
05
A5
6A
69
18
45
6A
46
42
66
65
95
42
A9
65
56
54
A9
56
A2
60
29
25
A4
14
62
8A
15
64
AA
A0
02
65
68
28
62
98
68
A6
16
A5
A9
6A
A0
12
99
49
62
24
46
96
44
22
8A
A5
81
49
06
99
16
8A
8A
19
AA
40
A8
44
6A
9A
98
A4
16
58
89
A2
A1
12
64
5A
66
12
85
15
54
06
41
54
6A
46
A8
08
A5
08
28
15
64
18
01
2A
82
A9
85
5A
58
AA
9A
61
91
25
A5
40
21
56
06
91
49
82
68
01
89
66
01
28
5A
08
A6
55
A8
AA
1A
22
5A
52
89
69
62
9A
69
8A
A0
6A
66
55
98
06
66
58
06
04
68
95
44
51
15
08
59
A4
A5
81
2A
29
68
46
81
56
A2
64
01
29
5A
40
58
A6
A4
82
02
9A
A6
80
AA
6A
42
09
21
15
16
A4
AA
45
94
A6
64
62
22
10
62
48
55
45
64
99
28
25
50
26
15
06
06
45
20
04
54
09
90
28
98
85
51
45
A8
45
46
58
00
66
16
69
59
0A
64
59
68
58
28
52
68
90
59
48
AA
64
68
06
A8
51
24
60
99
45
4A
5A
6A
64
95
62
69
04
59
11
68
A9
A0
46
19
90
A4
9A
88
A2
96
62
45
98
A8
A2
15
62
69
85
9A
40
15
08
86
0A
A9
5A
A9
A5
90
89
28
15
61
8A
92
50
90
55
A2
19
65
94
96
AA
88
62
A6
A9
4A
81
52
98
18
20
AA
29
8A
12
52
29
80
AA
62
84
04
96
54
54
2A
59
24
AA
6A
A9
96
9A
55
49
90
56
65
99
8A
54
98
95
12
08
12
85
48
1A
60
09
A1
0A
A1
45
A5
62
14
91
25
A8
5A
1A
42
49
2A
40
49
96
A8
55
A5
5A
56
08
68
95
89
A8
45
25
11
90
96
A9
56
6A
69
86
65
9A
28
99
85
19
62
59
08
A9
55
66
66
82
1A
2A
18
68
68
15
41
52
96
52
55
29
51
29
55
25
A8
4A
A2
22
25
59
95
1A
66
69
65
11
02
19
20
A5
60
A5
14
26
49
98
25
50
56
96
A9
89
92
16
4A
65
2A
16
14
86
92
12
A9
21
A0
28
65
61
A8
58
94
58
A9
61
69
96
A2
90
92
A9
A9
09
69
AA
A1
A9
55
49
56
51
26
55
62
A4
49
99
95
94
15
15
96
45
16
52
69
68
52
00
85
12
A5
5A
80
68
55
85
55
96
9A
99
A6
21
15
65
1A
94
11
A5
65
05
A6
68
51
80
A5
A0
A5
21
A4
46
04
40
40
65
66
A8
5A
65
12
A2
61
A5
24
04
04
28
1A
68
11
A4
5A
55
06
48
A6
65
82
92
68
A2
52
02
96
49
4A
00
59
28
12
94
65
A4
01
98
91
16
28
A2
14
0A
54
5A
5A
98
1A
0A
61
94
52
85
89
94
99
15
26
59
65
66
5A
91
52
46
58
A1
60
64
65
58
52
50
29
15
A6
2A
96
86
09
9A
06
65
85
28
A5
95
26
96
68
9A
82
80
A8
19
66
95
91
24
50
68
06
49
AA
81
15
95
50
90
06
52
82
12
96
22
81
82
02
92
12
19
41
62
56
52
51
28
66
8A
98
90
1A
0A
55
46
A2
01
91
86
52
1A
18
91
62
09
0A
24
55
56
A6
66
95
54
26
62
95
62
59
68
A2
81
02
99
29
16
AA
00
04
96
96
89
29
4A
99
58
91
56
92
22
99
54
99
9A
05
2A
48
55
45
A9
89
A6
45
15
46
A8
A0
45
9A
AA
A6
9A
20
49
56
A5
58
06
09
9A
91
59
99
62
12
98
68
84
6A
06
94
52
99
96
96
56
6A
95
82
62
AA
66
55
AA
4A
60
21
A6
29
AA
84
89
A4
65
89
4A
15
9A
4A
60
99
90
0A
49
4A
99
68
5A
18
95
A6
18
5A
46
94
20
4A
09
59
A2
A6
02
AA
96
4A
99
9A
10
56
95
55
8A
56
A5
6A
A8
A4
9A
A0
44
52
60
95
A9
A4
89
6A
A8
A1
12
68
65
A8
61
99
86
58
A9
AA
68
A2
12
66
94
81
59
48
8A
50
56
A8
9A
49
96
45
49
95
54
A1
15
A8
5A
94
15
46
A2
66
58
0A
42
2A
85
69
6A
62
82
42
16
45
10
82
82
A6
A5
A6
91
49
98
16
2A
48
2A
04
08
08
19
56
92
A1
42
22
1A
52
46
9A
61
80
45
AA
09
25
02
42
82
A4
22
85
95
96
92
0A
8A
A0
59
91
00
55
4A
59
81
15
98
49
61
41
50
15
94
84
A4
A5
09
56
22
59
46
41
2A
99
18
24
96
A5
5A
60
8A
42
95
61
0A
14
60
68
11
41
15
92
12
52
44
5A
9A
88
88
55
0A
14
12
84
19
49
41
81
89
5A
42
65
24
09
00
09
50
08
21
00
26
14
24
A8
28
18
26
28
28
24
20
28
14
A8
16
14
14
28
02
14
04
55
24
18
24
24
00
08
14
10
A5
99
28
06
28
28
24
24
A5
18
10
2A
26
A8
1A
22
18
04
28
20
68
00
09
19
28
26
04
00
29
08
A8
09
84
02
08
4A
18
08
66
00
A4
24
24
10
09
28
62
99
24
14
08
28
A4
02
02
80
A0
68
66
14
29
12
21
18
29
29
04
24
04
11
14
24
16
19
24
95
44
22
98
14
98
0A
68
A9
84
24
28
98
24
04
14
04
48
64
14
14
24
40
90
A5
A6
58
69
10
25
94
14
41
A4
94
46
16
8A
04
96
95
84
14
88
A5
04
64
59
04
56
08
06
08
14
14
45
04
16
10
6A
16
29
A8
AA
18
1A
60
66
10
54
24
21
15
24
68
08
04
04
98
A8
A2
46
8A
95
19
9A
04
88
54
61
A8
58
11
1A
02
92
58
04
44
14
90
04
46
15
99
1A
44
10
08
59
64
28
41
94
A2
80
48
48
10
22
6A
25
A1
A9
85
1A
96
A6
48
24
00
95
28
18
94
2A
01
A0
11
16
18
A0
60
9A
18
86
05
25
18
16
42
5A
52
06
AA
15
94
08
69
94
29
81
69
25
05
AA
68
24
02
12
59
15
22
42
88
24
46
94
14
02
0A
2A
09
20
04
68
00
24
49
58
5A
28
12
26
22
1A
0A
18
18
04
28
20
08
A4
42
08
24
00
06
08
2A
62
28
28
04
28
04
09
02
14
20
64
0A
24
88
1A
08
0A
08
15
61
08
1A
18
21
10
06
18
28
15
04
19
20
04
29
64
60
68
00
0A
24
09
0A
24
08
02
0A
14
2A
24
12
18
08
08
15
14
04
24
10
10
19
86
11
1A
69
81
28
9A
58
44
99
21
45
19
09
56
41
85
40
6A
92
20
66
96
26
10
2A
69
11
A0
80
48
45
66
29
09
80
14
45
54
4A
64
8A
69
84
45
95
84
95
24
86
65
A5
0A
19
46
25
11
21
6A
26
49
86
59
41
5A
15
1A
4A
46
92
55
61
92
29
90
A9
A5
6A
46
1A
68
88
21
5A
11
56
64
40
81
5A
16
92
65
64
26
69
A4
92
56
28
5A
11
59
12
68
85
A2
69
A9
49
00
65
26
44
04
5A
91
24
4A
81
A0
4A
86
94
2A
A9
66
A2
42
5A
92
45
19
A4
65
89
4A
59
95
55
A6
95
95
64
06
94
95
AA
96
AA
8A
85
01
65
A2
55
98
99
91
41
AA
88
69
19
96
69
54
51
04
5A
6A
92
8A
29
19
09
82
86
A6
A6
81
5A
A6
95
85
81
25
96
99
99
26
4A
8A
45
A5
55
5A
51
14
15
5A
56
25
84
2A
12
A4
89
26
A8
A6
56
56
11
05
68
51
89
04
5A
A8
49
85
68
94
A6
46
59
54
0A
92
22
00
65
96
85
55
92
8A
19
A1
92
04
A4
A2
15
94
4A
5A
15
A9
A2
19
45
A9
12
25
49
90
05
AA
48
82
56
81
5A
92
12
6A
29
50
AA
50
A4
19
08
0A
69
A6
21
02
65
8A
A5
22
84
56
25
A6
02
16
15
45
5A
2A
86
69
64
14
A5
91
6A
84
A0
64
4A
56
59
42
A5
55
A2
59
85
9A
40
69
68
09
46
9A
48
22
66
44
62
82
56
2A
62
65
45
62
9A
A6
09
01
00
25
A1
98
12
98
05
11
19
96
92
80
22
5A
62
11
06
85
22
52
58
58
A5
60
50
62
05
48
86
6A
A2
68
24
A6
19
95
60
50
60
69
66
55
A5
9A
22
12
AA
24
86
A1
14
68
2A
04
29
64
69
AA
45
02
84
A5
68
56
A2
86
16
9A
4A
8A
06
91
86
14
AA
88
21
85
4A
25
96
86
66
06
55
62
64
94
06
04
92
A8
A8
4A
24
48
14
21
A4
94
66
26
15
A0
61
9A
11
40
19
99
19
2A
5A
16
99
29
1A
19
59
61
20
18
26
19
29
44
19
60
6A
88
52
62
46
A9
95
62
16
A4
96
90
11
55
58
64
66
52
5A
06
54
20
49
62
4A
59
99
48
41
26
06
89
55
AA
A9
9A
09
14
65
01
8A
96
89
A1
51
88
6A
A9
86
09
A6
42
A5
88
8A
2A
56
62
86
66
5A
5A
15
AA
98
22
54
14
A0
A9
6A
69
A2
09
9A
69
61
AA
84
26
4A
81
64
08
51
19
14
16
89
9A
66
85
95
68
18
16
99
92
0A
A2
95
41
59
5A
A5
A5
29
94
9A
25
96
90
AA
6A
A8
55
19
11
49
AA
A1
22
46
A2
91
9A
9A
AA
29
9A
80
46
58
58
60
26
90
8A
42
54
56
04
9A
A9
28
62
96
A6
26
26
66
61
29
4A
5A
66
92
81
A5
80
66
29
54
59
85
89
4A
08
91
A8
9A
A0
6A
4A
96
04
49
54
80
55
A4
54
85
65
55
66
86
69
85
96
6A
02
25
59
A5
56
91
94
59
60
19
01
15
29
82
00
8A
98
02
6A
9A
91
98
A6
28
49
51
04
66
66
11
68
09
99
05
A6
04
95
08
55
06
0A
69
A6
A0
24
0A
A1
84
85
92
A9
40
96
94
65
68
98
64
91
88
9A
19
41
60
A8
A9
6A
A1
69
68
28
40
41
82
60
50
48
6A
84
25
29
50
A1
A8
19
10
95
58
50
10
46
54
2A
51
49
48
8A
14
86
09
81
24
09
20
44
9A
21
82
29
A8
85
A6
58
65
60
20
A0
A0
52
40
80
92
51
41
10
10
50
90
91
A1
10
22
42
20
41
92
46
02
51
62
52
A4
90
A2
21
66
98
50
80
42
80
60
91
91
90
60
A0
68
41
60
82
A2
59
A2
82
50
51
51
92
00
80
20
1A
60
62
20
80
45
A2
82
58
90
92
08
59
45
91
40
A8
24
A0
61
51
12
92
80
4A
61
55
98
51
50
90
68
40
62
51
6A
80
14
40
A6
88
00
54
52
A6
05
A2
12
A1
91
62
A0
12
91
02
60
5A
41
52
44
85
28
09
A8
94
A9
A4
26
02
59
05
02
92
52
82
62
2A
01
96
46
69
01
29
48
55
61
99
A2
5A
6A
42
A9
90
12
A0
84
A1
84
A9
A0
1A
00
40
41
62
60
41
42
A6
60
52
91
95
02
12
96
89
A0
80
6A
8A
55
84
94
09
52
58
89
88
94
21
92
21
59
44
5A
9A
A5
51
22
91
92
96
90
2A
61
A6
60
9A
25
18
60
52
51
45
96
81
8A
98
92
25
42
A0
A4
91
04
8A
A9
49
54
94
81
A6
52
12
81
A9
42
58
42
98
24
89
41
09
65
A0
49
96
2A
A9
88
8A
58
0A
25
42
58
11
45
18
46
52
45
22
56
A0
8A
21
68
52
58
A1
90
16
66
84
84
08
40
65
A6
0A
91
91
61
45
90
01
64
01
10
20
80
60
81
50
80
24
A2
11
20
A1
61
48
90
40
51
24
14
92
22
10
62
10
22
50
51
A1
09
10
51
50
A2
96
00
10
84
02
90
91
91
92
60
14
42
51
12
A0
52
A2
22
61
41
19
90
50
04
02
A2
AA
21
61
90
10
92
82
A1
41
98
20
22
61
A0
62
60
91
40
84
81
11
52
50
51
A6
A8
61
61
82
51
80
00
21
50
8A
52
99
11
56
A1
29
A2
64
21
8A
15
95
0A
0A
66
A8
86
62
90
A9
1A
96
25
85
25
21
18
84
06
A9
A9
42
99
A2
46
61
44
62
A4
52
54
58
59
66
A9
61
AA
51
16
46
54
60
95
A5
94
44
85
85
69
99
A8
56
9A
A5
88
54
64
21
99
A5
0A
48
88
05
50
85
90
40
15
88
81
A5
A1
6A
26
68
64
95
90
94
A0
89
A8
55
54
85
10
24
50
A0
28
96
2A
A5
6A
61
54
A4
A5
08
96
14
65
21
52
96
98
16
66
5A
69
1A
A5
96
56
AA
08
61
6A
90
05
46
56
45
50
55
61
19
68
65
96
09
A6
51
25
52
A0
55
52
15
89
96
41
00
61
6A
16
88
19
66
A1
91
4A
84
5A
82
62
60
99
96
9A
66
50
A8
AA
18
19
18
46
4A
11
96
82
95
60
AA
68
49
AA
A9
18
51
96
98
22
A2
26
2A
A2
95
55
42
5A
55
65
96
91
A4
85
45
09
A8
A8
81
09
5A
9A
44
A1
AA
0A
15
82
65
12
61
92
64
85
99
4A
25
55
12
49
4A
A5
11
51
84
49
61
99
6A
66
A1
9A
5A
6A
55
24
5A
4A
A4
69
82
A9
95
55
01
54
54
10
46
A2
65
62
A9
04
25
98
9A
92
20
26
69
99
8A
48
89
8A
55
58
29
61
11
05
19
84
0A
60
A9
A6
18
86
40
95
16
88
00
21
16
28
58
58
A4
61
61
99
A6
42
90
A6
14
91
85
69
29
15
10
98
96
14
48
29
85
12
0A
A1
19
45
6A
A9
A9
A8
85
80
01
65
28
20
56
01
0A
66
59
54
A4
86
9A
24
84
98
A5
64
54
06
22
14
19
62
89
0A
46
18
11
A6
42
96
60
10
60
58
92
11
08
19
06
18
AA
66
02
64
95
85
06
16
06
46
16
6A
11
90
85
24
18
98
60
26
55
80
9A
46
26
59
96
51
45
62
95
65
1A
09
01
21
94
84
11
56
A8
50
46
1A
14
68
86
2A
46
19
89
A9
A0
65
51
62
49
90
56
06
69
59
8A
51
9A
A9
5A
56
9A
A5
69
5A
A9
92
40
54
19
61
A4
91
45
24
65
AA
55
90
86
16
25
00
69
54
49
A0
68
A5
11
95
69
AA
99
05
51
29
89
15
88
A5
88
96
59
65
6A
A0
69
68
26
A5
44
65
A2
59
12
51
A5
90
A8
55
26
51
A6
29
99
94
6A
98
69
15
A6
94
55
A5
68
80
69
42
5A
6A
94
19
64
96
95
19
42
52
95
65
14
06
65
A6
26
99
59
54
45
96
99
94
98
0A
56
A2
61
89
98
46
91
5A
88
98
49
2A
A2
59
54
59
A1
56
42
69
A5
A5
85
82
A6
64
69
92
4A
12
96
21
60
80
60
86
61
41
99
99
55
48
15
92
90
26
5A
05
95
46
96
99
81
68
59
60
00
AA
64
98
A6
56
9A
55
89
58
4A
9A
66
51
24
82
89
10
1A
04
68
96
11
A4
AA
59
49
85
69
05
29
62
84
62
49
A8
89
1A
41
92
80
2A
0A
60
64
45
16
0A
24
61
AA
A9
11
58
5A
06
96
68
04
59
58
08
94
AA
65
46
A8
6A
14
66
A2
9A
A1
26
88
54
46
A0
21
A1
5A
14
59
55
54
28
19
94
49
98
A6
06
54
22
84
AA
64
41
21
2A
01
8A
66
50
42
62
06
58
64
89
AA
84
52
21
A6
89
95
A8
96
8A
98
94
22
52
29
19
96
18
80
80
A6
41
A6
55
A1
0A
08
58
16
51
44
26
AA
50
2A
98
9A
22
49
12
52
60
56
A6
60
50
06
59
55
54
55
91
18
28
62
19
49
8A
11
42
06
A6
26
24
59
A5
01
4A
99
91
A5
1A
11
59
09
85
15
25
50
09
40
86
86
00
92
50
22
68
96
56
4A
62
40
95
11
41
89
10
49
26
19
55
64
95
41
84
65
A4
A5
14
26
46
99
16
A1
A1
80
9A
91
66
96
65
68
0A
50
29
60
90
11
96
46
96
85
6A
2A
41
28
48
A5
66
82
61
22
08
21
4A
24
A4
94
96
AA
58
01
08
A8
45
65
08
2A
59
68
95
99
95
64
86
1A
01
89
05
69
46
20
56
88
06
82
05
80
28
1A
9A
86
A5
66
45
18
69
6A
29
95
69
9A
84
60
89
A4
A6
61
6A
95
A4
A2
18
02
22
A5
0A
20
51
85
45
59
A0
20
4A
25
00
68
90
49
85
62
55
51
A4
40
AA
1A
48
A9
96
42
6A
92
A8
66
A5
65
66
5A
54
88
19
91
9A
65
46
01
10
44
62
A8
06
49
05
94
49
28
49
28
26
92
10
5A
65
66
21
9A
A0
88
00
46
89
A8
80
95
A2
A6
14
50
91
49
68
45
51
1A
40
46
46
4A
56
20
A6
89
A5
1A
A0
91
20
24
86
22
A6
19
99
15
88
86
56
60
A9
9A
05
44
A1
A5
01
69
46
92
92
59
09
06
28
64
A6
9A
64
A4
66
A2
05
9A
22
14
69
41
40
61
68
20
1A
10
24
10
06
81
85
08
50
56
89
58
58
64
22
26
61
52
59
96
8A
24
69
A0
06
99
50
62
41
25
0A
11
A9
08
62
91
65
6A
99
06
40
66
01
16
64
42
68
11
15
45
80
41
A9
A2
24
94
05
50
54
56
58
06
20
A4
58
95
9A
99
86
96
5A
09
59
92
59
64
5A
A1
19
18
49
02
12
86
11
A2
95
2A
52
80
82
61
54
51
01
18
46
66
AA
98
A5
A6
68
A1
54
65
85
8A
4A
2A
A6
8A
80
9A
91
55
05
21
51
21
96
A9
98
9A
05
52
55
84
49
16
29
56
45
02
12
94
2A
A9
64
12
92
02
04
15
56
85
94
09
69
14
95
91
96
11
1A
12
25
9A
65
92
00
2A
2A
A1
A6
41
68
5A
05
59
58
56
85
90
10
45
54
14
45
12
90
52
26
15
1A
09
54
22
66
26
AA
AA
0A
A9
A6
6A
16
16
01
55
48
18
26
66
A2
98
4A
90
AA
58
1A
88
10
88
60
A9
42
98
25
90
A9
91
8A
5A
08
44
95
5A
2A
AA
89
2A
55
49
66
62
55
49
20
89
A6
46
82
65
A2
A0
11
19
55
69
82
A6
A9
54
91
86
4A
51
45
A5
A2
9A
8A
A4
01
96
86
88
81
24
2A
49
04
85
A4
41
95
95
19
89
45
4A
15
4A
A9
42
2A
06
61
66
19
55
59
54
A1
19
9A
58
2A
95
51
90
19
2A
04
11
82
59
46
09
25
06
09
A9
96
06
86
9A
24
49
55
08
60
64
19
19
08
2A
8A
95
99
66
A8
29
85
96
10
A9
A9
96
68
A4
46
4A
6A
AA
96
52
95
55
A2
24
81
A9
59
11
85
29
1A
56
0A
59
84
54
90
66
44
A5
00
2A
80
52
A5
06
50
55
56
1A
46
18
60
26
56
A1
98
81
50
08
41
22
AA
11
09
55
88
A5
98
19
11
15
A6
A9
A9
54
09
50
06
89
AA
14
56
42
96
15
2A
A6
61
15
49
85
65
92
06
91
59
48
A4
24
59
11
9A
05
A4
51
0A
86
A4
61
51
58
6A
55
96
A9
81
A5
A6
16
24
A4
98
2A
62
86
6A
20
11
58
48
45
08
86
60
58
A6
89
80
12
16
5A
12
56
28
06
45
62
45
02
A5
24
55
25
64
28
09
A5
91
94
56
96
48
96
14
58
6A
A4
99
A5
29
56
91
95
41
25
6A
9A
A8
49
14
96
10
28
69
58
25
15
44
5A
42
15
5A
68
56
62
90
0A
60
26
48
26
59
68
A5
21
02
A4
A2
1A
59
86
A1
98
66
45
68
89
49
61
A4
AA
49
56
69
25
11
A8
56
69
16
00
40
A9
69
98
86
88
89
68
4A
92
05
45
8A
86
96
A6
A4
65
91
69
29
88
99
80
A9
89
42
09
AA
26
69
82
22
95
94
99
0A
A6
A2
84
58
68
88
8A
51
25
54
68
01
59
55
6A
AA
99
14
2A
19
44
59
69
89
58
A6
10
0A
62
A2
22
4A
22
54
21
66
86
1A
98
22
02
59
AA
95
0A
68
84
64
15
09
45
66
01
51
54
66
19
95
15
14
16
2A
94
15
28
95
91
46
19
04
48
44
45
52
92
92
10
95
6A
5A
89
5A
66
86
91
46
94
06
A2
11
90
16
01
81
AA
91
62
65
21
64
2A
A8
15
46
64
66
45
4A
25
15
59
25
2A
26
52
A5
84
52
18
52
28
A9
24
94
26
5A
69
21
25
19
98
1A
20
05
88
56
26
65
98
A9
25
1A
90
4A
11
4A
A1
25
41
66
99
8A
91
49
02
11
12
A9
88
0A
12
54
05
29
54
54
59
82
00
80
28
50
09
91
56
94
65
94
50
9A
AA
05
84
58
A0
96
91
19
A0
90
29
65
1A
A9
2A
02
08
66
66
01
61
09
04
06
19
29
4A
49
26
59
96
89
52
05
59
51
0A
20
99
96
2A
02
0A
81
A4
88
88
21
2A
52
05
0A
14
98
09
5A
22
A2
88
A2
44
92
91
A2
96
46
56
8A
62
96
90
14
24
8A
05
A5
15
94
0A
1A
02
91
A2
42
69
11
94
00
29
94
84
61
64
86
88
59
59
65
29
A6
24
A6
52
11
22
A8
48
92
A2
66
24
96
4A
16
61
22
94
50
69
88
01
49
11
40
00
96
00
5A
28
A0
98
04
45
50
41
A1
61
A9
51
58
89
28
51
96
42
60
2A
25
96
48
8A
19
A9
9A
65
69
A8
A1
01
99
A4
21
00
20
80
15
65
AA
62
A6
61
15
5A
90
22
24
54
4A
24
95
15
56
40
96
42
85
6A
9A
96
9A
20
24
59
6A
95
56
69
59
59
59
24
2A
69
A9
61
88
A0
28
99
56
A2
A8
42
62
26
16
14
5A
69
50
90
8A
A6
10
68
56
66
51
56
AA
86
91
68
15
59
95
4A
6A
60
A4
65
12
AA
95
14
48
A9
6A
A6
6A
A4
16
28
15
14
20
42
65
68
A0
10
91
95
54
15
99
6A
6A
49
A9
A5
59
A6
95
6A
62
59
09
65
18
21
99
6A
05
16
81
96
A5
2A
29
2A
99
A0
5A
95
49
91
50
50
AA
14
94
15
45
81
5A
64
A6
59
69
15
40
2A
00
61
94
09
A9
68
59
AA
56
65
2A
16
16
52
64
58
15
25
A9
61
54
51
85
55
24
A5
61
98
06
19
96
14
81
90
A9
A1
15
84
56
94
48
A5
92
81
11
42
96
A9
90
51
92
94
2A
8A
69
1A
84
00
18
9A
52
A8
90
59
40
18
96
99
8A
99
01
AA
66
40
58
A5
24
05
94
56
19
1A
9A
21
09
51
51
AA
81
28
A0
41
12
60
22
65
58
60
0A
09
66
8A
50
02
16
52
40
04
5A
AA
62
86
08
6A
95
21
66
10
00
6A
80
96
85
20
64
95
94
15
00
08
60
52
85
42
A9
46
22
82
4A
58
40
19
68
02
85
12
68
45
61
61
A8
69
29
96
81
62
08
14
92
19
99
49
20
00
A2
12
22
89
41
08
52
56
4A
21
15
41
55
18
29
46
62
96
8A
96
AA
15
69
65
22
58
41
A1
99
64
9A
A9
0A
6A
0A
99
5A
55
68
56
68
8A
84
51
61
22
95
44
45
65
61
86
A0
86
01
46
55
55
44
8A
66
45
2A
44
91
99
11
42
AA
22
0A
86
00
21
59
11
48
99
69
61
89
16
A4
9A
59
1A
85
4A
59
A8
81
AA
95
49
A5
A4
22
56
82
92
65
2A
50
68
29
89
9A
84
64
55
05
A4
66
A5
A9
12
0A
61
46
69
5A
A4
A0
A8
89
58
59
50
89
A2
62
94
A8
48
0A
65
59
51
45
1A
69
46
19
98
08
02
9A
A4
1A
22
15
46
05
26
52
85
61
29
54
18
0A
98
54
28
61
66
86
98
A9
A5
86
A2
28
81
59
10
A6
A9
45
AA
69
A8
98
A4
51
92
62
29
68
AA
54
05
22
11
91
58
86
A4
6A
5A
02
1A
80
29
11
96
A6
A6
12
A0
A6
96
49
82
0A
89
85
55
98
05
51
A1
96
55
4A
81
1A
16
56
00
A2
56
92
86
54
09
9A
A0
91
89
A4
A0
A1
A8
95
69
55
52
A8
41
91
62
12
99
44
42
1A
44
06
92
AA
94
AA
55
95
46
99
86
A9
59
4A
28
15
49
11
9A
85
28
11
59
11
91
48
A1
40
42
10
22
98
96
94
51
06
29
86
1A
5A
90
A5
2A
2A
A6
A6
5A
5A
95
68
01
21
85
22
26
A8
48
4A
85
45
66
22
21
58
15
46
81
95
95
89
1A
A4
42
46
AA
50
A5
24
94
18
A6
44
04
55
4A
95
04
48
64
06
A9
54
8A
96
54
0A
95
18
15
6A
95
66
56
25
A2
A9
52
2A
89
A6
A9
04
26
54
91
22
A0
11
62
45
95
4A
96
89
00
15
A9
60
15
49
62
60
12
21
04
04
41
A6
26
80
21
A1
96
44
49
12
4A
84
66
89
09
46
0A
45
65
12
51
95
49
58
5A
26
24
61
68
18
24
08
A4
55
91
86
21
56
59
48
22
28
A1
12
08
96
06
10
86
09
24
05
64
09
46
6A
66
96
86
25
16
42
0A
12
9A
15
A4
59
8A
A4
65
25
46
51
96
AA
66
A5
12
69
59
94
8A
91
44
29
95
95
55
19
46
A8
4A
56
12
54
1A
65
80
45
4A
11
80
6A
82
A4
55
11
81
88
88
90
AA
56
A2
AA
29
20
02
58
98
11
61
1A
54
89
19
86
66
00
49
1A
64
8A
58
A6
96
A6
15
91
99
90
05
2A
A4
A4
62
A5
85
AA
54
1A
86
A2
18
25
91
9A
6A
55
5A
61
91
91
69
18
45
65
92
44
42
58
44
15
15
91
65
99
12
AA
59
16
9A
24
10
A6
56
42
14
A5
55
22
98
69
49
58
20
14
02
59
A6
44
A1
50
56
A5
A5
8A
90
92
26
96
91
80
46
86
49
55
50
08
21
49
A5
60
0A
58
A4
95
4A
68
4A
81
89
90
A8
6A
54
A9
9A
A2
89
48
99
82
66
16
25
20
48
09
09
40
68
5A
A9
52
29
92
86
86
28
18
16
92
59
16
41
1A
61
55
98
80
8A
0A
66
24
50
01
6A
98
20
25
A8
65
92
20
20
22
82
AA
A4
64
48
49
44
29
4A
98
8A
20
A6
94
2A
2A
21
88
A8
A8
AA
82
56
91
44
49
60
49
84
A6
12
A6
A6
96
50
0A
11
11
84
8A
5A
45
9A
69
86
64
44
49
02
08
29
0A
29
A0
84
6A
96
92
04
00
81
92
88
22
22
64
06
66
96
10
19
95
56
59
A6
58
19
AA
89
2A
58
48
2A
4A
A9
99
9A
A4
95
21
25
95
95
24
21
2A
99
A2
68
26
08
91
45
A5
95
48
25
A6
41
01
64
A8
A1
6A
58
9A
99
65
81
68
99
54
5A
8A
24
66
4A
96
14
42
68
48
86
46
46
A6
56
66
6A
40
46
58
8A
99
91
42
50
2A
A0
A9
A1
29
86
0A
68
68
21
46
95
69
A2
49
65
48
16
05
44
64
59
52
68
99
26
46
1A
AA
9A
A9
65
56
2A
24
58
46
12
66
91
26
6A
52
11
A5
62
91
59
4A
A8
A9
98
98
8A
58
6A
95
55
16
69
15
09
A9
19
99
A5
16
48
91
28
51
91
1A
8A
4A
A4
26
A6
96
A9
A0
89
89
29
50
21
0A
26
44
2A
9A
52
26
A8
65
4A
66
66
48
8A
08
22
88
65
45
45
51
88
56
96
AA
A8
96
A9
51
42
54
9A
66
68
25
6A
86
4A
88
19
04
15
45
62
A1
20
59
69
98
4A
A9
99
65
81
44
50
A6
94
21
61
52
20
65
56
50
5A
A6
89
50
24
69
44
48
60
12
60
26
48
05
62
59
A1
95
25
90
20
18
14
65
6A
40
19
09
56
A4
2A
A8
66
29
AA
A9
94
16
24
85
80
5A
A9
55
46
51
98
A1
84
65
96
66
45
68
18
49
58
A2
A5
10
98
1A
91
40
8A
19
28
5A
6A
56
AA
A8
18
A5
41
64
96
45
1A
0A
45
45
A8
65
16
62
00
54
21
68
92
56
2A
92
04
60
61
92
15
8A
59
94
66
90
52
A0
50
02
84
64
44
58
61
20
88
A4
A8
86
99
89
22
A6
99
16
12
21
06
A5
54
84
48
64
99
06
41
96
AA
84
50
94
25
02
40
12
40
12
04
85
69
54
99
92
A8
99
60
04
95
5A
62
A1
64
92
4A
66
60
60
A6
66
14
81
A1
5A
16
69
9A
AA
64
82
A8
64
41
A4
90
56
28
59
61
11
81
10
95
28
5A
29
2A
A9
69
A6
16
64
61
99
66
8A
61
64
92
A5
96
05
2A
A1
50
65
6A
98
9A
84
99
65
91
26
99
69
66
55
91
61
85
22
61
6A
89
11
46
44
A4
96
25
61
46
11
65
9A
A9
A9
26
66
A1
92
06
A1
99
16
6A
85
14
89
91
92
24
40
56
1A
46
85
19
20
29
16
58
61
99
A8
59
49
11
A9
28
99
6A
A4
60
A6
66
54
96
59
24
81
92
62
14
16
AA
91
99
2A
61
14
9A
69
14
46
85
A2
12
15
90
65
88
90
41
91
9A
A9
04
18
68
45
11
65
20
50
14
14
90
A6
90
A8
89
51
A0
89
66
0A
14
A9
15
96
A4
AA
A4
2A
98
58
95
46
54
5A
15
04
04
96
09
A9
4A
A8
51
A6
24
98
64
82
29
5A
65
18
9A
A4
00
46
28
92
85
8A
9A
56
2A
5A
AA
62
15
16
56
29
A4
1A
5A
19
8A
84
A9
45
56
60
6A
52
51
20
8A
11
14
80
4A
8A
55
A6
66
5A
50
88
84
50
A9
58
28
51
12
45
AA
95
55
5A
9A
16
99
12
A9
4A
59
56
4A
1A
50
AA
56
51
9A
46
51
A5
9A
20
89
09
61
A4
85
9A
80
20
55
26
61
85
9A
24
64
06
92
15
16
A1
11
58
59
09
52
AA
95
58
A6
49
95
40
52
86
15
44
AA
00
66
58
92
81
89
19
05
4A
96
A0
A0
66
24
60
50
42
22
69
49
46
16
81
40
12
69
95
56
16
80
65
89
21
99
65
0A
8A
62
26
9A
50
5A
5A
96
16
12
44
99
94
90
18
A2
65
28
A6
99
25
81
46
5A
99
56
82
84
AA
22
98
AA
19
04
89
A8
4A
11
69
62
11
29
96
26
05
AA
91
A1
59
18
4A
1A
28
99
29
55
94
91
96
45
82
66
98
25
24
26
AA
65
85
A5
6A
11
2A
24
06
16
10
28
25
A4
A9
45
95
46
99
51
28
85
88
42
59
58
18
96
41
11
52
42
10
15
95
A2
1A
61
55
55
66
62
66
01
05
99
51
86
62
52
91
94
40
A9
26
65
59
96
16
52
65
A5
61
55
AA
99
A2
22
A1
A5
15
28
90
48
88
15
89
99
66
48
A9
05
95
25
46
54
92
54
91
66
24
80
99
55
8A
58
89
80
19
55
4A
42
85
58
A0
59
06
24
84
5A
88
A5
59
9A
0A
69
99
A1
06
82
28
05
11
01
4A
86
4A
45
52
15
69
A2
59
61
58
42
25
1A
25
AA
88
26
65
96
19
65
69
55
59
A8
AA
65
1A
1A
A0
65
08
A2
58
89
46
95
95
5A
26
90
A1
1A
00
44
69
A8
6A
82
62
A4
19
A6
84
16
1A
40
52
4A
89
49
68
A8
24
84
0A
AA
41
45
6A
16
64
69
89
01
61
5A
A5
A9
24
9A
16
80
99
66
25
0A
49
A6
01
48
81
04
5A
95
A9
64
5A
41
1A
6A
62
48
99
21
01
A4
19
15
A5
94
16
11
82
1A
99
A5
15
9A
1A
46
58
8A
A0
40
58
51
A4
26
99
86
98
56
60
2A
90
14
98
9A
65
69
44
26
46
16
25
04
60
92
56
A9
14
55
55
65
19
A1
06
A9
06
96
91
54
05
14
A9
66
A0
2A
55
AA
19
48
55
48
99
54
10
52
99
90
58
21
5A
11
94
A9
56
45
19
48
45
85
A5
94
69
88
18
51
49
69
65
A9
A8
65
98
25
16
86
58
1A
48
68
48
A5
09
90
1A
65
42
6A
80
50
A1
A5
81
49
94
14
81
16
92
96
91
98
65
66
9A
A0
95
2A
26
A5
18
6A
A9
55
51
55
60
58
46
00
06
10
95
84
66
49
05
95
69
52
9A
A5
16
90
42
55
81
12
9A
14
91
9A
80
86
52
A2
06
12
66
A9
11
64
85
49
94
A8
54
14
4A
44
5A
59
28
99
02
95
14
95
21
99
A8
4A
41
A8
A8
6A
60
8A
96
15
A0
69
A8
A8
A9
56
69
AA
A4
55
50
45
66
45
22
89
85
99
5A
90
15
85
69
99
56
15
88
56
55
99
45
65
86
16
8A
86
A5
0A
85
64
86
24
98
AA
16
06
65
08
A5
96
A9
AA
5A
20
84
98
54
96
A6
59
69
A8
42
68
48
10
92
99
06
5A
68
28
2A
85
46
90
44
11
21
1A
15
A6
5A
60
45
16
86
A9
56
8A
29
88
A6
A4
59
5A
A8
A6
90
1A
95
56
20
96
6A
21
88
21
09
20
19
10
06
58
89
66
66
56
99
21
86
66
94
A8
22
A5
46
4A
96
A8
21
14
98
56
8A
28
9A
92
55
56
40
44
6A
52
A8
05
29
89
1A
11
A1
46
48
89
1A
90
89
A4
66
05
90
42
88
5A
96
61
A9
9A
2A
99
00
65
22
5A
59
15
45
21
51
A2
1A
29
95
99
95
A0
51
26
90
A5
82
10
62
15
85
A0
56
86
80
98
50
26
05
81
05
92
01
A4
66
5A
8A
4A
22
50
22
26
89
60
80
A6
29
A9
54
86
06
65
A1
50
A1
56
16
1A
81
A5
88
95
A1
85
46
8A
90
45
56
58
0A
95
89
89
A1
86
48
24
8A
64
41
22
82
A1
09
68
54
20
85
28
6A
52
24
20
0A
60
95
81
84
4A
A0
54
59
59
0A
29
44
11
99
A2
55
05
54
A1
89
56
01
A4
99
04
08
9A
55
A2
01
95
98
56
A4
80
99
59
94
09
A1
6A
52
82
58
26
16
85
2A
A0
45
29
88
A6
9A
1A
61
16
52
2A
A8
05
80
51
51
26
91
A5
68
61
92
16
4A
61
28
A6
66
00
52
29
68
65
56
A6
82
15
6A
92
09
85
8A
68
68
66
62
25
68
64
4A
92
9A
9A
98
26
19
95
4A
A5
51
A2
A2
16
68
49
06
80
29
49
4A
84
51
98
A9
A5
A6
50
A8
45
A0
81
64
65
80
12
45
99
58
12
A1
96
15
59
A6
88
98
19
20
94
41
A9
86
91
65
52
55
04
62
A1
81
12
16
62
4A
18
A5
A4
89
22
A0
99
66
6A
12
26
84
A6
AA
96
85
44
6A
22
84
12
21
65
15
69
96
95
A0
88
88
55
88
89
56
56
45
59
19
55
61
50
4A
24
16
51
65
A9
80
26
A9
04
16
18
56
50
A4
85
A6
92
A8
89
68
A6
55
55
A9
2A
24
1A
18
65
59
68
19
68
A5
06
8A
2A
56
4A
5A
A9
A4
58
99
66
69
16
18
62
90
85
06
69
46
99
4A
4A
8A
94
95
A9
65
6A
9A
52
A2
2A
08
29
94
5A
99
50
6A
89
86
91
A5
55
92
91
24
15
24
80
40
0A
81
A1
58
42
6A
A9
AA
94
16
50
59
A8
48
A2
94
56
66
96
58
A8
40
86
25
50
6A
A2
68
12
16
68
6A
00
46
45
10
65
6A
29
5A
66
65
2A
8A
A1
1A
10
81
12
04
80
A1
0A
20
6A
14
A1
45
68
11
22
00
91
02
62
2A
45
16
58
82
14
56
99
22
51
14
AA
66
69
0A
65
84
22
64
40
20
66
82
41
94
81
14
56
46
89
66
01
25
60
95
4A
52
55
59
19
1A
A9
96
60
25
55
51
0A
11
AA
28
64
29
08
95
A4
14
48
9A
A5
66
A2
22
A5
AA
98
04
08
54
A8
08
28
14
46
80
54
24
51
48
21
51
14
00
A0
A9
50
4A
6A
14
8A
89
26
54
A9
40
A9
A4
5A
69
55
42
1A
9A
09
8A
4A
52
0A
08
01
86
8A
85
28
54
06
8A
54
24
1A
88
89
58
96
40
66
4A
2A
49
49
25
02
60
12
46
21
51
66
08
99
44
59
18
60
9A
81
68
88
06
19
15
69
16
62
A5
55
94
44
58
19
08
59
1A
56
49
54
89
5A
5A
94
6A
98
61
21
5A
12
5A
89
84
49
16
5A
A2
A9
A9
99
69
69
26
11
18
69
A5
6A
45
A1
5A
49
89
A9
12
04
5A
46
25
28
84
A6
99
4A
91
66
89
42
8A
69
28
6A
AA
48
15
A0
5A
A0
88
90
4A
85
69
91
26
62
46
51
89
A1
99
A9
64
4A
12
01
40
29
26
8A
1A
55
99
25
24
22
98
5A
A6
A1
94
A1
56
98
26
AA
40
AA
A0
90
15
29
A5
56
6A
12
92
A4
29
45
88
9A
20
A6
51
85
58
A2
81
90
15
4A
46
5A
6A
A8
40
2A
55
A0
65
2A
61
50
16
1A
50
A5
66
26
00
60
15
A2
A4
1A
09
29
26
61
55
A6
6A
16
86
98
6A
26
A1
91
0A
A9
55
99
A9
48
46
55
62
1A
46
A1
4A
5A
21
44
81
0A
1A
1A
94
24
A9
81
10
09
24
46
5A
88
55
62
00
06
06
45
01
45
86
08
46
08
40
44
12
5A
51
89
A1
A1
55
55
A5
82
12
59
44
05
28
A6
56
88
26
88
50
98
A6
A8
29
18
0A
56
55
24
A1
52
48
5A
08
62
54
80
52
A8
0A
56
1A
85
00
26
6A
50
6A
42
0A
42
2A
85
84
92
00
06
64
96
88
06
28
58
16
89
18
69
66
22
A6
21
A1
56
88
16
05
65
16
58
85
60
42
18
61
02
8A
06
21
66
15
86
4A
85
49
16
69
A1
4A
90
22
95
46
15
55
AA
66
50
29
A1
64
4A
44
61
61
64
05
9A
18
61
21
6A
88
82
45
99
08
14
11
8A
1A
68
21
15
19
21
60
90
08
48
66
61
6A
15
AA
69
01
18
86
94
81
10
40
61
09
90
84
4A
88
18
00
A0
44
9A
80
6A
49
45
49
5A
A9
58
41
A6
91
A2
25
99
54
6A
04
1A
84
25
A4
21
41
99
56
64
A5
AA
96
16
5A
9A
A1
0A
A8
98
6A
55
55
41
14
A6
59
16
6A
59
85
66
60
99
40
14
22
19
59
5A
24
69
A8
60
A4
48
2A
12
2A
69
21
12
4A
95
80
81
94
58
42
66
2A
08
A8
4A
A6
98
AA
96
A2
9A
A2
41
29
5A
96
1A
98
95
8A
88
99
68
08
51
29
69
96
91
24
A4
45
AA
94
A1
5A
69
90
84
26
2A
6A
19
60
02
28
49
A4
62
48
A4
04
68
61
1A
A1
1A
62
19
A6
69
09
A5
5A
69
42
05
55
64
11
A5
65
41
98
89
86
58
65
51
85
96
56
99
86
69
26
95
88
64
59
A8
AA
A8
66
2A
99
44
15
54
18
99
50
56
62
59
66
45
AA
84
4A
94
69
95
96
46
95
04
28
99
98
85
69
22
A9
61
19
22
89
5A
45
54
06
AA
69
26
90
89
06
A9
06
49
66
A4
02
59
55
56
20
A1
91
11
A4
A4
58
92
55
28
22
48
6A
AA
A1
91
95
94
49
68
14
68
92
88
A2
52
50
52
10
61
10
6A
45
52
A2
09
A4
96
01
86
22
9A
91
62
29
26
12
52
85
26
65
0A
90
58
66
AA
82
A4
A2
52
49
A9
A6
5A
12
91
61
45
55
44
64
8A
26
5A
A4
21
65
25
A2
1A
68
19
91
0A
4A
62
10
A0
19
94
98
65
12
24
05
40
56
92
2A
56
14
68
42
58
A5
5A
60
58
48
A8
19
02
56
9A
1A
44
A9
9A
A0
68
10
A4
95
80
14
46
64
5A
A0
4A
09
14
28
69
94
96
55
02
59
6A
01
84
95
2A
86
6A
62
A2
28
58
A9
68
54
49
24
25
02
88
56
09
05
14
64
01
A5
5A
66
A9
56
94
04
6A
15
1A
56
99
69
91
54
86
5A
89
54
84
99
49
00
15
94
95
86
98
A4
9A
89
5A
A4
90
64
60
56
91
9A
48
96
11
5A
21
59
85
85
69
A5
A8
AA
86
86
09
48
6A
48
0A
AA
5A
A0
8A
56
58
55
A6
14
AA
91
2A
95
11
96
49
4A
A2
46
41
15
24
59
A2
68
81
A4
68
68
26
60
86
99
18
88
A9
62
50
62
60
42
06
42
0A
86
1A
4A
84
4A
94
A5
98
8A
19
22
65
A2
85
29
05
62
54
99
45
54
A6
89
94
58
9A
05
80
26
19
5A
56
4A
96
A4
8A
91
00
24
84
86
1A
52
15
22
2A
06
54
6A
99
84
56
A5
28
16
69
52
59
69
81
25
11
89
89
16
85
66
48
21
2A
91
A6
86
85
62
58
84
16
16
1A
95
05
A2
96
99
20
69
55
80
94
56
AA
69
58
82
29
55
A4
56
51
68
05
84
86
95
49
A5
10
26
92
90
66
40
95
A5
05
62
16
15
A9
19
A5
50
A9
49
88
AA
2A
A4
61
92
58
51
89
29
82
AA
11
A0
85
80
22
65
56
14
85
62
02
26
54
01
68
1A
56
0A
20
00
59
45
51
AA
69
A0
58
28
99
46
A5
A9
00
A1
65
69
59
25
5A
48
96
11
26
54
18
68
A1
01
91
42
16
10
12
81
98
66
4A
89
92
04
44
00
50
25
90
48
94
94
2A
15
51
94
22
09
55
69
54
64
62
60
A0
96
18
AA
0A
54
61
96
96
AA
55
49
58
AA
89
09
96
60
86
95
5A
65
90
65
99
16
65
06
A1
55
14
48
69
9A
62
96
46
41
96
94
90
A1
16
04
80
41
99
A5
25
62
55
A9
14
90
15
9A
15
A2
46
94
88
89
29
28
55
6A
56
24
9A
24
48
86
52
99
59
24
21
68
41
69
91
26
28
19
6A
54
6A
15
99
61
91
18
5A
5A
59
4A
59
5A
88
95
91
96
5A
4A
A5
56
18
55
19
01
22
10
16
58
A4
01
94
06
91
A9
15
69
5A
91
50
62
89
21
91
0A
2A
2A
49
A4
6A
56
29
19
19
59
51
15
80
16
94
99
9A
84
1A
A9
A4
56
40
52
66
29
41
50
94
21
01
A9
16
46
15
6A
56
92
48
A2
A5
41
4A
86
14
56
14
04
A0
14
9A
66
59
98
89
A2
68
2A
44
50
91
40
66
1A
55
96
48
AA
6A
19
55
12
18
55
25
44
A2
60
68
60
86
04
55
94
94
20
21
58
56
6A
69
54
99
22
19
A8
9A
59
60
19
49
AA
62
06
66
A4
51
0A
26
89
92
20
29
1A
58
86
98
25
A5
A9
50
56
65
69
65
05
44
99
05
49
64
96
81
95
20
A8
69
54
8A
21
49
61
65
98
04
5A
84
9A
84
69
02
11
15
52
8A
08
16
AA
92
62
09
A4
58
99
A6
A9
A6
A9
49
59
5A
52
94
50
65
A1
81
46
19
09
05
81
4A
06
11
4A
29
68
44
5A
5A
26
04
55
A2
29
41
6A
49
91
54
44
26
49
4A
22
90
68
89
49
54
58
19
82
11
89
65
59
89
90
0A
A2
55
91
A9
64
04
66
66
29
05
9A
55
64
19
80
14
A9
9A
9A
56
64
42
46
A1
9A
A4
66
50
65
1A
56
66
0A
A9
41
95
94
90
1A
11
69
A0
A9
44
42
85
14
46
A6
65
59
66
84
AA
06
A1
AA
51
56
A1
26
6A
5A
56
A2
94
22
65
92
96
91
44
51
A2
21
19
46
A4
58
A6
65
56
58
55
91
55
69
51
24
24
22
6A
A1
A8
16
28
2A
25
12
28
99
25
1A
65
41
46
99
25
A5
98
65
A9
12
56
45
A6
46
86
94
26
A2
AA
95
18
05
49
5A
66
99
81
54
84
44
A2
4A
5A
24
8A
22
19
AA
59
99
9A
95
94
56
19
95
26
46
24
12
04
2A
55
59
A4
4A
1A
9A
A6
A6
95
59
45
21
80
69
59
9A
58
A1
16
8A
2A
50
68
68
19
46
82
A2
91
51
15
49
49
45
4A
52
11
A2
9A
6A
29
42
85
96
54
55
41
96
95
14
61
5A
22
91
98
25
8A
16
16
12
81
56
9A
69
64
29
A4
15
A5
60
92
66
A1
29
62
29
92
96
98
A9
94
49
55
16
94
91
01
26
15
A4
89
28
20
0A
46
09
AA
46
A2
1A
98
81
55
19
98
25
54
44
68
18
14
82
15
AA
29
09
6A
12
98
99
02
5A
95
60
84
81
5A
AA
89
25
54
16
4A
A8
55
55
92
19
12
99
6A
08
A9
50
65
26
A4
61
99
A6
42
A1
55
95
90
06
89
64
16
95
01
41
84
69
1A
55
A8
96
42
50
51
02
50
04
86
54
48
66
A8
89
48
15
22
68
88
50
82
10
8A
22
A6
10
45
6A
25
12
64
98
29
44
92
06
66
12
62
88
51
94
61
AA
69
42
25
5A
61
AA
51
65
A4
59
56
5A
19
69
92
A4
49
66
12
25
95
99
52
20
84
6A
A8
6A
22
A0
96
A8
51
A2
25
56
98
94
69
A8
64
9A
8A
88
A8
58
48
58
A1
86
8A
86
8A
96
85
10
A4
84
28
AA
66
85
91
19
14
69
25
06
59
A2
85
18
A6
69
6A
56
A0
15
9A
5A
02
56
51
96
9A
50
61
55
80
AA
52
A1
48
95
0A
2A
86
54
01
AA
69
0A
64
88
99
12
89
A2
54
A9
25
6A
84
56
49
58
94
84
66
19
66
61
89
1A
92
2A
9A
90
14
88
A2
A8
AA
50
94
9A
25
55
86
1A
69
9A
68
96
62
9A
51
8A
51
50
15
16
A1
99
45
66
91
5A
96
99
09
00
6A
92
59
56
65
2A
66
68
16
A6
25
94
6A
16
96
85
24
95
58
48
29
05
1A
A4
89
69
10
89
16
56
42
02
96
91
A5
09
29
29
64
06
66
48
88
68
45
8A
62
0A
62
51
62
91
98
02
AA
1A
69
62
40
46
01
94
A9
94
91
08
08
25
42
90
60
1A
92
A9
52
28
42
90
94
AA
5A
AA
19
91
62
9A
42
2A
06
AA
40
69
28
58
56
01
22
45
89
95
92
18
A1
51
6A
A2
18
A8
49
00
16
05
01
55
29
A5
0A
5A
55
5A
51
5A
58
99
A9
A1
A5
6A
99
66
46
06
88
94
A0
95
68
05
45
9A
8A
62
01
52
A9
99
88
05
68
15
05
A8
25
96
41
A8
41
02
20
2A
59
4A
52
12
1A
69
62
65
56
65
2A
80
40
21
29
19
A4
40
50
AA
56
9A
88
A1
A8
24
AA
9A
64
A8
91
69
61
16
6A
08
06
2A
0A
45
94
49
26
86
25
86
20
21
42
80
22
A1
1A
11
48
64
58
68
06
98
1A
95
2A
06
50
92
51
98
96
25
52
81
51
68
6A
28
09
60
A1
40
65
85
05
51
66
A5
51
16
54
15
99
18
08
4A
96
44
42
62
8A
51
22
58
44
50
49
82
82
09
19
80
A6
58
01
15
86
05
29
8A
25
68
81
82
56
42
91
59
A8
45
10
22
49
81
14
65
85
2A
41
A4
96
65
16
AA
A0
98
19
A6
5A
A8
94
45
A5
69
89
12
98
91
18
A2
0A
54
94
65
55
84
98
A9
A9
86
48
24
4A
89
16
46
16
86
09
25
10
66
A6
54
11
0A
24
61
22
A1
62
01
19
18
24
A8
15
01
16
4A
14
56
69
90
58
26
66
64
84
1A
45
56
68
5A
15
AA
89
41
15
58
A2
A1
44
92
41
89
A1
62
A2
51
69
58
10
60
08
91
60
06
01
66
55
16
66
94
92
99
A6
15
56
A0
69
85
96
60
9A
96
02
86
A9
16
9A
AA
46
16
14
1A
66
A6
AA
18
96
A9
99
94
6A
88
02
59
46
85
8A
16
4A
84
51
A5
29
48
8A
24
20
8A
84
28
A8
54
66
41
59
62
A0
22
11
96
2A
A5
46
6A
68
54
44
1A
15
14
52
59
64
58
52
69
A4
84
14
45
15
69
50
4A
19
81
58
5A
51
42
2A
65
60
90
16
66
65
62
56
40
00
9A
69
02
28
58
56
18
15
AA
65
A5
44
11
40
A5
99
62
49
90
82
92
55
9A
21
09
01
54
A4
89
6A
92
28
25
A6
96
80
68
45
A9
8A
29
42
89
12
A9
42
52
66
81
59
80
15
85
89
92
49
15
08
84
8A
51
A2
64
48
A8
AA
66
06
11
20
25
A6
86
86
A0
16
A6
16
45
94
82
49
49
51
42
84
40
81
86
85
65
26
86
02
16
A9
8A
59
54
A5
12
91
60
25
28
55
28
4A
11
92
20
49
A6
10
16
09
94
20
5A
46
55
8A
06
46
99
6A
99
58
85
58
52
98
26
25
05
A6
5A
0A
96
59
82
0A
89
12
6A
6A
68
89
60
90
65
A5
11
6A
29
A4
61
92
50
44
92
A2
64
69
60
69
8A
86
91
44
5A
55
A1
45
59
59
46
6A
12
85
24
22
A4
25
45
94
96
06
25
94
46
45
80
69
95
A6
60
10
19
6A
82
2A
0A
99
A8
60
26
19
A1
A5
5A
56
9A
88
60
A8
91
92
58
85
40
AA
81
91
26
0A
48
86
AA
21
A6
05
2A
09
54
10
58
56
25
28
89
62
8A
56
A9
96
6A
99
51
89
94
99
89
66
11
55
62
92
24
66
A2
48
6A
96
94
5A
86
48
92
82
54
59
52
8A
64
18
0A
09
28
60
58
14
21
04
59
A2
5A
46
A6
9A
5A
91
26
21
A9
58
69
52
81
65
9A
A4
A2
88
24
2A
9A
A6
88
26
A8
52
25
09
11
59
65
65
19
06
6A
25
59
41
99
15
95
5A
80
44
AA
86
8A
46
66
4A
05
9A
8A
62
48
69
64
A1
A2
56
85
85
44
95
AA
26
29
A0
69
52
44
98
98
1A
69
2A
46
25
60
85
54
54
A1
6A
61
96
95
25
60
99
69
06
A6
4A
56
AA
55
82
AA
64
55
69
51
06
16
98
25
16
49
AA
A9
56
AA
A9
05
1A
A1
5A
1A
05
90
98
02
2A
24
5A
AA
12
94
A5
A1
81
9A
84
91
20
2A
84
49
A9
55
41
5A
81
84
65
60
54
A1
A9
45
65
A2
98
10
14
A1
59
25
24
A4
61
05
81
44
06
95
25
51
46
05
68
22
69
21
55
A1
AA
64
A8
61
44
06
22
21
54
A9
8A
69
4A
65
29
6A
98
26
91
50
86
42
46
A5
48
56
24
85
96
29
20
68
6A
89
02
91
05
95
A5
51
28
58
81
68
58
98
A8
A1
A2
80
56
20
08
04
96
10
A8
55
21
4A
80
55
66
19
A5
45
49
8A
44
8A
6A
AA
92
9A
4A
91
29
95
21
16
A0
15
64
95
2A
49
91
98
0A
94
56
A5
56
01
22
92
9A
05
64
56
95
08
6A
AA
98
11
6A
95
46
52
59
64
46
54
89
96
05
84
52
60
86
42
09
5A
66
12
A1
A8
9A
AA
08
28
20
95
08
AA
1A
A4
25
0A
12
58
04
95
45
96
92
61
15
AA
6A
26
21
28
99
69
55
6A
6A
54
96
99
66
10
51
AA
54
60
56
69
46
AA
92
5A
A9
9A
51
9A
59
54
86
82
2A
A0
49
80
08
98
9A
A5
4A
61
51
82
55
20
1A
A9
55
6A
84
61
66
95
49
56
80
08
64
6A
15
59
65
62
46
49
48
89
99
16
88
99
54
89
94
26
61
A4
26
4A
65
A5
69
58
8A
50
51
59
A5
92
42
81
6A
98
01
10
AA
46
88
24
49
2A
28
9A
59
0A
9A
40
5A
22
58
25
45
49
60
6A
62
14
A5
65
88
8A
50
05
00
1A
A0
0A
19
99
91
00
85
50
14
56
61
94
66
06
69
64
64
86
46
69
82
16
AA
AA
2A
A6
A9
55
80
88
11
59
96
24
52
44
64
49
A6
09
A8
41
56
20
A4
50
69
54
56
69
28
A8
14
49
66
88
89
A1
9A
55
95
99
66
51
A9
29
59
0A
88
6A
62
21
A1
12
94
68
18
91
1A
25
55
09
4A
A4
16
29
46
1A
A4
42
08
01
86
26
42
6A
06
95
14
81
A0
5A
15
84
28
12
29
A5
8A
29
A5
09
AA
06
59
AA
68
A5
62
69
1A
41
85
94
91
6A
A5
58
91
06
15
A6
89
A8
26
9A
52
51
56
44
8A
48
8A
15
64
68
AA
02
98
84
88
4A
9A
89
25
A1
9A
60
55
96
58
49
29
99
42
41
18
25
A5
5A
89
95
84
46
55
91
26
44
56
6A
92
48
65
A5
26
AA
69
86
2A
98
2A
54
89
49
4A
65
98
12
18
55
A9
56
12
91
15
46
54
26
81
0A
85
A6
05
AA
16
08
81
18
28
A1
95
A5
06
89
86
9A
A5
61
98
9A
49
89
95
88
09
18
40
A5
44
1A
05
5A
55
29
45
25
A9
88
A5
99
94
99
52
96
10
68
65
9A
60
50
99
6A
5A
A4
A8
69
44
45
1A
68
66
89
A9
69
51
AA
99
A8
65
95
86
11
42
46
45
59
58
46
65
A6
68
12
AA
62
A1
15
88
A4
65
8A
8A
65
89
05
64
51
6A
91
82
58
A1
62
90
19
A1
49
A1
59
85
42
65
60
04
96
04
28
81
05
6A
85
95
AA
50
1A
69
50
A6
54
55
A1
A0
95
69
98
26
61
52
86
46
85
22
81
9A
89
81
05
2A
28
8A
A4
A6
80
24
A9
16
2A
A1
A8
A8
22
52
99
81
11
69
89
A4
50
49
06
25
60
62
65
A1
86
19
A6
10
16
16
56
55
61
06
58
20
56
21
64
A8
69
A2
26
6A
60
98
AA
86
56
45
84
85
A4
62
69
89
95
24
55
06
A8
A8
96
66
92
A8
95
AA
6A
09
16
22
59
06
68
45
A5
A2
1A
A2
68
45
88
04
64
68
40
54
49
82
9A
49
62
16
24
4A
41
40
5A
54
08
90
24
04
91
58
58
62
00
84
19
01
2A
48
9A
98
61
AA
14
60
45
2A
80
21
8A
85
18
46
65
6A
A1
06
64
A1
A2
00
19
18
4A
A5
05
A0
9A
88
66
91
54
08
65
19
16
99
5A
81
16
98
20
18
5A
15
2A
A0
86
51
9A
02
85
A0
0A
65
AA
5A
49
50
24
65
16
54
96
A6
20
A2
62
16
4A
A5
4A
64
A0
A4
14
56
11
59
92
86
A2
95
08
24
6A
81
6A
25
2A
24
54
02
56
92
89
A1
99
25
61
51
19
40
A8
10
09
59
A1
22
9A
82
65
A9
45
82
68
92
2A
29
09
4A
24
4A
54
A8
49
15
11
59
54
5A
15
52
55
08
2A
55
04
15
99
28
06
50
2A
88
90
4A
99
19
10
98
86
05
2A
A6
98
28
61
56
94
50
28
28
24
92
90
18
89
90
1A
96
22
62
A1
69
59
99
42
9A
96
66
9A
99
18
A6
98
91
96
85
24
66
21
46
95
61
A6
2A
81
52
98
95
96
5A
14
69
88
69
86
51
69
11
51
95
28
4A
4A
54
44
65
69
69
94
66
58
26
4A
91
55
50
A1
9A
95
96
54
66
6A
95
64
09
A2
09
12
A0
61
19
25
65
42
45
00
22
98
61
89
51
9A
98
9A
29
80
45
AA
64
A0
62
84
A8
6A
65
AA
5A
06
58
1A
22
99
19
02
96
5A
92
A8
81
25
15
A5
85
90
10
2A
81
A5
65
59
92
65
A0
15
69
22
A4
4A
59
94
88
89
95
94
11
00
44
09
94
44
91
16
91
99
64
95
60
A2
28
81
98
16
68
9A
81
98
58
28
44
99
1A
65
A8
28
44
AA
28
6A
62
82
A6
64
64
69
A8
66
82
56
A2
62
04
56
55
90
69
A9
A0
80
8A
45
88
96
86
41
9A
84
40
0A
84
89
51
41
14
45
49
05
92
6A
50
26
0A
26
A9
25
62
18
99
84
16
54
98
64
98
48
84
20
28
24
50
2A
65
40
6A
56
49
44
A4
51
14
5A
46
05
95
85
04
A4
40
98
4A
25
AA
98
59
1A
59
09
99
05
A5
68
44
51
4A
94
9A
69
04
55
8A
58
58
40
9A
25
A4
45
14
95
09
6A
15
40
95
61
AA
54
A5
A1
86
95
50
60
18
98
90
82
22
90
60
95
59
88
19
11
A9
29
05
9A
1A
A2
60
A2
62
96
10
29
21
24
16
91
86
91
A5
29
A5
54
4A
09
5A
9A
5A
64
AA
45
86
22
14
46
91
05
41
46
96
41
58
62
AA
91
8A
40
88
45
20
A8
46
28
51
96
15
52
59
A8
48
26
68
81
59
A4
91
55
42
90
A6
18
09
A9
69
58
89
55
94
51
92
26
64
96
60
14
99
81
64
A6
48
8A
2A
92
AA
28
95
88
19
86
88
65
52
69
10
12
84
49
29
2A
92
94
22
84
25
99
A4
20
2A
22
88
42
5A
45
02
19
62
19
AA
61
6A
02
61
64
A2
42
5A
04
85
A4
55
06
59
65
58
06
19
51
65
20
66
69
98
65
59
88
19
14
66
88
10
10
68
44
59
99
25
00
12
9A
61
89
60
94
56
46
11
A4
51
65
58
19
84
16
10
16
A1
84
A6
65
21
48
9A
51
1A
05
14
1A
21
94
1A
86
80
2A
99
96
50
62
54
A4
64
4A
88
6A
40
96
85
85
95
89
65
14
18
26
AA
28
61
92
22
19
8A
92
1A
1A
AA
66
10
64
A4
61
48
21
9A
92
9A
54
1A
99
99
94
86
26
02
65
99
24
1A
A6
64
41
A4
64
56
11
81
45
68
94
A6
46
16
22
AA
48
05
80
66
95
95
46
40
41
66
95
66
84
6A
41
44
92
91
29
5A
84
14
28
2A
29
01
64
81
61
A5
A8
4A
45
84
20
81
48
05
00
68
64
8A
A0
62
25
80
62
69
82
45
65
95
A0
44
56
58
48
91
11
40
11
01
AA
94
46
8A
95
55
89
66
58
81
42
84
45
24
99
04
62
8A
16
16
99
01
44
50
26
64
A8
42
25
A8
12
9A
99
80
A5
54
50
51
81
69
96
5A
65
46
08
25
66
19
89
55
92
06
96
18
55
AA
09
22
65
52
15
48
44
A9
95
20
0A
26
59
68
86
45
A1
69
29
A6
85
1A
A8
56
29
4A
4A
A5
15
12
41
55
85
66
22
51
A8
AA
12
6A
1A
28
29
6A
18
A4
98
A5
28
59
69
52
98
50
41
44
58
64
44
88
26
52
94
40
02
18
62
A4
8A
2A
24
09
81
06
95
59
58
69
21
8A
65
A8
AA
A4
4A
16
24
86
A9
06
50
88
05
98
95
98
A5
5A
A5
40
5A
29
09
66
50
95
15
65
82
56
65
58
86
9A
18
A9
55
0A
A1
14
98
26
AA
60
21
A6
61
56
10
90
65
A1
90
A5
26
28
82
A0
11
91
95
12
A5
85
A6
55
54
2A
A4
06
52
5A
85
0A
88
1A
10
41
46
91
96
88
40
1A
92
49
25
92
59
A0
11
54
54
45
80
14
A2
0A
95
0A
99
64
91
82
96
62
5A
68
51
5A
61
4A
6A
45
A5
61
58
6A
49
59
55
49
96
A6
19
61
55
99
89
A6
21
A8
12
19
A4
61
68
95
45
69
A8
45
46
2A
46
85
A8
09
94
2A
61
A9
10
60
2A
85
64
0A
51
50
52
6A
05
81
14
80
A8
62
26
A1
90
16
99
5A
69
51
44
08
18
92
55
61
49
A2
58
16
50
44
84
A2
61
92
A4
A1
51
86
05
65
02
98
A5
92
46
59
85
94
19
82
06
44
18
09
81
2A
25
89
AA
94
62
66
59
04
0A
A8
25
42
68
62
14
82
51
52
85
AA
62
AA
80
98
2A
00
42
95
66
52
0A
19
44
40
56
54
A6
66
95
02
A6
15
82
90
50
56
88
92
8A
A6
62
11
02
21
48
56
0A
98
84
A6
48
94
58
81
56
A2
15
59
61
29
80
6A
A0
64
48
85
02
82
61
A4
64
9A
64
04
A5
AA
65
54
14
A8
56
89
90
28
A2
08
A6
56
60
42
21
A2
90
A8
69
58
91
29
55
49
4A
42
8A
A9
05
9A
50
44
A1
26
10
52
45
A8
9A
56
5A
51
09
91
22
4A
1A
55
A1
5A
41
52
18
0A
A8
41
96
69
5A
2A
A6
85
55
82
A4
46
56
AA
18
55
66
89
84
19
69
49
A1
59
1A
92
A8
01
9A
15
95
09
59
65
62
52
6A
1A
24
88
A5
96
56
08
85
8A
11
16
16
5A
22
85
50
14
04
15
A6
02
85
A9
29
14
96
92
65
6A
41
69
A5
A6
62
26
82
95
86
A1
89
56
29
4A
80
19
95
00
06
A6
14
A2
19
AA
A6
26
5A
84
84
22
95
5A
08
A6
4A
1A
41
86
82
62
00
A5
42
A1
08
16
AA
9A
51
91
2A
4A
A5
96
51
95
42
05
60
64
A5
A6
64
86
A1
68
56
85
AA
44
29
64
09
16
25
64
80
98
51
15
4A
02
69
A6
0A
54
2A
69
89
11
89
00
56
41
51
14
64
56
82
19
88
42
01
86
21
14
98
66
64
09
49
68
09
2A
A1
49
95
85
61
46
92
94
55
6A
A5
55
99
61
12
82
20
A2
28
69
48
25
52
54
66
81
44
02
60
6A
45
04
48
06
10
6A
96
A4
12
52
8A
45
A6
45
54
11
58
95
40
89
06
22
56
26
92
26
00
A6
24
99
21
0A
24
44
08
81
2A
06
A5
52
A4
51
0A
65
65
A5
0A
49
8A
00
95
89
02
A5
A6
19
29
66
40
80
8A
68
04
44
A6
94
44
A8
88
26
10
94
16
01
A1
29
60
15
46
21
20
9A
26
AA
81
66
6A
19
96
99
44
54
50
A5
66
99
51
2A
A5
18
A6
4A
45
69
A9
82
94
52
96
51
A6
65
41
8A
26
62
48
1A
11
41
95
19
80
2A
95
5A
54
A6
98
15
48
6A
42
84
40
9A
A9
96
61
16
AA
15
A6
66
99
A0
50
24
88
65
12
A1
59
56
A1
A4
22
99
92
99
96
1A
02
69
2A
44
A9
15
5A
0A
95
AA
98
64
A6
48
40
80
24
24
56
2A
24
A5
98
2A
16
11
54
68
A6
99
25
26
09
29
A4
5A
92
A4
51
A5
92
69
55
55
28
A4
59
A0
98
A2
A4
21
44
42
6A
29
8A
52
6A
80
A5
62
68
81
2A
22
60
26
A1
52
A9
45
42
52
52
28
52
29
8A
AA
16
85
22
60
59
66
46
94
04
52
A2
45
25
0A
A0
96
61
6A
8A
49
20
58
06
02
A5
42
A0
94
A8
24
0A
29
8A
69
10
A5
99
64
09
10
16
19
A2
20
A4
94
65
89
04
18
16
85
15
A2
56
92
18
A1
51
5A
59
24
29
A5
48
51
69
A2
20
86
15
A0
24
64
91
A1
9A
69
6A
52
8A
55
15
A1
15
A8
AA
15
90
98
08
4A
84
84
19
A6
86
64
90
9A
6A
00
5A
95
92
92
1A
9A
21
60
62
99
A8
A4
85
20
50
29
A2
82
05
94
A8
69
56
94
A8
80
84
90
40
99
91
48
11
54
11
16
29
41
22
82
14
A0
86
41
98
84
24
12
0A
49
94
26
19
4A
90
92
01
62
01
22
29
01
14
91
A1
55
80
89
56
42
40
66
91
94
60
64
29
A9
4A
89
04
84
01
A4
25
55
84
50
9A
55
25
51
05
06
6A
12
24
66
00
84
29
54
88
56
40
61
19
84
29
64
26
55
8A
A1
61
46
46
42
64
99
09
21
99
84
86
95
66
44
96
06
88
99
1A
94
15
12
96
4A
9A
86
86
65
5A
19
69
A5
55
60
60
99
42
14
00
69
92
41
54
42
59
66
04
92
58
2A
42
8A
49
5A
89
A8
60
25
A6
55
45
89
8A
22
46
19
95
A4
8A
41
56
80
1A
60
80
5A
A2
66
89
55
15
92
A4
40
8A
95
82
94
42
16
2A
42
81
66
64
91
A8
9A
2A
52
68
15
16
65
A5
89
84
A6
0A
A0
18
55
1A
92
99
09
44
2A
00
1A
66
00
16
21
99
08
98
56
5A
99
84
A1
5A
1A
88
49
A6
A5
59
AA
99
A9
0A
95
9A
16
55
19
22
91
85
65
06
A5
0A
60
2A
88
51
89
29
8A
01
22
99
28
AA
58
09
56
65
99
54
14
62
68
01
54
99
08
19
51
9A
59
06
60
08
94
96
A4
11
5A
A0
2A
11
95
62
92
18
62
46
96
26
8A
48
A5
2A
56
28
92
1A
15
96
95
61
A6
AA
91
61
92
89
A2
61
51
85
94
9A
41
89
44
98
40
61
1A
90
49
25
29
88
A5
60
50
51
56
04
54
92
88
45
54
48
59
A9
A9
64
14
86
54
40
69
8A
65
16
55
26
5A
50
59
26
42
65
5A
96
65
61
25
62
A5
A9
91
88
62
55
64
44
81
22
02
24
50
19
66
6A
49
15
59
A2
59
09
99
81
15
45
62
9A
24
98
41
55
49
6A
2A
61
00
A4
A4
55
0A
58
A6
12
64
16
22
A0
41
11
A1
90
19
1A
89
06
11
10
58
90
89
21
21
85
5A
59
A4
2A
51
86
66
66
82
84
60
19
55
A6
60
88
A8
92
56
5A
A8
65
16
86
A2
5A
00
99
99
42
64
86
00
21
64
96
26
86
15
86
41
12
16
88
29
A9
04
86
A2
1A
50
0A
66
14
A9
02
0A
14
18
25
24
2A
A2
6A
20
26
A9
5A
06
15
09
26
A9
06
18
2A
11
A6
A5
61
6A
51
15
45
A9
96
11
46
45
90
61
55
15
55
56
62
A0
46
A8
21
85
0A
25
16
29
A4
22
84
A8
26
1A
59
61
84
19
A8
88
06
98
00
00
05
56
8A
1A
4A
11
59
18
A1
29
11
95
44
01
45
24
62
59
62
12
90
59
68
98
25
86
91
16
A6
1A
65
9A
46
89
04
05
44
A8
99
AA
96
10
68
A4
48
99
84
20
2A
59
A9
25
49
66
25
40
98
11
24
66
80
80
09
84
51
58
89
4A
06
08
A8
49
0A
10
29
9A
60
66
90
A2
16
62
A8
89
5A
9A
6A
1A
95
14
A8
25
18
2A
56
61
59
6A
55
20
29
62
56
59
28
92
89
15
A9
51
41
41
4A
56
95
64
98
25
42
56
52
14
0A
48
4A
5A
66
92
A1
45
98
92
09
42
89
44
55
18
9A
51
08
9A
60
45
A1
58
05
69
96
0A
22
99
09
A5
05
8A
21
42
12
A2
A6
86
6A
A4
10
8A
01
61
52
64
20
84
41
0A
99
45
10
00
29
65
94
65
02
AA
51
84
12
9A
6A
62
21
85
95
45
25
66
59
41
48
5A
06
55
99
A6
04
2A
61
98
42
80
49
85
98
1A
99
A4
48
28
15
64
69
A1
15
54
45
6A
54
61
95
14
21
01
A9
1A
60
45
96
4A
45
81
49
69
82
58
86
95
18
45
80
91
88
45
15
40
89
90
55
02
A1
65
41
62
62
86
61
16
69
04
44
AA
56
88
95
99
16
66
09
19
20
20
84
15
58
A8
42
2A
68
56
45
86
00
85
8A
42
14
81
A4
52
40
81
09
A0
62
5A
56
05
58
50
46
62
1A
99
58
66
1A
82
94
A6
2A
09
86
4A
9A
69
12
58
89
06
28
92
65
A9
44
06
60
9A
0A
51
5A
9A
01
15
22
80
29
49
4A
61
49
A9
49
59
05
95
42
24
48
60
98
91
58
05
90
AA
49
81
A4
2A
88
49
51
91
A4
95
48
46
2A
44
14
29
20
58
61
25
96
51
9A
59
95
50
66
1A
9A
46
56
A0
66
58
46
25
56
8A
2A
6A
92
96
10
2A
90
95
82
28
5A
86
48
91
45
2A
99
62
64
99
15
26
22
10
62
51
28
08
05
1A
9A
9A
96
99
58
A9
4A
65
99
52
64
51
12
54
A5
19
15
95
91
58
06
65
84
65
51
4A
A6
9A
1A
91
6A
A5
4A
84
5A
04
86
51
55
68
46
A8
61
22
25
59
66
A1
80
2A
A5
5A
64
25
25
58
6A
25
42
98
9A
96
AA
9A
11
89
A6
4A
54
54
12
90
99
A8
58
69
69
11
49
A9
A2
95
5A
A6
19
A0
85
16
9A
15
01
9A
28
5A
05
42
66
51
85
56
05
46
96
AA
64
10
25
A8
82
26
01
58
96
26
12
11
59
A2
A8
02
48
99
58
51
65
2A
64
A5
A8
94
26
A2
51
94
2A
AA
18
94
40
A4
18
54
A6
50
AA
84
62
22
58
05
45
82
90
45
AA
82
60
56
18
88
15
49
66
62
A6
25
AA
46
58
55
85
28
11
A1
81
41
01
95
19
04
82
80
89
40
09
28
51
01
A1
A8
25
1A
29
95
66
02
65
00
90
AA
55
AA
80
4A
06
89
A6
46
66
29
AA
6A
69
95
61
46
08
A1
49
A5
06
01
84
25
65
99
06
69
18
A6
48
12
08
00
50
41
98
50
AA
65
59
04
82
5A
51
92
61
95
10
2A
26
24
95
81
25
85
55
52
04
90
4A
8A
91
A5
09
20
8A
09
26
12
8A
AA
88
16
81
50
91
64
44
01
24
26
A9
9A
60
8A
5A
95
92
9A
18
19
85
12
94
55
45
92
4A
59
46
64
5A
5A
94
01
19
22
95
16
92
81
88
99
59
49
04
18
20
54
90
29
25
22
A1
01
18
25
A5
61
85
66
6A
21
56
5A
29
95
22
08
45
16
55
86
6A
45
89
96
25
56
16
5A
24
60
95
62
81
09
A1
9A
4A
66
8A
66
55
86
95
41
28
09
AA
08
86
AA
88
66
5A
58
04
25
25
52
52
55
18
61
94
11
55
61
A5
15
18
A2
42
A4
26
51
A5
91
24
25
68
66
95
82
26
22
94
25
8A
A0
96
5A
19
A1
24
89
28
02
52
98
46
58
86
56
AA
4A
AA
A5
58
25
59
AA
55
82
85
54
55
95
9A
48
4A
2A
66
29
01
01
01
61
40
4A
AA
A9
8A
16
84
5A
51
65
00
A2
66
69
95
61
29
20
85
22
29
11
89
45
82
68
6A
A8
95
48
11
52
86
64
AA
42
A8
98
60
A0
15
94
80
10
26
92
55
2A
9A
12
10
99
49
46
54
1A
16
22
10
92
66
84
66
22
18
55
62
22
A4
AA
A2
89
56
60
18
99
A4
6A
81
A5
84
A6
4A
51
AA
6A
91
59
54
60
02
66
26
A6
45
89
4A
10
89
2A
A2
18
49
1A
4A
85
84
88
65
86
10
22
25
A9
49
86
86
15
92
49
82
86
92
5A
9A
20
2A
A5
05
16
61
40
02
42
88
59
15
22
0A
A1
21
A2
50
52
24
18
92
90
41
49
16
61
A6
95
28
0A
02
80
18
26
18
95
08
91
A0
16
56
A5
49
26
49
19
42
19
6A
51
1A
62
56
9A
98
15
AA
28
28
85
16
99
A6
9A
44
26
95
80
65
95
54
24
A4
9A
1A
52
A1
86
91
50
18
6A
59
59
55
82
5A
12
22
42
A6
60
41
22
2A
56
65
19
61
19
92
14
25
A2
80
5A
94
99
65
61
85
0A
61
10
20
21
6A
A9
94
A2
86
65
55
98
91
1A
A9
21
1A
5A
9A
A5
A2
46
25
55
86
95
08
26
21
A6
A0
11
18
61
9A
22
5A
45
85
1A
52
22
91
4A
A8
1A
65
26
45
89
45
9A
AA
65
86
51
59
95
1A
92
69
05
86
54
10
10
16
59
56
A6
4A
29
52
A9
A9
6A
A6
44
89
A1
92
2A
49
96
60
A4
9A
51
90
69
A6
95
12
9A
91
82
68
15
92
46
A9
46
14
85
25
95
55
69
92
48
48
96
69
68
55
A5
19
06
69
21
28
8A
A1
69
A5
42
99
28
96
44
49
A9
6A
92
48
0A
48
88
25
11
59
92
5A
99
62
2A
59
8A
59
9A
69
A6
10
A5
9A
AA
04
A4
65
A4
2A
60
5A
11
AA
99
51
5A
66
68
A6
A9
45
92
A6
55
85
99
51
99
82
06
59
96
91
69
40
64
41
10
A1
90
11
22
86
58
95
A4
42
1A
06
22
68
A9
24
82
5A
59
61
26
69
68
A6
5A
A6
96
A4
14
A5
68
98
9A
5A
81
08
8A
85
61
56
41
62
94
60
21
4A
52
50
09
50
48
40
A2
A8
15
28
21
26
55
A2
44
24
05
80
06
6A
62
62
A5
99
66
22
8A
05
4A
55
86
12
5A
09
66
AA
A1
A6
A5
88
01
00
61
25
59
00
85
81
91
08
4A
94
69
44
91
AA
26
56
A4
09
A1
A1
1A
80
1A
40
91
18
80
60
01
40
55
A9
61
18
A1
AA
51
A5
9A
24
55
A9
56
90
81
50
5A
09
55
56
26
A8
9A
86
85
94
01
61
54
A4
5A
94
99
26
80
49
92
25
AA
20
A9
82
A9
A6
12
68
10
61
09
60
46
94
45
21
4A
16
21
6A
AA
88
86
A8
A2
92
26
82
A2
59
51
28
56
A6
51
16
49
A0
6A
60
61
68
52
55
AA
61
69
59
42
84
A0
84
55
86
A2
86
15
82
18
40
69
99
91
4A
01
45
50
26
50
05
92
84
06
98
59
11
50
66
8A
68
24
29
49
92
89
56
49
48
52
A8
4A
8A
69
46
59
88
2A
48
16
05
5A
94
5A
61
89
1A
0A
A4
99
69
81
20
95
19
99
2A
6A
AA
96
A8
64
90
21
11
45
09
52
12
45
54
91
68
66
66
05
42
5A
98
AA
52
56
25
64
02
85
15
86
49
5A
22
49
66
60
8A
45
9A
95
12
00
66
A8
69
08
46
46
60
15
20
59
9A
95
19
01
9A
85
25
96
A4
A8
59
99
95
4A
05
45
A5
91
95
24
59
A8
05
5A
A1
98
05
96
26
05
52
A6
15
41
25
0A
58
22
A9
16
65
21
61
92
59
58
85
09
46
61
80
4A
06
58
9A
80
49
AA
45
A6
10
19
A4
61
65
24
95
25
15
8A
69
25
29
86
59
68
59
81
66
69
11
59
56
A9
4A
A0
56
42
02
85
26
61
10
82
95
96
95
98
92
A9
99
98
01
1A
55
49
95
62
05
55
84
54
45
42
65
19
59
A4
61
12
26
19
64
69
A9
42
4A
24
66
A9
A9
90
28
54
86
99
10
A5
89
66
20
00
89
A9
96
51
64
94
A1
A0
92
A6
44
29
49
2A
1A
15
11
24
44
22
65
55
96
51
56
11
51
01
91
11
80
A5
6A
16
1A
42
86
91
88
A6
9A
66
09
49
59
A4
89
A2
09
29
58
21
98
51
10
95
66
86
48
98
54
06
84
4A
22
A0
60
41
86
66
62
22
10
16
48
66
A2
91
8A
96
80
86
05
69
9A
45
55
11
91
94
52
AA
94
2A
42
66
84
A4
61
09
26
42
4A
80
81
A2
56
14
1A
14
21
62
85
60
18
21
12
0A
49
28
54
15
26
68
2A
85
5A
1A
8A
59
01
26
29
64
11
99
99
1A
20
64
59
A6
A8
A6
61
A6
58
49
AA
60
64
20
88
A0
56
9A
21
0A
81
84
51
22
A4
95
2A
08
05
56
61
49
85
18
40
5A
6A
16
15
66
51
55
16
96
49
48
A1
15
88
A6
5A
AA
95
51
14
85
05
95
64
0A
69
95
96
58
8A
14
95
A8
45
12
15
16
81
22
51
58
41
16
A0
68
61
62
92
66
25
65
84
62
20
25
A4
51
26
A6
02
64
44
6A
1A
AA
59
18
59
11
08
84
66
64
82
A5
A9
09
81
14
6A
14
15
96
66
60
59
15
59
52
51
19
26
44
65
94
0A
A4
95
11
99
1A
A9
48
86
01
1A
15
A8
A4
61
45
55
69
98
92
25
25
69
20
85
54
AA
19
68
49
19
02
49
A1
A2
A8
02
45
45
9A
42
A0
56
26
0A
58
68
06
8A
86
69
05
48
05
A5
92
02
54
85
AA
15
49
A0
01
95
88
55
04
08
61
14
19
82
40
91
A0
20
62
A6
25
56
65
91
6A
51
9A
05
8A
46
19
06
18
86
6A
12
64
94
84
0A
AA
A4
56
66
A6
95
89
52
A8
96
95
96
A2
8A
A9
22
A5
28
82
54
82
55
22
16
24
50
69
08
A8
60
25
66
54
81
41
00
45
86
45
09
A1
62
42
46
A6
A6
52
24
8A
A6
25
68
02
21
06
01
99
69
29
61
66
61
88
46
19
09
40
6A
AA
19
06
81
05
16
56
20
56
28
AA
95
8A
0A
A5
82
61
46
96
22
69
61
66
20
A0
65
18
86
94
62
51
21
65
AA
66
25
98
45
55
19
0A
25
60
A1
19
41
69
0A
01
A5
A6
4A
0A
54
A1
2A
52
10
02
42
8A
96
69
54
8A
56
4A
28
09
09
A4
6A
89
58
66
8A
48
42
40
50
54
15
69
58
5A
88
96
4A
15
25
A9
09
22
65
A9
0A
1A
26
AA
A9
80
96
09
85
51
56
52
A6
A2
46
48
0A
82
89
58
A9
08
25
96
11
61
29
45
88
9A
11
A2
85
41
22
45
58
89
50
05
AA
84
49
12
18
00
59
5A
98
44
65
81
4A
46
28
15
A8
66
84
50
62
28
2A
65
46
29
82
0A
14
82
86
59
A2
6A
69
69
16
A2
04
95
9A
55
29
59
9A
69
92
68
12
15
95
0A
61
86
9A
68
66
29
19
86
49
A4
99
89
92
80
89
52
92
99
A2
54
81
45
05
16
05
6A
A9
29
96
A2
26
26
68
98
62
15
51
99
06
1A
64
41
55
50
A1
58
A9
A8
1A
19
92
A8
55
80
5A
AA
24
65
81
00
08
A0
55
59
51
A4
96
14
8A
40
62
21
12
5A
22
29
26
A9
1A
69
50
89
58
6A
22
26
01
19
91
49
12
65
52
64
45
15
AA
01
02
46
A2
66
66
A1
15
61
18
44
26
21
88
04
69
44
50
20
16
21
0A
88
99
69
A9
A5
49
22
40
65
AA
44
84
54
A0
A6
94
64
6A
86
66
91
40
0A
60
84
96
14
89
65
11
90
05
6A
A5
16
A5
26
99
26
14
48
61
A9
58
24
0A
26
94
89
29
A9
99
5A
0A
01
A8
25
28
19
55
8A
15
A4
A4
24
0A
80
16
49
85
19
26
15
28
40
01
02
55
08
95
66
40
66
20
6A
05
82
52
95
A2
14
99
14
A9
49
A8
28
85
65
25
88
80
A1
54
A8
90
22
94
15
11
44
8A
28
45
A0
1A
18
22
64
98
A4
09
1A
29
0A
96
66
59
A9
28
A5
A2
52
65
66
6A
46
24
AA
28
69
85
61
9A
2A
19
26
06
95
1A
0A
96
5A
69
56
19
95
48
06
54
25
08
96
92
85
65
1A
6A
A6
AA
51
26
66
A9
25
55
29
11
9A
22
92
A2
68
52
A9
A6
19
A8
51
96
96
4A
58
15
44
05
AA
1A
55
66
96
69
2A
86
A9
81
6A
4A
98
15
52
A9
66
12
0A
56
98
68
55
28
09
88
8A
91
9A
85
69
9A
A4
6A
96
29
89
54
56
25
6A
52
18
08
6A
95
66
A9
15
91
10
11
90
56
A5
29
85
02
22
A5
52
62
0A
68
94
69
65
A2
91
48
94
94
55
14
02
48
A8
45
16
A5
02
22
25
12
A5
04
14
A6
81
55
AA
16
94
51
68
16
88
59
2A
65
A6
55
6A
55
02
16
15
26
A0
41
65
19
29
24
95
9A
A4
A9
14
6A
89
61
86
59
95
10
2A
62
20
69
62
50
65
44
96
96
A5
00
58
90
21
16
A6
A9
65
16
8A
A1
1A
61
56
65
29
90
AA
68
24
2A
62
62
0A
55
04
61
A2
6A
92
55
16
94
88
82
85
48
19
28
40
20
28
69
86
10
98
56
1A
A9
26
14
51
40
44
96
66
86
66
54
68
24
14
82
28
65
5A
95
29
A1
99
55
59
55
46
14
96
24
5A
A6
94
16
49
96
08
89
12
9A
9A
50
10
49
A0
60
4A
A6
20
AA
24
48
10
6A
69
56
26
04
A6
90
45
9A
40
54
94
04
16
A8
90
0A
6A
00
41
A8
96
9A
51
86
A2
A2
46
95
21
A9
08
A6
94
A0
85
A8
92
A4
9A
9A
41
52
A1
22
A5
1A
5A
94
46
86
45
86
56
94
5A
2A
1A
A0
29
45
51
44
21
92
08
9A
66
6A
66
50
8A
95
55
66
00
81
A9
A2
91
20
01
A6
29
26
10
48
12
68
A5
92
8A
A6
61
92
22
56
A0
96
AA
90
19
A8
14
95
25
11
49
68
A5
5A
81
98
5A
06
40
5A
A8
49
49
A4
A5
2A
21
16
AA
92
66
56
52
54
89
41
19
99
6A
69
1A
14
A5
92
06
91
51
29
14
55
A9
6A
46
44
A6
92
69
80
94
09
AA
A2
A6
86
65
1A
59
2A
96
92
96
64
5A
96
58
96
6A
25
46
52
26
08
15
A5
6A
65
51
25
69
1A
02
06
88
99
A6
94
58
62
56
6A
86
66
5A
11
59
88
2A
8A
8A
2A
26
16
99
05
89
95
58
9A
49
0A
16
06
29
16
69
95
66
21
06
21
95
96
58
96
A1
96
54
82
12
66
18
59
5A
99
1A
68
08
A8
09
61
66
A1
06
88
0A
1A
56
21
48
65
56
15
A4
84
61
1A
58
58
89
A0
14
58
85
6A
69
5A
61
96
15
02
61
A5
10
61
61
68
81
68
62
8A
10
69
59
4A
96
8A
A2
25
84
26
96
A2
68
29
2A
10
8A
0A
52
A4
56
55
09
11
49
56
16
86
12
25
68
48
69
29
68
8A
51
66
92
90
10
80
95
A4
A1
95
4A
66
60
61
52
9A
16
99
28
12
A1
A1
86
44
A5
1A
56
01
1A
99
18
16
51
68
60
52
55
85
64
AA
89
86
10
94
80
20
99
A8
06
14
1A
40
4A
21
25
09
9A
1A
A4
51
29
44
64
A1
50
65
60
A4
05
11
62
05
28
08
54
AA
86
55
22
40
51
94
88
94
44
A1
08
29
91
82
20
09
95
A0
1A
55
0A
55
88
18
51
29
88
61
89
61
06
6A
15
80
68
22
42
AA
91
99
9A
A6
05
12
58
6A
89
56
16
41
A8
8A
A4
59
A5
00
69
44
4A
94
86
22
54
A9
98
85
95
50
50
9A
A1
80
64
66
52
66
45
10
91
20
11
66
46
9A
A5
22
26
12
55
84
88
A9
66
99
21
82
54
25
24
26
29
52
A1
68
69
1A
42
89
25
00
54
A2
A6
55
9A
96
8A
88
09
25
94
21
59
58
50
1A
A6
55
2A
A2
98
65
80
86
24
42
65
81
A5
64
8A
25
96
54
86
6A
84
16
69
18
89
94
98
85
9A
8A
10
A9
9A
01
19
A0
69
86
86
A4
65
59
96
66
61
65
55
6A
54
A8
54
09
A9
66
88
A8
91
06
2A
92
2A
85
65
0A
84
9A
10
51
01
A0
82
05
A6
54
01
18
9A
56
66
44
41
05
52
99
68
84
96
A9
46
A8
50
10
80
8A
90
9A
64
29
64
95
68
86
96
AA
12
41
60
95
45
58
49
6A
99
44
24
5A
64
29
9A
65
84
A8
A5
44
80
A6
10
19
10
49
46
A0
81
81
22
60
64
85
69
82
69
5A
96
1A
69
86
A6
62
69
A5
28
60
82
A4
95
59
A5
96
56
5A
05
69
2A
A8
09
4A
81
96
4A
69
6A
6A
88
55
54
1A
16
69
98
44
49
6A
46
10
15
94
00
AA
58
2A
92
A9
0A
55
62
61
68
95
61
AA
A5
45
15
85
69
58
56
45
8A
A9
25
4A
09
A0
86
4A
19
54
80
86
50
46
60
64
85
91
45
56
91
92
84
00
A6
41
29
91
81
08
48
69
69
62
A5
62
82
92
2A
54
42
A5
25
02
16
A9
66
42
50
99
51
20
6A
A4
94
4A
05
54
AA
85
2A
65
56
20
1A
94
1A
16
85
A6
01
60
A6
AA
12
54
2A
09
24
96
4A
92
65
59
55
A5
09
88
54
AA
14
28
85
02
68
1A
99
49
90
51
18
92
29
99
96
66
00
08
90
08
65
22
AA
06
09
6A
15
44
56
0A
A0
05
54
8A
66
AA
A2
1A
91
29
A9
26
A5
41
06
2A
90
A8
A9
05
19
49
02
8A
A4
51
8A
68
55
98
25
45
02
82
45
49
4A
96
9A
95
92
A2
16
96
A5
2A
91
2A
60
28
65
A1
9A
90
AA
A9
26
89
08
09
19
65
8A
50
6A
6A
29
95
86
10
24
85
12
8A
59
A4
9A
04
15
96
82
91
9A
4A
12
A9
12
16
85
81
84
AA
09
5A
28
96
68
04
65
A6
5A
50
98
4A
59
96
A8
69
21
A4
68
0A
9A
A5
26
96
95
85
09
95
21
59
95
9A
68
61
26
45
88
91
99
99
80
55
6A
26
09
49
4A
86
55
55
41
AA
A5
89
96
95
66
41
59
92
84
6A
A8
48
9A
25
68
A4
A2
69
96
09
49
68
61
A0
69
41
12
65
15
95
56
A1
81
A9
A2
26
56
85
1A
84
84
54
58
86
64
41
66
1A
2A
86
89
52
A9
6A
0A
82
08
20
A2
25
98
8A
29
99
A0
89
66
25
48
12
96
68
92
1A
85
45
96
86
8A
19
25
09
11
46
12
6A
5A
69
8A
49
2A
12
61
96
A2
18
45
61
0A
05
65
56
98
AA
A8
64
81
88
9A
89
41
94
6A
41
64
A5
14
61
96
84
21
A2
06
80
89
54
41
11
9A
55
99
54
01
16
A6
62
1A
55
55
61
A5
4A
99
21
88
A4
A5
1A
A4
51
A9
A6
54
96
9A
56
68
40
14
62
25
15
A6
88
98
0A
05
80
41
A2
49
06
54
84
48
01
08
1A
A6
A6
54
64
95
09
54
51
62
25
96
26
69
51
06
24
65
54
56
25
41
AA
4A
00
99
19
82
A9
60
98
46
A2
91
AA
4A
06
66
29
25
40
02
96
A9
20
5A
88
55
91
AA
49
A4
22
66
49
A1
61
A4
55
11
68
40
40
65
42
25
21
94
66
95
A4
50
58
24
A6
05
84
68
19
52
69
19
A5
4A
62
95
6A
96
1A
52
12
9A
2A
69
45
98
81
66
96
8A
92
6A
25
60
28
85
64
25
49
21
69
56
69
81
40
52
62
A9
60
A8
18
59
42
54
96
91
16
55
19
45
21
19
55
65
59
95
A5
65
95
69
66
95
25
59
16
60
91
A1
0A
65
49
A9
05
88
24
2A
88
95
A2
59
10
96
02
56
A1
51
51
56
12
A2
16
2A
85
AA
62
06
16
96
68
A2
25
A5
62
8A
A6
9A
11
14
22
49
28
66
8A
5A
02
44
A9
A1
96
A6
22
6A
AA
61
95
58
A9
45
55
94
15
18
20
15
52
98
5A
8A
26
96
66
08
49
86
86
80
95
21
49
91
52
AA
59
88
A5
5A
45
05
50
6A
50
45
94
16
88
25
51
46
29
41
24
80
8A
65
A5
89
60
51
85
85
59
24
05
09
05
52
A9
48
60
12
61
0A
26
82
8A
09
4A
22
21
11
A2
89
68
4A
66
22
96
64
90
16
99
6A
55
21
65
59
68
98
09
25
15
55
66
66
4A
41
A9
26
28
46
60
12
A9
81
86
06
6A
88
00
60
44
2A
45
A1
A8
22
66
22
A8
85
58
64
96
26
18
21
95
5A
85
6A
A9
09
19
5A
68
18
81
85
08
89
12
84
82
40
19
54
96
06
21
84
81
65
89
A4
00
45
26
68
9A
64
29
0A
A5
5A
00
08
20
4A
14
0A
A5
6A
AA
4A
18
10
44
96
10
28
8A
28
82
11
88
42
0A
A8
19
52
6A
08
62
96
A6
25
2A
55
1A
19
25
51
81
99
16
48
69
69
94
64
92
A1
6A
64
46
56
54
8A
40
16
41
19
A0
64
09
26
9A
89
15
61
96
2A
98
15
06
A0
1A
69
AA
02
16
69
A0
AA
42
19
92
61
09
68
6A
9A
A9
A6
44
02
A4
98
8A
A9
4A
94
A2
99
04
61
49
25
A1
A2
61
1A
66
61
84
A5
59
A8
61
29
96
98
01
59
44
92
4A
A6
A6
50
19
40
44
88
98
A9
A8
68
95
40
48
91
89
46
86
96
99
56
AA
59
20
18
51
08
89
69
54
66
91
46
8A
55
64
A9
95
61
02
96
69
8A
64
15
8A
50
28
88
A4
95
52
60
51
59
52
A9
92
06
25
A2
94
02
AA
2A
19
04
09
61
91
66
82
52
29
5A
1A
A2
A6
16
64
1A
9A
55
A1
44
84
66
18
24
86
9A
09
14
A4
48
9A
21
16
55
55
52
54
52
06
2A
5A
21
80
88
96
42
55
58
4A
52
A6
28
AA
14
8A
91
61
64
8A
95
49
95
84
A4
0A
12
58
60
45
29
A2
5A
95
65
99
4A
5A
AA
A4
95
06
2A
44
6A
21
99
12
95
6A
41
A9
29
6A
99
19
68
26
25
21
68
5A
24
66
A6
56
05
29
58
8A
51
91
90
14
9A
4A
A4
1A
41
4A
81
66
15
66
0A
9A
86
A9
49
AA
66
A1
2A
46
48
49
81
90
A0
A5
65
54
12
66
19
62
A4
50
5A
29
84
55
18
5A
29
54
58
89
46
21
65
58
05
A4
66
02
91
A5
68
85
16
61
50
52
86
14
29
99
02
81
60
96
04
82
90
86
15
09
1A
AA
46
4A
A8
A6
84
99
A8
02
44
59
2A
16
99
09
1A
48
29
A9
85
81
60
24
56
06
22
49
55
54
A9
09
41
51
42
81
AA
25
00
81
81
82
05
45
95
A1
54
69
48
11
1A
20
59
5A
62
2A
A2
29
24
40
42
89
65
20
98
54
0A
A2
A5
85
82
55
19
50
A9
68
86
69
55
49
65
42
A6
A9
44
48
69
51
94
8A
A5
11
0A
15
20
61
21
58
2A
06
9A
85
96
A5
52
56
19
68
82
19
42
44
86
2A
28
69
20
65
A1
64
28
56
59
49
96
A0
8A
69
15
19
2A
16
AA
89
11
94
1A
26
2A
86
49
A8
52
92
62
26
A0
AA
A2
62
45
89
65
6A
80
09
09
41
06
45
56
48
99
51
18
45
56
9A
A8
A9
A8
00
A1
AA
98
91
55
19
80
66
19
46
15
24
82
66
1A
59
55
95
1A
65
91
A8
24
61
61
58
90
05
9A
44
86
25
69
18
88
56
49
A0
94
66
56
85
05
9A
8A
55
06
8A
98
0A
A0
A1
51
59
65
A0
05
96
AA
A1
59
64
94
5A
A6
41
98
A6
26
54
98
6A
45
99
06
A6
49
65
62
06
06
26
5A
19
66
59
14
50
46
26
41
56
12
04
08
81
8A
22
89
25
40
AA
10
10
51
1A
A5
66
A8
A2
58
00
A0
42
2A
05
A1
61
9A
01
01
65
56
A5
85
52
9A
58
90
59
22
5A
A4
05
15
42
06
6A
82
A5
56
16
A8
91
0A
96
64
81
A2
55
55
09
82
8A
25
44
95
98
54
52
91
8A
5A
AA
50
82
A9
12
96
8A
A2
A1
55
A6
58
19
85
94
04
02
94
49
89
25
15
5A
69
92
91
8A
19
59
49
85
09
41
6A
92
92
14
96
69
A1
49
96
69
94
41
28
85
48
85
19
05
02
AA
44
16
60
80
1A
14
11
18
A8
68
14
64
02
96
69
86
5A
40
04
55
58
59
89
91
41
25
A6
54
94
92
29
18
50
A5
41
50
81
18
2A
04
0A
6A
69
62
52
12
15
A9
94
56
96
25
91
59
29
84
18
28
56
A8
A9
94
54
62
5A
AA
A8
12
11
50
49
84
92
18
65
26
16
66
12
6A
55
86
42
11
95
19
16
85
16
16
19
22
9A
40
49
A8
58
A2
26
65
41
66
1A
60
51
69
A9
55
2A
90
A9
95
00
A0
69
6A
6A
85
95
85
16
48
95
95
98
96
21
9A
81
14
20
69
59
98
40
28
AA
48
28
49
85
59
24
46
A4
89
42
84
94
02
66
19
82
99
54
96
64
64
5A
81
89
24
45
A6
96
51
05
14
18
99
14
91
45
18
9A
89
86
04
25
A6
86
64
5A
21
52
A4
65
A9
84
8A
92
A6
69
62
86
6A
09
45
89
6A
0A
A8
A5
AA
9A
91
45
99
89
24
06
00
52
52
8A
98
95
89
91
20
49
0A
86
AA
55
18
A4
95
81
90
04
AA
A9
A6
91
68
5A
02
59
A8
98
1A
60
64
69
28
11
A9
09
40
55
88
16
A8
49
AA
A0
28
A2
96
85
A5
80
91
42
66
A0
96
0A
46
A6
41
A8
09
A8
99
9A
60
46
68
46
55
06
9A
69
4A
6A
65
08
90
59
99
09
81
5A
8A
6A
99
94
6A
60
4A
95
45
A1
A5
64
69
02
19
06
A6
52
24
55
8A
9A
9A
8A
59
02
64
98
84
A4
8A
A9
95
21
6A
89
91
65
42
96
9A
55
64
68
86
05
04
6A
02
2A
42
2A
24
A4
88
A8
A9
65
44
18
09
16
56
96
56
80
86
A6
69
95
92
21
A5
5A
96
96
96
AA
29
25
09
A5
95
A1
92
AA
41
52
89
A0
22
20
A6
26
26
52
42
95
88
85
68
85
69
92
5A
88
85
02
A8
40
A0
51
56
98
55
64
28
18
AA
85
21
68
66
99
10
82
99
12
42
2A
54
50
84
A8
45
00
65
62
68
A1
85
16
14
51
58
1A
08
96
81
AA
A6
58
92
AA
20
85
96
A6
06
A6
96
A1
92
A1
90
58
5A
15
96
06
58
18
95
50
68
5A
44
5A
5A
98
9A
15
46
59
A9
4A
2A
2A
99
46
05
66
84
54
A6
19
52
2A
50
AA
10
50
94
98
56
64
49
49
20
51
60
A5
5A
24
6A
98
60
25
A8
85
66
65
50
84
1A
08
46
A0
A5
54
61
66
80
01
5A
A9
94
A6
6A
55
54
48
9A
59
6A
46
58
52
16
21
98
48
98
2A
2A
60
20
08
12
A1
95
68
94
A8
61
52
16
2A
6A
51
91
89
0A
55
56
4A
68
60
91
6A
91
94
2A
61
86
51
56
29
54
82
15
66
42
69
55
A0
94
59
26
9A
19
14
18
8A
86
5A
95
14
00
95
41
2A
A1
66
29
A0
96
A6
64
A9
21
62
A2
64
95
18
81
88
16
81
62
65
8A
A6
29
02
95
99
45
9A
98
66
80
65
06
19
0A
68
99
20
09
46
66
50
01
80
81
94
66
92
51
44
29
48
A5
61
05
66
02
0A
99
66
99
A5
5A
08
41
6A
4A
5A
65
44
41
91
06
21
56
85
A6
5A
56
54
45
89
A2
22
66
59
80
94
95
40
1A
55
49
59
29
25
4A
59
A5
00
86
86
54
15
28
11
45
50
21
95
84
6A
41
84
52
04
85
A1
54
84
19
A6
12
55
90
29
A2
08
92
94
29
58
86
69
80
11
9A
26
56
26
0A
89
21
54
5A
1A
21
A8
99
54
86
61
58
98
52
84
28
44
AA
11
29
99
82
52
A4
81
25
19
0A
A6
54
58
94
24
54
9A
0A
56
81
8A
0A
84
99
58
02
62
5A
88
09
88
15
60
60
29
90
21
A8
9A
56
51
46
56
44
59
04
05
65
12
5A
9A
59
A6
41
6A
A9
28
59
89
A4
A5
02
05
A5
48
80
A6
80
A8
AA
84
04
A5
A4
50
50
51
22
A4
80
61
A5
66
9A
05
91
5A
81
82
05
55
A9
86
95
50
55
80
5A
A9
28
24
46
94
91
A2
A4
84
56
6A
99
90
96
92
46
65
04
59
56
49
52
46
16
8A
85
A0
52
88
95
61
01
54
A6
99
64
9A
56
55
5A
98
2A
00
26
29
15
A5
8A
61
5A
56
26
5A
19
A1
15
06
A9
49
11
11
02
AA
68
69
A2
4A
25
6A
A9
A2
29
A9
91
A8
45
1A
84
62
12
54
44
06
91
12
06
14
6A
29
21
56
49
98
68
08
6A
A9
9A
14
98
5A
A5
A2
66
A2
9A
59
19
9A
99
46
66
0A
96
84
A5
66
66
56
69
16
68
1A
A8
8A
29
56
21
A5
4A
45
65
29
A0
1A
59
02
46
59
44
45
95
54
09
45
91
4A
A1
AA
52
A1
99
46
91
05
A5
65
9A
95
86
5A
28
6A
A9
94
08
56
26
69
2A
66
24
21
68
65
A5
81
99
80
56
44
91
44
29
66
94
21
96
AA
99
12
95
26
69
10
9A
46
6A
42
1A
1A
54
48
A1
22
99
4A
11
42
8A
62
0A
91
21
25
9A
50
A5
A1
51
26
25
12
68
56
80
98
45
61
52
00
AA
89
65
A1
44
8A
19
50
59
88
02
A5
1A
85
46
05
16
10
16
96
21
45
98
A0
2A
12
46
28
60
A8
61
06
54
28
59
45
54
58
90
82
45
98
A9
2A
96
51
96
A8
15
65
29
16
9A
80
01
59
90
92
05
18
95
02
41
48
AA
65
42
16
86
15
91
15
06
04
0A
68
46
64
61
82
22
A5
64
64
A9
52
1A
A8
99
9A
61
56
86
19
2A
41
56
90
56
86
18
84
18
28
01
22
16
14
96
95
96
A8
20
61
18
9A
61
96
86
99
A0
66
26
AA
65
59
96
24
92
54
08
A1
58
59
08
91
21
69
64
80
96
98
69
66
54
16
A2
58
6A
55
A8
96
6A
15
55
88
A9
90
85
66
51
55
56
A6
41
66
25
59
A9
A6
96
8A
66
15
05
A2
01
24
06
81
15
89
96
89
64
96
06
25
54
05
18
99
29
5A
A5
1A
49
55
68
89
54
88
48
4A
A2
45
A6
69
A8
2A
6A
01
6A
65
25
68
6A
25
98
A6
A9
65
20
64
15
95
A4
99
AA
92
08
12
06
8A
65
48
92
69
1A
5A
A6
42
6A
8A
66
91
49
55
88
58
A4
A8
2A
64
89
55
69
26
AA
61
16
A6
86
56
80
54
90
66
59
11
14
91
46
A9
55
62
A2
9A
8A
59
18
16
64
95
56
21
89
59
A6
22
65
6A
82
05
95
A4
AA
5A
AA
46
29
21
62
12
41
99
66
8A
69
84
AA
1A
18
86
41
84
15
09
08
59
A9
26
18
84
81
49
06
6A
55
45
22
8A
A9
61
02
65
A8
18
82
95
29
18
1A
85
94
44
26
42
62
11
58
58
69
50
6A
14
11
48
86
65
16
64
44
15
58
A6
55
52
19
AA
01
14
6A
A8
58
16
45
15
81
52
99
A4
86
55
59
16
24
48
86
1A
99
60
45
6A
16
85
50
02
51
A4
42
55
5A
05
AA
9A
28
9A
65
8A
A5
50
10
46
69
61
42
61
24
6A
9A
A1
11
11
59
A1
06
54
80
16
96
08
61
50
A1
28
60
51
98
96
1A
22
25
84
18
56
45
50
10
85
56
65
98
61
06
44
61
A9
80
42
A1
58
68
20
45
61
99
54
44
84
59
A9
85
A6
42
22
6A
41
8A
82
8A
69
94
49
80
10
06
68
06
98
9A
A9
92
99
95
A4
54
99
21
95
50
54
A9
62
5A
8A
81
A9
A1
A1
48
82
99
9A
40
41
15
0A
81
49
0A
48
96
65
54
A0
24
85
50
A8
5A
52
25
56
04
0A
62
44
AA
5A
A2
16
40
4A
A1
62
5A
A9
28
9A
29
06
11
1A
54
04
91
59
29
25
16
A4
1A
A4
65
09
42
02
85
A8
9A
A6
4A
06
95
40
65
59
99
92
55
51
44
06
AA
0A
62
05
54
AA
A5
16
69
62
65
96
24
45
9A
26
51
58
91
99
2A
A2
01
6A
A9
24
81
20
29
65
05
51
60
05
22
28
14
25
A2
6A
46
9A
55
11
15
14
54
95
9A
46
29
A4
5A
2A
A1
9A
44
21
62
6A
5A
51
62
10
59
16
89
66
81
25
28
9A
05
99
89
AA
5A
69
19
29
19
26
64
A5
96
06
89
66
86
25
24
59
A0
45
24
91
50
8A
5A
50
25
A4
6A
1A
20
22
8A
61
85
A6
15
40
98
44
6A
9A
61
45
64
90
A4
88
61
99
A4
5A
1A
89
5A
09
A0
24
5A
99
A9
6A
21
89
99
44
95
58
28
64
42
42
59
AA
26
14
1A
9A
A0
44
14
10
52
04
22
48
6A
8A
80
25
89
50
88
88
91
21
61
45
19
85
1A
50
66
A1
A8
59
84
96
00
48
9A
48
5A
62
94
18
4A
10
92
45
64
49
8A
A5
65
0A
92
02
8A
A6
28
41
A6
92
68
A8
45
44
82
9A
68
45
25
49
A8
A6
49
56
A6
1A
90
41
66
4A
96
54
A1
10
AA
14
04
86
81
09
9A
50
6A
21
A6
44
49
89
98
A2
95
96
18
04
95
AA
88
20
A0
51
96
2A
1A
24
19
A2
82
92
50
4A
4A
52
A2
84
A8
5A
A1
A6
0A
42
92
01
69
86
21
8A
A4
96
04
66
99
90
24
11
24
65
81
6A
99
A8
24
0A
26
A4
8A
95
69
A6
56
85
51
46
1A
6A
14
80
A6
A8
40
68
64
01
16
9A
61
94
90
81
42
98
A5
85
95
18
9A
6A
61
45
65
8A
68
81
99
2A
96
A9
19
4A
A6
98
59
AA
12
68
49
96
50
A9
08
2A
84
A9
18
A6
11
88
48
55
19
59
86
91
A0
54
61
19
15
0A
88
8A
2A
04
98
0A
99
56
95
84
08
89
66
A9
A8
66
9A
64
50
65
29
54
48
24
A6
A6
11
14
21
29
5A
61
50
92
96
65
98
01
64
5A
65
A0
A8
6A
AA
65
24
09
22
46
A4
66
99
26
AA
28
08
65
06
86
91
54
54
4A
99
91
29
05
A5
60
02
89
04
A4
58
96
82
62
09
55
98
11
15
2A
89
14
96
52
54
A1
18
55
29
09
48
58
66
68
A9
88
06
44
09
54
66
65
64
9A
25
A2
AA
51
52
11
0A
5A
26
19
A4
84
14
24
8A
2A
46
9A
A5
10
88
54
61
99
56
25
49
16
A4
42
5A
59
09
05
A5
54
91
6A
90
58
8A
56
89
21
A8
24
61
A9
62
2A
91
99
5A
42
56
41
12
96
55
54
81
24
46
A8
65
A4
95
65
A5
A8
45
21
29
A1
25
61
94
64
14
65
22
91
A1
46
A1
16
6A
25
98
92
65
96
12
A9
06
60
46
50
82
84
20
9A
96
24
29
95
28
A2
16
20
A0
1A
A8
26
09
A8
51
66
95
94
91
62
91
28
6A
86
9A
04
A6
51
14
59
48
15
69
49
04
0A
A0
69
9A
64
45
69
16
A1
21
A1
92
86
98
99
82
1A
05
A1
A5
24
40
A2
51
A6
24
92
A4
09
84
99
08
8A
68
46
66
8A
96
09
49
21
44
14
64
22
94
52
08
85
06
66
88
A4
18
44
5A
88
52
68
55
A5
49
96
02
54
65
22
59
81
98
05
14
49
A0
1A
A9
86
42
28
A0
16
2A
14
52
9A
58
50
90
12
94
68
99
5A
0A
96
A2
69
66
44
96
56
58
AA
96
0A
52
92
19
24
62
62
06
50
26
95
51
A9
20
80
A9
58
95
10
21
11
91
94
80
21
58
AA
54
92
4A
A5
00
81
6A
AA
19
49
8A
5A
95
0A
92
90
99
46
91
6A
22
46
25
69
10
56
A8
A2
86
51
84
A5
58
88
26
A8
55
A8
1A
10
21
58
A8
95
96
1A
44
5A
69
42
24
0A
56
95
14
88
61
98
89
20
81
A8
62
59
5A
0A
28
88
A0
5A
95
01
6A
64
99
A2
9A
A6
4A
1A
94
89
59
1A
56
A4
5A
91
99
21
14
A9
18
55
49
96
2A
18
59
A6
A0
50
68
91
2A
95
62
91
84
40
41
08
95
45
81
69
08
A2
42
8A
56
16
16
49
60
85
2A
92
41
65
48
24
10
A0
26
20
A6
89
82
6A
18
85
66
AA
A6
25
98
A4
98
44
28
A0
12
89
65
05
A5
96
52
51
25
AA
56
51
A4
56
4A
22
15
8A
62
5A
48
66
44
51
44
00
25
68
A1
54
65
55
60
65
0A
59
90
64
A6
18
44
4A
1A
1A
12
A2
8A
59
96
96
A9
82
68
A4
91
A9
50
81
22
05
59
49
01
1A
84
9A
10
02
64
11
02
52
98
68
05
61
59
56
9A
21
26
A5
08
55
02
A0
91
04
25
A4
5A
28
A1
89
00
28
21
58
29
69
18
4A
94
52
65
09
56
04
95
82
20
66
19
84
A2
21
A0
6A
81
11
95
44
A1
96
51
54
68
00
A4
44
44
62
40
94
96
98
20
59
84
98
49
AA
19
89
5A
22
06
61
29
08
80
8A
56
9A
6A
90
81
45
5A
49
60
06
11
09
50
45
04
29
42
AA
26
10
41
21
91
29
A6
55
26
92
25
58
98
95
05
59
91
89
95
49
88
2A
09
52
14
88
12
26
AA
44
20
18
56
16
15
12
61
6A
98
A1
05
5A
56
9A
65
66
A5
69
01
51
60
44
A5
08
90
69
96
81
59
29
1A
51
46
62
A4
50
24
A6
62
09
58
84
02
4A
81
40
85
25
48
2A
44
99
66
82
10
95
5A
65
49
16
91
25
1A
64
65
44
1A
52
96
58
06
80
86
6A
24
44
69
19
80
66
25
88
19
54
95
99
A4
90
46
94
5A
64
80
4A
95
A9
1A
5A
48
95
82
1A
05
58
5A
29
65
18
21
A8
A5
A5
50
42
24
99
84
16
20
20
85
25
91
A6
59
96
2A
88
45
42
98
90
02
45
04
99
55
1A
14
2A
6A
5A
A8
0A
A9
5A
A5
84
59
59
98
86
80
45
68
66
29
59
5A
69
A0
95
19
11
42
16
29
81
25
58
90
A6
55
9A
55
66
65
02
21
54
99
29
84
25
14
82
6A
6A
59
55
99
54
09
69
58
52
A9
89
91
12
52
A0
9A
A5
55
9A
9A
56
A5
A1
21
84
54
51
90
22
A0
A2
21
85
A9
29
21
05
1A
96
98
0A
1A
59
55
6A
49
41
61
A2
00
22
8A
2A
28
11
06
61
10
95
64
A9
19
60
06
A1
90
54
8A
24
19
6A
62
01
46
28
A5
48
46
80
29
A5
98
85
41
1A
41
51
54
A4
84
06
12
A8
15
A4
91
68
52
46
64
40
40
15
26
02
12
96
41
51
56
21
42
56
84
65
58
84
95
62
A8
10
4A
92
89
92
29
5A
A8
19
96
29
25
82
AA
94
92
95
50
69
92
15
45
55
40
4A
A9
A5
45
55
50
62
54
21
59
24
02
AA
89
5A
1A
16
46
A0
62
64
14
86
4A
26
19
6A
18
66
16
25
61
92
1A
84
62
A9
1A
4A
96
61
61
26
49
51
19
95
5A
4A
62
80
90
20
6A
4A
40
52
59
15
26
54
68
5A
94
05
55
28
24
2A
A2
48
91
A4
98
A2
49
26
26
14
99
28
20
02
08
20
05
8A
26
89
45
91
A4
66
55
42
55
55
AA
14
66
A9
95
49
A9
A8
06
44
16
8A
12
A8
52
16
A2
8A
61
66
81
11
65
06
5A
61
A5
04
19
16
4A
A8
55
89
99
46
92
10
9A
61
A6
98
4A
A1
55
84
22
2A
95
50
68
A1
84
56
46
5A
56
68
58
4A
86
A8
21
95
54
54
1A
10
A2
91
22
A8
0A
5A
A9
19
A2
92
29
A4
46
51
50
10
26
99
89
49
A1
A1
45
45
24
65
46
5A
55
26
56
69
98
AA
95
A1
9A
59
80
94
58
40
62
AA
52
84
88
A1
15
AA
92
61
56
89
48
26
9A
A4
68
62
4A
A5
42
40
A2
AA
55
95
24
2A
18
82
24
61
80
56
16
00
59
89
19
59
AA
24
54
A4
24
50
5A
90
62
A2
14
AA
16
1A
59
04
21
69
26
AA
85
68
A8
A4
68
29
0A
40
68
80
A6
54
51
88
20
41
6A
82
11
82
41
49
A5
94
16
95
42
52
28
55
45
99
20
11
56
94
55
69
42
12
82
99
66
01
68
88
64
A6
02
A4
A5
01
92
91
12
A6
91
28
62
11
19
59
96
61
8A
29
6A
A4
52
42
55
A8
18
24
50
05
9A
2A
24
9A
24
65
06
45
21
6A
18
85
5A
A2
84
15
68
61
15
80
24
26
85
58
8A
91
45
60
15
A2
86
80
A5
50
96
AA
69
01
A6
44
95
09
A5
42
A6
05
2A
56
A8
66
51
66
26
46
28
92
25
55
41
94
66
19
AA
5A
26
45
A2
88
8A
29
11
69
19
15
55
96
65
2A
91
6A
90
65
A9
51
A5
22
85
94
05
80
68
A8
26
A5
A9
8A
00
A6
84
64
68
A6
48
84
54
A5
A0
60
68
A0
69
16
94
61
56
69
42
A0
69
44
52
A1
A0
49
95
05
A0
85
02
42
41
55
9A
04
5A
54
80
15
9A
59
9A
8A
65
94
49
55
44
99
86
54
5A
14
48
54
20
55
58
21
22
50
85
59
A6
29
69
A6
69
45
A9
11
44
45
1A
84
59
85
0A
4A
29
16
94
18
A4
99
98
80
91
81
99
60
62
40
55
88
A5
5A
82
60
54
04
94
45
69
54
90
A8
58
A6
58
26
28
12
59
60
A5
61
A9
21
A6
56
96
28
60
1A
06
65
A5
94
5A
66
90
A9
98
88
5A
06
11
65
45
48
54
85
A5
54
90
44
68
28
04
A6
09
6A
05
A9
16
44
A9
16
58
4A
55
A2
94
45
A6
8A
0A
88
40
6A
66
91
62
5A
64
05
AA
56
45
84
40
55
A8
46
A5
8A
05
81
01
18
68
A5
58
56
49
56
8A
94
54
61
A2
42
A8
06
55
86
89
29
85
99
92
59
69
0A
A5
99
80
01
85
AA
94
A9
00
69
A8
62
88
AA
82
20
42
59
69
A5
42
26
99
A4
12
98
95
A0
60
18
94
AA
60
48
26
A5
28
86
A9
48
99
92
09
22
A5
86
46
94
14
94
62
56
22
48
04
9A
19
06
25
81
88
29
1A
98
28
05
AA
2A
46
49
02
5A
09
06
06
9A
58
54
A1
99
55
9A
95
5A
45
49
94
66
84
99
05
65
91
60
86
96
56
49
06
49
99
94
16
15
82
A5
52
55
80
02
15
44
52
62
A1
A1
95
2A
A9
5A
62
55
61
98
A6
59
8A
41
AA
91
59
81
A5
20
61
96
42
1A
61
09
02
91
16
61
28
25
55
9A
59
19
88
5A
46
A5
4A
50
49
69
42
2A
68
59
00
16
12
15
0A
A6
69
A6
66
AA
58
A6
95
92
9A
1A
5A
91
56
94
A8
49
64
85
05
82
A1
48
AA
08
20
A8
66
A5
A2
94
59
64
20
66
84
A1
96
2A
62
18
50
96
95
A5
44
A2
AA
42
50
82
59
A6
06
65
9A
42
99
AA
95
22
51
4A
55
96
A4
06
A6
62
55
95
42
42
06
42
55
6A
18
65
46
60
48
64
A8
10
48
61
A8
18
15
90
A1
88
61
92
08
15
81
0A
50
42
9A
2A
88
11
A6
56
62
6A
22
96
08
69
65
A6
8A
6A
25
82
49
2A
81
AA
86
21
89
11
26
14
A8
95
88
A6
65
46
48
5A
54
80
42
A6
8A
89
05
A4
91
15
20
10
26
04
A6
54
2A
91
61
15
85
A8
24
56
99
08
A6
54
48
56
48
68
45
29
88
66
51
59
A9
46
16
0A
29
24
9A
65
68
94
29
44
58
45
91
44
5A
52
16
56
55
58
51
4A
19
95
A2
96
A2
A5
94
69
68
A2
9A
0A
A6
06
96
41
88
A9
8A
91
86
60
A8
64
85
91
69
A9
69
81
65
01
1A
A5
01
59
94
A2
65
59
06
4A
15
AA
49
56
4A
69
A9
45
46
48
90
56
61
1A
6A
54
09
54
1A
54
88
00
09
50
96
85
04
12
52
55
92
16
89
91
19
41
09
99
15
99
0A
42
54
A4
0A
61
69
88
A5
8A
1A
19
85
44
04
02
42
A5
94
5A
98
2A
A2
82
69
A4
59
00
00
A6
6A
56
02
45
65
59
50
9A
A5
82
20
91
82
46
14
05
15
04
91
98
A1
95
96
8A
22
82
AA
A6
A8
69
01
85
65
15
4A
69
92
A1
04
A9
25
19
00
06
64
18
1A
4A
5A
A9
40
09
86
56
12
69
60
84
69
96
10
12
65
28
5A
01
1A
65
62
98
21
46
10
69
1A
4A
92
59
99
66
14
48
85
89
99
00
86
99
25
80
A5
A9
55
50
89
62
60
90
26
8A
11
18
29
65
91
21
5A
A8
95
42
60
85
91
4A
88
8A
96
56
42
55
95
0A
29
5A
89
62
8A
12
29
29
61
2A
08
A6
85
22
55
49
95
6A
15
A9
26
6A
54
26
06
66
94
89
64
A2
A2
12
02
6A
60
69
A5
88
95
A6
6A
81
49
62
89
A2
A9
A4
9A
84
69
A6
88
11
A1
5A
A9
4A
49
44
A6
02
6A
2A
94
A6
AA
91
92
69
94
81
61
68
89
5A
A6
16
42
26
69
69
98
68
19
69
62
10
49
1A
95
64
06
56
48
86
28
A9
10
98
25
40
48
11
82
54
55
42
99
55
16
96
A2
69
82
61
25
56
21
96
15
02
45
81
68
66
65
12
18
0A
69
A9
66
56
52
49
29
69
42
61
16
A5
02
51
98
96
52
55
A4
A0
45
69
5A
04
18
59
94
42
40
A1
A8
26
4A
AA
59
6A
42
20
25
94
58
84
66
85
85
2A
19
52
65
A8
96
69
85
85
85
59
86
41
4A
54
82
6A
49
12
11
60
05
16
61
16
52
95
0A
15
21
A1
90
AA
65
28
55
A9
9A
86
4A
5A
56
24
22
A5
49
10
AA
49
2A
10
54
11
90
51
62
91
99
8A
4A
59
50
A4
80
51
99
A2
14
41
51
66
69
95
92
09
11
91
A2
02
12
46
A1
09
54
22
A9
09
64
59
1A
A2
62
58
56
45
89
61
65
A2
48
6A
05
29
A9
92
60
A0
58
9A
16
09
10
99
96
12
06
29
51
A4
88
9A
68
61
49
80
A0
54
26
AA
48
A1
A2
A9
99
58
6A
66
11
A9
49
46
A0
A2
A1
66
A8
92
28
2A
1A
65
12
42
A8
91
64
81
56
11
99
55
92
9A
95
61
95
61
81
18
51
A9
86
29
15
54
69
85
11
A1
A4
64
60
A1
10
42
29
64
41
8A
64
09
55
8A
59
55
98
99
89
65
16
6A
68
18
A0
1A
06
15
16
15
86
14
46
A5
22
55
55
45
69
19
92
92
85
A5
56
29
54
02
95
18
6A
8A
48
16
50
62
42
49
A5
62
A5
80
56
91
06
41
59
85
51
58
A8
89
2A
6A
45
09
96
52
56
59
A9
66
95
56
82
68
54
41
52
66
98
14
4A
61
25
44
9A
6A
61
A5
09
16
52
19
5A
66
54
65
AA
50
64
6A
24
85
A1
48
29
69
45
5A
88
6A
06
56
96
A8
25
21
9A
94
59
9A
49
46
94
AA
22
15
66
6A
06
94
A8
69
96
84
A9
95
A5
A6
A4
45
29
66
A0
06
14
11
15
12
62
49
46
99
95
25
64
15
01
68
1A
8A
90
A5
29
16
49
81
29
12
A5
90
99
96
05
40
00
40
AA
59
81
AA
05
9A
68
6A
61
19
A1
81
99
88
A5
5A
54
95
95
08
61
A9
28
AA
21
51
61
50
54
52
10
0A
91
19
A6
40
26
12
12
44
65
19
06
15
54
02
40
29
0A
11
06
6A
16
42
A6
82
16
AA
02
21
6A
89
6A
14
61
88
29
12
84
5A
90
AA
0A
04
60
88
65
A9
86
59
56
60
2A
12
62
61
69
65
81
9A
A4
42
5A
91
6A
69
46
2A
56
62
66
01
41
16
66
82
4A
65
10
44
62
21
61
28
22
65
92
41
A2
9A
80
45
40
AA
80
92
A9
8A
58
44
45
62
26
A5
42
88
80
95
88
62
AA
69
A2
95
14
A8
56
15
62
49
80
15
64
5A
04
AA
02
24
61
90
91
51
68
29
AA
09
66
22
65
95
A4
02
08
52
16
4A
91
A9
49
95
16
62
46
96
61
62
56
05
6A
16
94
45
26
0A
1A
11
99
02
90
98
5A
42
1A
06
50
26
15
52
12
54
46
25
15
55
45
AA
91
1A
06
55
94
26
55
A8
5A
45
89
65
06
52
89
A1
99
45
28
62
10
41
1A
66
88
22
91
5A
6A
94
90
91
16
A8
45
29
25
84
22
8A
68
9A
46
88
0A
4A
6A
66
08
58
15
41
A1
44
95
59
96
89
81
59
25
65
69
41
A4
59
20
42
49
1A
11
59
91
05
50
A4
99
A5
26
4A
84
08
25
68
69
95
92
21
66
85
88
45
A1
55
2A
96
A8
46
64
59
5A
84
60
90
88
19
46
4A
11
8A
A8
85
A6
89
25
4A
20
54
AA
1A
56
92
81
96
5A
A9
29
99
65
24
60
A6
15
80
48
6A
46
18
A9
88
9A
A4
68
19
20
85
98
94
12
92
94
80
24
85
20
98
8A
59
A6
56
1A
A0
08
48
90
48
85
54
44
94
6A
44
48
86
90
49
48
96
54
54
A4
45
25
A2
84
60
25
96
0A
68
9A
AA
0A
54
66
9A
12
51
A0
96
55
49
8A
24
56
41
91
05
22
96
18
96
A0
51
A8
85
69
49
85
5A
98
A9
60
68
48
84
66
89
91
85
A9
A5
88
61
AA
99
92
99
90
98
29
6A
8A
16
18
65
A4
92
00
61
84
16
49
A2
58
28
10
66
44
55
08
A6
8A
81
59
45
48
52
50
50
44
28
29
5A
A5
86
0A
45
56
90
9A
68
02
19
60
16
92
24
15
8A
59
15
59
12
56
55
1A
68
24
51
29
A2
5A
46
8A
29
16
9A
1A
1A
29
29
66
9A
21
2A
29
26
95
91
51
06
60
59
5A
65
14
A9
14
25
A5
14
28
02
5A
52
24
84
2A
92
5A
14
55
29
01
55
02
61
54
09
94
26
64
49
2A
9A
19
60
18
24
84
A6
61
64
5A
58
82
9A
11
08
8A
19
95
10
55
48
95
4A
59
9A
91
91
2A
12
A4
00
98
90
49
88
45
58
48
A5
18
61
18
94
80
04
90
55
65
46
A9
19
8A
61
A2
AA
90
28
AA
20
65
6A
5A
21
6A
8A
A9
46
A6
55
5A
8A
A9
A6
62
22
99
59
2A
9A
9A
9A
A8
28
4A
1A
05
6A
A5
10
58
42
A8
46
92
88
56
15
55
26
96
54
96
65
5A
10
21
A1
86
A6
59
89
A8
42
99
98
69
49
05
8A
90
15
16
A1
94
65
60
56
21
A9
6A
49
20
24
A8
05
45
11
66
A5
5A
A5
62
21
61
92
55
66
A6
96
A5
59
89
28
90
A9
69
A9
A2
86
46
04
61
AA
92
24
4A
28
19
86
56
45
64
6A
45
49
49
2A
48
88
09
66
01
49
6A
A5
99
8A
16
14
0A
69
AA
24
82
90
62
80
10
29
A6
1A
88
20
80
A9
68
48
09
99
45
85
A9
2A
51
85
A0
16
4A
A1
94
49
14
56
25
A5
A1
88
24
95
16
68
AA
AA
55
55
21
65
86
26
04
9A
60
15
21
14
18
50
40
1A
29
10
88
A5
28
16
2A
60
60
55
19
5A
85
15
29
96
01
10
A6
62
10
90
89
41
40
96
A9
29
00
44
A9
08
22
0A
99
21
00
A5
1A
10
15
69
A6
81
51
62
06
58
9A
50
16
A4
25
48
11
21
58
64
2A
52
45
A4
15
64
25
22
95
A4
16
20
16
A1
88
59
04
54
24
AA
56
A9
69
86
69
68
1A
99
55
55
94
91
89
96
49
4A
65
96
12
A6
91
18
85
99
24
A5
6A
9A
5A
A5
81
4A
98
00
44
29
A4
25
25
25
18
9A
55
16
9A
82
A2
15
46
61
66
96
95
86
91
46
91
62
2A
64
18
29
49
A1
4A
26
08
A5
40
25
88
51
68
90
81
0A
40
11
14
56
52
86
89
54
80
94
28
58
80
90
94
65
2A
59
61
64
A9
05
40
6A
99
55
A5
25
89
9A
6A
49
8A
05
56
55
19
A9
49
4A
1A
A6
A1
4A
04
56
48
A5
46
9A
49
92
A8
04
A2
91
05
A9
A8
12
24
6A
2A
2A
95
54
65
6A
95
2A
24
A6
6A
89
15
46
55
19
A2
1A
61
A6
96
59
A8
10
56
50
89
29
81
88
A1
52
08
68
A1
95
98
96
54
46
66
69
51
41
06
99
55
66
46
50
09
09
55
A5
69
68
9A
61
89
66
99
15
15
5A
65
95
54
2A
96
51
AA
11
81
95
41
19
25
62
24
91
6A
0A
96
46
1A
66
A1
68
94
41
A5
66
11
60
18
66
49
48
AA
45
55
4A
11
46
45
80
A1
8A
82
A2
64
64
9A
29
26
A9
69
28
A0
1A
5A
61
1A
28
08
A6
85
06
55
28
84
6A
AA
80
65
29
59
15
1A
92
2A
A6
56
85
0A
58
96
21
40
95
82
12
52
62
4A
42
A9
A6
09
81
22
20
69
9A
95
04
89
0A
45
24
99
08
21
16
A2
09
1A
11
6A
5A
01
66
44
95
1A
99
19
21
61
00
AA
6A
02
69
82
81
A4
41
60
02
1A
6A
04
42
1A
8A
16
64
21
52
24
40
28
AA
2A
A4
00
AA
A8
65
24
A1
52
48
66
22
1A
06
28
81
A6
AA
96
00
98
25
68
96
25
94
88
86
91
52
95
19
45
2A
50
A8
84
94
56
55
11
46
49
2A
94
54
6A
A4
18
A6
14
A6
50
2A
45
02
8A
AA
46
41
1A
18
40
61
9A
22
18
A6
45
16
5A
42
8A
0A
42
00
4A
88
96
55
90
68
5A
81
45
05
98
6A
58
69
06
52
64
28
A1
64
92
54
94
64
50
09
51
44
48
9A
12
60
22
06
44
51
19
89
90
88
11
42
59
A4
95
A8
50
56
95
96
8A
A9
90
92
19
58
04
88
61
16
95
95
15
92
95
61
68
59
1A
86
A8
99
62
9A
12
95
49
66
8A
A8
A5
54
16
26
A2
02
84
82
65
85
96
6A
60
16
8A
1A
68
AA
98
51
45
81
2A
92
AA
42
6A
A5
25
2A
A4
A4
09
85
44
52
6A
81
69
9A
88
69
A5
49
91
99
A0
11
95
98
10
A4
9A
08
45
2A
6A
56
54
41
42
86
56
25
52
59
1A
A9
9A
66
16
16
22
91
AA
48
48
64
4A
1A
49
05
41
46
90
09
91
66
56
09
49
45
2A
59
A9
6A
02
95
14
90
4A
4A
60
46
5A
68
96
24
56
4A
92
21
55
26
14
64
68
12
16
A2
91
2A
25
80
64
99
04
29
91
91
A2
21
56
50
40
09
15
98
00
02
2A
28
28
85
66
A9
61
98
05
45
55
55
66
99
26
91
62
21
04
09
89
25
68
11
19
A0
A8
05
10
52
06
50
16
68
42
46
44
51
60
A4
9A
98
02
16
5A
A4
98
92
49
22
04
29
26
91
94
A5
19
A0
84
21
44
82
20
86
46
01
59
28
62
9A
98
42
91
09
11
4A
50
92
19
46
96
4A
91
66
96
61
10
51
9A
19
64
96
A9
08
40
92
1A
5A
29
24
9A
81
18
0A
26
11
A1
11
A6
82
92
99
6A
69
86
96
A9
52
25
21
95
51
45
82
85
0A
9A
65
59
11
66
06
99
69
18
A5
6A
2A
A0
A8
26
90
29
AA
21
95
16
9A
A6
89
45
56
15
98
18
10
59
52
56
89
2A
5A
24
51
A5
56
96
9A
4A
56
44
06
18
0A
5A
81
5A
98
59
0A
9A
50
9A
14
64
24
65
62
5A
54
A0
A6
01
64
94
28
A5
AA
19
49
42
66
44
80
96
65
1A
84
96
59
22
45
8A
56
85
16
A5
A6
55
4A
9A
15
25
94
66
91
18
A1
88
18
52
15
14
19
16
58
04
A5
92
66
26
96
82
21
1A
66
A9
49
A6
1A
58
68
95
29
44
A4
11
A5
90
52
20
69
24
41
84
A5
95
59
96
AA
A5
64
6A
86
29
61
92
60
95
AA
61
18
8A
54
A2
11
18
45
25
44
19
29
62
59
5A
6A
82
9A
18
1A
21
49
61
9A
52
16
65
6A
58
64
19
28
96
08
88
02
65
85
60
85
08
59
25
20
AA
08
62
16
65
20
01
21
A1
68
6A
29
69
9A
26
A4
12
86
59
04
A5
12
0A
68
95
84
4A
46
99
A6
49
2A
22
90
95
A2
14
59
89
21
21
02
68
59
59
91
98
29
25
50
5A
A4
15
92
5A
A4
81
41
A8
68
50
29
69
69
66
95
16
5A
A6
64
86
A6
49
11
51
A4
60
06
82
82
00
16
0A
06
18
9A
A1
9A
61
28
46
6A
65
92
4A
85
92
14
16
84
2A
05
05
08
16
59
4A
16
12
84
AA
90
99
66
A8
96
55
61
99
21
69
14
1A
65
98
62
66
51
81
96
6A
A6
8A
69
00
92
41
11
20
A5
52
58
64
56
28
50
96
80
54
05
61
01
00
60
29
A5
49
25
55
81
56
A5
45
01
58
45
26
94
A2
2A
12
25
4A
41
A4
02
01
10
68
82
51
A9
89
09
02
61
04
A2
55
05
68
21
19
96
66
45
09
92
85
54
59
6A
05
8A
AA
A8
54
48
95
59
69
AA
A9
42
62
2A
46
66
29
16
82
50
A4
59
AA
0A
14
89
9A
5A
29
8A
49
28
59
A8
16
5A
52
95
55
A8
82
89
09
10
25
69
20
69
56
16
50
AA
A5
64
92
22
04
A4
61
AA
02
26
56
06
14
65
00
99
AA
56
4A
55
5A
42
94
95
59
66
92
A4
88
45
A5
94
50
90
49
46
86
18
A6
19
9A
95
48
96
A1
41
42
98
46
86
55
65
98
96
00
41
85
80
65
29
55
46
09
AA
8A
60
58
25
A0
9A
64
19
A4
91
9A
40
08
2A
52
A5
4A
26
26
41
6A
85
1A
99
96
A6
82
A4
8A
6A
66
4A
68
46
16
98
66
25
1A
85
99
48
98
0A
A5
65
81
1A
65
A4
44
2A
56
41
A0
AA
15
61
08
96
40
80
51
80
65
14
25
25
96
55
5A
58
45
A8
24
56
25
48
62
A1
5A
09
A6
54
99
02
18
8A
A0
99
69
86
9A
52
45
85
62
84
6A
86
62
18
66
69
A5
04
1A
65
A0
82
11
42
88
55
59
42
A5
49
A8
58
98
89
4A
86
91
58
46
94
60
09
46
29
19
A2
99
55
09
55
42
A2
0A
19
62
52
9A
42
A1
5A
4A
01
54
85
94
44
19
25
41
80
99
12
A8
62
05
25
82
88
92
44
54
01
A0
64
1A
A1
65
41
81
19
A4
8A
11
59
46
95
54
86
14
56
68
24
A4
A9
15
69
96
12
A2
A1
AA
45
21
84
11
A0
62
41
20
45
25
09
08
A2
14
AA
50
5A
0A
A4
00
25
8A
0A
94
A6
22
88
8A
6A
95
8A
00
A9
A8
09
90
4A
99
49
49
69
A4
29
00
85
25
86
99
55
9A
A6
49
A9
11
15
49
60
51
59
65
69
91
69
A5
A9
09
99
94
A4
29
45
02
52
95
46
98
A2
89
4A
56
69
96
29
55
A4
19
95
45
58
41
85
61
59
5A
66
65
68
42
16
82
9A
6A
21
98
A8
59
86
29
28
12
69
14
56
91
4A
1A
96
A9
65
11
55
A1
44
55
86
06
96
55
A9
A9
A5
99
95
68
65
99
A6
91
A9
AA
19
62
8A
41
AA
60
94
82
96
99
96
99
2A
2A
6A
65
88
2A
56
28
48
90
69
9A
62
92
9A
15
25
42
49
AA
A8
06
18
62
56
66
49
4A
69
22
08
04
91
A4
AA
65
56
26
11
62
95
85
1A
91
A9
66
19
95
84
A5
A1
2A
65
81
2A
48
91
06
15
9A
9A
48
82
19
AA
85
81
90
52
25
A2
65
95
1A
81
2A
29
1A
54
94
94
68
00
09
15
52
5A
98
81
95
18
A8
62
14
A6
AA
46
9A
06
96
60
29
A5
81
82
48
68
52
62
95
88
26
84
49
2A
94
91
29
68
00
55
56
80
A9
A2
50
99
62
A6
61
92
A6
62
1A
6A
14
66
49
59
09
16
6A
A8
94
A9
6A
11
AA
A1
84
9A
6A
5A
60
00
62
21
8A
0A
09
64
05
24
0A
02
95
59
80
06
28
40
59
55
9A
05
22
25
5A
25
24
99
11
A6
02
08
A5
59
02
00
88
50
A0
12
40
44
92
A9
4A
20
05
64
A4
28
91
04
59
60
56
04
09
2A
89
4A
95
98
59
88
52
68
98
91
00
89
0A
0A
9A
64
25
42
12
89
0A
98
12
A5
91
22
49
86
12
11
94
A8
A1
95
98
81
52
4A
98
95
21
69
15
51
AA
94
46
8A
21
48
58
12
65
98
85
86
9A
55
55
08
65
65
10
25
A9
86
11
2A
21
61
1A
46
AA
42
45
88
10
A0
84
52
29
4A
04
41
99
1A
9A
81
62
A4
98
6A
44
A1
86
1A
96
89
52
94
99
25
A4
58
16
25
82
86
A2
A8
62
25
10
21
85
04
A1
52
99
56
44
85
01
02
84
92
8A
2A
84
25
54
89
41
56
62
25
96
40
49
48
95
85
89
8A
58
96
68
6A
29
16
A1
A6
89
A5
0A
90
99
94
54
65
55
19
18
82
49
02
29
22
20
00
25
50
18
A5
98
69
11
80
9A
06
58
16
10
65
62
A4
04
40
A6
12
68
29
9A
29
44
88
94
56
99
62
52
52
81
68
68
08
69
59
2A
65
66
10
58
A4
56
5A
68
40
52
65
66
24
6A
25
AA
45
A6
64
68
49
18
25
58
29
51
92
96
68
66
1A
86
85
A5
A6
59
65
42
61
9A
86
1A
54
45
2A
99
45
95
6A
12
5A
A5
25
64
44
A8
48
46
1A
86
05
49
15
2A
1A
42
10
5A
99
89
4A
4A
28
65
A5
99
5A
26
99
91
82
86
68
95
21
49
50
11
A4
95
26
2A
AA
24
59
06
64
A2
98
04
14
18
90
A6
29
A0
AA
26
52
42
28
06
05
21
69
A1
52
54
66
59
A9
90
96
90
06
61
86
05
48
91
14
18
A6
58
28
5A
94
98
80
66
2A
A8
A8
88
48
85
52
26
45
A8
22
98
86
58
21
50
11
42
68
20
64
96
64
46
00
5A
A6
82
09
22
A5
85
10
15
11
06
45
A1
44
61
5A
14
89
5A
06
64
9A
1A
A5
A9
82
58
12
1A
A0
82
29
16
22
15
48
20
52
82
A4
A4
49
59
85
99
08
82
11
12
8A
A5
6A
00
68
44
14
A0
05
56
26
26
0A
14
A6
5A
86
A5
80
96
68
A4
82
A5
52
69
58
4A
65
8A
59
A8
A9
18
19
2A
55
55
24
41
9A
18
A5
14
A1
4A
60
52
46
62
2A
85
21
2A
69
A2
1A
51
50
64
91
54
20
26
20
64
29
A4
64
18
59
25
52
50
50
06
86
4A
25
61
8A
6A
21
62
61
66
84
6A
86
26
12
54
65
6A
18
11
64
48
41
91
4A
19
29
86
68
5A
6A
9A
2A
1A
19
89
69
66
A6
10
69
A5
48
00
95
52
6A
9A
95
66
51
20
62
90
55
69
56
90
59
55
15
A1
52
8A
4A
5A
49
94
68
28
95
96
24
95
69
91
66
2A
6A
26
26
14
95
1A
96
25
55
59
95
69
68
56
12
20
28
56
44
59
09
54
64
22
66
24
66
84
26
44
8A
52
29
60
9A
A0
68
02
59
81
49
AA
1A
95
26
58
A2
11
25
81
60
54
2A
96
99
66
8A
51
A8
28
24
54
A4
05
24
94
41
81
5A
A6
96
A4
2A
A9
95
64
15
8A
11
66
55
A2
AA
9A
10
90
26
A5
11
80
19
1A
22
A5
82
92
59
61
82
A4
59
51
AA
51
64
16
46
62
A0
A2
8A
18
12
AA
92
48
61
66
4A
A0
49
96
12
95
59
6A
15
6A
6A
48
84
5A
41
95
40
09
20
09
10
A9
52
22
28
12
9A
42
58
98
86
9A
86
A9
99
9A
58
AA
42
A2
24
06
A2
96
5A
2A
00
94
A1
48
1A
2A
42
18
A5
45
A4
20
48
96
25
56
2A
15
49
9A
0A
A0
2A
26
96
09
62
22
48
84
91
05
6A
18
A1
48
55
19
25
1A
90
94
4A
54
16
91
29
99
10
5A
52
A5
11
41
10
91
A1
54
92
94
51
14
61
04
09
49
15
59
45
A0
49
10
06
00
86
29
94
55
88
9A
2A
20
61
4A
1A
9A
A8
25
01
55
69
A8
A1
92
55
9A
11
41
61
69
20
95
96
82
84
66
89
62
64
2A
95
46
60
60
9A
59
55
66
99
0A
42
A5
A5
19
88
12
A9
A9
26
96
56
06
48
2A
99
6A
19
16
51
9A
20
12
49
41
61
05
66
A4
0A
20
A9
21
52
16
81
66
A9
24
81
49
A5
95
59
2A
68
8A
65
12
A2
42
A6
26
56
58
9A
55
6A
5A
60
48
99
62
26
95
96
8A
2A
AA
8A
22
91
00
69
15
66
54
49
52
A2
A2
04
20
89
69
AA
29
AA
15
A9
42
01
60
91
66
69
12
92
82
20
6A
90
0A
69
51
11
59
69
52
06
1A
99
55
29
08
66
14
AA
2A
1A
00
8A
85
8A
40
24
95
55
46
95
2A
91
94
12
12
A2
42
8A
24
96
66
54
1A
89
45
58
49
92
90
1A
55
56
9A
69
46
81
56
62
98
94
5A
A6
95
2A
94
9A
A6
A1
56
66
54
86
91
81
18
26
89
64
10
84
64
15
96
92
49
21
95
9A
84
69
11
5A
90
95
28
60
A4
26
69
5A
68
94
89
66
09
5A
68
A9
A6
52
45
48
22
28
21
65
96
80
0A
24
94
95
A1
81
26
AA
19
65
61
50
62
28
06
49
04
12
94
A5
A9
68
82
56
A8
68
A9
8A
99
51
56
99
28
55
82
45
90
06
59
46
AA
50
61
25
A9
61
09
A2
60
28
89
4A
62
42
6A
9A
81
99
48
2A
A8
29
21
18
51
9A
1A
8A
41
52
18
82
00
16
4A
65
99
46
01
01
05
51
56
59
84
96
00
6A
55
55
8A
88
A5
24
68
6A
40
12
91
12
21
42
95
86
14
65
A4
68
A1
04
29
0A
24
58
6A
26
A1
2A
89
54
A8
A9
24
90
41
56
26
69
60
01
56
81
99
29
99
A2
99
96
69
6A
9A
82
2A
25
8A
88
A4
46
98
51
A2
58
61
85
A0
4A
41
82
62
69
4A
51
91
59
61
85
52
A6
5A
1A
59
96
A1
5A
41
29
A5
A5
91
29
8A
19
14
19
69
49
51
85
65
0A
41
84
A9
92
86
95
95
99
A4
54
28
96
AA
15
25
40
20
96
51
58
91
50
1A
2A
A9
68
A0
85
60
95
4A
55
56
62
16
65
20
55
45
62
A8
10
A8
85
19
A2
64
19
56
92
48
66
61
65
41
14
96
44
09
96
55
56
60
29
84
99
AA
19
95
A1
46
00
90
58
65
59
84
40
90
99
26
0A
56
21
20
02
95
A5
25
A6
55
9A
54
28
22
8A
05
11
6A
65
05
86
90
49
AA
1A
55
96
65
AA
A4
51
96
60
5A
58
05
54
A9
68
59
66
29
4A
69
6A
98
51
A2
14
66
51
A2
58
08
92
54
24
50
0A
52
65
40
85
59
29
26
04
26
00
11
58
80
10
55
60
44
26
29
61
96
15
41
60
59
69
60
49
90
95
A2
5A
59
95
68
65
82
98
65
11
42
82
18
AA
04
51
04
91
61
90
9A
81
A6
4A
01
99
A1
58
52
50
A9
05
02
99
98
54
0A
A8
50
81
AA
02
09
59
2A
81
8A
45
09
50
44
91
0A
9A
9A
A5
82
AA
95
15
66
A9
66
69
81
90
50
A4
51
16
96
94
62
99
5A
40
A9
55
15
56
80
22
09
45
94
98
99
AA
28
6A
86
49
48
64
AA
88
45
46
92
69
68
A0
5A
10
60
21
84
A6
24
10
16
AA
8A
95
50
56
AA
4A
85
99
02
04
90
64
58
92
60
A5
99
8A
2A
82
59
92
AA
94
08
95
08
A8
5A
55
52
09
A4
12
01
06
45
84
98
40
22
58
10
61
80
66
06
52
15
41
50
A4
61
28
51
25
99
8A
A0
11
8A
08
92
11
8A
60
54
62
2A
0A
10
98
A9
88
42
A9
28
50
28
58
A1
99
8A
11
58
92
48
A0
55
22
08
82
91
85
12
46
2A
56
51
61
85
69
18
04
29
89
66
A1
52
15
61
6A
05
56
28
05
1A
A4
06
54
58
A2
64
44
25
12
6A
A9
41
51
46
A5
50
49
61
A8
4A
25
6A
94
85
45
6A
28
48
26
06
90
51
92
21
A4
A8
A6
A9
61
6A
5A
85
80
55
86
56
64
12
85
90
A6
6A
92
A4
82
69
02
86
55
19
A6
A1
05
95
99
24
18
1A
82
25
81
86
AA
60
25
9A
14
65
95
66
A9
66
A6
A8
02
A4
19
81
96
61
84
95
A4
19
42
62
02
A6
20
54
19
60
90
A5
96
9A
9A
60
64
45
96
29
26
92
9A
89
52
28
62
A9
AA
18
A9
65
65
12
04
94
5A
5A
A8
95
16
AA
89
66
A9
95
A8
26
91
26
82
26
49
52
88
90
14
21
06
12
80
A6
6A
00
98
5A
90
45
25
02
44
19
91
85
A8
A9
29
45
0A
66
8A
64
92
80
92
88
A0
81
45
89
4A
84
91
A0
68
A5
58
26
A6
98
6A
61
11
04
00
91
A6
96
89
55
91
94
62
65
29
41
A6
A5
25
A9
42
91
12
00
A2
56
8A
42
51
45
A1
2A
A8
02
A4
88
95
66
64
91
65
41
6A
92
69
52
58
51
80
