3DB66000
3D936000
3DBAE000
3DB98000
3DB52000
3DBB0000
3DB66000
3DBA4000
3DBC2000
3DB5E000
3DB46000
3DB80000
3DB60000
3DB14000
3DBDC000
3DBBA000
3DB54000
3DB2C000
3DAFC000
3DBB6000
3DBA4000
3DB60000
3DB60000
3DBEA000
3DB06000
3DAAA000
3DB14000
3DB2A000
3DBE8000
3D8B4000
3DBEC000
3DAC0000
3DB70000
3DAE4000
3DAF2000
3DB66000
3DB92000
3DBD2000
3DB50000
3DC5A000
3DB7E000
3DC04000
3DB82000
3DAE2000
3DB6E000
3DB02000
3DB0A000
3DB0E000
3DB02000
3DB42000
3DBB4000
3DB28000
3DB20000
3DA20000
3DB88000
3DB62000
3DB70000
3DC0E000
3DB8A000
3DB6C000
3DB1E000
3DB9C000
3DAE4000
3DB02000
3DBEA000
3DB94000
3DA9A000
3DB22000
3DB5E000
3DAF4000
3DB86000
3DB26000
3DC06000
3DB20000
3DB06000
3DBEA000
3DB14000
3DADA000
3DB88000
3DB36000
3DB1E000
3DB20000
3DAFA000
3DBBA000
3DAB6000
3DB7E000
3DA7A000
3DB12000
3DB9A000
3DBC2000
3DB7E000
3D6F8000
3DB88000
3DC08000
3DBD0000
3DBAC000
3D942000
3D92A000
3D90E000
3D958000
3D990000
3D990000
3D97E000
3D940000
3D924000
3D97A000
3D96C000
3D914000
3D956000
3D9AA000
3D970000
3D99C000
3D920000
3D932000
3D96E000
3D920000
3D900000
3D8DE000
3D94E000
3D99E000
3D928000
3D504000
3D95A000
3D97C000
3D9BC000
3D99E000
3D9BC000
3D93C000
3D96A000
3D95E000
3D92C000
3D95E000
3D8F6000
3D8B0000
3D98E000
3D91A000
3D92C000
3D92C000
3D954000
3D986000
3D94A000
3D96E000
3D95A000
3D98E000
3D84C000
3D918000
3D97E000
3D95A000
3D9BC000
3D988000
3D8F0000
3D922000
3D9B2000
3D950000
3D924000
3D91A000
3D976000
3D964000
3D99E000
3D97C000
3D98C000
3D8EE000
3D9A0000
3D96A000
3D976000
3D962000
3D964000
3D90C000
3D920000
3D9A8000
3D950000
3D97E000
3D8F0000
3D94E000
3D964000
3D95C000
3D964000
3D950000
3D964000
3D95E000
3D91C000
3D9B8000
3D988000
3D99E000
3D908000
3D95C000
3D94C000
3D90A000
3D944000
3D9C6000
3D932000
3D934000
3D7B2000
3D4CE000
3D844000
3D77E000
3D7FE000
3D7D8000
3D802000
3D870000
3D882000
3D820000
3D282000
3D83A000
3D824000
3D748000
3D826000
3D860000
3D69C000
3D824000
3D868000
3D778000
3D7DA000
3D84C000
3D80C000
3D6E4000
3D83E000
3D858000
3D618000
3D87E000
3D856000
3D7E4000
3D766000
3D70E000
3D852000
3D838000
3D6EA000
3D856000
3D816000
3D840000
3D82E000
3D85A000
3D840000
3D822000
3D856000
3D7E8000
3D6A8000
3D82A000
3D7CE000
3D7BE000
3D52E000
3D71A000
3D7CA000
3D82C000
3D82C000
3D840000
3D854000
3D72E000
3D868000
3D870000
3D836000
3D846000
3D81A000
3D7F2000
3D80E000
3D834000
3D880000
3D830000
3D80E000
3D830000
3D464000
3D836000
3D78E000
3D6DE000
3D7E2000
3D7CE000
3D8A8000
3D82A000
3D780000
3D574000
3D872000
3D7FA000
3D7B2000
3D882000
3D534000
3D85C000
3D742000
3D812000
3D6C2000
3D83E000
3D83A000
3D84C000
3D820000
3D842000
3D83C000
3D834000
3D86A000
3D862000
3DCC6000
3D940000
3DD1E000
3DD66000
3DD1E000
3DCFC000
3DCCC000
3DCE0000
3DCFE000
3DD38000
3D8AA000
3DCD8000
3DC86000
3DD3E000
3DCD0000
3D9F4000
3DCF6000
3DCBC000
3DC4A000
3DD20000
3D8D6000
3DD28000
3DCD6000
3DD22000
3DCE6000
3DCA6000
3DBF6000
3DC78000
3DD52000
3DBC0000
3DCF4000
3D878000
3DCFE000
3DD04000
3DD72000
3DD4A000
3DAB2000
3DCC0000
3DC40000
3DCD2000
3DCFE000
3DCB0000
3DD34000
3DC6C000
3DC76000
3DCD0000
3DC9C000
3DD52000
3DCC0000
3DD02000
3DDC0000
3DC7C000
3DC46000
3DCB4000
3DCB2000
3D8F2000
3DD22000
3DD10000
3DCCC000
3D9A8000
3DCF2000
3DD5C000
3DCFE000
3DC5A000
3DC56000
3DCFC000
3DC7A000
3DC92000
3DC6C000
3DD26000
3DD86000
3CD4E000
3DB60000
3DD52000
3DDAE000
3DD18000
3DCE4000
3DCE2000
3DCCE000
3DD40000
3DD6A000
3DCCE000
3DC9E000
3DCAE000
3DC14000
3DCF4000
3DC08000
3DC8A000
3DD50000
3DC7C000
3DCD0000
3DD38000
3DD60000
3DD3C000
3DC24000
3DCD0000
3D5A6000
3D680000
3D692000
3D69A000
3D736000
3D70C000
3D726000
3D738000
3D7A0000
3D70E000
3D6F2000
3D6D4000
3D6D2000
3D73C000
3D576000
3D672000
3D6DE000
3D738000
3D5EC000
3D67E000
3D6DE000
3D74A000
3D640000
3D63E000
3D640000
3D6AE000
3D694000
3D65E000
3D5CC000
3D6DC000
3D62A000
3D64C000
3D662000
3D644000
3D6B2000
3D7AA000
3D6AE000
3D5E0000
3D762000
3D5A0000
3D74C000
3D794000
3D690000
3D62A000
3D708000
3D77C000
3D6AE000
3D6CE000
3D75A000
3D71C000
3D6E0000
3D774000
3D744000
3D5C6000
3D68C000
3D6F4000
3D802000
3D51A000
3D6FC000
3D5D0000
3D704000
3D6F6000
3D780000
3D69C000
3D6D8000
3D7A8000
3D762000
3D67A000
3D68C000
3D67A000
3D56C000
3D676000
3D764000
3D6C0000
3D72A000
3D6DE000
3D558000
3D570000
3D588000
3D756000
3D6A2000
3D68E000
3D680000
3D6DC000
3D67A000
3D822000
3D688000
3D5C0000
3D81E000
3D822000
3D720000
3D750000
3D69E000
3D756000
3D6D4000
3D73C000
3D858000
3DB4C000
3DB64000
3D994000
3DA2A000
3D998000
3D902000
3DACA000
3DA4E000
3D05C000
3D99C000
3D946000
3D8E0000
3DB82000
3DAA8000
3DB68000
3DA4C000
3DA66000
3DB70000
3DB78000
3D1AC000
3DA7E000
3DAF4000
3D790000
3D964000
3D980000
3DABE000
3DB44000
3DAA6000
3DAA0000
3DA94000
3DB7E000
3D9AC000
3D564000
3DB18000
3DB60000
3DBC6000
3DB10000
3DB18000
3D8F8000
3DA46000
3D936000
3D8B2000
3DA9A000
3DBA0000
3D640000
3DA40000
3DBD0000
3D96E000
3DA78000
3D90C000
3D390000
3D9C4000
3DA20000
3DBB0000
3DB2A000
3DB08000
3DB48000
3DAB4000
3DA8C000
3DABC000
3DB92000
3DB22000
3DBAC000
3D934000
3DAA2000
3DA34000
3DAF8000
3DAEA000
3DAAA000
3DB5A000
3DAC6000
3DB98000
3DBD8000
3DBAA000
3DA58000
3D926000
3D96A000
3DA98000
3D96E000
3D92E000
3DB62000
3DA66000
3D8EC000
3DA2A000
3D944000
3DAE4000
3D9E6000
3DB60000
3D86E000
3DC36000
3DC02000
3DA84000
3D9E2000
3DBA4000
3D824000
3D72A000
3D62E000
3D658000
3D6A6000
3D6B8000
3D77C000
3D71E000
3D65C000
3D70E000
3D684000
3D694000
3D5DA000
3D78E000
3D744000
3D61C000
3D692000
3D692000
3D55C000
3D708000
3D502000
3D678000
3D298000
3D66E000
3D69C000
3D772000
3CDE8000
3D788000
3D640000
3D754000
3D58A000
3D62C000
3D690000
3D64E000
3D598000
3D582000
3D660000
3D570000
3D73A000
3D6EE000
3D676000
3D61A000
3D5BC000
3D69A000
3D67E000
3D704000
3D634000
3D5CA000
3D654000
3D6DE000
3D6F6000
3D666000
3D648000
3D6C0000
3D674000
3D702000
3D6A4000
3D60A000
3D624000
3D752000
3D6EC000
3D6E8000
3D700000
3D67E000
3D5F4000
3D4F2000
3D682000
3D65E000
3D75E000
3D732000
3D698000
3D708000
3D6E8000
3D660000
3D7E0000
3D63C000
3D734000
3D66A000
3D7C2000
3D6C4000
3D630000
3D72E000
3D666000
3D5B4000
3D6B0000
3D734000
3D626000
3D65A000
3D72E000
3D6A8000
3D666000
3D610000
3D496000
3D6E8000
3D660000
3D5C2000
3D710000
3D670000
3D5F4000
3D6B8000
3D582000
3D68E000
3D59A000
3D65E000
3D754000
3D694000
3D61A000
3D5C8000
3D648000
3D64A000
3D61E000
3D6D6000
3D662000
3D5B2000
3D6CC000
3D5BA000
3D622000
3D694000
3D77C000
3D648000
3D6EE000
3D6AE000
3D6D2000
3D638000
3D5DE000
3D684000
3D6B0000
3D4DA000
3D5EC000
3D664000
3D67C000
3D674000
3D55E000
3D66E000
3D61C000
3D626000
3D658000
3D5F2000
3D6EA000
3D5AA000
3D6F4000
3D648000
3D66A000
3D620000
3D668000
3D56A000
3D3A4000
3D6B0000
3D640000
3D640000
3D666000
3D654000
3D662000
3D66A000
3D676000
3D70A000
3D6A8000
3D726000
3D622000
3D54E000
3D6DC000
3D764000
3D6A0000
3D6D0000
3D592000
3D754000
3D52C000
3D656000
3D536000
3D5A4000
3D6C8000
3D71C000
3D73E000
3D66E000
3D72C000
3D6FA000
3D646000
3D5CC000
3D5D0000
3D65C000
3D600000
3D6EE000
3D6C0000
3D5AC000
3D624000
3D5F4000
3D698000
3D6C8000
3D5C2000
3D6E4000
3D69A000
3D642000
3D604000
3CEC8000
3B8A0000
3D520000
3B798000
3BC2C000
3B1F6000
3C1C8000
3ADDC000
B6780000
3D12A000
3B530000
3B4DE000
3B732000
3C89E000
3C422000
3B608000
3B656000
3B30A000
3BAD6000
3CB94000
3D3EE000
3B2C4000
3B580000
3D284000
3CC30000
3BC6E000
3D286000
3B8C6000
3CD10000
3B3DA000
3C8EA000
3D312000
3CEC8000
3D560000
3CD86000
3C8AA000
3CD68000
3D242000
3B892000
3B83C000
3C9E8000
3C948000
3BBCA000
3D042000
3C2DC000
3B3B8000
3D17E000
3CA66000
3B8FC000
3C48A000
3B500000
BB8D0000
BCB8C000
3B3A4000
37BC8000
3B0D4000
3D7BC000
BB8EE000
3B68E000
3D41C000
3D27E000
3D4E0000
3D1E2000
3D080000
3D47E000
3D01C000
3B8CE000
3D2F8000
3CD18000
B8FB0000
3C8EC000
3CA2A000
3D142000
3C83C000
BBA12000
3D1CE000
3CD98000
3D570000
3C9CE000
3BA48000
3C1BC000
3D2F4000
3C8B6000
3B4E2000
3CE48000
3D358000
3CDC6000
3B710000
3C8A8000
3B840000
3B94A000
3D5AA000
3B30A000
3D336000
3D0F4000
3CA76000
3D9E0000
3D9CC000
3DA02000
3D8B8000
3D96A000
3D9B4000
3DA7A000
3D9EE000
3DA0A000
3D9C4000
3DABE000
3DA20000
3D9FE000
3DA06000
3DA70000
3DA34000
3D972000
3DA28000
3D998000
3D9FA000
3D9C0000
3D9E2000
3D9E2000
3D9F6000
3DA2E000
3D9A0000
3D9E8000
3D6B6000
3DA36000
3D98C000
3D9FC000
3DA3C000
3D9E0000
3DA06000
3D97C000
3DA3E000
3D98C000
3DA56000
3D9B0000
3D6C2000
3DA04000
3D9D2000
3DA1A000
3D9BE000
3D9B6000
3D98C000
3D9EE000
3D9DA000
3D4FE000
3D9AA000
3D9F6000
3D9DE000
3D9B4000
3D984000
3DA00000
3DA4A000
3DA2A000
3D9C0000
3D9E6000
3D95A000
3D9E6000
3D9F2000
3D9F4000
3D9EC000
3DA0A000
3DA06000
3D930000
3DA26000
3D9C2000
3D9B0000
3D9BE000
3D9F2000
3DA0C000
3D964000
3D9C0000
3D9EA000
3D9D2000
3D9DA000
3D996000
3D9CE000
3DA00000
3D9BC000
3DA28000
3DA7E000
3D9F2000
3D9B2000
3D9CA000
3DA12000
3DA08000
3D9EA000
3D9F2000
3D9C4000
3D9D6000
3D994000
3D9FE000
3D9AE000
3D964000
3D98E000
3DA0A000
3D9A0000
3D9BC000
3D9D4000
3D9D2000
3D95E000
3D918000
3D932000
3CECE000
3DA7A000
3D9E4000
3D9E0000
3DA06000
3D9C0000
3DA1A000
3D9EE000
3D9CE000
3D9F6000
3D94E000
3DA30000
3D99A000
3D9DC000
3D9B8000
3DA2C000
3D9CC000
3D9DE000
3D9F2000
3D970000
3DA02000
3DA00000
3D96E000
3D9B4000
3D9C8000
3D9D2000
3D9A6000
3D9B0000
3D452000
3DA1A000
3D9DA000
3D9DC000
3D95E000
3D9E8000
3D9D0000
3D9F8000
3D9FE000
3D9E4000
3D9E2000
3D9AA000
3CBD2000
3D976000
3D9DE000
3D9EA000
3D976000
3DA1A000
3D9B4000
3D9FC000
3DA16000
3D9A4000
3D9E4000
3D9AA000
3D9D2000
3D9D4000
3D988000
3D9B6000
3D9F4000
3D9E0000
3D99A000
3D96C000
3D9B6000
3D98E000
3D96E000
3D9DA000
3D9B0000
3D9AE000
3D97C000
3D9D6000
3D9C4000
3D410000
3D9CE000
3DA08000
3D96C000
3D996000
3D988000
3D9DC000
3D9A0000
3D996000
3D9E4000
3D9CA000
3DA18000
3D95C000
3D9DC000
3D9CE000
3D9B6000
3D9F4000
3DB04000
3DA46000
3DB1C000
3DA3E000
3DA98000
3DB6A000
3DAFE000
3D5D0000
3D966000
3D96C000
3DBB6000
3D81C000
3D952000
3DAFE000
3DB10000
3D986000
3D90C000
3DB52000
3D6FA000
3DB38000
3D97A000
3DADA000
3DA76000
3D946000
3DA22000
3DA76000
3DAE6000
3DB50000
3D946000
3DA98000
3DAA8000
3DA6C000
3D920000
3DB92000
3D980000
3D9EC000
3D8DC000
3DA36000
3DA58000
3DA5A000
3DAA6000
3DAAE000
3DBBA000
3DB1E000
3DA74000
3DAF8000
3DB1E000
3DB0C000
3DAB0000
3D656000
3D9C2000
3DB08000
3D9D8000
3C796000
3DB6A000
3D088000
3D956000
3D828000
3DA60000
3DB68000
3D8B4000
3DACE000
3DA66000
3DAE4000
3DA36000
3D0BE000
3DACE000
3DAF0000
3DB0A000
3DA0C000
3C86C000
3DB16000
3DA4A000
3D76E000
3D9BA000
3D8DE000
3DA42000
3DA6E000
3D1C8000
3DB10000
3D820000
3D9E8000
3DA3A000
3D930000
3D9F0000
3DA8C000
3DA88000
3DA2E000
3DAF6000
3D0DE000
3D620000
3DAFC000
3DA38000
3DB12000
3DA82000
3DB9C000
3D880000
3D91C000
3D8B6000
3D834000
3D8B4000
3D88C000
3D826000
3D884000
3D844000
3D902000
3D876000
3D91A000
3D872000
3D8A8000
3D85C000
3D8BA000
3D6C0000
3D8AC000
3D86C000
3D8D6000
3D8E4000
3D884000
3D8E8000
3D8A6000
3D8FE000
3D860000
3D892000
3D798000
3D7B8000
3D8B4000
3D87E000
3D87A000
3D920000
3D8CE000
3D8AE000
3D8CE000
3D848000
3D8A8000
3D8DC000
3D8A2000
3D844000
3D8CC000
3D68C000
3D8A6000
3D870000
3D86C000
3D87A000
3D872000
3D6D2000
3D8C4000
3D898000
3D5F8000
3D896000
3D86C000
3D8D6000
3D8AE000
3D8C8000
3D8BC000
3D86E000
3D686000
3D53E000
3D748000
3D860000
3D858000
3D8C2000
3D8B2000
3D816000
3D8A4000
3D930000
3D848000
3D866000
3D958000
3D8BA000
3D882000
3D852000
3D89A000
3D906000
3D858000
3D8D2000
3D85A000
3D8A4000
3D836000
3D8D4000
3D8AC000
3D87C000
3D8C0000
3D900000
3D882000
3D856000
3D83E000
3D882000
3D862000
3D662000
3D864000
3D8DA000
3D8EC000
3D912000
3D88C000
3D360000
3D970000
3D88C000
3D8F0000
3D872000
3D8CC000
3D47C000
3D930000
3D8B6000
3D8F6000
3D95A000
3D866000
3D4B0000
3D8BA000
3D756000
3D7A4000
3D95A000
3D938000
3D968000
3D90E000
3D922000
3D918000
3D8FE000
3D8FC000
3D94C000
3D07A000
3D596000
3D942000
3D8CC000
3D90A000
3D952000
3D494000
3D97C000
3D888000
3D3C8000
3D84E000
3D95A000
3D9B4000
3D7F8000
3D870000
3D78C000
3D78C000
3D850000
3D986000
3D8E8000
3D940000
3D9AE000
3D87E000
3D804000
3D96C000
3D91C000
3D96A000
3D8DC000
3D73A000
3D946000
3D97C000
3D9AA000
3D2BC000
3D752000
3D938000
3D8AA000
3D99A000
3D94E000
3DA34000
3D948000
3D8A6000
3D8A8000
3D650000
3D99E000
3D9BE000
3D924000
3D95E000
3D982000
3D9D0000
3D908000
3D862000
3D708000
3D446000
3D956000
3D8E8000
3D994000
3D8C6000
3D914000
3D946000
3C890000
3D984000
3D862000
3D858000
3D910000
3D9BA000
3D8E0000
3D23A000
3D0D6000
3D87A000
3D992000
3D9B6000
3D9F0000
3DA32000
3D9D0000
3DA00000
3D9F6000
3DA1E000
3DA08000
3DA02000
3DA24000
3DA18000
3D9D2000
3D6EC000
3DA48000
3D9BA000
3D9F6000
3D9A2000
3D9E0000
3D98C000
3D5C0000
3DA2A000
3D998000
3D9CE000
3D9FA000
3D982000
3DA2A000
3DA60000
3D9DA000
3DA3C000
3DA1A000
3D9D4000
3D9C0000
3D9C6000
3D98E000
3D93A000
3D992000
3D914000
3DA1A000
3D9FC000
3DA2C000
3D9D0000
3D832000
3D9DA000
3DA66000
3D9D2000
3DA16000
3DA0A000
3DA2C000
3DA18000
3D9C4000
3D95E000
3D9E2000
3D958000
3D9EA000
3D9D4000
3D9BC000
3DA5E000
3DA3A000
3DA00000
3DA02000
3D9AE000
3DA12000
3DA32000
3D994000
3D9EA000
3D99E000
3DA18000
3DA1E000
3D9D4000
3D9F0000
3DA10000
3D9DA000
3D9E8000
3D9EC000
3DA70000
3D9C8000
3DA2A000
3D9FE000
3DA1E000
3D9C6000
3D9D4000
3D9CE000
3D9EE000
3D9A6000
3D9F0000
3D9E8000
3DA1E000
3D9CE000
3D9E8000
3D9BE000
3DA0A000
3D9CA000
3DA20000
3DA0C000
3D9F0000
3DC00000
3DB8C000
3DBEC000
3CF6A000
3DC6E000
3D44C000
3D4A2000
3D440000
3DB8E000
3DA9A000
3DE02000
3DCCE000
3D210000
3DB82000
3D9C0000
3DB32000
3DF68000
3DCD6000
3DD46000
3DA58000
3C57A000
3DB0C000
3DC9A000
3D690000
3DC90000
3DD14000
3DD26000
3DC76000
3DCB6000
3DBFC000
3DD0A000
3D80A000
3DDCE000
3DBD4000
3DE36000
3DB8A000
3DD02000
3D600000
3DE7C000
3DA8C000
3D8C6000
3DB4A000
3D260000
3D152000
3DCC2000
3D814000
3DDDC000
3DC48000
3DCCC000
3DE1A000
3DDC2000
3DEB4000
3DF26000
3DBA4000
3D4D4000
3D5D6000
3D91E000
3DB5A000
3DDFA000
3DDDA000
3DDF4000
3DCF0000
3DB62000
3DEEC000
3DC3C000
3D826000
3DA2A000
3DCAC000
3DAF8000
3DF06000
3DCC8000
3DB86000
3DC52000
3DB98000
3DD28000
3DBEA000
3DED4000
3DB06000
3DB7C000
3DAD0000
3DACE000
3D820000
3DD18000
3DCA4000
3D864000
3DC68000
3DDD2000
3DD10000
3DD2C000
3D9FE000
3DE9E000
3DCCE000
3DBEC000
3DAA2000
3DA62000
3D866000

