96
69
A8
A5
86
A4
99
66
A5
52
02
55
02
56
42
96
A2
51
A2
52
6A
65
59
56
16
56
05
1A
68
54
1A
55
9A
65
05
52
91
10
45
15
65
05
62
95
50
81
20
69
18
56
09
41
56
4A
69
86
AA
84
A6
18
59
21
84
9A
86
86
69
09
84
16
54
A4
96
AA
48
21
51
28
68
49
86
49
96
A5
98
86
A5
44
2A
91
59
A6
1A
A9
95
54
05
15
8A
88
19
A4
0A
A9
49
59
40
26
95
A5
A2
61
26
94
82
84
68
44
2A
A5
29
A0
A5
69
9A
68
96
A0
65
00
59
66
A2
89
58
4A
80
88
5A
00
16
4A
81
84

