92
25
A6
61
A5
20
61
04
51
14
A5
55
88
96
A0
1A
88
41
10
5A
A2
52
A8
AA
49
A2
59
AA
A2
A6
24
A4
26
A2
40
14
29
99
02
62
89
86
48
94
81
81
A1
4A
86
5A
84
50
6A
58
40
21
69
56
A6
40
51
69
64
19
A1
16
61
89
26
AA
5A
64
01
94
68
09
11
10
24
80
00
1A
56
15
08
0A
28
2A
50
05
9A
45
AA
55
A1
60
61
99
20
86
90
90
82
A6
06
50
A4
56
81
10
09
66
96
85
88
52
15
5A
85
49
00
11
46
00
42
9A
56
89
88
8A
44
04
42
29
88
65
69
89
89
60
4A
29
60
A6

