82
19
45
A8
19
0A
95
14
15
90
09
62
8A
92
51
6A
51
94
91
00
00
81
04
1A
A1
66
28
50
68
20
A5
A4
92
02
68
91
28
1A
82
5A
AA
52
A8
80
AA
98
80
91
02
09
05
45
88
62
09
92
01
69
69
25
14
08
2A
9A
25
82
A8
A2
45
0A
8A
99
14
69
26
90
88
90
04
10
A8
18
04
90
66
18
10
14
52
6A
44
90
24
9A
90
05
94
08
95
08
82
54
8A
91
90
12
86
50
91
96
08
48
A9
96
98
45
45
95
61
46
69
95
08
89
95
51
82
90
10
2A
96
51
16
56
80
69
91
41
A4
66
5A
96
8A
19

