02
09
05
45
88
62
09
92
01
69
69
25
14
08
2A
9A
25
82
A8
A2
45
0A
8A
99
9A
AA
58
A6
92
54
A4
66
98
05
18
24
68
64
89
05
18
82
A4
61
61
66
15
00
41
A1
66
A9
25
06
10
66
A0
2A
04
86
5A
42
22
04
99
AA
0A
19
42
18
92
99
09
1A
2A
5A
69
02
10
88
88
9A
61
26
25
21
16
A5
68
41
99
66
25
00
82
A2
00
65
82
A8
01
16
50
90
A4
80
56
66
29
69
56
55
84
81
26
9A
40
86
18
68
95
45
95
24
49
AA
A9
46
16
41
42
46
01
59
22
AA
04
21
A0
5A
AA
42
09
25
85
95
12
4A
28
56
AA
86
11
55
68
A1
4A
2A
64
49
29
A9
A2
A0
66
24
A9
A6
49
42
84
42
16
49
49
A5
1A
50
51
58
45
29
98
9A
44
51
92
19
96
56
64
A2
5A
20
A4
05
24
54
84
80
58
24
14
80
5A
8A
4A
51
0A
09
58
20
68
56
26
19
80
51
84
44
02
54
04
02
12
26
22
98
40
4A
44
A0
54
61
AA
86
51
82
10
61
51
26
A5
0A
22
00
4A
26
10
26
09
9A
98
A0
60
00
22
40
00
9A
61
40
A0
44
29
99
28
12
94
21
01
A2
28
55
02
40
80
00
82
21
90
15
82
40
12
88
15
00
89
2A
09
81
54
9A
92
86
15
29
81
50
62
41
56
50
6A
16
26
14
A5
14
6A
66
6A
86
60
48
81
96
99
94
59
09
60
86
92
A6
52
A2
55
2A
68
44
98
2A
51
62
95
05
42
95
02
22
95
95
49
16
92
99
A1
29
61
A1
56
18
21
59
A9
10
68
82
98
2A
05
A5
62
19
18
A9
85
A9
29
59
54
A4
4A
52
55
22
26
16
98
92
A1
AA
09
8A
14
29
09
59
A9
28
59
29
56
29
98
64
19
66
86
59
0A
AA
59
28
58
A6
26
19
A1
98
15
9A
56
28
62
0A
56
26
59
12
90
AA
68
A6
29
64
55
9A
A6
8A
69
06
59
26
56
16
A9
08
06
42
09
45
44
56
29
09
88
86
59
46
25
40
68
A4
28
A9
59
AA
05
99
49
A5
12
86
26
56
96
16
29
96
1A
66
46
29
46
54
94
56
A9
06
54
16
56
A9
06
49
A5
68
A9
A9
61
A6
09
A9
06
90
99
68
24
6A
25
46
65
16
6A
56
A0
69
85
A6
05
A6
A9
A9
64
62
46
29
46
51
56
89
A9
A9
16
55
56
54
A9
69
16
54
0A
48
56
46
64
86
44
A2
19
44
16
19
16
59
99
28
24
58
AA
8A
51
68
14
99
81
89
AA
29
A9
06
A6
56
69
89
59
56
96
59
91
99
06
A9
69
56
16
96
84
A9
59
96
88
86
02
89
06
28
85
29
54
65
68
28
16
86
04
04
29
69
40
26
50
48
18
2A
24
49
10
54
29
09
54
49
05
96
90
61
16
09
50
06
99
08
16
69
89
A9
19
04
04
16
48
A9
06
A5
59
A1
16
16
94
AA
09
05
16
58
0A
56
16
49
06
0A
98
00
84
56
68
46
66
84
A9
A8
89
06
69
82
09
89
54
01
06
19
59
06
4A
99
98
46
26
66
19
50
89
90
29
99
29
88
59
46
96
59
69
86
22
69
19
99
09
89
54
64
65
56
A8
2A
4A
61
04
98
A0
51
69
54
95
06
26
A1
41
96
29
06
A9
09
86
92
54
96
29
96
56
29
46
99
51
89
44
A6
12
59
28
56
85
99
66
62
65
A1
55
A2
80
69
56
56
09
18
0A
A9
15
48
6A
42
61
54
96
19
5A
65
88
94
64
55
A4
02
15
85
01
1A
41
A9
A1
0A
25
02
05
11
1A
89
4A
60
8A
25
A6
29
61
6A
15
25
90
56
99
25
A0
64
91
50
10
05
48
42
65
50
26
A1
55
85
26
29
91
05
2A
19
A5
65
68
98
61
98
2A
22
9A
8A
62
A8
90
10
A4
82
60
1A
9A
51
04
62
8A
40
80
05
88
56
91
95
A2
82
95
65
99
2A
81
44
20
81
A0
45
81
94
45
42
51
82
66
62
54
48
0A
14
48
AA
64
28
2A
6A
19
54
A8
05
44
46
26
94
54
68
5A
4A
25
24
A9
A0
94
02
88
20
66
86
62
AA
6A
A8
51
82
95
54
58
92
06
A6
91
A0
69
95
6A
86
15
91
9A
16
15
62
51
A8
95
96
A1
A6
9A
55
A8
92
05
8A
A2
A6
60
58
22
05
22
55
22
82
59
98
15
5A
50
9A
11
98
A0
99
15
00
58
A0
90
2A
09
81
11
99
54
28
82
10
14
06
14
89
10
01
20
84
84
61
00
50
40
48
89
28
01
00
0A
12
58
4A
40
A9
60
A1
19
40
24
15
94
80
56
1A
5A
80
2A
20
08
25
65
01
01
81
00
2A
AA
05
00
10
4A
16
26
64
10
85
99
65
1A
26
00
89
08
14
8A
12
18
06
18
20
4A
02
20
0A
48
08
46
40
00
02
A4
2A
86
66
5A
94
1A
61
06
92
99
AA
5A
88
52
19
4A
02
A2
64
AA
62
99
89
18
A8
44
89
9A
51
A9
84
82
09
82
06
2A
65
96
56
AA
48
A5
56
A1
29
A8
62
8A
64
14
81
02
50
29
82
4A
45
44
54
44
99
05
99
84
29
98
96
45
28
96
22
14
05
49
94
A5
56
24
A9
80
66
28
41
52
20
89
68
11
91
46
91
55
05
6A
6A
5A
99
05
A0
60
08
80
14
68
96
41
AA
19
20
42
61
06
5A
85
59
86
5A
09
A1
A1
14
66
80
55
25
51
12
8A
09
69
86
A0
8A
09
49
9A
99
A4
41
56
4A
81
A2
02
24
18
A5
24
55
1A
15
A5
51
09
61
4A
94
04
49
92
56
8A
25
10
45
92
82
25
94
AA
18
52
69
95
24
44
29
A2
A6
48
6A
15
48
29
59
21
40
19
8A
56
84
05
02
82
26
92
69
AA
08
56
02
55
A9
AA
44
46
11
5A
91
A4
25
06
05
92
64
46
A9
9A
A2
51
A1
01
05
A6
61
15
65
A5
66
96
61
91
9A
58
61
16
96
A0
96
A4
A0
59
49
06
A0
44
01
56
81
88
2A
25
A4
65
A8
26
68
89
59
A8
99
AA
46
51
A0
82
66
18
A6
84
04
15
26
A9
45
99
A5
99
A6
56
8A
41
51
49
81
10
A6
41
08
25
1A
82
06
58
22
04
A0
58
05
68
86
66
25
90
94
60
25
A1
40
18
12
02
60
90
28
02
65
86
02
60
95
21
02
15
10
02
90
50
44
10
20
28
11
00
80
48
4A
A1
40
51
85
02
94
0A
28
28
42
00
84
50
1A
01
80
00
14
81
49
65
41
21
48
80
12
40
20
A4
10
90
65
A1
96
51
00
18
24
51
04
04
A8
59
00
10
44
95
48
98
44
A6
40
88
54
20
69
64
62
56
59
28
68
46
12
15
86
52
AA
95
40
91
15
A5
60
80
8A
59
A6
98
16
82
29
01
60
A8
AA
1A
55
16
A8
5A
24
6A
92
04
14
51
55
96
04
40
20
00
08
A1
25
61
A4
82
A9
85
45
09
55
56
68
44
91
29
10
A1
19
58
A4
86
54
88
16
51
99
19
A6
0A
01
59
85
A4
4A
69
6A
22
AA
94
00
46
58
92
11
6A
60
96
24
66
92
94
08
96
69
58
99
10
02
82
95
65
29
41
2A
69
16
6A
51
4A
15
65
09
02
44
45
44
41
A2
5A
10
AA
6A
98
A6
4A
96
90
60
84
65
42
41
61
88
A2
95
99
6A
98
40
28
91
20
66
52
64
59
A9
11
59
49
2A
58
88
22
0A
56
50
19
45
66
16
05
65
92
22
56
86
60
91
64
56
A4
29
94
49
09
A8
45
99
28
18
12
98
82
91
22
66
A1
25
60
60
42
25
66
86
60
A0
89
A9
5A
22
21
2A
61
09
62
69
A9
85
89
56
56
2A
95
5A
68
91
80
A1
6A
44
69
69
91
80
60
20
82
16
A9
80
25
64
45
AA
40
56
AA
15
6A
55
1A
89
4A
A8
09
2A
A9
55
20
98
06
6A
86
56
56
A6
56
01
08
AA
29
16
69
61
95
98
59
0A
A9
02
24
65
00
98
81
00
98
40
09
69
82
10
06
89
48
06
84
00
29
80
44
19
21
10
92
90
04
2A
52
90
80
82
85
20
1A
90
00
11
4A
18
02
61
19
AA
28
19
21
98
60
A8
94
40
90
96
40
51
49
82
0A
01
2A
50
29
14
60
A0
20
25
61
08
10
08
10
92
40
12
08
08
49
21
05
06
62
60
00
91
A2
64
26
11
A0
92
00
64
00
10
59
64
6A
99
84
69
42
61
62
51
1A
12
2A
68
90
18
04
15
12
29
A8
20
81
5A
A8
14
90
25
88
55
59
29
0A
40
9A
80
65
95
4A
A4
06
40
66
66
11
A0
40
42
96
94
99
95
54
5A
40
A5
A0
40
A5
94
41
88
16
59
89
44
2A
9A
92
A9
89
96
55
28
A1
98
61
02
1A
60
62
61
09
91
10
88
91
9A
A5
25
9A
AA
82
9A
41
1A
A9
64
82
1A
26
9A
A0
01
20
96
5A
01
0A
AA
6A
56
82
09
64
0A
94
05
45
99
58
86
66
68
12
60
04
A8
41
A5
A5
98
54
56
40
59
4A
25
1A
58
26
81
15
9A
29
0A
98
A2
15
10
5A
98
15
56
46
41
28
90
82
60
85
81
96
84
55
15
A9
14
28
48
58
05
04
A9
02
A5
25
40
45
25
11
8A
22
A1
12
08
25
61
1A
91
4A
04
54
56
56
64
05
65
A1
91
0A
A8
29
41
29
85
16
A1
22
86
69
56
50
6A
A5
11
8A
6A
86
80
42
0A
60
18
A5
A8
61
55
28
65
51
9A
65
85
19
51
04
09
92
24
69
0A
86
2A
68
92
A5
05
69
61
2A
6A
9A
41
51
10
5A
50
A9
69
25
89
40
AA
9A
0A
5A
05
65
41
45
A0
52
06
66
86
52
91
15
6A
95
05
A2
86
4A
50
05
00
00
50
8A
82
45
62
22
00
96
86
01
02
89
05
10
95
52
20
41
42
10
48
41
00
55
69
92
82
66
42
AA
20
90
29
11
80
00
82
A9
46
89
99
62
91
44
60
41
A2
51
24
64
86
02
52
0A
2A
05
0A
48
80
A8
A0
20
81
85
45
45
21
45
82
11
2A
45
68
82
48
85
85
50
51
14
04
86
28
11
40
19
02
41
02
21
A8
81
99
96
24
44
5A
20
05
11
4A
66
21
05
00
18
90
28
85
5A
68
66
50
90
5A
11
20
99
A6
A5
28
98
54
A6
4A
51
44
52
94
9A
24
66
56
08
19
94
20
5A
2A
81
A5
45
12
66
95
14
10
06
88
01
18
18
65
22
59
88
99
05
18
52
44
94
9A
84
51
26
AA
A6
88
5A
64
61
45
10
01
61
02
21
42
18
99
85
05
A2
AA
89
99
59
85

