0A
22
65
12
01
A9
21
5A
51
45
05
95
9A
88
59
89
00
96
09
22
A5
96
25
8A
9A
A8
AA
64
4A
05
56
51
A6
29
41
99
15
A9
56
A5
44
06
20
10
1A
91
41
24
A9
82
25
52
82
56
92
48
94
91
65
50
5A
61
6A
A0
5A
56
15
65
59
56
91
58
90
54
50
55
58
49
59
06
84
A6
95
86
16
A8
A2
4A
94
05
68
62
A0
99
50
14
18
14
61
59
61
56
AA
9A
92
01
98
1A
04
51
94
25
51
86
29
08
4A
A4
96
A2
86
25
44
10
85
98
01
1A
26
85
54
AA
A8
66
62
69
16
16
82
86
40
55
48
98

