92
25
A6
61
A5
20
61
04
51
14
A5
55
88
96
A0
1A
88
41
10
5A
A2
52
A8
AA
29
81
50
46
58
5A
61
50
90
90
68
88
88
90
16
A9
98
2A
14
AA
59
98
95
18
A5
2A
A4
50
AA
40
09
A6
88
89
25
41
91
98
88
81
A6
92
44
91
66
60
19
20
12
11
62
16
55
22
81
58
51
A5
25
95
55
95
5A
06
98
88
82
41
A5
06
25
02
20
1A
12
88
A8
21
0A
29
6A
52
05
A2
16
AA
56
41
28
82
05
A6
96
25
18
92
26
19
85
45
A2
66
94
A5
26
92
54
86
14
6A
91
64
02
68
A2
1A
25
62
26
1A
98
80
25
0A
22
22
A8
21
86
50
04
86
92
94
98
59
58
18
51
88
56
84
50
40
80
12
A5
26
51
05
A2
96
82
52
11
11
02
26
28
24
65
11
65
09
69
98
04
49
29
11
89
00
01
64
4A
05
00
28
58
86
18
00
92
44
45
21
56
9A
9A
95
0A
05
18
01
4A
26
08
12
46
18
55
48
85
22
48
88
24
4A
65
61
50
64
01
02
06
15
62
20
98
4A
20
25
42
99
05
90
02
10
06
91
20
81
A9
28
60
26
21
19
A2
58
04
00
68
22
89
88
24
09
05
28
01
06
08
A4
48
2A
62
42
4A
90
28
20
26
26
2A
05
64
59
4A
95
9A
05
89
69
A1
98
94
88
A4
66
5A
95
6A
9A
29
56
96
09
80
05
85
9A
58
2A
45
2A
4A
59
1A
28
19
1A
25
40
5A
69
58
A6
A5
A5
45
65
5A
54
24
90
89
49
0A
5A
26
02
06
94
5A
51
48
15
58
98
90
91
18
86
41
59
A9
08
98
60
40
9A
A5
66
58
9A
89
25
19
6A
19
68
40
4A
02
82
56
94
58
59
49
A2
59
AA
A2
A6
24
A4
26
A2
40
14
29
99
02
62
89
86
48
94
81
81
A1
4A
44
85
02
61
82
45
96
A5
55
10
1A
66
52
18
65
60
4A
94
56
61
41
42
A4
5A
A2
54
24
58
02
A0
92
24
54
A6
25
A0
22
59
86
A5
24
90
A6
69
58
A9
94
92
54
65
66
26
95
8A
68
10
04
95
69
A6
9A
A4
58
A0
4A
94
A4
49
A6
AA
A0
A5
AA
56
55
50
52
A5
08
A5
2A
91
24
92
02
A8
8A
22
49
98
A1
26
98
26
86
42
A5
09
94
1A
95
95
A6
09
95
A5
05
58
9A
50
A5
A6
A5
18
82
58
52
45
96
81
56
59
A8
21
51
A2
AA
8A
5A
55
14
1A
96
85
91
68
1A
45
4A
8A
98
88
80
8A
19
20
09
82
61
61
96
94
66
01
50
66
A1
24
5A
51
44
A5
A1
1A
89
4A
A5
62
88
56
12
56
45
61
A0
98
29
50
4A
20
80
21
A1
26
92
64
A0
0A
90
08
54
05
15
A4
50
58
06
6A
8A
12
A9
41
A1
1A
42
45
21
21
A0
40
08
52
21
04
92
21
02
69
51
82
A0
A4
A9
81
91
99
80
01
49
14
21
20
02
69
86
49
94
06
00
86
00
16
60
29
08
59
64
52
80
A2
04
A6
52
99
06
41
60
20
0A
44
A4
80
11
A0
52
25
5A
1A
2A
65
A1
9A
18
58
A0
59
69
9A
44
02
A1
A9
24
59
14
45
86
56
89
11
29
A6
01
5A
5A
49
59
62
58
2A
26
25
81
61
60
52
5A
09
A1
25
A9
41
58
A4
A5
10
22
64
68
15
50
68
65
49
2A
AA
89
18
11
29
42
2A
01
24
40
55
2A
96
51
5A
4A
14
22
AA
12
98
52
84
92
52
86
58
A0
12
5A
26
68
95
40
52
86
5A
84
50
6A
58
40
21
69
56
A6
40
51
69
64
19
A1
16
61
89
26
AA
5A
64
AA
16
AA
A2
49
A2
10
55
8A
91
99
A1
A1
A5
22
91
A4
86
69
4A
54
A1
68
A4
1A
A1
95
60
A0
A0
04
A9
86
4A
59
9A
4A
92
20
60
55
A5
48
A8
52
0A
1A
51
09
19
6A
10
50
88
49
61
95
58
61
96
85
48
95
12
A9
A6
5A
A6
6A
59
20
16
59
25
94
A6
25
4A
62
52
60
51
69
6A
20
21
18
64
16
85
62
40
25
68
95
01
61
16
55
A1
45
96
A8
66
94
11
48
05
95
45
02
A1
62
19
81
A4
25
46
5A
42
51
84
02
02
90
58
AA
54
45
26
80
A5
56
28
15
29
21
88
A9
8A
AA
68
A5
99
54
52
9A
6A
64
69
29
85
86
90
85
85
04
58
89
68
19
86
0A
90
18
25
60
A9
5A
64
25
10
42
58
92
84
5A
25
82
92
1A
2A
22
42
08
69
02
48
68
46
A5
22
82
52
05
11
28
55
04
A5
54
00
5A
91
A5
20
4A
82
50
45
25
08
50
02
11
15
84
5A
24
9A
1A
68
0A
62
14
91
08
0A
00
20
6A
4A
A0
4A
28
80
00
A5
60
10
10
98
08
0A
85
49
00
A1
44
16
12
98
01
10
86
A1
60
92
82
84
52
01
58
02
A5
4A
91
29
96
41
66
A4
42
60
95
A5
A2
98
08
21
51
11
A6
A8
5A
92
44
94
62
52
2A
20
49
61
92
22
5A
84
A4
A9
0A
1A
6A
16
22
A4
A1
52
6A
56
49
05
65
6A
09
A4
91
84
66
6A
84
49
69
04
20
A0
A6
11
28
41
A1
01
AA
06
24
88
A1
A1
4A
69
66
95
95
08
95
9A
A8
1A
96
85
98
A1
06
94
21
85
22
00
A0
80
01
94
68
09
11
10
24
80
00
1A
56
15
08
0A
28
2A
50
05
9A
45
AA
55
A1
60
0A
08
28
96
55
41
62
48
A6
61
00
26
64
66
69
45
26
84
A6
56
80
21
59
69
10
A0
04
20
2A
81
A9
58
0A
86
0A
A5
50
60
45
81
6A
80
50
62
28
21
8A
92
A2
94
96
21
1A
51
05
91
49
94
95
A8
24
11
2A
12
65
54
10
12
91
9A
91
89
11
61
26
26
6A
18
64
92
25
94
15
94
A6
46
81
0A
10
80
92
81
46
5A
41
64
58
91
99
06
84
99
04
94
9A
58
10
60
66
14
98
94
95
9A
4A
60
64
24
1A
96
22
62
99
85
65
80
45
5A
05
68
16
60
A8
94
A6
61
66
86
A5
4A
24
91
05
96
5A
18
98
95
18
51
65
4A
65
62
A2
61
05
19
60
64
68
92
1A
02
11
69
19
64
88
81
52
00
A2
06
68
40
20
42
65
68
25
02
A2
51
AA
52
12
64
A5
16
20
AA
A2
12
A4
81
A4
20
42
90
82
80
18
65
24
82
82
28
88
46
64
09
12
29
91
08
68
2A
20
49
40
14
00
80
06
25
81
10
60
11
90
95
00
21
11
68
9A
18
46
52
86
22
A4
A9
61
60
14
61
42
4A
A2
98
26
9A
04
00
40
00
00
82
A8
01
11
10
A4
10
01
28
24
20
8A
42
9A
91
05
16
20
64
01
22
91
09
A0
A0
A2
58
AA
6A
A8
68
9A
98
26
A9
A9
66
82
42
8A
66
28
9A
91
18
A2
44
62
89
16
54
85
29
29
88
55
65
65
80
AA
60
00
12
08
4A
08
45
AA
45
24
12
91
41
2A
26
A0
A8
A4
80
82
A2
91
61
A6
52
A1
A0
00
91
82
68
A6
44
20
A5
46
A4
18
90
0A
61
61
99
20
86
90
90
82
A6
06
50
A4
56
81
10
09
66
96
85
88
52
15
5A
85
49
24
56
18
96
91
A4
22
06
45
69
16
68
21
6A
95
A9
41
16
A9
92
29
41
10
88
95
28
06
04
64
1A
A4
04
28
90
09
2A
49
54
84
A0
54
A1
95
09
5A
29
24
28
A9
84
A4
68
42
96
A5
29
A9
95
96
41
68
14
68
90
28
96
54
6A
94
94
80
54
A0
61
6A
60
60
86
51
22
29
26
98
A4
62
5A
56
94
99
48
82
06
51
94
64
6A
4A
42
84
8A
8A
11
6A
2A
56
A1
16
69
AA
69
95
96
94
6A
9A
19
28
69
96
55
49
52
86
54
59
96
28
94
55
15
25
64
49
A2
54
45
61
9A
22
98
64
10
61
56
96
54
89
16
89
19
A2
55
91
5A
5A
AA
94
95
88
68
18
14
96
99
29
69
86
68
16
60
22
61
A1
88
52
24
91
88
46
8A
82
98
19
82
45
A0
16
82
49
04
09
55
40
01
88
08
68
89
94
51
06
9A
10
6A
49
69
40
02
88
94
81
20
94
19
4A
05
5A
02
21
56
9A
90
15
15
65
89
48
46
41
15
18
90
65
9A
21
50
00
64
08
40
80
68
8A
18
A0
85
58
29
84
48
A1
92
AA
49
60
20
8A
12
29
60
01
88
80
8A
61
10
64
A2
9A
92
8A
A1
52
68
22
0A
46
25
52
1A
85
94
26
62
92
95
12
50
81
1A
48
92
85
A1
98
6A
14
1A
1A
28
40
15
15
96
65
22
20
56
92
56
94
4A
80
A8
96
95
61
04
4A
2A
66
A1
89
60
55
06
95
91
AA
16
49
48
68
11
16
25
91
14
19
68
81
99
95
16
28
94
29
94
68
A9
4A
19
96
A1
18
56
62
85
14
A0
00
11
46
00
42
9A
56
89
88
8A
44
04
42
29
88
65
69
89
89
60
4A
29
60
A6
A0
08
A9
4A
54
66
88
45
91
04
26
96
A4
86
49
95
94
04
56
28
29
25
09
95
5A
85
40
15
25
59
85
69
00
29
6A
5A
86
54
09
61
66
11
1A
22
10
15
80
98
52
01
22
82
A9
58
54
26
95
20
68
98
19
49
04
48
96
A4
60
90
26
52
46
89
58
06
85
25
54
49
15
48
06
18
84
61
94
04
18
60
91
46
68
A0
90
51
96
66
41
15
80
56
49
91
16
25
4A
92
89
96
96
A4
AA
9A
49
5A
88
92
45
14
10
49
0A
44
58
98
95
A0
41
1A
A1
14
98
22
A2
66
66
84
45
59
96
29
91
61
A4
A8
6A
A8
5A
A9
91
65
42
18
08
2A
15
82
A8
29
95
84
48
1A
0A
56
15
54
69
96
60
15
94
15
40
48
04
12
69
50
65
64
84
42
1A
02
81
1A
A8
58
84
A8
00
85
44
81
95
A5
15
24
41
49
29
06
88
25
10
52
98
25
00
6A
98
69
20
85
66
20
41
00
06
66
4A
96
68
A5
A1
A5
61
01
09
52
4A
42
06
84
50
04
24
98
46
45
98
84
52
88
20
98
88
56
10
10
96
4A
A5
A4
86
18
84
00
10
86
80
24
60
A1
44
4A
25
A6
A4
68
40
92
24
02
45
02
05
66
05
19
5A
10
28
9A
04
A1
40
60
A1
89
99
28
49
A8
01
88
A8
00
0A
94
A5
65
98
A5
86
66
05
84
50
64
0A
24
60
2A
00
65
41
88
A5
64
04
81
69
14
45
69
24
95
59
05
26
99
54
69
48
91
4A
49
82
14
AA
48
69
49
84
41
80
A9
84
14
56
14
28
14
04
49
24
29
68
54
19
86
11
52
06
05
A2
96
A2
A5
9A
24
91
A6
9A
00
44
86
66
AA
46
A4
84
58
24
95
AA
A6
A2
1A
66
91
99
18
55
99
41
6A
62
4A
99
A9
49
99
62
95
A2
55
06
05
61
24
04
0A
62
52
41
00
94
89
61
29
55
80
46
09
A4
18
68
55
66
62
08
09
A8
10
0A
62
A5
69
0A
86
96
92
08
02
85
44
59
0A
A6
40
05
05
01
85
86
4A
85
99
45
82
99
94
69
52
22
9A
00
95
86
9A
09
A9
AA
81
88
44
85
25
8A
60
8A
A5
66
28
48
A5
50
05
1A
59
5A
A9
A0
8A
84
A5
22
49
99
99
22
95
14
59
28
84
29
96
19
A0
14
51
19
59
45
26
84
59
A9
A4
64
55
96
08
58
A6
55
84
65
A5
29
5A
50
66
66
86
6A
62
96
88
41
89
24
A4
A6
10
55
05
95
25
66
00
51
A8
A1
84
00
44
84
52
99
05
08
00
09
98
A4
10
81
51
41
04
52
61
81
61
62
94
6A
91
95
00
84
16
02
50
09
49
00
84
A0
18
44
8A
10
81
52
04
2A
44
08
05
06
AA
96
04
A6
50
A2
29
90
05
12
80
48
04
00
50
6A
0A
4A
45
82
41
08
22
20
12
29
4A
04
48
20
04
10
69
A1
08
10
85
15
21
A4
05
94
84
55
A2
91
41
8A
5A
50
44
25
A4
A4
A8
41
66
50
5A
22
52
80
49
9A
86
52
96
15
A2
05
2A
A4
61
06
04
19
42
59
55
86
86
A6
90
96
A9
15
95
01
56
45
55
18
66
62
99
1A
A2
41
01
09
54
A6
69
04
5A
02
A4
41
64
51
A0
69
66
98
12
5A
99
A4
55
81
AA
56
16
A8
46
4A
86
54
12
4A
59
8A
81
25
62
44
56
92
59
81
64
1A
6A
41
41
64
19
64
22
14
12
21
14
80
55
62
69
25
65
01
A0
98
80
86
99
25
00
4A
55
14
54
88
5A
4A
26
5A
0A
69
6A
16
20
85
08
58
84
A5
A2
44
02
65
8A
12
A6
09
84
88
65
95
66
50
4A
59
55
1A
64
69
92
9A
46
8A
A8
48
51
40
25
29
4A
5A
46
00
59
49
50
A8
09
1A
09
96
44
24
92
85
85
2A
14
04
19
56
80
92
29
6A
11
94
98
A9
06
89
60
21
0A
28
A4
44
11
0A
A0
A2
96
41
AA
11
96
29
69
25
44
09
41
56
96
51
14
11
91
18
90
52
08
06
64
A0
A1
62
56
65
88
04
41
80
01
68
96
42
69
26
65
61
A8
94
64
22
A8
04
92
28
81
80
95
99
19
62
29
14
99
69
85
4A
12
49
A6
92
04
51
A9
62
46
22
5A
45
15
11
22
A4
22
44
41
00
24
19
62
08
58
62
19
61
68
62
02
02
1A
00
45
16
02
90
12
82
41
4A
40
11
80
65
4A
20
62
06
0A
00
8A
42
69
89
2A
01
08
62
81
52
94
62
54
11
00
19
25
82
00
09
05
08
80
91
45
A2
09
02
A1
06
66
08
A2
46
9A
00
54
00
89
84
00
44
16
46
25
46
02
42
A0
0A
04
62
24
60
5A
08
02
91
20
86
A4
12
A0
62
64
05
A4
91
46
05
16
84
15
6A
29
60
A2
44
66
01
02
24
81
96
A1
59
09
29
AA
66
0A
05
92
56
91
A9
A9
06
42
11
A5
A1
51
54
55
90
40
10
50
06
66
64
28
92
65
A4
90
90
44
50
81
06
55
A6
56
A9
A2
60
28
45
09
18
85
51
56
48
A1
04
50
46
58
AA
86
06
16
10
A4
A5
AA
09
A9
11
42
81
44
10
66
06
64
45
24
62
A6
29
5A
20
A9
26
15
09
94
25
15
29
99
86
98
19
26
18
4A
00
85
5A
2A
18
18
59
28
59
9A
A9
5A
1A
29
11
1A
60
46
A4
09
22
89
A9
19
82
69
9A
05
90
05
92
86
58
48
46
0A
AA
A0
95
18
11
45
60
19
45
06
25
05
66
90
54
98
16
A4
29
66
19
25
98
66
A1
26
24
40
A9
26
46
64
41
9A
10
99
10
22
92
82
9A
61
A5
56
61
26
64
A6
8A
8A
A1
56
41
26
21
10
50
A2
58
80
96
A2
06
69
24
A4
64
58
58
1A
25
88
86
81
64
19
98
19
28
A4
58
98
20
65
A6
69
65
A5
A9
59
69
54
0A
50
26
49
98
66
10
95
46
48
9A
05
41
06
A4
25
A1
4A
64
A2
85
60
5A
10
66
A1
99
98
90
A1
26
A9
55
90
68
9A
26
00
19
02
65
41
88
44
A0
19
82
24
11
24
20
24
52
80
11
8A
00
45
4A
05
26
24
90
85
5A
44
24
42
44
82
28
50
18
88
21
40
25
11
98
10
06
58
04
A4
88
01
A0
40
20
04
12
65
46
48
A9
04
90
64
A0
65
60
88
2A
A0
20
58
48
88
19
12
81
82
68
A1
09
08
50
88
28
25
10
40
01
89
11
04
25
08
04
05
24
40
56
26
09
56
99
A1
6A
56
88
16
95
22
A2
8A
A2
01
64
04
A1
9A
89
0A
84
82
26
2A
9A
21
A8
56
99
9A
12
19
59
92
25
A4
66
26
9A
92
5A
66
A0
A6
84
94
05
51
A0
4A
48
60
88
49
42
A1
A4
A6
11
10
10
10
16
86
99
5A
91
88
25
A9
29
15
98
56
20
99
96
51
98
61
59
64
8A
1A
19
59
A9
5A
51
26
59
66
15
59
5A
64
89
25
65
20
04
45
0A
10
05
68
51
85
49
98
40
05
26
55
45
25
65
16
82
18
16
16
02
60
19
59
96
A1
98
92
96
9A
05
90
9A
50
19
10
60
09
69
69
69
88
40
96
59
A6
42
89
18
54
60
99
2A
58
51
84
40
92
A0
96
85
96
24
29
02
42
11
49
52
68
29
16
06
64
05
42
18
65
85
05
49
09
65
9A
21
60
64
A6
85
91
4A
82
A9
29
98
59
96
55
A1
42
92
62
45
51
46
40
05
48
96
A5
58
19
A0
40
9A
56
2A
56
A4
65
5A
69
05
12
11
AA
A4
91
44
52
25
92
99
92
A1
66
94
98
01
04
88
A6
A0
66
26
59
55
69
AA
10
45
89
59
59
96
A6
4A
59
8A
66
94
A1
06
02
20
95
40
86
A2
02
19
9A
54
51
92
98
85
56
21
15
55
5A
61
9A
45
88
90
80
20
24
98
86
21
A5
A9
89
58
48
62
49
18
21
50
25
98
92
60
9A
09
51
12
10
5A
49
69
19
84
48
00
01
88
02
52
24
40
92
8A
09
05
6A
59
A8
89
26
A0
50
00
14
69
12
14
80
99
06
82
20
50
05
12
21
01
A2
11
22
81
68
98
12
88
42
24
26
85
08
05
60
98
40
90
1A
4A
80
14
64
6A
80
42
52
68
62
8A
65
92
88
94
02
55
88
02
89
65
09
A8
A1
A6
50
05
26
25
A2
4A
66
16
12
84
90
8A
55
54
A8
62
24
A2
A8
99
86
46
A0
69
16
9A
50
A2
04
84
14
15
19
99
25
05
99
50
0A
A9
50
28
1A
56
52
29
89
A2
95
61
19
A8
A9
6A
68
29
02
9A
54
A5
19
29
99
28
45
9A
54
89
64
19
54
66
92
24
5A
91
6A
89
08
69
88
19
10
01
00
01
58
12
19
28
68
21
18
41
49
4A
9A
04
16
44
96
6A
A4
42
28
40
59
16
41
51
62
42
95
41
80
95
94
91
99
02
94
A5
01
81
26
82
91
4A
16
5A
A4
40
15
21
54
84
68
A8
86
0A
48
A2
88
08
22
68
25
58
26
1A
A8
04
A4
86
58
68
11
48
94
00
9A
14
4A
5A
59
95
6A
A2
62
A9
8A
40
96
6A
65
92
60
58
A2
80
04
A1
58
96
60
88
6A
28
6A
99
18
84
16
86
05
A0
61
95
68
56
45
29
16
6A
56
55
02
55
6A
26
14
89
25
95
99
6A
2A
56
56
4A
15
A4
95
5A
66
85
A9
5A
0A
25
82
A2
00
A2
86
25
84
16
6A
19
16
85
60
06
42
64
95
94
66
29
52
90
28
56
98
15
65
99
6A
46
81
59
66
A5
88
91
96
64
80
92
81
0A
A5
62
99
92
42
12
60
29
02
68
24
19
24
54
08
48
01
12
84
52
21
86
50
A6
90
A4
12
85
18
94
15
65
24
61
A1
6A
00
94
88
04
42
46
00
5A
02
61
94
A6
09
85
61
89
00
20
16
2A
92
42
20
88
58
52
02
20
19
90
49
10
09
26
42
24
19
4A
26
10
00
A0
A9
20
96
60
24
91
42
80
26
8A
A1
22
08
99
11
0A
20
86
04
26
0A
94
20
12
A4
22
29
08
A5
55
82
46
66
AA
95
92
68
95
85
A0
66
59
A5
58
41
68
46
59
05
9A
24
96
81
A0
85
9A
66
69
6A
9A
58
92
59
69
8A
44
A5
95
2A
10
81
5A
26
26
81
58
A6
49
A5
99
44
11
00
85
65
90
88
65
66
96
A2
5A
48
AA
59
94
29
26
64
81
6A
86
42
8A
01
15
99
6A
05
04
5A
85
49
41
A9
A1
02
11
6A
A2
A0
89
A5
80
01
06
42
08
95
22
A5
0A
A9
29
85
95
52
61
29
01
89
94
44
2A
24
94
81
49
56
62
69
90
5A
61
91
52
60
52
A4
48
A9
A5
64
26
55
11
46
26
91
05
66
96
08
45
01
5A
59
A5
08
95
11
A1
16
62
9A
A8
A1
5A
01
99
A8
A1
44
50
58
50
A9
A5
5A
5A
84
18
A8
48
A5
A6
08
A0
96
A5
61
1A
56
5A
00
41
A4
61
86
48
A0
9A
2A
55
02
89
0A
9A
46
60
A9
40
A4
84
51
61
AA
5A
5A
A6
82
64
2A
88
A1
88
58
5A
24
A5
20
A0
16
A8
82
40
54
A9
A9
52
54
21
81
85
A8
89
89
28
10
55
16
66
54
01
25
55
A2
A1
4A
A6
51
6A
AA
91
A5
29
A1
45
69
49
20
22
A4
46
88
84
A9
55
18
15
61
86
41
10
5A
91
66
40
58
41
02
11
81
22
8A
91
58
41
18
69
98
52
42
82
50
21
51
42
21
86
49
40
01
A8
69
AA
08
92
04
A1
08
A2
6A
16
16
86
04
05
88
8A
81
A5
1A
6A
86
40
20
48
06
66
58
85
01
91
01
48
21
88
50
05
09
02
24
02
62
06
58
42
01
18
55
2A
A1
00
81
10
42
A2
46
9A
A6
46
26
06
04
60
26
12
96
61
49
81
21
44
88
95
A2
00
91
0A
05
4A
08
82
65
58
A4
54
84
69
1A
A5
0A
59
A5
26
41
A5
98
60
A8
A1
AA
61
A5
00
90
55
44
95
95
A6
98
94
29
25
98
29
A0
6A
56
49
6A
A0
40
A0
AA
42
01
45
19
21
66
52
A8
69
09
41
41
54
24
06
94
91
21
8A
A1
56
64
54
6A
9A
A5
44
68
52
85
5A
50
65
5A
52
05
49
15
58
22
85
54
A8
45
0A
49
48
04
09
14
61
24
2A
A0
A9
56
96
A2
41
A1
81
A0
88
86
21
98
A5
25
46
11
54
69
04
22
0A
02
AA
05
A2
22
64
88
A4
0A
26
46
42
19
48
A9
55
88
26
00
20
42
A9
05
29
80
12
5A
A5
26
64
98
82
A0
10
45
06
22
61
8A
69
08
A8
05
94
58
09
08
5A
45
AA
95
10
05
4A
54
AA
90
29
4A
65
84
59
21
4A
02
09
A0
21
90
AA
89
05
54
A6
94
54
96
95
05
82
61
41
A1
A4
A5
A5
A9
AA
62
40
9A
64
10
12
69
54
A4
6A
12
44
0A
45
59
52
18
65
8A
A6
26
88
86
99
96
6A
09
06
09
A9
81
A6
1A
46
96
A9
44
58
60
A9
58
61
16
5A
89
92
14
64
95
AA
98
01
AA
51
11
65
1A
5A
08
68
85
94
68
96
0A
61
64
94
48
9A
A5
52
A0
20
21
19
16
A0
84
80
95
A8
14
42
9A
0A
60
80
50
26
91
80
94
44
82
56
A5
56
44
24
64
06
00
45
21
58
28
A6
8A
15
29
A6
22
80
62
40
94
60
59
6A
00
99
20
46
04
A8
14
05
49
A2
8A
92
80
05
00
69
08
81
82
20
41
92
68
80
58
02
46
A1
A8
04
42
54
A6
99
20
20
A1
60
26
A4
29
A0
19
46
A4
84
00
A9
28
92
85
A2
A2
69
21
45
68
0A
10
85
80
16
58
61
84
14
06
21
51
6A
01
A1
64
41
69
9A
A9
AA
92
46
00
94
62
21
A5
15
40
89
A9
A8
90
95
11
A6
96
41
44
12
9A
18
20
A9
AA
99
85
95
28
92
8A
06
A6
6A
A8
56
A0
24
8A
50
16
52
05
68
00
15
6A
95
69
68
A6
22
02
02
02
0A
2A
4A
A9
4A
95
20
16
66
29
61
2A
11
95
60
22
41
AA
A2
69
05
54
88
45
45
40
54
09
69
40
69
52
28
56
9A
28
52
69
42
55
45
81
86
82
90
6A
16
86
91
9A
16
86
9A
01
49
68
55
86
89
06
29
26
81
04
22
04
82
82
A2
AA
62
95
42
88
A5
A9
24
A2
40
21
64
22
94
48
25
4A
41
51
21
05
1A
18
65
65
92
A9
81
15
0A
56
69
81
69
01
65
25
58
82
A4
24
AA
41
29
09
60
88
65
45
A5
08
5A
68
00
59
55
A1
4A
60
6A
86
1A
28
54
49
25
01
2A
A9
69
54
41
96
96
8A
A5
69
81
A4
65
9A
82
1A
61
65
1A
51
20
A1
A5
5A
50
66
AA
9A
16
08
19
A5
A9
6A
68
A9
52
46
69
05
86
49
65
64
86
68
46
80
9A
98
A6
11
9A
94
81
45
26
A6
50
55
49
16
1A
9A
21
88
A1
09
22
19
4A
40
11
82
42
0A
64
44
00
50
18
65
19
00
60
91
01
02
8A
52
91
50
49
44
1A
65
09
0A
44
96
40
98
42
96
04
A1
21
11
0A
20
15
80
95
50
66
01
94
65
68
8A
24
28
84
04
05
92
18
82
81
46
04
16
A8
44
11
9A
09
84
51
85
50
59
62
40
66
02
08
45
22
69
49
01
96
42
66
44
54
22
81
82
25
04
24
40
05
85
59
5A
05
84
94
16
01
90
68
54
A9
A9
61
52
64
A6
98
11
A5
94
09
18
54
29
65
5A
18
15
16
18
56
98
51
A9
69
95
9A
A6
12
05
69
A5
21
49
15
60
29
66
16
A5
26
58
06
9A
98
95
42
40
92
11
95
14
6A
58
AA
91
80
82
5A
29
50
A5
1A
48
0A
99
80
15
9A
21
82
84
95
86
65
92
86
82
1A
84
19
82
16
51
18
18
69
85
05
95
29
A1
21
16
A8
65
90
88
95
65
A5
15
25
46
94
02
A6
85
54
64
41
94
5A
29
52
08
0A
92
0A
08
A4
42
40
04
19
A0
55
86
A6
48
95
68
84
00
8A
49
44
90
A8
64
25
AA
16
28
96
25
16
06
5A
5A
49
59
52
40
99
A1
04
58
02
4A
06
88
28
15
46
15
4A
55
09
14
6A
06
A6
88
05
25
85
24
68
08
81
12
8A
69
12
58
8A
21
94
60
A8
66
94
18
1A
62
64
50
88
16
25
94
48
4A
58
86
54
1A
6A
59
95
61
86
82
6A
48
05
68
68
29
41
4A
A2
86
95
94
AA
46
55
04
96
8A
14
89
16
9A
24
86
15
A5
A6
85
A2
61
4A
65
15
AA
26
85
25
55
08
66
92
9A
16
A6
55
11
5A
4A
84
56
9A
0A
59
89
46
08
24
2A
A5
4A
15
0A
8A
02
48
05
91
A4
44
22
A5
48
89
11
A8
81
48
19
01
8A
4A
84
02
12
81
80
16
02
02
AA
11
86
94
52
26
18
2A
6A
06
44
05
90
00
60
04
22
90
44
A8
11
4A
15
14
95
65
50
80
02
25
A9
08
28
90
05
0A
58
46
2A
80
20
02
24
69
82
4A
98
08
40
62
62
80
5A
68
95
9A
0A
1A
62
12
55
48
20
10
49
54
51
68
41
A6
8A
55
90
51
21
A8
18
9A
46
60
69
85
69
85
96
06
4A
46
A6
65
A9
51
A6
4A
24
55
11
A9
50
42
58
AA
58
64
A5
85
05
5A
AA
99
95
95
24
22
28
2A
52
01
22
95
61
48
15
60
26
61
A6
A9
91
29
65
09
A6
58
90
51
09
45
09
A6
A4
4A
19
A2
20
55
86
2A
05
48
04
A9
0A
69
10
55
A1
AA
A6
52
25
61
0A
96
92
61
92
AA
92
82
92
95
9A
55
96
96
69
92
65
65
96
92
AA
9A
92
A2
65
65
96
65
9A
45
96
05
86
65
69
65
65
65
69
96
69
61
55
65
92
51
69
92
61
9A
69
96
69
61
45
28
9A
59
54
AA
51
61
41
8A
92
86
45
8A
41
41
65
82
61
81
92
8A
A6
92
A5
8A
61
61
96
92
52
61
96
29
9A
65
1A
92
69
96
9A
5A
16
9A
61
61
61
61
9A
65
96
69
A2
91
92
5A
49
96
9A
61
81
9A
82
55
96
A2
45
64
61
96
59
96
82
92
94
96
9A
96
69
65
61
9A
96
9A
69
96
65
65
65
96
9A
69
65
96
96
61
5A
96
5A
61
65
69
61
4A
9A
96
69
61
86
49
96
86
94
45
9A
96
8A
5A
9A
98
A1
82
AA
92
9A
65
69
96
96
65
61
92
96
96
45
04
65
9A
61
92
65
41
61
49
9A
A2
42
96
69
A5
A9
55
96
5A
86
41
49
96
8A
65
16
61
69
92
96
65
61
61
94
A2
82
96
28
96
65
65
69
52
9A
82
48
41
21
82
28
A2
8A
A5
92
69
96
92
94
96
52
59
69
A5
92
65
56
9A
92
49
61
65
26
8A
69
61
A9
45
49
61
9A
45
44
A1
61
96
65
69
96
65
41
51
69
24
9A
61
49
92
20
A2
88
50
9A
42
54
A2
92
A9
61
61
49
92
88
9A
A1
86
A2
8A
92
8A
65
49
82
9A
69
56
92
90
9A
9A
8A
65
66
45
69
61
61
96
96
92
92
65
94
61
9A
96
96
92
A5
65
68
92
65
92
9A
61
69
41
48
AA
61
49
92
61
9A
89
9A
65
61
69
9A
86
55
45
9A
69
69
58
65
16
96
69
9A
69
5A
65
A1
81
61
90
A5
61
5A
A5
92
92
61
A1
56
60
42
54
56
52
14
56
52
90
51
A4
50
61
46
04
98
52
02
66
90
92
48
90
52
28
16
88
22
06
81
A0
09
29
48
48
A9
12
49
20
86
A9
96
95
45
56
25
5A
85
80
0A
22
81
94
99
65
98
14
26
90
11
9A
94
52
40
15
A0
61
45
5A
12
52
64
44
18
62
A5
15
54
01
42
0A
52
98
5A
A1
10
A1
96
56
65
1A
12
40
52
52
59
A8
A8
61
12
A4
9A
29
94
60
54
66
A1
12
22
21
91
A6
15
24
16
55
A8
A2
55
9A
45
25
11
A2
89
86
2A
06
29
20
A9
56
02
55
A4
44
05
29
A5
46
16
89
A8
56
58
89
55
65
16
88
61
89
29
19
2A
90
6A
A9
99
01
96
52
6A
A9
14
40
46
40
42
96
26
9A
94
02
20
A1
49
94
56
65
A8
A6
46
16
85
62
91
96
09
26
08
89
A1
50
14
21
55
54
05
29
80
1A
06
96
49
50
61
4A
A5
20
16
89
A5
26
45
69
48
91
58
45
91
15
20
1A
A1
09
91
11
98
56
69
2A
15
80
01
06
02
80
12
82
6A
24
10
16
46
10
A8
1A
16
25
16
A6
12
48
05
04
20
15
A1
A9
41
20
20
04
05
2A
61
05
4A
20
21
19
16
49
96
50
49
A1
40
15
19
96
A4
10
22
81
52
A4
08
25
08
51
A6
A9
41
86
99
90
11
06
A6
16
60
52
89
15
A0
46
89
A0
A6
92
98
82
A5
42
95
50
29
29
29
A0
82
62
62
68
10
A9
84
64
94
1A
A8
AA
96
56
28
54
10
88
80
89
A8
A5
59
62
54
65
01
09
02
64
A5
52
80
15
51
A9
5A
19
AA
45
A4
A8
A0
80
16
19
56
29
29
19
85
96
A4
05
59
60
95
20
89
5A
08
00
A2
62
62
1A
51
A4
A4
91
61
02
51
A8
14
85
20
A8
69
96
42
A5
95
94
64
00
08
00
A5
44
89
99
A9
15
94
99
59
14
15
85
15
99
65
59
A5
46
89
62
29
86
89
A5
42
A2
05
59
18
55
41
48
81
26
05
48
69
48
89
80
59
80
99
A6
28
84
50
46
48
09
06
81
66
15
49
90
6A
81
62
95
52
26
A5
42
0A
6A
65
60
A0
91
99
94
60
15
28
89
A2
41
46
80
56
46
48
88
AA
45
82
00
18
8A
A4
55
1A
26
A8
50
94
1A
AA
26
AA
42
92
61
88
AA
80
68
A8
5A
15
51
62
08
22
A4
95
44
68
50
66
52
A6
2A
A9
A6
91
19
49
28
A0
28
66
96
48
14
5A
05
A8
00
65
1A
92
86
69
6A
15
10
41
95
05
66
50
92
00
55
68
45
A0
92
80
68
A5
28
98
80
00
18
44
82
04
50
90
05
01
21
04
4A
60
4A
56
40
92
20
14
1A
94
66
88
02
01
20
48
9A
9A
64
02
46
21
10
94
46
1A
06
84
05
2A
44
A5
21
50
84
09
90
28
26
44
0A
0A
05
82
21
61
A4
98
01
46
82
00
05
91
92
01
26
8A
18
85
52
50
01
16
42
09
46
22
94
4A
06
08
8A
94
85
62
00
52
64
81
A0
A5
A0
22
58
AA
5A
42
42
20
11
05
1A
66
6A
02
A5
86
4A
12
05
85
5A
14
54
06
5A
52
0A
4A
4A
16
15
62
92
45
98
19
69
AA
4A
50
90
41
25
58
66
AA
54
98
80
A2
62
91
18
50
95
AA
18
A8
A6
82
A0
44
19
16
21
02
10
59
A6
54
28
94
95
01
A1
41
88
19
16
66
11
64
95
62
16
98
81
89
A9
42
88
5A
59
65
25
89
48
28
16
29
88
A9
09
AA
89
09
14
08
A9
15
48
96
45
68
59
98
49
68
A9
56
54
A9
26
A9
A5
A9
54
AA
16
16
16
96
16
16
18
16
16
25
96
A9
15
56
A9
96
A9
16
49
A6
44
95
0A
29
16
45
A9
15
44
64
68
A9
A9
16
99
15
55
06
89
64
6A
88
89
2A
59
4A
29
05
56
29
29
21
96
29
5A
89
96
65
21
66
A9
A9
25
21
69
86
56
66
56
A9
86
69
46
29
09
68
66
26
89
89
06
99
19
AA
16
29
A0
84
11
55
69
45
98
49
99
4A
A9
29
19
56
56
16
AA
69
A9
55
49
56
A6
06
69
29
16
06
A9
59
26
55
48
61
56
96
66
A6
96
69
19
66
56
48
56
59
09
18
96
19
29
99
55
29
14
22
AA
A8
2A
A9
A6
16
29
49
56
56
8A
29
89
64
51
16
29
16
09
56
56
96
66
29
09
04
69
66
42
89
66
69
44
89
56
46
28
68
56
04
16
46
69
0A
44
84
56
6A
09
4A
29
10
09
16
56
56
46
09
89
26
A4
50
29
10
19
29
98
89
06
49
A9
05
09
66
44
24
09
29
46
05
59
29
04
16
14
82
89
14
06
5A
02
46
84
89
04
02
A8
44
28
56
46
A9
46
86
96
44
96
89
00
26
08
98
09
88
94
28
2A
54
88
A8
49
96
94
16
0A
08
48
89
89
68
29
68
89
46
45
A8
29
16
85
59
49
A9
28
5A
85
66
06
56
06
96
59
19
29
89
66
48
96
28
A9
69
A9
92
54
55
29
04
29
29
56
40
95
24
69
56
56
58
56
89
4A
28
96
46
06
49
A8
56
86
99
46
14
24
44
49
09
56
69
96
29
66
12
52
16
29
50
66
89
1A
69
29
16
42
A4
18
81
95
A1
94
12
A5
2A
22
25
09
18
61
5A
51
45
00
26
6A
64
2A
48
50
61
92
41
80
A5
55
AA
94
86
24
00
02
66
54
98
69
5A
A6
06
A5
21
89
40
A4
51
28
88
55
58
44
61
04
55
A5
22
51
A2
46
81
00
55
04
22
60
92
85
A4
A5
A8
60
A2
4A
06
20
55
82
65
44
44
A6
24
A0
22
09
99
65
1A
55
29
A9
A0
A4
58
6A
62
21
A5
A9
88
0A
65
59
81
42
09
96
95
51
92
9A
25
42
69
58
66
A8
96
55
5A
68
96
28
6A
62
64
56
4A
68
45
56
48
54
A5
26
14
4A
9A
90
A0
45
6A
A4
80
26
92
64
45
16
92
45
5A
8A
68
A6
AA
50
85
50
65
A6
40
54
65
58
9A
56
29
54
56
62
54
A1
A2
40
96
42
55
45
42
AA
18
81
86
92
1A
40
85
86
68
A5
A2
61
01
28
12
05
05
26
59
2A
21
A8
10
60
88
88
58
62
02
90
99
00
89
AA
00
29
45
10
10
14
05
82
00
86
98
44
51
15
84
2A
56
20
11
14
A0
16
22
6A
01
94
85
99
A0
14
42
54
A8
8A
95
80
85
A5
60
92
42
92
1A
04
21
0A
59
28
80
45
84
46
20
28
82
6A
10
02
91
08
42
11
65
68
09
1A
51
55
64
49
85
64
24
0A
65
82
62
AA
A0
A1
80
51
66
14
A9
91
15
66
5A
A5
A4
69
6A
60
89
62
51
09
A2
15
15
AA
26
A4
82
91
A9
49
59
44
96
A0
81
55
45
2A
1A
49
88
85
88
51
91
25
14
98
06
95
18
60
44
06
20
65
45
2A
11
95
59
06
12
11
26
96
9A
12
A0
22
45
82
96
06
66
84
1A
00
6A
82
AA
2A
29
10
19
1A
94
84
04
88
86
A6
44
26
80
A6
5A
8A
94
50
66
55
49
69
18
42
06
A0
54
5A
09
52
56
6A
29
25
06
91
59
9A
86
15
55
22
A5
A6
59
05
65
99
42
11
91
20
9A
16
81
4A
65
21
85
A4
59
52
65
69
01
A1
0A
59
24
A2
11
20
59
19
A1
46
02
51
41
64
24
68
AA
98
46
85
86
42
91
91
42
48
40
95
16
12
9A
80
52
11
41
09
0A
19
69
19
0A
29
A9
09
08
A9
01
65
05
06
19
5A
99
A4
5A
26
69
65
45
AA
02
46
11
86
68
49
A8
60
AA
0A
81
99
5A
56
21
19
09
24
99
29
A1
68
61
69
99
12
65
58
64
61
65
08
95
22
95
69
64
59
16
52
5A
96
09
64
22
89
24
22
99
62
62
04
1A
0A
66
02
26
85
96
20
68
99
11
A6
A6
65
95
A0
59
56
5A
4A
A1
01
22
A4
51
9A
45
00
81
8A
90
12
64
41
A4
A8
A1
61
55
42
49
05
6A
80
06
0A
06
02
A1
85
41
49
A4
4A
48
81
80
44
61
54
A2
28
81
4A
00
10
20
98
58
14
9A
12
26
05
65
40
54
96
18
08
65
50
24
06
0A
40
01
94
18
88
8A
A8
52
86
10
50
65
81
A2
00
96
A4
50
41
42
84
91
44
49
A5
49
14
54
14
40
21
40
19
26
82
14
01
8A
58
28
26
A5
85
64
A5
96
46
46
56
80
41
44
52
19
A0
96
09
02
58
89
62
51
18
A5
A2
90
80
54
66
A6
91
96
92
61
88
82
4A
AA
84
09
54
28
68
04
08
85
0A
8A
01
91
99
24
16
80
96
49
10
02
19
A2
16
9A
04
54
56
95
95
96
8A
16
16
46
95
60
98
06
19
29
5A
66
10
96
86
AA
5A
60
2A
65
18
69
A4
A1
65
80
50
05
50
10
69
91
52
02
4A
A1
5A
00
A4
52
A9
98
92
A9
81
A9
66
69
15
5A
9A
56
56
96
14
54
60
52
56
6A
56
25
46
6A
A9
12
29
16
69
11
1A
90
44
AA
5A
24
A8
50
4A
0A
A0
65
09
49
A1
96
16
09
28
56
59
21
5A
06
6A
91
48
40
60
65
AA
A8
56
69
12
A9
52
29
61
98
21
A9
29
A1
62
56
16
05
56
6A
52
2A
1A
52
90
A2
51
92
A8
09
56
9A
A8
18
15
82
61
AA
59
59
26
96
A1
8A
98
54
8A
A9
8A
12
86
58
81
69
68
9A
A9
54
12
52
60
A9
56
92
69
29
16
41
21
25
92
18
92
19
A0
A4
19
11
95
69
95
25
99
08
91
A5
A9
89
A9
0A
91
51
0A
99
66
65
92
56
A9
A9
56
16
9A
25
A9
65
68
56
A9
56
29
96
95
1A
64
21
19
44
24
14
01
04
24
A0
29
69
52
06
25
69
19
80
1A
99
81
58
81
18
25
65
09
00
A1
42
A4
52
16
14
A6
41
10
40
46
15
29
15
21
68
52
20
14
29
68
21
20
81
92
0A
92
A4
02
42
A9
24
91
09
11
18
98
1A
81
21
66
16
64
82
12
48
12
95
42
94
56
29
50
92
52
96
10
69
58
02
01
92
89
01
96
65
A1
14
9A
60
69
96
52
99
A9
82
28
92
82
58
49
29
09
46
6A
50
A9
92
28
81
A5
6A
AA
54
66
46
09
59
56
56
65
A5
A9
08
56
91
96
A1
A5
A5
A9
10
1A
01
61
1A
95
45
40
85
5A
66
A0
68
56
81
15
A8
61
08
89
0A
28
8A
19
A9
16
89
95
18
90
50
10
69
92
A9
46
A1
94
96
25
96
98
1A
56
A5
52
29
69
5A
51
24
52
95
06
A5
A5
41
04
54
49
9A
51
0A
51
2A
5A
18
15
86
48
59
15
A9
9A
59
42
10
48
56
18
65
82
A2
AA
29
2A
AA
5A
2A
2A
A1
A2
14
99
22
65
85
15
2A
55
2A
59
92
8A
16
6A
44
54
AA
64
02
29
54
51
09
54
AA
A6
91
10
08
52
22
01
95
65
66
51
AA
6A
95
96
11
88
55
A6
11
A5
95
11
09
16
59
54
50
40
AA
4A
58
A9
15
09
96
6A
51
58
54
5A
99
95
52
9A
9A
4A
55
85
58
A5
62
18
18
59
28
92
4A
11
92
26
95
95
A6
5A
A2
95
58
59
64
55
0A
20
A8
55
54
22
6A
55
11
22
14
50
65
48
24
40
69
A2
54
AA
A5
A1
15
68
54
25
12
69
21
81
95
8A
80
56
05
25
54
41
82
A2
22
51
55
2A
2A
89
55
56
AA
A2
A2
95
AA
91
2A
2A
26
91
11
46
44
19
80
2A
14
2A
58
90
09
48
A1
08
9A
9A
10
80
16
26
92
82
09
0A
A9
A5
22
90
58
18
28
AA
2A
58
11
81
16
46
6A
55
10
18
25
2A
94
12
54
15
A1
19
99
84
90
40
42
62
88
10
11
00
50
18
62
14
A5
82
98
62
9A
62
15
A5
4A
44
A8
06
88
88
91
29
12
88
62
58
25
48
84
19
A1
58
14
2A
91
89
A6
65
46
94
6A
85
08
49
A5
60
26
65
45
91
95
26
11
15
26
52
21
89
24
66
96
95
0A
12
A6
5A
AA
82
AA
14
50
55
25
A5
50
05
55
51
41
94
A8
44
A8
04
92
24
66
6A
98
AA
24
45
05
A8
A2
8A
25
12
84
28
82
48
96
54
4A
46
12
26
A5
99
92
65
55
AA
64
2A
54
AA
A0
90
68
15
A6
6A
12
82
1A
60
62
28
56
AA
00
6A
44
68
5A
4A
42
54
05
48
42
48
96
82
96
5A
51
4A
29
59
0A
92
42
66
6A
80
6A
5A
88
94
09
92
80
A6
AA
96
91
88
04
09
68
A2
15
68
99
42
A0
55
80
A8
14
2A
40
91
26
68
81
60
90
5A
66
85
9A
6A
95
99
25
42
99
92
40
80
18
A2
90
86
08
91
4A
66
A5
86
62
90
5A
90
51
5A
A1
40
48
40
58
69
94
A8
81
10
65
A6
69
90
65
56
45
81
A0
99
14
A1
11
6A
11
94
56
26
91
69
25
62
22
51
AA
41
82
45
61
60
90
A6
9A
68
2A
50
25
6A
96
99
80
52
58
91
9A
62
26
82
A9
22
A6
A6
44
A1
98
A9
6A
69
86
14
59
84
52
24
81
A4
95
56
52
A9
20
09
2A
11
00
16
22
A4
89
51
66
92
96
08
6A
6A
86
A8
91
58
15
62
92
85
16
40
68
18
14
0A
90
96
59
A6
68
49
4A
10
41
64
A8
A6
18
A5
16
08
0A
10
96
96
08
19
04
62
99
66
A1
81
84
02
60
04
18
28
02
42
96
0A
00
1A
61
80
62
61
58
64
90
86
A0
12
22
94
21
26
08
19
94
15
A4
59
81
08
90
81
A5
08
48
A8
A4
4A
21
20
86
94
41
84
00
91
96
94
40
80
44
42
29
82
21
90
40
48
61
10
5A
85
26
90
86
4A
61
45
49
2A
51
56
49
96
51
92
48
54
15
49
58
42
60
62
89
90
A1
86
A1
A9
8A
50
62
42
A6
94
A0
85
66
52
48
66
10
1A
46
29
04
65
94
88
91
82
19
41
85
16
40
98
51
01
2A
54
92
A0
14
28
85
89
62
20
A6
0A
5A
22
55
A5
52
91
68
99
81
8A
86
42
94
99
89
A5
25
4A
91
25
1A
45
2A
09
62
09
A0
8A
19
01
A8
8A
55
46
06
94
8A
25
84
56
56
54
15
26
18
A9
46
45
4A
08
55
52
A9
99
94
65
99
54
95
91
29
01
A8
69
14
1A
A9
4A
95
01
01
15
12
48
0A
91
91
86
A1
92
85
64
22
49
54
9A
12
04
51
1A
A8
91
A6
28
48
52
64
42
9A
91
58
6A
4A
91
4A
A4
66
81
66
4A
95
42
14
66
46
46
91
21
A4
91
92
41
5A
94
22
59
40
5A
01
6A
5A
82
1A
56
A5
25
58
52
09
11
21
62
2A
A8
61
45
A6
65
96
6A
21
15
A5
86
09
26
89
21
A1
81
A9
42
52
99
11
52
46
29
AA
56
48
61
00
A4
81
64
06
4A
85
60
29
14
8A
50
16
15
64
40
64
65
48
26
08
65
0A
A9
29
A1
21
6A
46
91
A0
50
62
21
98
91
09
52
91
5A
95
84
90
11
62
4A
AA
22
04
05
48
A1
40
12
01
99
05
64
06
96
A2
81
94
1A
19
05
01
21
95
86
88
6A
A5
48
94
A0
A1
86
40
46
A0
60
00
A2
45
40
6A
18
48
84
40
42
80
60
A5
9A
98
68
6A
24
8A
66
22
15
85
24
5A
49
28
91
01
68
14
40
41
18
14
18
A1
16
98
01
6A
85
11
A1
A0
25
56
60
11
60
01
10
56
15
68
60
96
91
04
A9
A2
18
89
18
14
56
54
0A
A4
01
54
82
26
21
05
60
A9
A2
1A
4A
28
5A
85
55
22
41
A4
85
95
4A
5A
92
60
82
6A
99
6A
5A
46
9A
8A
01
58
40
19
04
0A
94
29
49
80
6A
49
14
86
01
44
81
06
28
11
98
1A
4A
96
19
12
91
16
46
A9
29
82
91
64
61
5A
A9
91
01
85
6A
AA
95
16
11
61
16
94
86
42
20
08
25
24
20
88
A5
95
98
26
58
25
19
42
20
85
91
A1
56
99
26
A5
95
02
01
55
48
89
88
66
45
68
A1
02
26
46
AA
AA
04
94
28
16
6A
68
18
06
29
11
00
04
94
21
68
88
16
56
62
45
08
19
60
65
16
95
40
52
68
04
86
18
21
28
90
15
A8
AA
A1
59
22
64
95
6A
86
64
60
50
64
12
94
58
84
62
88
02
69
AA
16
16
98
59
22
8A
16
A8
A4
15
92
86
6A
1A
02
AA
51
96
82
89
2A
A4
A8
22
9A
94
46
50
55
29
89
29
8A
00
45
29
94
26
1A
98
1A
20
26
46
A9
89
9A
41
05
94
04
62
54
15
66
60
A4
24
05
11
89
65
8A
25
86
54
58
12
96
1A
41
69
96
94
6A
66
2A
A6
26
49
AA
5A
54
60
86
A4
99
A0
61
89
A9
22
91
86
00
82
60
A1
19
15
00
00
95
11
24
40
44
10
5A
40
80
98
46
19
02
64
AA
90
6A
4A
58
44
88
16
11
54
54
84
04
20
00
92
99
22
80
25
66
22
11
88
45
45
6A
18
10
2A
08
A4
04
82
04
02
62
60
90
6A
90
64
A0
90
A2
00
81
58
20
81
14
1A
64
50
00
84
04
24
04
19
82
95
05
0A
AA
02
15
51
0A
11
8A
A2
00
A2
50
81
55
90
28
14
A9
02
46
62
62
19
96
49
69
96
49
82
A6
69
48
0A
45
66
05
A0
94
65
10
06
22
48
55
26
2A
40
54
85
58
06
96
85
6A
22
A9
A9
58
10
0A
2A
20
01
85
15
4A
91
15
4A
09
8A
68
26
20
88
85
8A
A6
02
24
88
85
A5
62
22
06
46
91
99
12
20
41
99
01
11
19
92
69
66
44
A6
59
1A
24
51
98
66
1A
20
56
60
88
88
0A
82
A4
A2
14
85
1A
64
86
4A
18
16
1A
49
A2
58
01
61
99
66
99
99
A8
10
24
52
29
25
65
59
65
65
59
69
64
52
45
88
A4
46
91
4A
89
44
92
A6
46
24
05
51
22
1A
5A
85
02
8A
40
98
84
56
94
02
60
08
48
AA
6A
66
A8
54
8A
18
9A
8A
68
41
81
18
69
01
62
9A
54
96
00
2A
92
1A
9A
1A
18
24
44
65
AA
9A
64
14
2A
96
00
04
2A
6A
96
09
99
46
09
96
86
8A
46
2A
4A
85
59
49
91
90
28
22
8A
95
11
41
29
24
98
86
99
45
56
66
22
21
90
09
44
80
18
18
54
05
66
0A
52
91
80
A1
66
08
99
65
62
16
60
50
84
85
58
AA
9A
2A
00
1A
40
49
9A
99
A6
64
66
44
12
52
89
6A
6A
59
1A
69
09
84
1A
A0
09
44
66
81
06
92
55
98
8A
40
46
18
55
0A
82
8A
01
0A
52
04
50
56
05
18
68
08
45
04
65
62
06
48
5A
24
41
21
41
54
04
10
08
80
41
A4
A2
15
A0
0A
29
11
06
01
90
6A
48
94
80
94
01
80
58
22
40
1A
45
44
60
22
08
84
49
24
19
29
01
88
88
44
8A
61
09
A0
40
82
01
11
01
26
02
A8
80
00
08
00
06
08
02
08
91
56
52
20
60
58
26
49
68
0A
92
65
05
08
82
52
90
06
19
92
22
66
11
A2
26
40
25
55
62
A9
59
65
44
A6
82
A2
96
90
A1
58
69
98
99
68
5A
A9
95
60
01
45
82
A2
10
64
1A
95
9A
64
A1
89
A5
A8
00
45
82
10
95
15
5A
55
28
45
5A
25
98
46
15
88
A4
A5
29
40
51
28
69
66
9A
A5
48
19
65
58
1A
60
AA
51
8A
91
49
59
51
0A
06
90
80
69
51
25
28
88
02
2A
51
58
85
99
99
18
1A
84
49
59
88
19
46
61
56
06
88
26
20
26
50
16
20
29
AA
01
A6
21
80
22
95
62
92
49
22
64
A5
11
A2
59
19
AA
48
82
85
11
80
58
28
51
A8
14
51
22
99
49
19
14
A5
44
51
62
A6
99
55
21
51
19
A2
95
44
99
51
66
19
29
59
64
11
60
AA
22
22
54
82
52
65
4A
91
90
20
A9
92
65
61
24
05
90
AA
15
4A
50
50
14
85
05
85
8A
21
45
4A
00
8A
AA
26
0A
90
55
58
4A
92
A2
A6
22
15
65
66
22
99
99
29
A9
99
15
A5
2A
26
0A
09
16
99
99
2A
9A
15
A5
80
58
A2
60
56
14
A2
59
80
82
45
45
15
90
2A
A6
89
55
46
66
19
11
55
65
54
26
11
64
60
06
88
02
98
89
A0
A2
09
22
02
56
90
A1
42
18
A2
06
15
28
24
84
6A
A6
98
05
A2
48
A0
55
52
A2
99
61
91
22
02
6A
89
08
00
85
94
22
28
86
A4
09
AA
81
22
01
45
55
41
A4
84
98
9A
99
26
40
25
98
04
5A
4A
2A
51
A2
24
00
56
A2
50
04
26
88
49
26
84
42
08
98
22
80
1A
AA
90
64
42
19
5A
46
61
06
68
15
14
18
29
44
41
2A
60
8A
94
09
94
90
69
88
59
22
66
02
28
50
51
A5
99
91
10
84
A1
0A
54
4A
42
60
66
A6
29
51
98
25
06
49
A2
48
15
01
94
96
42
44
49
00
55
11
92
A0
94
50
41
A5
94
19
66
A5
64
15
42
0A
56
14
61
86
9A
59
9A
68
96
59
09
85
A6
96
66
59
26
86
05
22
89
42
06
81
A2
95
59
66
49
46
A6
09
46
41
40
44
1A
94
A6
48
01
A6
49
04
90
04
12
05
48
49
45
82
52
A4
86
11
A4
48
92
88
A6
A4
04
25
A4
96
A9
A6
02
09
A6
89
15
25
29
22
41
86
50
96
16
22
15
11
44
46
65
08
62
24
59
4A
49
1A
10
2A
68
86
99
52
59
A4
1A
A9
42
84
28
12
86
50
48
69
58
45
9A
01
62
24
0A
A8
45
50
68
51
AA
1A
55
A5
96
60
A5
A5
64
01
66
61
20
06
5A
46
96
50
68
62
54
06
99
92
59
85
69
86
52
06
55
45
51
99
05
A4
64
59
69
44
12
89
61
96
49
8A
15
69
92
96
62
62
16
66
A1
90
66
09
4A
1A
40
59
59
A9
85
98
A2
10
51
09
58
44
59
61
4A
61
A0
95
18
18
40
A1
94
A6
51
42
86
94
51
68
65
AA
A8
86
19
26
41
14
94
10
24
28
51
56
21
9A
06
12
66
41
AA
06
29
A4
02
81
A8
55
82
89
01
14
65
24
02
92
14
54
69
2A
49
AA
0A
8A
8A
41
48
A5
45
AA
05
22
28
84
49
A1
20
04
50
16
88
25
08
A2
51
40
A0
0A
99
84
82
82
92
50
59
41
99
02
19
25
04
19
40
24
11
88
44
18
22
49
A5
1A
44
12
A0
69
28
16
60
A0
20
89
A6
40
65
80
84
60
14
A6
A5
A4
58
59
62
69
00
A6
50
89
91
14
18
24
58
90
62
42
A5
69
69
A6
16
91
11
14
65
86
0A
51
20
24
88
58
A2
51
52
12
49
A1
A1
91
99
A0
05
80
02
00
AA
44
44
68
A4
2A
89
19
4A
0A
A4
49
16
66
44
8A
24
16
28
95
49
A8
A6
16
96
41
A2
02
A6
A8
29
92
59
2A
A6
A0
A0
58
49
90
81
26
09
12
55
65
66
65
16
02
9A
69
62
A9
51
A1
8A
26
60
22
50
04
60
85
26
45
81
40
2A
40
02
99
A1
02
A4
A9
89
9A
51
80
89
A5
86
66
99
81
41
A9
48
16
02
00
46
16
44
55
22
95
69
A6
99
9A
05
01
24
81
80
25
89
28
24
A9
24
A9
AA
45
41
98
6A
9A
99
56
65
41
85
45
0A
54
89
58
22
1A
40
40
55
69
81
96
A1
25
86
44
A8
26
88
66
20
64
05
14
66
44
9A
98
09
4A
85
45
12
86
02
8A
06
A8
46
54
54
09
62
45
62
09
A0
A1
52
86
68
A2
66
80
99
98
55
45
22
AA
54
65
19
60
66
86
48
05
8A
42
99
04
44
89
05
50
A8
46
65
A5
82
AA
56
65
86
21
96
84
05
5A
96
65
51
80
50
44
A2
A9
61
52
40
95
A6
80
51
A1
54
A6
A5
12
08
69
22
16
40
86
22
50
A9
41
21
64
A9
25
01
60
0A
04
6A
A0
40
29
1A
40
98
2A
06
00
48
80
18
8A
80
81
48
28
64
85
28
05
41
8A
10
4A
28
16
80
42
42
04
01
00
89
40
00
05
88
40
0A
45
82
08
0A
44
46
91
14
88
91
AA
41
14
16
25
00
90
88
95
0A
54
A2
9A
A1
25
00
86
02
42
61
A1
42
15
65
4A
08
28
22
02
5A
29
12
9A
1A
55
55
81
56
86
9A
44
A8
85
A0
55
42
A0
18
46
55
09
54
1A
56
09
08
98
28
8A
22
6A
66
41
25
56
88
59
46
56
66
92
88
16
90
A4
60
16
09
A4
98
94
9A
92
A9
9A
A6
62
99
45
21
A8
11
59
60
AA
60
60
51
A5
92
5A
61
56
29
5A
A8
66
82
91
94
82
51
80
04
51
A4
56
61
A9
19
95
40
22
58
60
02
64
54
10
80
24
21
56
22
A6
8A
0A
12
64
25
92
1A
65
51
4A
11
A6
15
26
25
A2
49
49
59
95
69
A1
8A
49
84
5A
55
56
80
25
16
16
08
54
9A
20
66
64
16
2A
51
91
81
49
99
86
40
54
8A
48
25
95
91
59
A5
02
A2
62
15
A5
25
AA
12
44
45
60
A2
46
41
2A
10
22
61
80
94
21
64
64
A9
91
94
20
58
59
A5
A2
25
86
A5
A2
A0
46
00
59
52
4A
99
68
96
2A
9A
A2
56
6A
16
85
06
45
92
05
A4
40
62
A6
26
29
61
59
99
A4
96
A0
56
11
92
95
26
25
50
28
95
14
19
55
54
92
68
01
69
01
14
A0
62
95
2A
56
1A
51
85
A2
08
86
66
66
25
A0
91
A5
28
82
82
96
94
29
00
62
A1
84
9A
96
96
99
A5
61
8A
90
60
11
99
24
02
06
19
20
00
61
41
51
09
92
80
19
40
11
90
48
02
20
28
10
5A
01
98
00
00
48
41
14
06
49
00
21
41
51
40
54
62
45
50
58
62
16
66
06
58
00
01
86
20
65
12
84
22
A0
62
82
06
25
15
02
00
01
60
19
20
20
89
41
51
98
54
9A
49
90
58
41
A2
A9
18
46
21
80
21
01
A4
66
04
10
02
09
02
00
05
88
99
86
2A
84
2A
01
59
A1
0A
A2
18
80
96
AA
02
62
15
99
55
55
9A
21
59
A6
06
5A
26
12
20
64
99
45
01
59
02
22
62
68
94
4A
51
49
AA
52
02
26
19
82
A2
01
59
22
85
28
98
61
16
1A
45
54
15
12
6A
A6
05
A9
58
86
50
19
25
19
58
24
49
42
08
26
55
84
89
26
29
21
25
59
A2
55
45
9A
21
4A
04
69
22
14
18
11
84
84
84
61
14
96
95
A5
95
18
0A
26
06
A0
25
29
16
98
86
A5
04
98
5A
86
29
86
54
A9
92
40
48
22
29
49
99
48
0A
59
5A
64
59
61
A6
26
94
58
A4
08
19
02
1A
94
68
15
A6
48
52
18
15
16
A5
21
A5
58
92
49
01
21
A6
02
46
41
A9
49
9A
09
09
95
05
04
48
05
58
85
62
56
26
62
25
86
96
96
96
20
48
69
52
84
1A
49
20
94
29
95
94
64
81
09
29
A0
96
A5
65
90
18
21
86
68
04
60
A6
86
A1
11
54
01
86
46
45
52
85
85
6A
6A
85
02
24
42
A5
15
51
66
21
22
2A
09
A5
59
92
1A
8A
94
11
A5
42
69
62
22
96
65
A9
A2
80
A0
16
91
86
86
29
A6
90
02
80
11
28
68
84
22
29
5A
12
92
91
5A
68
48
94
19
52
48
18
08
05
84
22
80
24
49
6A
50
4A
94
A4
52
24
59
49
42
22
80
09
A1
18
04
08
04
62
41
10
90
06
61
A2
69
80
8A
A5
85
04
81
16
00
00
28
40
94
6A
26
52
0A
10
49
20
85
85
A4
40
02
0A
50
82
21
21
62
48
12
12
0A
5A
22
00
10
14
84
41
64
A0
08
91
6A
44
94
40
A2
29
0A
18
05
A4
84
08
5A
80
10
88
54
6A
85
64
22
51
18
94
09
84
A8
65
69
18
60
98
05
92
12
59
56
A5
45
50
25
50
99
A2
A5
58
46
91
5A
09
49
A1
99
82
65
62
A1
6A
92
14
66
81
24
88
54
04
82
A5
96
18
68
25
20
86
40
66
48
19
A2
8A
84
61
28
80
22
49
51
6A
A4
48
1A
92
62
59
68
4A
91
08
26
69
2A
1A
09
96
49
06
25
92
96
A6
09
86
02
41
62
AA
A2
92
80
A2
12
25
6A
A4
89
62
A4
41
A6
81
0A
06
61
2A
59
49
A9
49
AA
58
0A
41
A1
59
52
41
51
49
41
AA
55
55
49
65
A6
62
59
AA
51
A2
45
26
51
49
59
8A
01
55
95
12
61
91
16
A0
00
A6
09
18
95
11
91
A9
59
26
86
A2
88
89
9A
85
55
56
A2
AA
8A
54
AA
55
A6
49
AA
82
55
86
96
A6
A2
86
51
65
61
55
A2
54
92
51
26
95
16
56
64
98
94
11
59
92
A8
81
21
65
69
91
58
95
51
AA
60
4A
9A
A6
AA
22
41
64
41
0A
2A
AA
59
AA
51
69
51
92
86
51
49
AA
A6
65
91
A2
85
95
55
24
99
61
AA
85
69
55
9A
69
81
99
AA
65
A2
22
52
A1
82
61
86
A6
A9
A2
12
59
44
AA
A2
55
51
49
82
92
58
9A
59
AA
55
A6
55
41
51
04
A6
02
21
86
51
04
22
65
06
84
A2
45
01
A0
1A
40
A5
50
55
45
5A
66
10
4A
40
42
41
A2
50
62
40
51
51
44
12
82
44
21
18
A6
51
A6
26
58
A6
90
A2
8A
00
AA
A4
61
41
20
80
49
91
5A
A5
41
04
11
05
0A
59
0A
00
29
49
06
82
91
01
99
54
64
45
41
A6
09
40
51
55
89
A0
58
41
82
50
8A
A8
49
A6
5A
61
0A
A6
56
61
61
69
5A
44
9A
61
AA
9A
A2
26
11
65
01
52
AA
55
11
94
AA
19
A8
64
58
4A
65
A5
55
50
A2
A2
AA
A6
55
22
59
A0
A2
A6
8A
19
00
69
82
49
AA
A6
15
5A
45
56
22
1A
51
A6
52
AA
40
A2
69
05
59
26
AA
94
55
85
45
59
41
00
A1
AA
45
AA
54
A2
41
51
45
59
AA
59
61
A2
55
8A
88
55
06
1A
15
68
A8
92
6A
95
A9
91
A5
24
61
A4
29
56
50
28
68
08
56
A8
92
52
44
98
92
81
02
A2
64
A9
69
12
22
14
90
29
98
4A
04
86
01
48
10
92
05
65
16
29
16
01
68
21
98
4A
44
40
49
4A
0A
45
55
9A
95
64
19
A5
26
45
49
24
59
28
9A
44
1A
A9
A9
66
A5
88
21
29
11
19
45
89
4A
68
04
22
02
59
42
4A
62
28
56
06
5A
00
0A
49
56
A8
8A
29
92
A8
A8
29
25
00
00
AA
A6
19
8A
11
86
12
06
25
A9
86
85
16
A1
A9
18
26
40
AA
96
26
69
46
A6
46
56
A5
88
48
68
14
52
96
84
8A
96
A2
56
69
80
11
12
A1
8A
92
18
42
52
20
98
4A
14
69
A0
9A
94
29
05
65
09
25
AA
A0
24
85
20
A5
16
65
15
91
01
5A
09
46
58
41
A4
11
58
09
09
20
64
8A
04
40
66
46
46
20
85
60
14
80
12
00
95
54
99
90
21
18
21
1A
10
92
49
40
25
0A
00
A5
40
42
98
91
48
12
21
12
80
02
02
41
56
44
A0
85
20
22
06
94
09
92
62
60
40
90
24
56
8A
04
08
65
09
28
40
10
06
00
60
66
15
5A
4A
52
00
08
02
81
84
91
18
4A
42
A9
45
01
41
06
8A
92
28
8A
94
A0
5A
16
90
21
A6
A8
64
52
4A
8A
99
21
24
9A
55
1A
64
2A
14
41
42
A6
19
99
91
9A
52
80
52
48
11
A6
26
89
6A
A8
A8
24
A4
89
6A
18
04
49
45
88
5A
A5
96
89
18
96
92
02
14
51
56
61
66
40
68
88
62
45
82
8A
51
20
61
A4
60
95
64
14
89
10
26
25
41
99
66
80
81
46
82
55
46
59
8A
5A
28
88
99
49
42
44
09
29
08
20
4A
66
94
91
A2
61
14
00
9A
58
20
21
A9
4A
98
85
99
A1
81
AA
15
A0
95
22
91
02
84
85
95
05
A4
80
80
48
06
59
5A
54
28
01
29
66
8A
26
24
05
60
19
86
45
9A
90
5A
16
40
4A
AA
52
21
84
44
90
61
64
18
44
69
05
58
1A
81
56
45
A9
65
69
21
48
26
2A
A6
19
89
46
68
8A
46
A5
5A
46
A4
86
64
08
01
5A
56
16
5A
69
A0
46
85
62
A6
56
60
69
0A
66
11
15
00
16
64
54
62
28
5A
62
25
64
A4
45
4A
66
91
01
66
96
69
84
55
5A
A9
6A
26
85
1A
81
1A
A5
81
65
09
90
42
A1
95
2A
65
95
A5
21
44
28
A1
92
26
66
29
95
A2
44
40
90
22
80
0A
59
04
85
4A
0A
50
95
80
A8
09
5A
12
55
51
94
88
1A
95
00
68
20
82
25
68
60
46
6A
54
A2
A0
4A
21
22
A8
6A
12
19
14
21
24
68
54
12
10
4A
21
A0
49
46
48
15
42
84
29
A9
25
21
00
06
90
01
90
41
5A
00
6A
98
02
01
00
21
45
55
58
A9
28
09
89
24
05
12
40
86
22
04
12
21
6A
55
A2
26
52
02
AA
14
81
56
48
20
11
20
A0
86
14
20
08
21
04
14
98
84
50
5A
1A
A4
AA
18
66
40
99
51
24
81
55
91
9A
06
89
08
95
55
28
A2
41
85
2A
A0
14
0A
A1
66
65
42
59
95
85
14
1A
29
A8
29
49
5A
80
29
A9
68
0A
06
A4
69
50
48
60
A8
A5
52
48
85
09
62
A9
61
5A
46
68
89
95
A0
22
6A
42
16
A1
69
16
65
82
41
85
2A
94
91
02
A8
56
A8
A6
16
69
59
96
86
85
42
A8
16
09
64
80
66
49
64
11
58
59
A0
46
92
06
6A
0A
90
02
05
19
66
A4
48
94
8A
81
52
58
65
04
96
A1
22
44
A8
41
85
81
89
4A
09
A1
56
16
45
46
1A
A5
80
46
A1
42
A9
84
65
88
66
94
25
90
14
81
A6
A2
96
62
A1
08
58
24
5A
05
61
15
61
64
28
62
40
20
6A
58
44
86
60
50
42
A0
62
99
96
24
29
50
84
56
54
10
89
84
91
94
50
4A
18
94
92
12
05
89
55
01
55
09
99
8A
25
49
85
44
9A
8A
06
1A
60
89
42
92
05
66
56
42
88
04
09
A5
5A
90
86
21
50
98
49
52
94
46
9A
15
85
51
44
95
64
41
08
21
84
69
8A
66
25
01
48
A4
55
A9
11
49
26
1A
86
61
61
59
66
50
96
11
66
A8
50
64
65
44
59
68
52
00
19
25
20
A6
81
19
81
84
54
01
48
1A
14
40
21
41
05
00
10
99
04
2A
28
A1
84
11
18
05
09
66
85
60
19
81
09
28
84
25
40
04
21
60
81
04
A4
68
20
65
22
18
61
18
44
25
19
81
10
60
22
22
90
80
94
58
91
61
02
48
00
91
49
04
46
12
81
00
20
A4
A1
06
18
01
00
46
29
20
89
A4
22
40
91
95
68
48
60
41
22
14
51
52
15
91
40
80
A0
1A
68
65
81
A1
A0
65
01
90
50
42
06
2A
58
A9
A0
58
66
81
A5
4A
25
6A
25
66
08
56
25
44
08
89
09
25
86
10
20
98
54
51
4A
28
42
A5
A8
81
51
44
89
85
28
86
90
92
42
54
96
95
16
04
46
45
62
58
1A
5A
59
56
11
69
94
98
64
58
9A
59
56
A5
05
52
54
04
98
80
21
16
91
65
65
88
A2
2A
28
45
84
A0
89
8A
52
98
48
A2
10
A8
61
42
69
50
64
82
10
85
66
18
01
A1
55
92
89
89
81
81
2A
A9
69
15
81
59
15
22
42
95
12
12
21
51
85
15
69
58
A4
19
0A
01
25
21
A8
52
58
28
98
8A
86
9A
41
15
A8
68
26
02
29
16
80
A2
14
8A
15
5A
A1
62
91
22
06
22
89
05
19
94
09
62
28
84
A8
12
02
0A
9A
A0
01
18
86
49
0A
86
A0
59
85
95
24
49
6A
25
48
61
08
9A
65
81
69
06
68
95
06
A9
90
81
0A
46
29
A1
90
46
65
45
54
56
45
95
A8
A1
25
54
55
55
44
89
A1
9A
1A
21
64
60
99
1A
16
65
05
66
06
55
64
45
11
52
08
5A
19
55
4A
44
14
0A
54
02
59
99
84
25
29
A4
95
95
00
45
88
82
46
42
89
A8
99
A2
16
55
02
01
44
45
24
99
99
06
50
98
12
44
5A
52
10
A1
66
48
52
21
90
A0
41
A8
01
24
21
86
09
11
08
46
05
4A
94
02
06
46
12
92
14
08
86
96
20
A1
80
05
01
12
92
96
20
9A
41
28
01
41
18
61
65
90
49
84
50
00
10
40
24
22
44
82
16
12
92
96
A0
56
A5
82
10
58
66
52
01
06
80
61
14
A0
62
60
5A
21
20
A0
24
28
84
01
49
24
A6
A4
4A
92
20
81
04
6A
20
88
14
44
25
81
64
A8
45
64
62
AA
26
01
A9
A8
84
A8
41
AA
42
96
A2
4A
4A
69
1A
54
55
16
05
9A
01
A1
64
98
A8
99
40
10
88
96
48
00
A8
4A
04
48
84
68
A1
A4
9A
54
26
14
46
24
99
22
96
16
56
51
64
92
A6
56
9A
11
28
18
54
08
A4
40
65
91
90
26
A6
41
AA
62
A1
80
64
21
40
00
45
05
1A
A0
15
24
92
4A
95
6A
42
69
65
48
12
09
80
82
40
94
61
A0
06
9A
82
2A
88
A9
AA
9A
89
56
A9
A9
A6
96
41
95
A8
55
92
61
99
52
99
90
51
9A
54
98
09
42
88
60
15
45
44
80
A2
59
68
45
A5
04
89
55
10
A9
86
56
86
09
95
A1
46
55
61
88
56
A9
44
AA
59
40
A9
45
62
29
20
55
8A
A2
A6
0A
51
A6
65
A9
44
25
92
AA
42
44
42
68
5A
59
90
A2
41
24
92
95
55
65
1A
4A
08
68
A6
65
16
40
A2
19
09
50
85
52
46
26
8A
9A
6A
51
59
A8
86
59
11
AA
A8
25
85
A6
16
9A
66
6A
94
52
28
92
59
86
49
A9
66
4A
95
52
65
8A
90
25
65
96
94
A6
64
A8
89
64
45
A0
A2
69
6A
65
88
99
8A
45
A8
55
1A
AA
10
81
61
06
88
52
98
24
21
A0
65
20
16
94
10
49
0A
46
49
A6
18
64
18
04
86
9A
04
00
00
52
06
05
98
82
AA
14
61
54
49
81
44
50
A8
52
04
82
09
22
44
44
81
00
48
99
20
94
69
08
49
5A
01
62
A0
80
AA
50
1A
25
80
19
90
24
56
48
12
50
A0
25
9A
88
45
92
81
A9
26
8A
18
82
01
82
2A
64
09
2A
26
54
94
2A
45
58
11
86
08
52
6A
28
A6
24
A8
95
59
46
0A
A6
94
25
A5
09
A1
92
29
58
62
25
90
99
25
2A
A8
66
59
41
94
AA
44
A1
55
6A
66
58
4A
56
11
10
06
41
08
99
42
68
85
A1
A9
10
15
1A
06
1A
65
95
1A
80
64
40
99
54
52
A9
86
66
44
0A
55
98
96
90
55
8A
04
9A
89
16
68
AA
26
A5
45
45
A8
18
65
94
28
05
00
49
15
98
58
91
10
68
8A
1A
94
91
80
90
66
85
88
51
09
6A
95
45
15
60
58
05
84
82
62
A4
8A
A2
22
12
A4
89
9A
69
59
61
46
51
8A
41
86
59
96
1A
18
A4
26
02
A9
A5
21
A9
19
14
A9
95
2A
19
A2
62
16
82
80
AA
A5
95
52
99
51
80
2A
68
65
1A
02
2A
42
00
41
AA
81
41
08
90
94
24
85
18
24
95
96
68
55
88
91
22
98
46
6A
4A
6A
11
65
A2
48
91
2A
22
55
19
46
AA
29
9A
18
45
85
19
66
90
04
98
22
8A
A2
10
10
52
A0
02
86
42
02
68
45
A2
94
41
84
16
2A
12
99
9A
A8
25
44
46
44
64
04
26
A1
42
15
15
64
40
19
56
52
AA
A0
41
82
66
91
96
9A
68
46
18
10
A1
2A
18
90
59
84
A1
26
58
56
11
A5
A4
12
00
5A
15
86
12
A4
A0
65
85
0A
90
51
9A
22
40
05
11
54
A2
9A
80
11
A9
14
89
28
8A
92
04
8A
40
00
22
A6
98
19
18
16
5A
19
66
89
10
46
64
50
A5
95
51
22
48
90
9A
19
10
90
4A
12
10
86
A1
09
88
0A
45
26
65
21
54
2A
14
0A
44
16
02
22
26
20
61
52
28
90
00
14
18
60
A9
26
90
A0
99
49
A4
61
62
00
02
4A
60
12
A5
86
6A
49
01
65
A8
19
16
28
00
A6
92
20
56
91
9A
59
95
55
86
90
A0
66
A4
A9
8A
64
A9
21
59
54
8A
91
A4
08
5A
09
85
81
A2
25
50
9A
15
08
80
02
A5
86
14
50
94
0A
29
55
08
46
69
99
5A
8A
26
A6
25
14
65
6A
2A
58
81
50
22
1A
21
55
A6
68
49
25
26
66
A8
6A
85
52
19
68
6A
81
2A
A9
09
42
69
62
40
45
20
28
14
12
2A
41
82
29
94
41
16
A5
2A
54
26
4A
05
A4
44
40
59
48
82
11
15
A9
80
A4
04
80
85
4A
54
51
89
28
68
08
68
90
68
91
89
40
99
A4
81
55
6A
88
2A
84
44
58
A0
91
68
68
92
91
68
55
91
0A
65
54
04
48
A4
15
91
62
68
20
55
40
A1
60
89
4A
21
99
68
28
80
66
10
65
A2
A8
A5
40
45
5A
16
45
2A
50
14
41
00
58
56
A8
08
61
51
61
55
A8
65
85
50
A9
29
A8
89
58
21
29
4A
90
95
25
88
45
55
88
50
86
61
81
11
18
81
28
52
A6
A6
15
1A
65
96
21
06
A4
66
0A
A5
95
A1
8A
A2
9A
2A
59
2A
26
69
46
26
46
00
A6
52
02
40
09
AA
49
62
68
A4
05
62
5A
41
8A
82
94
22
19
89
A5
95
A4
91
01
AA
24
48
81
40
52
46
4A
A0
60
04
A1
42
19
18
60
95
81
8A
60
12
44
95
40
62
02
62
55
02
85
A4
91
25
1A
29
10
A6
61
41
20
99
0A
58
10
81
1A
22
14
52
00
04
42
08
82
00
15
01
04
81
52
A5
A2
A9
85
8A
12
A2
41
90
08
05
0A
06
85
05
01
85
28
85
A0
14
89
45
15
05
86
04
60
28
80
21
48
52
25
AA
45
19
82
91
19
54
59
59
86
54
88
80
86
A0
A8
95
51
80
91
61
46
55
52
69
8A
04
29
84
14
81
91
48
00
68
10
29
9A
04
A6
6A
AA
26
A6
A0
8A
56
56
85
56
58
AA
82
98
54
1A
85
14
15
46
A8
12
16
21
9A
54
01
92
99
80
98
10
26
9A
90
48
19
44
15
40
8A
89
90
26
62
5A
91
6A
6A
52
82
99
A0
69
81
58
69
48
4A
A5
81
92
80
A9
56
84
A8
96
26
66
44
90
08
00
28
64
96
99
2A
54
42
55
22
45
84
0A
96
16
62
AA
11
A6
2A
A8
42
12
1A
85
14
2A
19
26
29
94
04
40
A5
54
96
66
A1
26
A8
48
26
59
25
24
00
46
AA
46
26
A2
44
4A
09
61
94
64
99
20
18
50
66
29
AA
21
A8
05
A1
19
69
90
49
69
5A
19
00
64
15
56
66
11
1A
15
86
94
24
29
54
42
9A
4A
16
99
65
A9
42
02
5A
A8
95
92
45
6A
81
85
46
59
A9
54
68
22
24
A9
A8
95
A6
91
94
22
A2
62
91
55
42
04
29
65
AA
92
98
09
62
A6
44
A5
49
26
85
68
16
5A
AA
58
45
20
A5
95
65
26
04
01
8A
82
99
16
19
65
29
88
11
28
A2
46
45
50
69
68
86
2A
64
46
95
00
20
00
0A
81
84
12
04
A2
A0
10
A0
48
28
49
02
10
A1
05
22
86
12
82
08
59
85
14
20
15
55
92
00
80
A1
A0
2A
2A
91
21
21
16
04
40
15
40
99
12
19
91
00
11
15
09
09
16
86
96
08
28
18
0A
80
00
44
01
00
86
59
0A
20
21
88
02
00
01
22
85
19
02
00
01
44
84
86
24
61
6A
04
05
08
06
09
49
11
41
46
28
9A
94
A6
5A
49
98
08
55
91
60
56
18
56
16
61
19
92
61
6A
44
A1
A6
50
84
65
16
15
18
02
89
02
01
8A
5A
51
A5
12
52
A1
A1
9A
40
56
80
28
0A
98
69
A1
16
08
14
55
96
08
95
86
86
52
50
A6
21
59
45
88
49
06
50
51
95
0A
14
69
86
98
25
48
15
86
A9
A4
65
8A
89
25
06
90
02
A6
A1
22
45
19
60
62
99
16
29
25
09
19
90
15
61
49
84
18
64
60
50
41
98
29
9A
54
04
94
89
42
88
15
A5
51
A2
AA
14
46
92
86
46
26
46
59
52
12
98
16
59
12
A5
A9
64
A9
12
68
24
92
48
25
89
10
49
06
94
60
5A
42
04
52
4A
5A
5A
26
84
69
46
45
A5
44
10
29
41
04
09
91
A1
A9
66
56
A1
16
5A
96
89
29
5A
29
11
A9
25
49
56
86
66
56
89
42
95
62
95
11
28
66
56
A5
99
96
56
41
28
14
59
51
51
46
A9
59
2A
29
06
64
99
56
10
10
5A
82
16
59
A5
8A
86
05
52
46
56
A1
69
16
16
A9
69
42
40
41
61
A6
9A
96
4A
6A
0A
88
25
A6
A9
42
A0
A5
A4
46
85
A9
81
62
99
58
82
1A
9A
19
65
56
16
29
A9
96
4A
41
25
69
55
15
12
89
64
89
A6
40
96
50
29
A2
06
49
52
19
92
99
18
A1
91
26
41
21
19
A0
AA
66
82
88
A2
46
00
66
89
00
06
1A
50
A9
16
02
22
A9
25
80
18
44
86
05
02
50
40
92
81
50
A8
99
59
05
A0
8A
80
86
A8
06
12
89
19
08
45
85
16
04
A0
91
09
04
0A
14
80
1A
41
40
12
28
80
44
89
10
00
22
64
18
98
02
41
25
54
61
80
26
99
12
06
52
49
95
A2
60
16
19
98
09
62
12
94
A1
54
68
66
96
48
41
9A
4A
09
86
49
69
A1
A8
18
66
56
56
44
25
99
A9
A5
66
45
02
AA
61
8A
A9
A0
06
96
89
06
55
51
56
95
04
56
A9
41
68
AA
96
05
A5
90
52
50
46
29
02
96
1A
28
96
49
54
09
1A
05
86
95
91
09
02
92
59
96
29
A1
66
69
24
90
49
56
90
02
19
42
22
46
06
62
06
46
42
96
58
86
56
99
42
04
52
45
A5
50
15
09
A6
96
25
5A
6A
26
A9
15
64
A9
A5
85
A1
A5
26
A5
89
A2
A9
96
5A
45
52
99
52
A5
5A
09
A6
45
22
80
80
96
10
01
A4
91
1A
18
56
21
1A
89
00
10
A2
82
69
02
89
95
12
09
15
49
28
42
56
52
A9
56
85
46
A9
52
42
A9
56
56
46
46
62
85
21
09
95
56
19
96
81
46
96
58
65
55
AA
9A
99
91
56
26
80
58
A2
A0
51
82
54
61
56
06
14
99
56
96
5A
69
05
21
46
66
56
A5
5A
25
A1
25
1A
56
85
05
42
5A
89
12
59
16
56
08
86
88
A9
42
16
A8
88
92
A0
55
62
01
55
22
50
4A
14
5A
A6
49
14
66
96
96
A9
A9
46
5A
A9
69
42
56
52
19
60
A9
5A
A1
16
A5
59
A5
81
62
54
5A
62
A9
62
6A
91
46
11
A0
84
99
42
49
05
0A
29
A4
56
20
16
A1
21
09
09
14
52
AA
56
01
A1
21
44
46
96
AA
50
85
42
81
A5
06
21
45
81
46
52
4A
42
82
56
10
46
46
01
22
00
52
29
21
21
60
88
99
09
69
81
95
95
04
28
95
04
69
1A
09
20
52
21
85
A0
64
2A
12
81
00
96
A9
00
80
A1
52
19
64
99
98
80
86
25
99
42
29
21
40
51
59
58
92
0A
25
99
26
54
85
96
52
51
51
46
01
28
90
28
09
81
09
42
4A
42
4A
A5
64
29
82
46
56
56
69
09
00
5A
44
45
16
05
09
11
86
15
05
64
28
58
92
61
01
20
99
94
40
98
64
86
56
98
A9
80
90
9A
44
89
5A
A1
42
89
69
15
29
46
29
A1
56
A9
12
2A
29
9A
42
A0
11
12
52
96
42
5A
02
90
40
52
05
69
08
28
52
10
1A
20
62
56
A0
60
19
2A
69
58
2A
52
96
55
A2
A1
A0
A4
A5
21
A1
A8
52
29
12
04
65
6A
A5
5A
A9
52
20
46
01
5A
14
95
5A
12
68
A2
80
01
5A
01
29
19
02
A5
A4
44
18
86
18
49
0A
41
49
51
A5
01
52
52
50
6A
5A
85
54
A9
56
51
A8
54
66
51
50
50
28
12
A5
A2
58
25
55
25
59
2A
44
A2
A4
56
12
AA
A5
02
99
86
92
10
A1
AA
59
90
01
AA
50
86
61
52
69
55
A4
68
A1
56
59
19
55
51
A1
A5
26
11
22
89
60
5A
58
64
96
9A
96
25
92
A1
21
01
62
65
16
88
45
89
26
5A
42
69
50
24
58
09
A8
96
49
51
50
99
22
A8
A9
50
98
A2
A8
98
12
12
86
62
21
52
29
89
A0
04
26
90
18
22
65
58
85
00
52
0A
18
04
25
99
10
4A
99
10
58
84
A2
16
A1
88
21
A9
40
11
44
49
29
54
A0
A5
80
92
84
94
55
60
86
50
A4
10
40
A9
96
0A
44
58
51
50
58
14
56
06
64
80
84
99
10
44
98
A4
20
01
25
24
09
2A
01
28
28
24
08
04
86
0A
A4
A0
10
A1
A6
A1
16
29
22
A5
24
04
60
96
26
A9
46
21
09
25
65
48
86
6A
A8
19
65
40
25
40
25
AA
15
16
A5
A4
94
4A
A0
6A
59
A5
01
65
62
69
29
69
A5
A9
2A
59
54
58
4A
84
21
85
52
46
55
90
81
95
49
11
21
82
00
10
A0
68
A6
A1
A1
22
A1
95
4A
59
A1
89
9A
AA
A9
15
08
96
90
00
55
18
84
46
29
26
69
89
5A
A4
20
A8
A1
46
A5
A2
50
2A
54
62
65
42
90
01
14
15
66
84
02
91
5A
19
A0
4A
15
56
65
28
82
95
94
20
05
16
A5
69
64
41
96
51
A1
56
81
A9
69
99
25
60
69
40
61
29
66
41
66
16
95
92
21
96
AA
58
08
08
60
82
82
85
00
A4
41
81
6A
62
86
1A
19
14
6A
81
65
0A
69
05
2A
A5
14
2A
15
92
89
59
94
92
96
6A
90
68
81
95
46
92
65
94
02
96
52
05
A9
61
6A
44
95
60
8A
69
91
45
11
65
91
92
95
11
19
5A
01
29
15
80
24
91
12
99
A2
16
2A
94
95
46
50
96
68
15
15
16
88
92
6A
A4
60
69
28
90
86
98
69
94
26
61
92
66
56
90
92
59
28
28
66
9A
42
1A
96
62
20
0A
19
69
41
8A
A2
18
28
25
15
84
45
54
18
68
51
A6
52
65
60
2A
06
00
21
92
69
82
28
96
09
65
11
95
82
90
42
12
41
10
88
04
4A
08
06
9A
A6
22
02
19
10
44
19
04
41
96
51
59
52
22
8A
94
11
96
20
29
59
94
A2
A0
40
25
A0
52
09
12
01
21
16
21
16
94
90
62
40
48
45
4A
09
29
40
08
14
10
11
80
68
A2
01
05
00
A8
14
80
80
40
0A
48
60
06
44
19
82
41
A9
21
48
04
88
08
60
20
65
18
A9
00
50
59
09
01
82
96
25
42
29
A1
A9
92
56
94
11
2A
16
94
66
A6
A4
46
65
A5
61
AA
28
98
5A
54
16
02
65
28
49
19
5A
52
69
54
56
01
16
94
54
26
51
29
88
56
49
0A
12
2A
49
18
89
94
64
55
10
85
18
91
54
4A
59
62
A2
92
A9
19
06
42
69
50
51
64
1A
69
1A
89
92
68
61
01
59
92
89
09
12
49
86
22
49
45
9A
02
04
A5
10
81
28
94
28
06
56
00
56
16
64
48
62
20
14
A2
22
AA
4A
60
26
65
12
99
56
80
65
10
41
55
29
49
51
96
99
61
59
65
0A
11
19
A2
15
98
58
40
05
01
10
90
62
62
68
82
A8
86
11
2A
A0
91
21
88
AA
A6
68
42
A5
59
08
05
22
48
5A
26
A5
61
AA
66
A2
29
9A
0A
84
A0
1A
06
25
86
1A
65
64
A8
52
14
25
54
98
45
88
99
1A
26
9A
88
42
AA
AA
A5
69
18
8A
2A
06
69
59
00
51
04
58
16
96
AA
68
66
80
42
19
18
54
52
12
54
48
42
51
41
69
00
AA
59
44
A6
AA
06
4A
06
61
A9
54
08
19
18
8A
16
14
45
A6
59
62
52
A8
51
42
12
92
45
1A
61
25
5A
82
26
89
65
29
26
86
A1
69
09
A6
1A
61
05
49
62
59
86
54
51
11
A1
80
00
09
A0
49
51
81
11
A2
21
2A
28
22
42
28
45
51
01
41
4A
42
A5
95
41
06
A8
60
08
80
06
60
41
41
20
42
10
05
10
16
82
69
64
81
10
92
45
86
88
19
AA
65
90
01
00
09
21
6A
54
19
45
91
49
40
44
41
55
28
06
96
90
84
14
96
86
60
AA
41
51
46
19
44
50
65
55
0A
21
49
99
94
82
56
65
88
29
52
95
1A
88
82
04
2A
69
90
98
80
9A
05
69
90
16
88
9A
44
A2
16
16
81
96
84
88
28
91
A9
01
51
A5
09
9A
A6
26
A2
A5
9A
05
22
68
16
26
90
64
AA
18
90
91
90
46
A5
81
06
2A
91
48
91
44
10
94
AA
06
54
81
46
62
A0
58
14
A6
42
01
15
46
96
29
8A
15
8A
21
21
24
51
90
86
69
99
95
9A
6A
11
56
69
04
AA
41
52
50
50
28
86
25
58
82
15
1A
26
98
28
50
41
15
10
19
52
06
68
95
58
65
12
AA
0A
05
2A
96
14
A6
AA
51
96
52
66
0A
59
61
1A
50
52
89
06
86
A2
A5
88
42
81
22
26
49
A9
15
68
A6
45
92
91
1A
81
A8
4A
60
85
12
A2
28
42
81
48
62
A6
41
99
55
61
51
69
A4
18
86
A9
A5
09
18
18
49
21
4A
A6
26
16
A0
59
98
4A
64
02
08
69
91
65
15
80
96
A1
19
09
85
61
61
64
19
1A
46
AA
59
90
4A
AA
69
A8
29
24
45
59
91
61
45
56
6A
26
16
56
51
98
A6
84
69
66
94
84
A2
51
94
92
66
96
05
22
84
9A
AA
18
60
90
96
AA
96
96
12
58
1A
88
69
A9
61
A5
51
58
26
48
61
51
A6
26
99
61
A9
54
69
16
29
A6
A9
86
54
06
62
29
99
54
28
90
A0
A0
6A
60
40
08
A6
42
52
81
00
48
92
02
85
0A
02
12
02
8A
92
92
69
26
21
04
12
86
29
20
99
10
65
14
40
A4
A2
61
89
89
86
81
A9
60
08
42
44
14
84
05
51
44
88
2A
00
2A
20
04
88
10
81
88
4A
82
A2
88
11
01
50
98
00
12
22
69
20
00
96
90
84
01
55
A8
81
06
16
12
86
49
18
96
58
12
29
9A
64
A9
09
A0
69
86
2A
8A
59
65
40
64
1A
44
59
96
85
91
80
61
99
88
09
22
68
2A
16
06
49
69
94
19
14
29
84
65
42
29
24
04
90
89
48
84
50
A0
89
96
89
A8
0A
48
06
A8
49
10
AA
14
A2
62
08
18
65
91
85
86
55
A5
AA
59
A8
05
56
55
6A
65
96
26
6A
05
05
26
56
69
05
19
15
06
52
85
9A
84
85
56
14
64
50
14
8A
58
02
AA
44
84
99
90
86
44
10
5A
50
01
85
04
10
66
41
91
AA
02
89
A1
A9
15
91
11
86
88
29
85
69
94
A8
A1
56
85
06
29
96
01
A9
A2
11
A4
91
45
6A
50
88
A2
51
58
88
91
66
59
10
49
5A
89
22
59
46
44
9A
40
A5
62
62
52
15
16
20
0A
49
06
11
56
56
22
46
46
86
85
96
29
90
68
61
96
29
22
A2
14
8A
A2
24
98
80
96
16
91
05
98
45
A6
55
A2
94
A8
54
20
52
89
8A
56
51
1A
56
41
A9
65
54
25
54
19
46
01
A9
69
16
5A
21
68
96
A0
59
55
66
15
29
69
89
09
89
46
A1
49
A5
06
99
98
99
22
99
15
62
A2
19
54
54
55
59
95
56
46
15
AA
12
45
A9
45
2A
85
A6
A8
A6
69
94
25
66
29
20
68
20
84
20
48
90
02
22
84
28
50
42
42
01
49
4A
16
80
82
12
60
01
02
00
21
04
82
96
89
16
40
28
29
A1
08
68
92
86
62
94
00
40
00
46
54
86
82
40
02
96
88
14
06
68
68
25
40
90
10
06
60
20
A9
A1
58
06
66
A8
24
08
48
08
60
86
09
00
05
59
28
21
06
81
60
29
61
28
80
96
09
24
82
92
20
89
66
46
A9
04
56
26
AA
89
89
96
86
91
29
80
25
4A
56
16
2A
A4
91
86
20
98
96
20
48
51
14
65
69
21
A1
66
A1
46
96
99
52
15
A6
95
81
95
4A
96
81
56
A9
16
5A
66
51
49
2A
2A
99
41
A4
A9
A4
62
65
49
96
8A
58
95
58
64
A9
92
42
98
A1
56
46
18
12
98
96
A1
56
21
66
69
49
95
16
2A
62
A4
46
96
28
25
16
A9
02
18
56
85
50
22
56
25
91
4A
41
96
21
80
25
16
42
60
A5
64
A8
26
51
A8
64
05
52
96
15
9A
99
A9
95
A9
AA
66
A9
A9
42
28
66
A9
99
56
8A
54
2A
85
AA
4A
52
08
50
8A
4A
45
6A
AA
08
05
54
04
A2
44
8A
82
58
5A
66
82
A8
92
66
60
80
60
A1
69
64
46
56
89
05
A5
06
88
10
16
09
56
45
65
54
46
AA
A4
A1
89
60
59
06
84
56
25
59
A1
49
62
09
98
9A
66
11
89
64
56
A8
55
02
66
A0
0A
66
69
45
96
66
45
98
A5
99
20
84
66
A6
06
89
99
99
55
65
AA
8A
45
25
99
65
A5
A6
96
AA
9A
89
89
AA
A6
48
A9
18
89
86
62
2A
09
56
84
21
06
58
A8
AA
99
9A
45
21
89
09
64
62
A2
88
48
65
66
A0
26
AA
46
18
06
09
28
50
29
02
20
69
25
19
24
81
64
05
21
61
22
89
24
A9
01
90
98
10
84
49
08
51
28
61
01
00
24
09
60
00
08
9A
01
5A
14
50
44
60
16
18
80
46
AA
14
21
42
04
42
86
50
16
10
16
06
80
4A
44
16
09
28
A8
A9
52
5A
A8
08
A5
94
06
14
10
01
12
1A
08
A9
89
66
14
0A
48
88
59
14
08
80
26
88
12
11
8A
45
59
2A
99
48
65
99
A6
29
16
18
2A
16
66
69
55
5A
84
59
A4
68
68
AA
20
6A
9A
98
64
95
52
A5
A2
80
9A
A9
66
56
A5
14
91
54
0A
24
85
24
14
91
00
1A
45
82
60
00
82
89
80
81
64
8A
44
66
46
46
A0
04
9A
05
9A
26
29
1A
8A
50
9A
A9
85
1A
24
18
10
46
A9
66
29
19
99
AA
86
9A
5A
A2
98
14
25
89
66
91
AA
25
91
00
05
99
88
85
2A
08
85
81
42
02
A8
08
54
59
91
44
45
88
68
85
45
91
28
21
A8
06
94
26
A1
9A
22
2A
21
2A
12
28
60
49
A8
A5
12
66
95
A8
51
0A
81
99
59
A0
A4
24
59
91
26
A2
4A
91
41
82
A0
24
20
24
01
89
59
01
65
51
98
06
80
28
2A
95
54
54
89
94
AA
24
46
56
55
26
50
11
85
15
11
A2
AA
4A
A2
55
08
58
A6
98
45
65
91
A6
51
51
16
1A
09
05
9A
88
18
25
26
18
A6
98
59
A8
06
A5
82
56
85
A2
A6
A9
85
08
45
94
16
AA
4A
22
18
91
2A
0A
44
11
60
A9
16
A9
85
AA
A6
8A
01
86
29
6A
48
51
50
11
59
56
AA
9A
91
91
16
11
11
04
98
92
95
61
6A
A9
01
91
A2
A6
61
69
50
A9
04
88
55
44
51
A0
A6
68
50
58
21
44
19
48
81
64
00
45
16
A1
99
65
25
A4
80
11
8A
15
65
02
29
09
8A
28
A1
14
90
62
00
AA
68
22
40
48
49
61
A0
6A
14
89
48
50
A8
52
66
94
41
01
58
90
18
42
98
94
18
15
91
51
20
80
A1
01
50
02
A0
02
62
A8
60
01
22
0A
28
28
24
A6
AA
55
A8
54
A1
28
A8
40
28
92
90
A1
18
60
20
85
5A
95
58
11
94
8A
61
82
48
85
08
18
51
05
41
50
05
0A
88
59
00
99
05
91
16
26
69
64
A2
62
A1
46
8A
28
41
95
59
5A
09
A6
AA
92
94
59
95
69
2A
89
09
86
56
05
AA
20
40
48
14
6A
80
1A
0A
A2
61
5A
96
60
AA
05
08
2A
A0
8A
A6
68
26
28
4A
25
12
52
A2
55
18
18
2A
AA
18
12
29
95
24
98
55
A8
22
91
46
91
91
11
81
14
21
05
82
2A
00
56
29
45
66
A9
51
A6
52
86
59
5A
4A
80
54
50
84
A6
21
26
64
A8
49
86
20
6A
64
59
48
6A
61
48
56
96
A1
68
98
69
00
9A
62
42
91
52
49
95
92
0A
AA
68
49
95
24
42
21
A1
62
55
00
05
A2
6A
65
96
66
A9
28
6A
02
24
56
A4
69
11
49
A6
24
94
11
A2
84
19
96
99
96
52
20
89
40
54
5A
89
26
5A
59
A5
92
54
01
99
59
68
84
66
55
96
85
AA
62
18
AA
52
58
24
90
21
96
65
94
22
A5
6A
85
88
90
9A
96
66
4A
50
84
29
55
62
82
95
68
95
85
A5
49
A9
6A
48
A5
90
56
99
04
21
86
02
89
99
5A
56
4A
92
96
54
96
55
86
54
91
86
AA
45
80
21
0A
00
55
91
24
42
50
06
15
6A
05
0A
8A
48
44
94
69
28
94
64
14
64
80
86
44
05
98
45
02
25
91
20
59
5A
90
02
82
20
12
14
24
AA
50
85
91
4A
40
19
91
15
19
02
16
09
20
54
18
A6
10
49
24
01
05
86
90
10
1A
58
80
92
22
14
91
04
19
00
85
26
09
69
61
09
64
58
25
02
6A
80
06
10
02
69
84
94
60
59
50
A8
12
02
44
41
19
48
91
4A
08
91
61
85
4A
25
81
4A
A2
65
25
55
99
4A
28
11
A5
56
51
AA
61
95
15
84
A8
86
2A
80
94
45
25
A4
55
42
10
22
2A
99
91
26
65
A4
24
41
04
85
96
65
84
48
96
2A
A0
95
88
88
00
95
9A
2A
6A
28
68
26
05
65
5A
A1
25
96
41
28
5A
54
28
A9
92
54
05
28
1A
AA
60
84
29
22
A5
62
1A
49
09
85
08
14
AA
48
0A
48
41
40
A5
8A
60
06
01
20
5A
99
1A
A4
01
21
10
A2
64
5A
19
A9
48
51
92
91
6A
9A
46
4A
8A
0A
52
45
50
46
00
45
58
94
64
26
65
AA
96
64
2A
25
4A
16
08
45
28
96
04
AA
91
42
58
52
89
14
95
42
91
55
A8
5A
89
06
92
25
2A
54
49
82
52
8A
99
28
46
22
96
A4
15
91
61
82
26
A9
16
20
9A
A9
04
8A
85
64
49
4A
94
92
25
0A
55
85
1A
9A
15
69
AA
0A
61
09
18
82
92
58
A2
44
91
64
A9
59
1A
69
19
21
1A
8A
AA
44
94
54
A8
1A
96
A9
89
06
22
65
A0
9A
16
55
08
02
65
26
6A
9A
55
06
56
10
60
99
81
64
65
A1
25
91
26
5A
28
19
98
85
88
12
A0
99
06
99
0A
A8
21
26
68
8A
41
54
56
A8
96
69
95
45
8A
05
92
04
A5
40
4A
2A
96
05
48
60
44
01
05
2A
1A
45
56
06
60
90
81
10
20
40
02
A9
84
20
54
69
88
A5
08
00
10
10
45
25
02
AA
08
A1
90
60
09
48
11
04
55
1A
22
22
18
11
50
08
28
20
45
28
29
08
19
68
05
12
54
04
14
86
14
04
12
A5
20
58
00
24
50
01
92
54
66
0A
44
01
A4
45
00
1A
00
62
02
11
AA
19
25
48
28
A5
65
AA
68
05
2A
25
68
99
10
1A
2A
4A
A8
18
94
A4
89
0A
A6
50
08
02
A5
59
94
2A
58
A2
69
52
A5
65
9A
A1
08
84
49
98
41
6A
5A
9A
A8
69
81
15
8A
12
42
52
05
18
A9
8A
11
16
56
0A
0A
02
51
A6
54
26
25
98
8A
05
1A
A6
45
A4
4A
25
61
AA
05
96
41
98
A6
04
45
55
08
24
4A
85
51
A1
5A
A5
81
11
02
69
89
02
61
06
A5
02
06
28
90
68
89
02
98
29
64
09
99
98
0A
A6
86
9A
9A
AA
20
54
28
10
45
A5
45
41
21
98
91
84
A6
98
25
56
6A
1A
5A
05
10
90
11
22
10
44
25
9A
51
85
11
24
96
41
8A
28
4A
81
49
82
10
42
9A
46
54
A2
A8
65
14
9A
61
92
25
94
64
81
49
0A
40
9A
25
8A
96
10
1A
80
48
A8
45
99
91
A5
25
02
60
24
A9
5A
96
1A
20
19
42
15
24
58
16
98
65
96
60
62
09
64
8A
42
51
9A
59
A5
92
29
18
29
51
A9
84
06
51
56
82
A1
69
01
46
91
90
5A
16
45
A9
A5
26
A5
58
48
50
16
96
56
55
A6
65
5A
11
15
6A
9A
91
51
80
0A
A1
22
A4
84
11
98
90
98
52
A9
88
22
05
28
49
85
6A
15
66
65
42
29
80
18
08
01
98
80
46
14
80
84
44
04
28
88
05
40
00
29
20
40
59
00
00
81
48
A2
18
84
04
84
4A
10
82
28
16
61
24
85
82
98
96
82
99
44
00
95
02
92
26
14
18
64
24
28
22
88
01
14
02
48
09
90
44
80
45
02
45
22
62
41
40
A4
00
24
2A
0A
A1
0A
86
84
98
44
40
92
6A
24
69
40
61
8A
58
14
28
61
10
21
0A
96
42
49
12
14
69
94
21
65
49
44
98
0A
98
11
AA
92
AA
A4
55
96
11
81
85
62
55
89
56
68
9A
54
A2
51
55
40
46
46
A8
86
12
59
61
A2
AA
02
86
24
69
08
40
29
A2
98
64
52
82
A4
28
20
85
55
51
4A
58
58
64
22
68
5A
66
68
46
A8
66
68
05
90
A5
12
55
42
20
9A
02
16
41
A0
92
06
15
18
2A
10
62
41
41
49
A4
90
29
21
2A
AA
91
98
14
55
88
58
82
A8
51
65
02
6A
10
51
11
A6
21
8A
84
4A
90
66
52
05
A6
84
80
55
86
95
AA
95
14
4A
15
8A
6A
11
58
55
19
06
90
52
94
08
01
61
A2
49
61
65
99
94
12
99
90
15
81
82
5A
86
11
16
9A
66
8A
6A
88
A0
4A
A6
14
68
51
41
85
68
9A
48
95
91
61
94
49
09
48
6A
09
96
4A
66
95
20
2A
A0
06
8A
28
45
15
05
5A
99
21
26
61
16
54
60
29
9A
A6
A5
19
22
A6
94
64
69
4A
94
61
56
96
1A
68
AA
80
96
59
96
A2
05
29
61
95
96
29
42
62
19
65
59
11
14
98
A6
61
26
81
2A
96
18
26
15
52
64
46
59
46
62
99
A8
09
A4
A4
40
A8
29
94
91
68
42
85
86
AA
A9
49
25
95
94
4A
86
59
91
A5
90
00
40
09
21
40
85
22
48
A6
0A
98
40
69
09
22
94
8A
A0
04
10
19
16
94
06
86
95
5A
41
49
14
20
11
05
85
29
68
48
94
A1
06
12
25
55
58
25
18
99
42
22
24
62
21
00
00
19
8A
84
21
0A
41
60
92
29
A4
51
90
92
06
11
12
98
54
28
86
02
85
21
99
26
68
88
89
86
25
96
58
05
68
24
94
56
00
96
91
44
18
90
60
99
61
54
98
99
94
81
68
6A
90
A4
82
21
65
A8
A6
49
1A
41
45
54
1A
5A
50
A8
66
28
94
A5
95
59
6A
5A
15
46
65
44
59
29
05
40
95
20
58
19
66
20
09
18
95
40
52
02
16
41
80
52
89
91
15
95
28
95
A4
10
52
95
80
50
66
A1
66
52
01
95
25
94
49
95
25
19
96
AA
45
95
68
56
6A
21
90
08
51
22
1A
56
59
40
04
56
45
41
44
58
A9
11
92
19
10
85
59
56
25
54
45
A9
55
12
59
10
49
5A
50
A9
86
2A
04
24
A6
49
84
66
51
A6
68
96
15
50
06
59
A4
50
24
0A
69
A1
92
AA
50
40
28
68
16
1A
41
55
A6
28
12
2A
10
18
66
19
09
81
A0
18
02
19
26
AA
19
41
55
62
55
86
59
66
58
99
A4
10
59
98
15
99
90
22
51
A6
11
58
09
A5
94
59
89
81
45
6A
08
15
06
98
AA
28
55
61
6A
66
8A
14
04
50
80
51
88
46
91
16
A4
96
66
95
89
A9
A9
51
26
61
56
25
54
82
65
59
A8
29
62
09
20
12
A8
15
49
A6
55
A1
15
A4
A8
A6
40
59
94
15
06
59
18
64
82
60
96
46
55
58
0A
68
A6
59
51
64
90
15
49
59
A5
92
26
10
86
50
8A
A0
52
61
60
06
51
41
64
91
09
99
40
65
98
0A
06
14
28
A0
41
8A
26
01
54
84
12
80
01
41
8A
11
22
19
82
02
86
44
08
60
64
10
20
08
11
29
59
80
65
2A
99
51
59
61
61
64
61
18
51
02
68
91
61
81
00
92
98
14
82
A6
01
12
A2
20
00
00
22
60
00
54
16
46
59
24
84
82
A2
A6
4A
09
00
19
96
61
91
91
4A
A1
68
82
10
44
85
2A
A6
86
A6
91
19
28
68
66
48
80
26
AA
12
56
A2
11
02
11
9A
51
29
68
22
82
2A
A4
86
69
59
58
06
A6
89
24
89
19
19
81
A4
24
06
14
A8
61
04
96
60
86
40
A9
A6
69
41
16
0A
82
25
19
16
62
61
49
6A
A4
52
A6
06
25
A6
11
59
A6
54
A6
45
25
26
20
A6
51
86
AA
05
95
59
69
2A
0A
69
81
4A
60
22
60
56
42
06
62
4A
22
64
16
10
92
52
96
52
48
6A
69
8A
84
26
05
6A
65
A0
A9
20
95
89
15
86
15
8A
96
69
84
89
84
65
8A
51
6A
91
6A
95
42
11
96
A5
48
8A
46
45
66
45
2A
91
1A
09
69
94
55
85
A9
85
28
51
66
41
90
61
2A
28
00
A5
1A
68
68
16
94
6A
86
58
84
48
48
91
62
66
40
52
61
99
2A
81
A5
51
96
55
99
92
80
A6
19
A5
69
05
09
42
4A
A6
09
AA
95
96
AA
91
68
60
61
91
A2
65
52
25
A8
99
88
A4
66
99
A5
54
A2
95
95
90
04
68
86
92
69
69
98
91
61
66
90
85
5A
92
95
48
80
49
25
61
25
6A
69
58
66
69
16
51
A4
59
45
59
A5
68
82
09
44
8A
52
15
91
99
42
46
40
86
5A
95
41
99
88
09
45
82
29
50
16
06
4A
81
12
82
81
68
58
AA
11
05
41
48
19
68
98
94
62
12
56
80
50
4A
62
18
28
82
65
86
15
84
04
21
A4
91
44
15
1A
84
AA
28
4A
01
81
10
02
00
41
29
81
81
A0
42
91
89
42
08
00
10
15
A6
22
86
00
42
80
A4
92
52
A8
49
82
98
06
04
41
60
45
80
44
91
84
60
21
60
26
A2
A0
05
A5
01
14
46
89
45
68
64
24
49
48
48
28
9A
58
A0
60
5A
A2
64
16
A6
A1
A1
69
A9
21
5A
9A
1A
49
A6
55
89
40
48
6A
A8
56
08
94
A9
99
4A
4A
69
60
06
82
1A
24
26
69
A6
8A
14
20
01
68
88
4A
82
51
42
00
18
44
06
09
26
54
85
A6
28
2A
15
15
A6
95
AA
80
60
44
6A
25
8A
01
81
68
99
86
20
46
5A
A6
92
19
A0
54
25
04
10
89
A9
64
04
A6
51
00
A6
08
28
19
91
A0
52
10
54
96
A6
61
94
69
1A
69
96
66
58
AA
44
42
82
0A
2A
59
24
28
26
02
85
6A
A2
A5
86
14
62
98
00
46
26
11
21
88
AA
9A
29
11
86
69
85
16
66
60
92
4A
58
99
25
96
10
A5
65
11
69
96
62
4A
86
85
91
0A
99
66
81
5A
80
91
50
56
22
99
19
95
6A
08
18
6A
95
09
95
59
98
19
95
58
98
45
14
96
50
45
81
4A
95
A9
1A
5A
25
91
99
16
62
52
94
5A
41
14
6A
6A
4A
95
AA
91
29
0A
6A
6A
52
65
85
61
50
9A
A0
18
65
91
19
1A
22
A9
1A
28
99
16
21
5A
44
62
24
29
90
6A
62
04
45
66
A9
91
14
61
51
90
01
A1
4A
95
25
62
5A
19
95
18
AA
A6
60
94
4A
A5
68
18
2A
88
11
16
A6
95
11
21
14
A1
10
88
21
2A
4A
80
15
10
9A
50
1A
10
00
50
26
48
95
60
18
80
40
91
0A
4A
48
09
01
86
60
84
64
A0
91
11
10
65
91
44
95
55
0A
85
98
2A
84
24
98
0A
12
85
A0
28
A0
22
12
50
60
18
20
21
16
90
10
46
A9
02
46
9A
48
60
15
42
80
6A
68
98
06
09
AA
A0
A4
91
04
2A
05
15
66
50
25
41
96
5A
62
89
64
4A
A8
96
56
29
95
55
22
51
60
91
61
A5
59
85
45
51
50
20
19
29
02
62
6A
9A
95
89
55
A2
14
62
A5
05
95
A4
66
09
12
24
58
28
55
18
01
20
18
9A
48
06
65
0A
81
24
86
AA
52
0A
92
40
15
92
88
5A
5A
45
46
84
55
4A
19
22
85
A5
0A
62
6A
88
62
62
88
8A
86
99
4A
59
54
A4
56
A5
59
15
48
19
18
25
5A
68
24
51
46
61
11
68
41
8A
52
5A
A4
99
21
46
5A
85
16
06
46
82
A5
84
99
84
A5
15
89
99
85
A4
A8
A4
56
49
46
68
06
11
06
26
81
00
81
96
41
00
A2
85
15
16
49
6A
85
5A
82
92
26
58
62
8A
12
AA
62
4A
85
68
A4
25
5A
6A
59
25
59
A5
69
55
5A
48
A2
6A
18
52
5A
59
86
86
84
85
99
94
1A
A5
6A
A0
59
86
95
5A
AA
28
46
8A
25
16
69
5A
91
A6
A8
28
01
16
0A
16
69
6A
55
5A
85
A4
84
28
90
4A
10
28
A5
85
96
49
6A
96
94
A8
6A
81
49
89
6A
46
88
A1
81
4A
29
64
81
25
95
A9
6A
56
28
22
6A
49
68
69
61
40
A5
84
68
16
94
95
14
9A
48
A1
86
9A
5A
02
A1
55
85
4A
25
2A
95
85
90
04
40
8A
45
22
05
26
A9
44
69
84
60
06
04
88
84
28
10
00
10
1A
10
42
A4
A5
28
09
60
18
14
48
04
25
85
44
52
10
01
69
44
0A
24
16
68
A6
A8
85
0A
28
41
42
50
12
21
90
11
A9
55
9A
14
88
20
64
08
50
95
A9
02
A5
A9
94
9A
A5
28
91
21
58
16
88
50
11
18
05
86
01
01
52
4A
92
A1
42
21
82
4A
01
A9
24
61
4A
18
04
95
66
65
1A
86
48
61
89
6A
61
A5
91
49
4A
89
6A
58
51
52
88
19
26
69
56
64
89
A1
18
5A
51
9A
89
A4
24
8A
48
6A
48
A5
01
86
62
84
0A
20
90
00
12
91
41
90
A5
29
10
62
42
61
18
99
21
68
6A
62
95
59
82
A4
0A
86
A4
61
41
59
85
6A
A4
84
94
84
1A
01
65
42
14
5A
69
84
89
96
49
96
96
42
16
40
56
99
20
68
06
A2
51
64
A9
A5
22
92
02
9A
04
A0
AA
92
90
00
91
80
41
48
A5
61
61
61
65
49
29
66
48
A2
58
82
69
66
96
AA
96
68
92
A0
48
04
9A
00
A9
A1
60
84
94
62
1A
02
44
65
58
A1
09
25
A5
A4
6A
68
4A
92
05
45
A2
48
64
A1
A2
92
69
1A
69
1A
56
26
86
45
16
92
96
84
11
66
22
41
66
85
61
4A
44
5A
80
56
56
51
1A
92
A8
69
56
25
29
16
89
69
44
AA
52
15
8A
98
15
1A
26
9A
96
40
06
65
0A
08
A2
A9
12
62
25
45
96
50
54
61
92
92
85
52
5A
92
64
22
64
A0
96
55
56
59
55
16
6A
A0
95
86
69
AA
16
41
A2
98
28
54
92
14
A4
5A
4A
28
90
98
61
65
61
92
92
48
18
21
88
51
8A
49
49
40
99
84
64
12
80
50
61
44
61
82
98
24
AA
9A
11
46
28
15
68
A8
2A
2A
28
61
69
05
16
08
84
68
86
80
40
60
0A
90
12
0A
91
49
02
29
A2
96
66
81
40
90
06
82
18
19
28
01
6A
00
9A
92
01
54
20
61
54
24
66
65
40
60
42
A8
00
92
40
02
14
60
A6
61
41
92
85
1A
44
40
65
12
22
90
00
41
99
45
21
16
99
26
12
5A
56
20
2A
A5
A9
59
42
69
15
66
5A
80
81
92
A5
AA
22
29
12
65
22
12
48
52
69
64
90
49
59
69
68
A4
14
55
81
24
29
A6
11
02
56
08
2A
08
01
60
16
A5
61
04
A9
6A
98
59
81
92
41
42
58
68
25
46
20
24
A2
52
42
88
01
61
A6
91
91
16
65
AA
54
96
68
24
44
60
86
64
65
11
A5
94
5A
A8
A0
94
0A
15
84
94
92
92
24
90
20
50
09
52
89
80
68
21
A1
96
60
99
91
28
60
84
01
A8
A8
05
69
A9
69
68
06
22
21
58
6A
A5
42
80
6A
28
1A
15
88
80
95
42
80
52
61
40
65
81
29
50
05
69
64
48
96
94
16
54
25
02
56
59
99
90
16
16
96
42
59
61
A6
56
46
85
99
94
69
81
4A
15
45
25
85
4A
90
11
84
A5
85
46
68
29
68
A1
6A
90
1A
42
01
0A
2A
58
12
44
56
5A
14
26
52
A9
88
A0
4A
85
96
88
14
26
A9
A8
A2
85
59
5A
59
5A
40
18
99
64
19
50
A2
15
A2
14
56
6A
84
80
69
15
98
95
64
68
62
62
82
82
25
95
A6
65
50
45
05
15
6A
56
A5
5A
65
85
00
2A
A5
64
A2
98
1A
28
99
96
40
02
90
52
98
52
12
65
81
20
04
4A
00
48
9A
94
62
51
91
40
48
2A
61
81
14
48
00
94
11
40
24
98
25
92
86
60
A4
41
42
21
A1
80
11
80
25
60
41
06
85
A0
95
8A
00
18
1A
14
90
48
1A
20
22
00
91
84
91
91
90
25
10
12
10
10
88
94
2A
60
25
5A
96
52
68
4A
68
20
42
95
4A
20
91
4A
A4
16
21
81
41
64
62
02
82
91
10
25
10
0A
91
90
64
88
0A
64
5A
91
8A
49
68
20
26
44
64
12
99
15
10
08
05
62
20
56
90
69
24
94
96
22
25
A6
89
28
19
12
64
69
A6
54
89
60
41
80
45
85
95
06
51
60
22
4A
95
2A
8A
62
02
68
61
8A
44
06
29
49
1A
86
18
88
46
05
62
68
58
88
5A
89
88
58
1A
AA
81
2A
65
65
0A
15
69
4A
46
6A
9A
25
66
A9
A5
A5
48
49
09
86
1A
15
A4
15
0A
A5
40
42
21
94
58
58
95
45
55
14
88
55
48
A0
80
56
28
80
66
85
A1
96
AA
22
02
82
46
51
69
20
22
16
25
9A
25
12
11
15
11
69
95
2A
44
20
4A
52
A4
80
21
A9
51
25
09
58
88
48
1A
1A
88
64
12
89
18
84
50
64
A9
88
51
29
A4
4A
66
A6
86
90
46
80
01
94
41
91
A9
40
81
99
55
91
11
64
2A
60
65
14
A1
4A
59
14
86
56
54
52
1A
A6
6A
04
89
96
66
49
01
96
A5
80
06
0A
22
1A
92
65
9A
16
0A
65
58
66
25
09
64
22
5A
65
2A
68
00
99
41
12
A9
9A
62
64
00
00
A2
A5
14
55
A5
25
2A
89
28
18
40
64
24
09
16
89
56
19
46
A2
82
85
2A
4A
6A
89
68
60
A8
84
65
69
19
65
19
48
50
44
89
49
98
44
22
15
01
89
99
65
80
05
11
58
A0
8A
5A
08
08
85
90
40
1A
20
41
10
2A
14
80
04
50
46
01
00
10
45
92
94
45
52
54
90
81
95
90
20
18
69
A8
80
5A
10
40
19
90
26
08
85
A0
05
60
0A
19
06
18
A4
44
80
95
89
00
05
80
01
0A
15
82
04
54
24
42
11
80
56
66
91
54
12
44
6A
00
05
40
44
18
42
20
61
65
84
05
58
59
A9
24
52
6A
01
12
84
09
48
2A
55
82
19
94
64
84
62
85
4A
61
90
69
8A
04
89
89
04
A6
81
61
82
96
99
A9
09
4A
58
54
99
99
52
01
84
08
64
90
00
11
11
05
49
5A
49
68
4A
4A
14
A6
A9
58
49
85
25
11
45
AA
18
84
A0
64
48
99
69
25
89
69
9A
61
89
69
42
88
5A
88
62
42
55
20
99
95
14
65
A0
06
5A
82
20
21
45
96
24
56
50
19
86
60
19
50
55
64
91
5A
92
01
A8
48
A1
15
59
89
89
88
54
58
84
98
81
82
82
82
61
A1
9A
92
A9
5A
55
55
A6
58
22
51
A6
02
2A
24
44
A1
21
88
25
0A
82
65
19
24
02
46
51
28
91
69
1A
8A
94
19
92
44
A5
99
A8
86
15
4A
42
82
48
49
58
96
41
14
84
81
25
58
49
29
20
86
55
22
51
9A
59
81
5A
04
40
11
1A
46
60
86
46
85
51
5A
28
49
29
92
A9
A8
62
61
46
65
49
46
59
40
06
0A
A9
55
84
16
98
59
88
9A
86
46
51
4A
96
01
65
04
04
48
A5
94
A6
56
A8
59
64
85
AA
68
58
89
4A
04
08
12
48
55
05
1A
5A
A5
05
01
6A
48
10
26
A1
65
56
A6
89
99
95
60
96
A8
A4
55
A9
55
9A
85
12
A2
40
10
65
45
24
09
44
40
91
98
08
98
A1
28
44
14
41
24
00
06
90
01
11
18
A6
11
04
45
98
48
90
8A
0A
40
22
54
00
80
82
40
08
10
5A
0A
60
1A
51
61
A1
01
05
06
64
5A
08
6A
A4
51
01
11
09
85
8A
40
60
A2
05
9A
64
98
51
85
50
82
89
01
A1
00
54
25
94
18
68
21
44
18
22
62
A0
4A
95
A0
11
44
85
98
21
14
69
21
A6
56
5A
00
1A
21
64
64
19
6A
28
A0
15
16
96
60
66
10
A6
61
54
05
12
A4
08
A6
AA
59
45
42
98
94
98
98
58
54
14
69
46
50
26
18
1A
A5
89
A4
69
41
AA
29
66
81
00
94
9A
9A
10
58
99
12
51
11
A4
A9
61
95
AA
A8
86
10
55
12
46
25
15
81
52
A0
00
64
58
9A
51
96
52
54
9A
82
20
06
08
59
88
68
09
49
01
51
04
08
94
05
66
62
24
28
89
58
86
1A
19
09
19
04
05
22
90
5A
20
0A
14
2A
A8
52
56
52
46
62
89
55
1A
16
A9
92
04
A8
46
A0
49
4A
29
80
04
01
6A
08
A9
55
96
92
51
21
00
02
82
91
A6
80
84
65
A5
A8
A1
10
50
09
A2
62
4A
15
28
24
89
42
98
A8
9A
A2
65
A2
69
01
19
22
6A
86
46
A9
28
56
A0
2A
01
62
98
A5
6A
91
66
26
95
90
58
5A
52
24
80
58
95
69
65
09
18
06
45
90
05
98
41
0A
21
29
58
61
45
09
86
69
AA
90
69
68
A4
92
52
06
81
62
65
48
45
A6
81
1A
56
0A
A4
20
16
98
46
65
94
08
95
A8
18
82
61
14
04
9A
09
22
55
A6
18
8A
15
06
66
00
41
45
A6
06
91
98
29
81
A0
44
19
80
04
09
81
A6
02
58
55
26
A4
04
68
90
8A
92
66
84
06
1A
89
50
22
02
16
01
46
0A
22
48
51
80
09
A2
10
90
01
99
20
25
82
00
51
08
22
09
A1
20
54
85
95
06
86
10
80
50
44
86
00
84
80
95
89
01
59
49
29
11
20
26
98
01
88
20
A2
45
46
41
69
02
08
60
49
05
12
09
29
46
00
11
60
94
49
55
9A
96
19
49
A6
62
81
A0
50
48
86
21
A5
1A
50
51
52
4A
96
62
A6
41
25
95
29
A6
06
18
A6
24
28
51
14
A5
AA
AA
65
10
05
66
85
15
64
85
12
89
86
06
1A
24
46
88
4A
46
16
84
50
A5
A9
51
08
60
92
25
AA
81
46
52
51
95
99
06
A9
5A
60
92
65
62
A9
54
65
02
A8
26
A8
11
04
0A
64
24
68
21
A9
98
48
9A
68
04
22
20
8A
02
86
64
40
60
88
55
98
91
A8
46
08
95
10
8A
61
86
85
65
AA
68
05
51
01
51
22
15
15
15
95
21
94
0A
91
59
12
65
56
69
81
6A
15
8A
51
2A
65
19
54
48
1A
81
49
2A
65
09
41
11
46
A2
A5
14
10
88
61
02
44
95
84
12
60
02
51
0A
41
59
90
96
02
15
A2
85
4A
95
46
22
40
A8
AA
89
20
42
95
29
80
91
26
05
22
61
62
58
55
95
A9
82
08
99
52
58
45
A2
A8
24
AA
51
1A
99
82
AA
A5
58
95
88
A2
1A
15
19
91
9A
66
59
26
5A
15
91
55
A2
16
15
95
62
22
20
51
49
20
A2
99
84
91
45
8A
A6
15
91
A6
62
5A
56
99
54
AA
80
91
91
11
26
82
49
A6
2A
8A
92
59
22
4A
55
49
A4
A6
60
65
A1
50
42
88
80
15
10
94
00
62
45
A1
68
41
84
41
29
00
55
22
25
01
40
51
09
21
12
01
06
5A
22
18
90
41
66
2A
AA
85
28
94
51
45
28
02
0A
A4
09
A0
8A
10
A2
02
65
28
55
22
22
AA
62
0A
AA
49
04
80
01
90
2A
A8
08
41
91
00
22
11
A1
26
59
18
05
60
51
49
58
40
41
00
51
2A
18
09
14
45
8A
92
51
48
20
10
0A
94
19
A2
8A
59
8A
A8
29
61
05
00
84
86
84
55
68
21
69
A6
1A
45
88
0A
4A
15
49
26
22
49
8A
68
84
82
25
A8
49
01
A6
AA
AA
A8
86
68
51
22
02
8A
9A
50
55
A9
26
51
60
04
19
81
5A
A9
48
56
89
66
65
12
25
90
54
21
9A
AA
45
25
84
14
62
69
58
A6
A9
6A
42
41
45
02
55
52
A8
91
88
61
95
8A
A9
A2
46
A0
48
00
45
92
52
29
50
09
52
18
96
09
21
28
1A
18
66
92
16
9A
51
A0
5A
A5
2A
A1
29
15
0A
46
92
98
A1
4A
62
44
1A
6A
86
62
41
82
52
05
82
61
62
0A
90
06
2A
86
06
00
99
42
16
A2
A5
46
05
96
50
21
91
86
5A
25
49
26
A8
81
4A
21
41
85
A1
06
92
66
26
9A
91
19
A9
98
62
A5
46
4A
8A
22
10
19
10
05
A1
06
58
A2
62
95
91
90
60
16
26
50
51
40
04
06
6A
80
85
14
5A
59
95
56
00
86
A1
A5
4A
52
90
12
91
9A
18
50
2A
58
45
24
A6
91
A1
66
86
02
91
91
60
85
81
91
58
52
28
58
40
16
A2
29
45
64
19
05
52
44
29
29
99
02
68
24
99
95
A9
90
56
2A
A8
00
14
95
62
45
24
92
6A
26
01
24
95
6A
06
50
99
04
85
40
48
9A
48
11
25
10
10
22
15
24
25
42
58
15
1A
19
94
48
20
52
22
12
20
5A
59
00
1A
58
5A
99
52
42
A5
90
48
62
88
85
84
02
29
91
12
05
12
26
25
A5
66
25
A5
10
85
18
86
A5
25
64
01
24
18
41
4A
09
48
A0
02
64
20
54
02
A0
01
98
46
69
00
12
A8
12
40
90
81
22
58
24
81
11
69
61
15
66
00
99
68
95
00
AA
82
A8
69
91
8A
68
06
85
61
54
69
91
A5
92
91
29
55
04
19
49
25
94
44
A0
90
AA
01
99
02
69
69
2A
12
90
90
19
85
41
60
94
A2
10
89
1A
49
10
92
40
68
82
24
49
60
90
A9
88
62
64
45
96
5A
28
62
A6
06
51
68
A2
56
00
66
89
06
46
69
99
42
A0
42
18
A9
61
8A
60
05
20
68
A9
5A
85
45
44
92
19
25
69
98
1A
99
4A
69
52
69
49
20
A0
56
41
51
00
08
84
42
5A
5A
A5
95
A8
50
A9
80
51
48
A0
06
56
A8
64
04
A6
46
66
24
26
24
55
A1
49
5A
54
88
44
5A
60
80
81
16
50
22
99
99
8A
19
A5
56
00
54
80
59
01
84
29
92
64
5A
52
59
00
15
A1
49
09
81
5A
94
5A
26
98
24
90
0A
19
9A
55
19
64
59
81
08
92
22
26
84
A2
04
A6
06
28
82
94
6A
56
48
96
96
6A
60
91
59
11
0A
05
A1
64
92
2A
69
2A
66
11
41
4A
84
24
95
A5
9A
2A
84
66
21
55
44
44
24
52
66
24
99
AA
26
62
26
98
61
A5
0A
51
15
21
19
12
52
62
5A
59
61
46
40
19
19
04
5A
08
42
25
62
54
45
21
64
A4
81
55
06
65
A9
50
A8
A8
42
66
98
82
99
21
22
91
46
46
25
5A
04
00
85
95
40
14
62
81
6A
44
2A
82
28
18
22
44
82
15
24
81
64
A8
20
08
09
90
49
06
28
6A
6A
6A
18
85
15
1A
94
A5
92
85
11
12
1A
84
81
09
02
0A
98
1A
95
45
05
9A
29
01
28
A4
69
15
08
51
20
20
61
21
00
A9
92
42
55
20
04
82
62
18
80
62
A2
04
94
9A
2A
4A
AA
95
8A
88
9A
01
24
A2
45
90
A5
2A
09
2A
66
AA
88
28
58
02
A9
A5
88
52
2A
48
15
86
94
1A
A0
55
8A
46
60
06
88
01
60
20
69
1A
91
91
06
5A
1A
48
19
91
A9
64
26
58
18
26
6A
41
40
24
A6
82
48
60
18
28
49
21
85
8A
99
95
46
40
82
82
19
59
66
99
51
21
16
92
48
28
41
59
65
02
41
A5
01
86
A2
A6
61
99
89
A1
48
11
A8
21
1A
12
08
28
41
90
21
46
45
A5
A2
22
69
68
6A
80
1A
04
80
4A
6A
A2
2A
A6
19
09
16
05
01
41
64
66
60
60
22
61
44
0A
55
88
2A
65
91
58
99
46
80
60
02
A5
5A
04
04
94
06
22
A0
40
54
A9
80
61
91
60
54
29
9A
98
55
11
58
5A
A2
10
12
48
60
59
1A
94
64
90
01
A8
66
98
98
A1
14
90
A1
9A
95
20
59
8A
84
98
22
49
5A
92
49
98
14
6A
16
A1
49
65
99
80
68
90
66
62
A8
21
54
19
01
18
44
81
56
A1
A4
04
6A
64
02
AA
8A
59
A1
24
61
66
91
16
00
2A
80
19
62
05
99
94
00
64
6A
66
55
5A
46
62
21
95
65
41
90
29
20
A4
86
16
91
08
25
5A
29
52
80
96
29
65
90
08
68
2A
A8
92
95
21
16
65
18
68
91
46
86
6A
0A
99
00
25
98
44
AA
A9
84
90
9A
19
58
52
95
A6
61
04
61
69
1A
19
A6
05
26
29
12
94
94
06
50
40
56
44
42
91
11
62
08
19
81
6A
68
91
91
89
86
28
85
02
90
86
00
04
58
8A
48
51
00
10
20
96
60
22
61
20
21
62
11
41
18
02
04
16
69
10
00
64
84
18
04
69
86
90
24
64
02
05
08
21
8A
28
02
98
84
24
88
29
01
56
24
45
81
65
5A
62
95
98
25
5A
8A
64
26
0A
96
A5
A6
90
09
85
9A
26
25
A2
66
68
64
66
1A
A1
92
2A
60
60
6A
90
AA
82
99
50
20
85
59
0A
16
89
A1
21
50
8A
85
15
40
99
51
15
A9
16
66
29
A6
80
19
54
95
12
86
25
61
01
6A
82
66
91
68
10
44
06
66
45
99
45
46
94
66
1A
A6
A2
68
14
21
50
11
92
91
06
19
94
A8
50
94
22
12
56
5A
54
1A
96
A5
09
1A
42
68
9A
18
8A
56
45
95
A0
58
49
10
0A
08
28
88
6A
62
66
68
96
60
45
94
51
11
66
80
98
62
12
1A
04
64
2A
98
49
0A
61
86
15
81
18
14
28
15
49
8A
22
18
A1
20
92
99
58
91
44
64
96
6A
85
61
88
69
00
64
98
16
14
95
94
95
9A
89
62
20
A4
45
95
46
89
A1
82
64
95
21
45
56
15
54
62
80
98
4A
A2
5A
6A
A8
66
9A
68
14
99
24
61
98
94
94
65
2A
1A
04
18
94
59
89
25
22
56
11
A6
10
64
19
A9
69
18
29
98
A8
28
0A
46
58
25
99
56
26
95
66
65
5A
09
66
A8
14
66
98
99
62
28
18
95
90
99
64
01
94
99
69
AA
A1
91
A8
61
56
40
84
AA
A5
40
86
4A
11
81
12
5A
81
1A
40
28
40
94
81
91
60
98
A0
89
61
20
09
42
00
52
10
46
40
04
49
80
41
56
82
61
59
22
56
04
24
44
48
04
24
00
A5
98
69
80
40
81
19
46
80
80
62
08
40
02
69
10
25
16
84
00
50
09
1A
40
08
54
09
42
1A
80
81
89
52
90
00
69
40
89
69
52
56
11
24
61
01
5A
46
62
04
00
5A
91
68
45
69
69
26
64
45
68
1A
20
85
60
90
41
96
98
18
61
10
19
91
11
51
9A
61
90
AA
21
59
A2
55
68
40
64
99
96
99
66
48
A2
49
A5
65
90
90
54
A9
56
94
60
84
95
54
60
A2
40
98
A1
85
25
00
A6
64
A4
65
A9
12
48
98
6A
A9
49
15
02
A2
55
29
10
4A
88
44
98
62
61
58
62
68
51
62
18
00
6A
55
68
49
04
11
85
90
51
00
48
45
51
08
99
44
AA
18
41
09
44
92
99
59
A6
16
16
28
51
68
5A
18
59
AA
55
A6
A4
26
1A
A5
A4
02
AA
A6
A6
A5
64
5A
49
59
A6
29
86
48
12
16
06
90
15
10
19
11
A0
65
A2
58
60
A4
AA
44
90
A6
16
95
A2
A9
28
89
54
59
11
88
26
A2
50
94
A9
A6
59
18
69
AA
18
09
52
59
59
50
50
59
A2
24
60
02
59
06
61
46
00
61
59
A6
5A
49
54
64
AA
58
95
66
42
91
99
5A
A6
68
2A
15
A2
16
91
58
11
80
A2
04
80
65
51
59
AA
59
26
A8
66
50
59
92
26
42
89
22
1A
59
19
28
24
A9
82
94
59
9A
64
A0
82
65
5A
15
61
89
29
19
55
20
95
55
16
89
6A
41
98
A6
81
55
59
66
A6
A0
10
59
62
26
A2
51
A5
59
26
46
A0
8A
09
65
10
48
A6
64
94
86
08
00
10
61
02
60
02
90
61
02
81
04
A0
99
08
A0
28
40
21
41
00
45
80
A6
A6
81
99
19
61
41
09
48
99
18
58
24
45
86
59
19
80
50
49
00
65
49
14
08
08
01
00
00
04
92
44
80
06
14
04
26
25
A6
21
62
66
A8
80
20
86
A6
58
20
95
A6
24
90
00
AA
20
58
96
19
90
24
80
29
15
19
59
90
24
44
46
18
88
50
88
25
81
92
15
59
61
2A
A8
56
26
59
59
86
8A
59
91
16
16
6A
86
0A
A6
59
59
59
54
60
56
69
69
41
18
69
AA
88
04
55
61
98
91
96
61
21
42
54
62
40
89
A4
8A
16
26
89
A0
4A
59
91
5A
69
81
86
69
45
9A
6A
41
86
1A
AA
59
84
66
A8
A6
69
AA
A4
95
82
59
66
24
89
40
85
01
AA
51
09
69
05
21
10
86
58
49
0A
18
00
69
99
51
90
55
92
65
95
5A
A5
51
66
51
9A
98
91
A6
24
21
A0
A0
51
22
A1
55
A5
49
66
22
49
A5
42
82
41
A1
0A
40
A9
64
60
0A
90
99
94
85
61
9A
69
25
69
2A
96
6A
5A
65
A5
65
10
90
68
96
16
24
64
5A
18
4A
25
58
66
52
84
48
58
A0
12
58
6A
5A
5A
A6
A2
22
A5
5A
10
18
84
54
16
99
69
05
49
90
84
05
59
08
09
5A
59
86
A6
64
90
A9
5A
99
12
10
69
08
58
A5
A5
26
69
54
52
A9
59
A4
85
A5
59
1A
A9
66
52
50
24
29
22
69
A2
A5
64
65
89
52
99
41
A9
45
29
95
69
56
85
90
51
59
64
5A
08
52
22
42
42
4A
29
A0
4A
5A
A4
24
6A
59
59
A5
65
A5
18
A6
1A
81
A9
14
00
48
90
59
0A
65
44
44
A4
48
A8
18
18
A1
98
60
A0
5A
A4
10
59
1A
82
A5
26
A5
59
50
58
64
4A
A4
81
A1
68
18
09
84
90
45
46
00
61
12
94
0A
21
16
12
52
4A
1A
28
A4
54
49
80
54
20
44
A0
82
02
51
18
24
85
64
08
A5
44
88
25
80
14
25
50
29
20
58
A5
A9
25
01
A1
42
08
80
18
04
5A
80
10
4A
85
11
86
49
22
55
80
A6
52
40
28
8A
01
69
09
58
5A
86
59
69
1A
4A
19
A0
9A
56
4A
61
26
60
09
04
25
A0
4A
59
1A
4A
A9
4A
A5
58
59
4A
18
A5
95
42
68
04
A6
0A
A5
21
85
40
12
A1
96
24
19
88
A6
99
05
95
69
52
48
65
A6
52
A5
65
99
A5
99
5A
A6
5A
A6
0A
A8
A5
24
85
12
54
26
5A
25
59
69
85
A9
12
28
50
50
80
98
A1
58
A4
69
69
06
22
81
A4
01
11
81
92
22
60
95
11
A1
62
A2
A9
11
69
86
44
54
80
89
51
91
96
65
99
18
51
9A
55
5A
9A
6A
15
84
82
80
56
60
55
16
08
20
A4
82
84
58
19
42
4A
14
88
00
84
A2
90
85
10
56
9A
A4
48
66
41
89
65
0A
61
A5
A2
94
24
A8
41
A9
0A
45
66
02
06
89
5A
9A
96
26
22
A0
65
15
54
45
A8
0A
96
96
54
14
55
54
51
19
5A
14
69
85
6A
4A
99
26
55
41
01
29
48
A6
A9
56
82
A5
95
66
A2
69
28
65
84
51
11
41
6A
A4
28
66
9A
58
84
26
A6
54
A0
18
A8
08
28
9A
95
42
1A
96
88
96
51
52
24
A0
90
66
1A
25
19
42
65
5A
21
42
98
56
59
89
56
56
84
25
48
99
80
54
65
64
28
8A
49
64
04
41
0A
16
09
5A
A5
00
45
02
02
22
80
02
86
14
20
98
11
56
41
10
29
48
52
84
85
46
59
2A
19
99
98
4A
20
21
59
59
81
62
12
85
42
62
24
A5
40
09
48
02
91
46
A5
66
45
10
05
02
21
08
80
82
02
21
A8
09
0A
A1
46
45
61
89
10
41
99
82
88
22
21
42
09
82
91
81
08
8A
0A
56
15
45
81
A0
16
20
89
68
80
58
A0
A6
52
29
80
5A
22
69
A2
96
14
98
24
15
24
56
12
AA
25
62
02
55
54
15
11
A9
89
85
88
51
88
A6
20
84
54
81
8A
16
54
A9
00
A9
1A
59
A0
26
52
58
92
45
05
86
19
29
41
80
20
58
22
A5
59
54
84
12
49
89
89
A5
99
62
50
96
85
12
11
A9
89
5A
A4
95
89
66
8A
96
0A
95
96
22
A9
80
40
08
4A
51
52
22
45
21
80
AA
68
24
A4
0A
49
84
A0
A2
40
1A
A8
5A
29
91
A0
19
52
05
A2
16
A2
A9
10
99
18
29
89
AA
95
89
A6
95
66
88
86
A6
89
12
91
08
84
98
90
01
AA
01
25
42
56
11
59
4A
60
16
95
26
85
6A
94
66
25
09
86
66
88
22
11
A2
66
18
46
2A
26
69
42
89
66
99
AA
66
55
2A
56
96
4A
16
41
91
01
89
62
0A
66
49
29
A2
64
55
12
46
6A
45
A0
A5
98
26
66
45
9A
9A
69
89
11
96
18
66
98
2A
66
26
99
A8
8A
25
62
26
99
8A
99
A9
11
24
46
65
88
0A
89
11
21
56
06
98
88
59
55
59
A4
AA
41
A5
46
55
55
15
46
55
58
A6
24
59
69
64
90
65
60
88
AA
A9
99
22
06
91
91
8A
22
4A
A5
11
91
26
98
48
99
85
8A
10
42
82
56
46
11
A4
86
81
62
08
A2
48
49
A6
50
49
02
61
58
02
48
09
08
49
24
A5
11
42
48
44
09
91
51
64
29
60
02
28
24
0A
60
42
98
95
98
89
A2
62
46
06
29
A6
24
82
12
19
00
50
62
61
89
01
91
10
18
15
94
15
55
02
12
A4
41
16
01
50
15
99
A6
95
11
29
99
14
48
00
95
62
60
64
69
09
44
69
91
41
51
A5
41
98
1A
66
16
54
AA
A4
94
54
9A
2A
11
A2
2A
66
91
94
6A
51
6A
42
2A
90
20
52
19
59
59
56
22
20
22
99
66
99
65
44
A6
0A
95
88
80
66
A8
24
60
94
91
85
40
58
45
10
60
20
84
48
54
92
2A
25
AA
8A
59
98
6A
59
29
A4
A4
66
5A
91
22
99
52
11
99
59
18
A6
49
A9
66
89
62
26
99
09
A4
40
A6
22
44
84
80
A5
A1
A6
59
A6
02
95
91
15
68
06
45
A4
09
69
56
98
AA
59
56
06
A0
22
20
8A
19
2A
16
9A
48
84
58
10
9A
99
25
56
25
A5
16
19
26
09
66
86
42
AA
25
96
20
11
18
55
A0
44
15
89
66
65
55
51
16
A2
29
62
02
09
28
25
A4
24
56
56
26
48
51
19
A9
5A
09
11
65
A2
96
06
50
64
25
88
96
89
52
92
A1
58
40
1A
49
91
66
46
11
AA
A4
16
59
A4
49
86
95
28
55
A2
19
1A
1A
85
56
91
48
62
21
96
99
56
10
51
A6
42
55
06
96
5A
11
A6
29
06
59
A5
21
19
A6
86
26
56
06
58
04
42
95
A1
01
95
18
12
A4
21
6A
14
4A
88
48
96
61
05
44
20
69
55
16
50
96
65
82
12
54
95
62
A6
95
69
1A
A5
59
A8
50
41
18
68
A0
14
69
A4
48
49
06
55
24
22
25
22
0A
21
A4
80
08
58
5A
A4
85
94
96
48
05
A4
10
29
54
00
80
12
1A
90
21
81
95
48
95
21
5A
80
60
92
09
54
21
A0
20
21
48
89
51
15
61
0A
61
89
A4
12
04
28
52
86
9A
54
49
02
58
46
92
98
61
96
11
84
90
54
A8
08
5A
14
54
55
A0
22
4A
08
18
60
02
9A
25
59
50
02
26
62
09
11
88
48
01
25
19
61
02
A4
60
02
92
2A
66
96
54
10
98
24
96
66
11
56
45
29
69
9A
22
20
24
69
26
98
05
52
20
46
21
22
5A
08
42
26
08
44
24
96
19
58
65
19
A6
08
AA
14
A5
24
A1
59
84
29
69
52
0A
51
05
85
98
69
A5
51
61
10
A8
12
A9
1A
96
94
1A
40
8A
28
94
88
65
85
91
08
6A
81
28
22
6A
81
05
89
9A
A1
6A
5A
A5
2A
24
96
12
88
80
88
84
98
84
85
88
86
6A
25
A6
95
18
56
15
85
56
16
95
21
89
84
4A
15
1A
69
95
66
56
AA
55
2A
05
45
15
6A
5A
55
09
2A
A5
A2
51
AA
02
AA
AA
42
56
85
04
98
89
91
55
85
40
28
40
69
45
A5
28
28
6A
11
AA
95
0A
46
2A
8A
05
6A
2A
6A
AA
1A
55
55
55
54
AA
42
9A
56
52
94
A8
9A
99
4A
69
56
92
1A
A1
11
89
15
91
4A
64
56
84
AA
24
9A
89
9A
2A
0A
95
16
11
80
40
6A
96
08
45
85
16
02
69
44
06
8A
59
80
69
85
59
44
95
A4
99
91
A1
29
55
95
22
24
12
01
A8
8A
0A
11
50
68
99
24
50
AA
4A
09
08
04
94
2A
49
56
95
95
6A
89
98
24
95
8A
05
A5
04
55
85
14
02
28
05
01
05
04
09
12
09
48
28
15
04
2A
08
90
00
69
14
18
2A
85
24
15
A9
29
08
0A
45
28
64
94
55
2A
42
22
84
01
18
80
85
A2
6A
A1
1A
54
A9
28
02
0A
64
56
51
90
50
04
58
AA
44
45
14
14
89
8A
04
00
06
05
26
09
2A
44
01
99
11
20
00
55
AA
84
46
54
10
94
AA
22
04
64
10
00
80
55
1A
11
11
94
59
42
01
92
18
66
14
A2
05
19
06
84
A4
49
94
20
46
9A
95
0A
4A
92
62
59
05
24
84
11
86
54
14
55
48
6A
2A
90
58
15
6A
2A
68
09
86
95
54
AA
95
55
66
60
15
25
95
69
08
99
15
44
06
9A
55
85
85
89
9A
89
A5
55
09
10
55
9A
94
A1
8A
85
99
45
1A
55
15
A1
15
9A
84
84
6A
05
68
A9
84
A8
24
80
44
A2
46
86
88
19
25
89
A9
95
94
05
08
89
6A
94
26
04
91
42
05
99
82
8A
64
4A
60
88
61
89
28
29
68
A8
59
49
AA
09
91
09
54
96
A0
54
40
A4
15
22
64
01
56
21
11
19
21
66
66
18
18
69
48
05
59
66
56
16
49
24
56
89
64
82
12
54
99
86
58
A9
8A
A6
64
81
A6
95
85
0A
92
50
49
24
86
A6
26
56
99
A9
A4
09
66
88
46
29
55
88
96
85
19
46
24
20
01
91
56
65
22
A1
A9
58
66
41
68
A1
44
A1
44
A6
0A
94
29
A9
2A
45
A1
94
69
11
69
1A
95
66
46
99
11
66
06
10
16
60
A9
A9
92
49
10
94
65
56
6A
58
58
99
64
82
A6
29
64
A5
09
19
16
21
55
69
40
81
10
09
89
85
64
49
89
89
A5
A6
19
86
A1
96
89
84
98
A9
98
04
24
8A
85
24
04
08
88
09
A5
46
18
1A
16
2A
54
50
A1
52
A0
40
09
92
28
68
88
A6
20
65
90
25
09
10
61
15
46
45
81
05
59
41
00
09
A9
49
44
02
11
05
28
65
A6
49
41
59
65
85
15
44
21
20
2A
14
A9
9A
42
8A
20
8A
49
22
00
09
25
19
26
A6
8A
A8
84
99
04
80
61
09
84
08
20
55
41
41
A2
11
82
41
0A
62
66
85
2A
42
29
46
21
A6
65
60
51
92
42
8A
A2
8A
5A
65
69
69
48
64
A0
94
99
A6
A4
AA
91
55
89
46
94
94
15
58
A4
19
0A
96
86
4A
6A
50
56
66
69
A1
94
A4
65
68
68
82
60
12
A1
58
49
16
54
68
08
58
16
A6
99
86
56
5A
59
1A
9A
12
05
09
54
89
06
59
41
62
69
96
59
59
25
18
A5
41
59
40
88
10
A1
8A
60
22
66
69
41
55
25
46
54
61
12
61
65
4A
AA
50
02
68
82
1A
64
95
6A
18
56
16
25
10
18
A8
8A
90
A6
69
85
82
26
98
60
A5
88
66
91
40
92
65
88
A5
40
8A
51
90
56
50
89
98
A5
A4
A5
26
04
59
05
98
80
64
40
82
58
62
A6
65
A2
AA
15
98
06
68
14
99
64
99
6A
94
56
6A
05
51
01
44
16
69
94
02
96
14
58
86
25
95
62
15
66
88
49
A0
54
98
19
95
56
AA
56
69
91
49
A8
2A
46
51
A0
68
A2
42
68
46
9A
A1
59
56
15
64
28
A6
91
94
A2
22
68
96
92
60
80
99
15
06
94
10
A2
29
99
95
49
95
89
16
12
95
4A
26
9A
4A
66
66
10
40
84
59
89
55
56
A5
95
85
99
44
A1
88
99
44
65
64
81
A1
98
62
94
68
89
98
A1
42
46
A0
A0
42
2A
20
14
08
42
52
94
80
9A
16
1A
41
20
02
61
60
15
69
81
18
41
44
00
56
09
44
00
90
80
66
45
22
68
22
29
46
28
22
50
96
16
98
48
42
81
16
69
66
68
A0
02
02
89
66
48
09
10
19
A0
85
AA
09
88
80
04
81
02
8A
50
24
29
41
11
91
64
21
61
81
80
89
94
91
14
A6
88
62
18
0A
8A
45
50
95
41
24
59
00
11
15
44
62
44
41
1A
06
66
20
98
15
5A
44
9A
A4
00
0A
56
69
AA
99
46
A0
8A
90
9A
0A
26
64
9A
86
56
89
66
08
52
44
14
11
29
42
A0
12
46
A8
5A
82
20
94
02
99
25
A8
2A
90
56
49
A5
59
45
0A
82
69
59
4A
19
A8
80
46
48
A1
A4
88
55
9A
51
81
98
16
99
98
52
61
40
64
91
18
06
01
A2
80
92
8A
26
8A
56
61
02
8A
08
12
50
00
06
12
95
9A
A6
96
02
69
91
58
AA
55
56
01
95
61
69
59
61
61
69
A2
65
45
9A
61
06
18
95
86
61
92
91
4A
01
09
66
84
20
09
52
1A
66
59
68
49
29
56
51
A2
82
20
59
8A
8A
A1
8A
A2
22
92
09
2A
99
19
8A
A2
62
62
A6
01
02
65
16
92
09
8A
46
96
12
82
41
08
49
48
96
69
95
59
52
66
A6
55
61
92
A2
09
AA
80
02
61
4A
8A
62
58
55
A6
60
A6
98
A4
61
AA
AA
8A
45
59
61
86
12
96
09
A2
61
45
15
96
A6
11
68
52
86
65
99
81
9A
08
45
6A
6A
A4
64
A4
55
59
16
29
A8
92
45
2A
AA
84
56
98
5A
6A
51
25
4A
06
14
45
69
86
02
69
59
18
86
AA
A9
98
65
8A
41
85
59
45
69
02
82
89
00
02
45
08
A9
92
0A
82
91
09
11
82
85
29
92
45
28
A8
66
41
18
44
69
91
01
92
49
96
25
51
45
86
06
82
28
62
40
82
11
89
4A
56
86
98
84
86
44
26
91
62
20
6A
92
09
00
94
02
21
94
45
48
85
54
89
45
4A
45
4A
92
40
45
6A
51
90
49
40
82
09
25
41
41
41
22
49
46
42
41
04
A1
59
96
80
6A
6A
16
A9
50
19
95
A4
A1
1A
A9
12
25
46
82
A8
89
98
9A
A6
55
92
92
25
96
89
41
56
81
24
2A
55
49
88
A2
A2
A6
45
64
09
A8
9A
0A
1A
65
11
01
86
19
A2
06
20
A1
6A
89
A2
89
54
14
11
40
A1
89
48
61
25
A6
85
61
58
50
64
59
60
68
24
42
65
96
69
82
69
45
10
89
02
59
59
12
A9
9A
8A
59
41
01
24
41
00
98
00
46
24
86
20
94
02
0A
96
29
99
48
94
66
62
45
A4
54
24
84
29
94
52
16
2A
A5
6A
4A
28
61
8A
82
90
A1
2A
62
88
26
19
99
02
14
10
20
11
08
22
AA
65
11
05
80
98
65
08
52
91
58
A1
45
A2
08
4A
09
98
60
40
A5
08
85
96
A8
A1
61
54
80
98
96
28
90
A0
00
5A
95
11
60
80
A6
55
00
10
22
29
19
60
91
04
16
51
95
8A
A6
55
06
90
25
45
14
9A
A6
22
A6
82
28
0A
59
26
4A
86
16
9A
A0
24
A4
A0
46
64
98
06
84
85
58
95
41
28
25
90
92
24
66
11
19
11
14
40
85
66
A2
62
01
06
A2
21
59
68
59
6A
85
94
59
A6
91
A9
12
60
99
12
10
96
54
81
16
66
4A
95
02
64
26
9A
49
80
69
64
58
99
48
98
08
29
02
05
18
AA
95
02
00
8A
A2
85
40
15
90
44
8A
A1
62
06
A5
46
58
40
55
68
29
50
22
08
A1
65
4A
96
42
20
59
06
05
95
0A
68
14
21
86
08
01
42
81
14
80
08
5A
91
01
40
85
50
81
A2
54
A8
08
08
82
10
A4
51
91
2A
18
62
08
4A
00
00
25
40
9A
06
12
55
94
20
42
10
09
82
11
26
01
94
48
14
88
02
21
49
95
86
50
88
45
26
59
20
65
41
99
98
66
90
45
AA
55
88
86
A9
89
09
22
A5
05
85
16
02
94
58
A4
04
80
A4
92
81
06
45
58
42
89
80
82
94
89
40
AA
01
40
00
82
92
69
49
5A
95
92
52
51
56
89
95
65
59
59
69
64
94
49
49
9A
56
4A
09
4A
48
95
06
96
69
0A
4A
65
89
42
42
04
1A
9A
58
96
51
16
21
92
29
12
14
56
50
90
98
54
65
12
46
AA
5A
55
15
90
96
11
42
94
14
AA
25
96
21
10
02
65
86
52
A9
A1
A8
61
20
28
82
A8
61
42
81
59
AA
A6
56
29
16
69
54
01
68
98
41
9A
89
41
9A
54
A5
51
51
56
56
09
01
59
A2
A8
10
65
A4
58
56
16
56
85
2A
6A
20
92
56
56
A9
96
69
96
6A
1A
56
29
52
52
54
56
18
AA
65
61
A0
96
AA
16
40
56
99
56
65
2A
52
9A
89
4A
16
96
69
45
60
AA
0A
52
91
25
52
51
94
90
9A
55
5A
22
69
A4
94
41
96
45
51
2A
20
2A
55
94
68
AA
16
55
2A
46
25
65
29
28
90
AA
A6
95
02
A1
62
96
61
41
69
16
61
58
54
84
49
1A
15
25
5A
96
1A
6A
69
A8
5A
50
21
69
45
18
56
A9
8A
AA
56
A5
50
28
A8
14
21
94
50
04
64
01
A4
56
21
89
96
02
2A
59
82
44
40
A5
10
01
52
8A
18
28
A8
1A
12
68
A6
28
90
09
20
60
10
54
52
81
01
42
85
14
50
85
20
46
41
56
52
98
42
00
16
55
06
86
60
18
04
24
A1
09
1A
80
52
A4
89
22
64
11
41
0A
28
48
92
21
91
19
88
56
A9
40
54
61
40
98
A6
20
66
22
56
10
42
9A
61
80
64
A5
AA
91
22
A5
91
8A
46
18
92
52
05
96
29
22
6A
A1
86
22
44
96
1A
2A
54
49
A5
A1
21
29
28
A1
56
65
56
42
A5
88
21
55
90
9A
96
A2
A9
9A
14
69
24
90
20
25
62
89
99
66
22
96
40
54
99
95
69
80
16
52
64
A5
41
16
A1
25
56
A6
61
86
28
9A
A9
56
A5
29
29
25
52
82
A8
56
A8
52
55
A8
82
00
42
49
02
55
4A
10
00
60
2A
01
68
18
6A
86
88
A9
69
25
49
29
66
01
96
16
96
69
11
AA
A8
A5
94
85
96
A5
94
16
A2
A6
90
56
50
AA
9A
88
59
94
69
96
68
92
9A
09
98
68
92
86
0A
64
80
14
24
02
52
A9
46
10
25
94
90
81
68
50
50
80
68
08
51
A2
80
45
49
69
92
69
96
59
95
68
65
80
68
65
48
68
49
86
94
64
96
69
92
49
A4
9A
06
4A
42
8A
59
61
24
69
65
42
8A
69
5A
08
A0
65
92
54
25
48
AA
01
1A
56
99
96
86
9A
65
1A
48
6A
52
A0
86
8A
48
69
1A
85
29
54
A0
92
60
9A
95
95
04
61
59
A6
0A
88
A6
A8
52
69
49
61
1A
48
41
62
96
09
59
25
9A
61
88
49
90
90
5A
60
95
92
62
48
69
A2
15
95
45
00
56
82
1A
A1
A4
04
09
29
55
A4
48
45
24
A6
28
46
81
96
40
06
90
09
12
89
19
25
10
86
20
86
18
41
60
91
69
92
80
89
18
5A
05
21
44
95
22
85
08
66
45
60
86
68
66
91
40
12
99
12
69
69
A4
92
5A
25
10
28
59
28
00
AA
A6
58
26
92
24
65
85
40
A4
86
80
99
14
69
9A
04
11
00
98
49
06
68
19
94
95
10
82
55
41
94
58
26
46
94
15
8A
48
45
29
58
42
59
60
65
25
09
A6
6A
69
A6
59
51
9A
AA
91
85
2A
00
11
54
8A
94
49
69
59
10
A5
22
92
4A
61
41
69
24
22
40
69
82
20
14
84
14
41
98
15
91
0A
45
95
95
90
22
44
A5
8A
5A
69
86
96
02
99
55
68
94
15
09
96
68
84
69
59
85
96
90
50
95
92
50
11
62
59
92
11
A2
15
82
A6
2A
20
A4
14
28
16
41
60
99
28
91
49
59
29
46
55
A9
68
55
99
8A
20
6A
89
54
84
64
92
94
94
91
95
95
AA
95
15
68
15
2A
5A
24
65
91
02
91
AA
81
11
4A
A1
4A
20
8A
09
65
40
58
29
18
25
10
12
42
54
15
68
95
84
A0
64
40
29
56
A4
8A
18
2A
4A
6A
99
6A
95
6A
15
29
6A
95
2A
AA
A6
26
44
55
15
25
99
6A
91
68
95
29
5A
82
55
A2
69
1A
55
4A
62
6A
95
AA
61
8A
AA
A8
A4
92
6A
A8
49
12
6A
62
25
95
94
81
20
06
68
21
46
15
81
95
28
6A
91
50
62
2A
89
21
24
25
90
95
51
5A
50
26
6A
94
85
A0
10
20
16
0A
15
61
2A
6A
A9
6A
A0
59
49
08
62
06
99
95
62
6A
11
94
94
65
6A
15
29
99
69
91
62
15
84
11
24
22
18
00
2A
98
98
1A
08
A6
24
08
55
14
62
92
40
0A
01
61
19
65
9A
91
21
99
10
2A
62
91
4A
04
91
81
A8
20
68
18
16
24
40
91
60
60
96
4A
82
48
AA
A0
62
21
04
10
59
04
54
26
28
88
A8
80
04
18
68
11
12
80
50
55
80
69
08
94
81
80
20
11
80
6A
99
20
84
00
11
21
A1
00
69
11
20
85
00
A2
64
80
A8
62
16
58
A5
1A
4A
58
29
09
A6
02
66
6A
0A
56
91
69
AA
9A
68
6A
46
A2
66
55
60
60
95
19
95
95
52
4A
6A
AA
55
12
19
02
28
22
5A
55
41
92
6A
95
49
86
91
56
18
54
9A
1A
84
02
56
29
55
8A
59
95
66
49
1A
26
00
86
A5
94
49
94
98
69
98
25
95
62
55
95
16
15
6A
90
15
A8
91
6A
68
95
26
02
51
46
02
0A
02
AA
64
69
00
81
95
56
22
9A
89
2A
A1
42
41
56
25
61
41
00
90
6A
62
A5
A9
5A
51
99
16
44
95
91
41
9A
14
29
05
26
98
56
44
A5
A6
11
22
50
91
2A
82
09
14
A2
A6
06
96
11
49
16
26
45
81
A2
51
89
64
61
95
84
66
A6
62
54
56
81
98
44
24
66
A9
A2
19
1A
46
A4
62
99
86
56
26
62
62
41
A0
94
69
64
50
A2
95
69
46
44
A6
82
52
82
85
50
68
55
58
96
5A
02
99
18
62
29
66
46
04
50
2A
A2
6A
99
51
51
22
56
AA
21
95
15
99
A4
16
2A
61
01
AA
82
14
06
94
96
50
A9
66
29
68
AA
6A
55
98
82
68
84
54
86
62
98
4A
68
A2
66
AA
91
06
85
40
42
99
0A
66
56
95
11
60
AA
55
A1
AA
A1
A5
05
42
61
61
58
A2
82
59
92
96
86
41
10
61
00
85
42
84
AA
20
86
80
06
91
02
04
46
00
48
09
59
10
10
A6
12
68
8A
19
99
4A
AA
22
4A
A8
46
66
09
40
02
05
82
21
46
02
60
86
22
85
25
40
40
80
22
A0
A2
08
01
26
51
54
41
11
54
80
49
A8
11
15
55
29
88
02
51
24
6A
00
11
60
00
49
12
88
80
A6
11
61
08
89
42
00
81
14
9A
4A
0A
A9
62
26
65
45
14
66
56
6A
A9
1A
85
68
22
9A
99
A9
16
69
58
26
59
25
12
AA
50
95
51
46
A2
A1
94
45
29
84
8A
6A
60
02
51
A5
61
16
91
1A
0A
11
15
49
A4
29
85
02
48
1A
01
45
12
09
99
85
64
09
08
96
60
8A
A8
84
49
6A
54
91
25
48
46
04
95
A8
51
91
46
95
AA
95
62
19
19
60
89
64
41
25
01
18
88
95
11
92
A1
81
15
51
52
16
5A
A9
11
9A
49
5A
22
50
2A
84
A8
65
01
A4
59
21
65
65
66
62
AA
15
06
0A
51
68
95
26
66
91
68
69
0A
99
62
22
04
5A
16
88
54
54
24
8A
25
66
91
1A
2A
80
86
25
A9
05
A8
89
68
58
98
50
14
09
85
68
51
19
99
6A
89
22
19
6A
92
90
6A
55
59
62
1A
80
64
6A
0A
46
99
08
80
A2
05
51
98
4A
0A
81
A1
22
09
9A
99
41
55
19
98
55
42
59
4A
15
51
26
80
51
45
21
66
60
21
9A
21
A1
98
11
22
0A
26
51
91
58
08
A5
1A
22
56
42
10
18
64
29
60
AA
04
1A
6A
22
06
4A
16
19
21
69
59
59
94
12
99
26
26
22
12
55
15
96
06
82
95
66
29
99
98
19
66
24
A6
99
42
45
06
02
46
9A
98
41
4A
82
06
25
45
29
92
99
25
84
91
81
0A
00
0A
40
98
19
80
10
28
86
6A
44
1A
21
66
94
00
08
02
01
10
99
52
52
00
09
14
92
18
61
08
58
21
41
24
A0
12
12
6A
04
88
48
16
45
84
20
25
25
1A
51
04
61
A4
08
6A
09
80
20
1A
02
82
00
65
A0
91
20
80
04
08
84
01
11
AA
95
46
10
55
8A
01
58
AA
41
A5
64
99
69
82
64
65
48
15
01
01
8A
5A
18
6A
1A
19
10
A6
9A
52
25
00
11
46
AA
1A
61
48
6A
24
59
18
58
11
5A
52
AA
09
A9
18
95
21
52
21
24
56
81
98
62
6A
80
08
1A
62
A2
89
8A
46
59
84
18
1A
58
52
8A
A9
45
A9
95
6A
52
40
4A
16
42
10
25
99
00
02
65
20
11
99
A1
92
02
95
01
64
A6
59
22
46
59
66
48
4A
14
64
25
44
2A
A5
46
28
A4
62
14
05
60
56
66
80
26
54
46
46
59
26
61
95
2A
99
88
A9
99
85
AA
9A
99
A8
99
6A
99
89
52
92
66
59
A4
95
64
82
69
52
19
1A
05
98
00
98
44
49
26
9A
9A
98
92
98
64
80
46
28
0A
4A
06
18
56
AA
99
42
66
56
A0
56
91
44
99
45
4A
08
65
44
58
5A
49
91
A9
08
99
52
8A
66
98
44
19
00
19
88
24
28
AA
80
52
21
22
44
2A
91
95
4A
89
18
6A
26
68
5A
54
64
14
81
A6
A0
66
A0
48
A0
4A
89
A8
AA
9A
66
59
81
AA
A8
85
98
4A
29
A6
85
A6
02
09
60
46
A6
10
6A
98
68
65
68
65
54
50
58
88
59
2A
AA
21
64
64
65
89
90
66
60
81
89
90
6A
69
49
10
99
5A
AA
62
09
41
02
A8
00
84
04
68
81
40
91
A9
60
00
9A
81
8A
42
85
21
62
80
84
20
06
05
98
46
68
95
61
6A
81
45
99
80
A5
49
41
64
96
4A
60
82
51
A0
12
80
AA
89
62
42
4A
60
44
65
05
85
40
90
5A
66
29
19
89
98
26
06
90
A1
18
A8
81
AA
26
8A
81
80
0A
11
99
89
66
81
25
91
92
81
50
05
99
40
24
65
50
89
49
22
88
A2
88
6A
98
59
82
2A
20
6A
04
60
65
8A
5A
46
12
A9
69
14
90
99
42
54
1A
26
91
A5
2A
A5
98
92
99
66
66
56
02
88
A6
A9
46
5A
66
64
92
A1
68
40
80
09
51
85
46
28
A0
4A
4A
98
02
90
A6
42
52
59
8A
91
42
62
69
A5
AA
81
95
90
A6
40
26
48
66
98
54
A4
22
99
89
6A
94
81
64
A6
66
66
89
06
68
94
1A
40
6A
60
58
49
20
20
8A
5A
61
49
50
80
96
65
0A
65
85
89
91
45
69
82
69
99
84
69
29
12
96
90
54
96
04
6A
8A
54
06
86
5A
A4
94
59
96
29
04
28
44
50
09
14
91
1A
11
99
8A
59
08
28
5A
89
86
58
51
89
50
5A
41
15
61
56
58
98
59
09
58
90
68
69
22
26
68
55
A9
55
49
18
56
69
68
49
0A
18
15
16
46
94
2A
42
2A
94
00
54
50
A6
26
59
48
56
95
9A
45
94
64
64
06
89
4A
91
18
6A
84
65
0A
26
59
68
94
16
28
5A
A9
6A
96
09
95
15
46
A9
68
96
A6
28
60
24
48
4A
59
45
54
26
25
65
10
24
54
96
29
24
58
06
AA
A4
89
09
18
A6
8A
2A
9A
69
68
52
99
A5
A6
60
49
15
96
98
21
0A
88
0A
12
5A
96
A9
84
54
A8
40
48
20
44
68
44
04
04
16
69
61
51
A0
11
40
46
80
00
A8
00
20
12
94
00
92
11
65
11
09
82
29
86
14
80
00
51
12
A2
98
91
28
46
96
48
94
4A
04
2A
09
60
6A
00
20
40
2A
44
8A
58
A8
60
94
48
15
21
10
56
A5
52
06
96
00
88
22
AA
69
16
20
15
16
59
84
80
14
94
15
49
15
41
84
02
AA
20
91
28
92
14
22
08
94
60
25
54
9A
80
54
89
29
09
62
25
88
A0
55
91
65
56
69
09
09
1A
69
88
56
06
00
15
95
06
69
6A
69
24
95
12
15
4A
41
0A
69
94
14
91
29
92
20
52
91
46
84
46
66
01
26
AA
94
50
16
8A
91
58
A2
69
64
25
A6
AA
0A
51
50
66
2A
69
16
49
85
69
95
15
19
96
18
9A
5A
A9
55
81
96
16
88
11
0A
10
15
85
85
A9
48
02
12
09
86
48
8A
86
28
55
12
A9
A6
01
84
9A
88
65
90
62
22
A4
9A
66
16
48
48
5A
44
49
AA
9A
68
AA
6A
A0
65
95
86
88
94
65
8A
62
69
64
15
19
28
44
84
56
68
5A
26
40
A4
68
21
91
48
4A
20
AA
11
54
82
42
85
95
21
5A
80
14
02
15
61
21
99
85
09
92
96
5A
84
85
11
06
55
08
1A
6A
46
64
26
41
82
22
A5
99
54
91
69
50
28
98
96
09
A0
25
A0
48
6A
10
24
96
04
88
24
52
28
55
16
A8
6A
81
A5
A0
A6
95
A6
09
48
6A
86
65
4A
6A
04
05
88
19
A5
21
1A
62
01
10
98
26
96
61
50
5A
11
84
46
60
A4
61
66
A6
52
A6
21
46
95
90
8A
20
90
1A
84
82
69
60
26
A4
64
99
42
9A
16
46
16
68
41
98
88
02
A1
00
02
82
4A
25
4A
25
49
24
0A
46
04
05
11
81
12
29
95
A5
46
40
58
14
10
80
24
82
00
42
0A
4A
22
A8
A2
A0
21
0A
84
40
A2
81
02
21
A9
40
04
02
82
00
82
80
A1
65
08
A9
16
24
02
58
58
09
84
41
15
42
01
26
01
26
A0
50
81
42
64
52
00
02
5A
00
60
29
6A
A4
28
91
60
00
02
64
24
0A
A9
66
4A
02
52
21
24
55
84
64
05
8A
96
92
68
A2
61
12
21
5A
62
6A
82
26
95
62
11
94
92
98
A2
58
29
59
56
15
45
85
98
A0
18
A1
90
80
A2
14
56
41
94
25
42
50
19
58
A0
A1
A2
88
25
52
5A
92
52
21
25
60
24
A5
50
1A
6A
60
95
65
68
88
86
86
08
89
5A
40
1A
05
49
6A
90
A8
55
84
91
8A
95
51
41
94
88
69
96
52
46
62
04
48
82
92
51
46
2A
0A
24
00
04
42
05
15
10
6A
29
66
44
A4
60
51
90
19
60
02
22
AA
AA
98
09
2A
A0
05
62
59
5A
95
2A
A2
54
88
08
92
9A
45
A0
99
82
54
18
25
0A
10
29
50
42
89
0A
16
45
44
91
81
68
62
61
41
59
10
12
A1
58
60
40
95
A8
54
22
05
60
19
95
15
44
60
55
45
29
86
95
89
8A
00
A2
A5
A9
48
19
55
AA
82
66
10
A6
A6
55
50
16
59
45
4A
19
46
05
90
2A
55
81
A1
15
69
51
84
99
AA
04
92
12
A5
58
AA
8A
20
44
A1
80
96
45
55
16
61
65
19
8A
55
22
4A
25
89
54
66
69
65
66
98
62
91
5A
62
1A
46
26
69
A5
92
89
16
92
54
26
89
15
96
8A
A8
68
85
51
68
58
96
45
A2
54
A1
A2
00
15
00
AA
58
44
08
A2
68
A6
45
91
61
82
49
05
58
90
12
0A
98
86
09
A8
A6
10
A4
60
80
55
61
14
61
A1
A6
95
06
49
0A
60
52
15
12
55
55
AA
16
01
42
21
41
54
A5
12
0A
86
94
95
58
14
02
A2
A4
40
24
49
98
19
42
99
0A
A0
85
68
04
84
24
28
A8
05
44
08
02
A8
80
2A
51
25
90
22
60
45
51
1A
81
00
8A
09
45
98
64
48
4A
69
5A
92
89
55
02
85
49
22
25
18
