82
19
45
A8
19
0A
95
14
15
90
09
62
8A
92
51
6A
51
94
91
00
00
81
04
1A
92
15
06
92
A1
A6
52
6A
99
25
98
88
19
56
01
59
16
65
04
96
A5
48
02
A1
99
52
84
22
6A
1A
92
90
A6
28
48
68
58
65
A4
4A
02
20
18
60
20
85
12
50
59
21
15
A8
84
14
28
06
25
81
29
65
59
49
46
06
88
14
9A
A5
9A
08
62
69
94
08
95
08
82
54
8A
91
90
12
86
50
91
96
08
48
A9
96
98
45
45
95
61
46
A2
95
49
44
89
A6
9A
A6
25
A9
5A
29
19
46
56
A2
A4
02
65
AA
50
89
A2
14
45
21
90
41
05
86
01
90
20
96
02
6A
65
45
69
A8
55
21
95
99
62
40
90
96
A8
50
29
A2
A5
6A
A0
A8
84
A4
2A
49
6A
40
66
60
A1
81
10
04
A1
21
99
58
46
A9
56
41
55
6A
25
45
4A
65
04
46
22
25
4A
12
A9
21
44
1A
25
61
62
62
4A
A1
12
44
82
90
44
61
A2
80
29
14
A5
11
8A
5A
99
62
A8
19
69
26
9A
00
66
91
6A
98
84
29
55
59
05
98
12
66
51
06
A6
21
26
51
62
41
82
25
A0
52
96
AA
09
61
58
A9
22
5A
9A
01
A9
81
91
41
46
29
A1
52
98
96
90
96
04
62
04
91
80
AA
89
40
09
45
18
64
40
96
51
05
94
84
88
99
44
54
22
14
86
26
40
14
20
A6
A2
50
62
82
82
A2
84
94
A6
22
25
29
46
62
26
94
62
5A
00
94
46
90
60
82
02
10
99
60
A2
59
8A
AA
09
0A
06
81
40
42
59
20
58
22
60
A4
92
A8
62
4A
00
44
09
69
54
65
A2
16
40
A0
94
68
45
94
18
19
59
98
09
9A
12
0A
15
56
16
92
92
82
05
01
40
16
14
A9
88
59
59
1A
08
69
28
96
A6
61
41
61
AA
50
6A
42
50
96
AA
40
A9
88
45
51
48
12
52
50
41
56
94
21
09
90
9A
21
52
29
05
2A
A2
6A
01
6A
14
46
51
95
18
0A
95
98
98
41
42
80
48
15
24
26
59
52
0A
56
44
92
41
25
68
11
69
09
2A
19
64
99
A5
96
60
68
85
55
12
51
A2
54
44
18
25
69
05
A9
84
18
15
A5
68
41
86
68
64
6A
85
66
49
95
91
98
02
80
A2
86
A8
96
21
2A
80
05
59
18
52
69
91
16
96
09
5A
44
86
09
91
66
12
52
44
24
11
02
55
45
18
58
41
AA
80
85
59
26
01
02
59
89
20
21
15
68
06
85
6A
6A
4A
56
62
00
44
00
12
49
62
14
54
55
A0
2A
95
A9
15
29

