96
69
A8
A5
86
A4
99
66
A5
52
02
55
02
56
42
96
A2
51
A2
52
6A
65
59
56
64
04
19
15
86
A1
48
90
90
9A
99
15
46
28
88
66
82
9A
02
25
16
60
94
21
A8
82
A0
A8
50
98
92
99
92
49
21
A9
49
69
1A
51
66
2A
6A
6A
51
29
4A
6A
89
25
8A
A4
1A
19
12
A6
51
64
66
2A
A9
68
61
51
58
9A
9A
A6
24
19
56
40
16
56
05
1A
68
54
1A
55
9A
65
05
52
91
10
45
15
65
05
62
95
50
81
20
69
A8
61
19
12
66
86
9A
55
A5
55
55
55
66
88
12
46
64
64
16
61
58
56
A5
66
96
61
40
46
99
98
6A
44
AA
00
91
90
40
49
91
12
98
94
59
11
66
68
01
02
A9
68
6A
4A
86
60
9A
21
09
95
54
12
12
59
65
81
A1
25
95
94
A5
92
16
A2
18
56
09
41
56
4A
69
86
AA
84
A6
18
59
21
84
9A
86
86
69
09
84
16
54
A4
56
69
02
56
58
A9
02
84
0A
A9
A5
21
8A
55
1A
61
A0
AA
65
A8
2A
26
A2
52
91
5A
95
40
A8
90
A9
A4
5A
91
AA
A0
48
98
9A
15
96
66
A6
45
5A
81
82
98
82
A6
92
1A
0A
89
56
A5
22
18
96
A4
86
25
49
96
90
5A
99
5A
04
15
28
84
96
AA
48
21
51
28
68
49
86
49
96
A5
98
86
A5
44
2A
91
59
A6
1A
A9
95
54
18
28
54
5A
69
A9
54
84
46
82
65
08
26
24
84
A8
29
59
52
51
9A
55
16
26
0A
21
65
98
96
98
89
21
95
1A
58
A9
99
18
86
8A
09
2A
49
65
A4
65
05
51
5A
A1
26
09
64
1A
99
62
4A
69
A6
95
29
18
59
82
68
56
86
22
A8
6A
21
91
05
15
8A
88
19
A4
0A
A9
49
59
40
26
95
A5
A2
61
26
94
82
84
68
44
2A
A5
AA
1A
05
A5
49
58
99
A1
1A
6A
66
12
99
26
10
98
12
4A
91
A1
A6
88
88
A1
64
19
A2
A6
AA
20
26
91
42
85
58
A5
59
22
42
06
06
54
14
62
AA
55
1A
58
51
6A
52
8A
96
26
46
AA
15
4A
A5
4A
62
A6
A6
55
86
40
A0
A4
96
59
28
14
29
A0
A5
69
9A
68
96
A0
65
00
59
66
A2
89
58
4A
80
88
5A
00
16
4A
81
84
08
86
A2
A5
64
19
51
A6
29
58
98
59
41
A1
95
69
0A
98
A9
1A
A6
66
46
28
01
21
16
05
69
11
6A
90
11
51
96
04
19
55
58
42
91
52
16
15
A8
A8
56
80
2A
9A
68
54
69
92
86
09
94
14
54
50
41
19
66
0A
52
25
6A
99
96
A1
AA
21
48
66
41
A6
2A
A2
42
91
28
94
1A
1A
86
25
65
41
6A
A5
64
91
0A
94
45
96
AA
A5
2A
96
A2
55
21
05
98
55
25
25
21
89
66
0A
05
52
84
54
92
5A
91
50
44
A1
58
29
68
81
04
52
55
A1
A6
26
28
9A
18
81
69
94
49
96
96
A5
59
92
AA
0A
8A
A1
51
49
AA
61
59
91
16
60
10
15
01
A2
99
44
18
6A
60
96
82
50
02
6A
05
24
84
9A
52
64
96
14
82
69
92
56
2A
00
42
56
61
85
88
26
66
51
46
66
5A
26
49
98
5A
A5
22
92
66
90
80
62
28
00
94
14
59
26
56
69
65
0A
5A
69
06
8A
64
50
99
48
46
26
A4
A9
A8
95
26
AA
9A
A6
69
A5
21
2A
62
6A
54
A5
69
90
9A
59
52
09
5A
2A
A1
69
A6
55
A1
81
66
12
06
90
26
69
1A
82
18
85
66
86
29
61
69
02
99
96
89
A9
52
94
56
99
29
62
60
1A
26
56
95
A5
99
A5
29
AA
96
50
61
54
60
66
96
69
08
52
20
59
11
AA
54
95
58
66
66
62
56
A9
69
94
92
05
66
2A
94
95
51
98
A1
11
2A
96
51
1A
A6
96
69
A5
10
51
A9
96
A8
6A
91
09
55
02
9A
6A
68
AA
86
54
68
42
24
14
59
4A
11
6A
42
16
A2
A2
45
A1
5A
18
5A
89
66
65
A9
61
96
4A
26
99
08
A2
89
5A
18
64
AA
86
9A
04
06
91
0A
45
42
62
81
50
06
82
AA
6A
05
88
AA
95
59
14
42
68
11
49
24
28
9A
8A
58
59
8A
99
55
91
58
65
92
90
65
94
64
2A
11
91
19
18
A8
99
A5
A5
29
46
A4
46
61
06
45
19
4A
45
A2
A6
42
66
64
95
98
8A
66
48
59
41
66
65
64
89
92
51
62
04
49
2A
05
A0
96
42
A1
5A
2A
48
A2
9A
66
62
64
01
95
09
11
AA
A6
0A
61
92
96
A2
A1
16
AA
01
21
15
62
59
49
64
A9
54
18
86
95
81
AA
61
68
24
85
16
A6
69
A2
9A
40
25
A6
A6
A8
62
95
95
59
4A
55
28
09
45
05
A8
A4
61
59
52
19
91
A0
86
4A
8A
51
96
22
51
95
80
A5
41
55
15
A9
A6
51
96
52
A5
55
06
45
60
91
26
6A
66
51
04
08
89
21
54
4A
61
81
04
68
54
9A
9A
52
91
24
19
9A
01
02
9A
28
A9
46
4A
A1
45
A0
65
5A
48
84
15
62
26
A1
49
69
80
2A
54
4A
A9
40
02
55
55
2A
28
1A
45
58
8A
58
82
94
A1
56
55
92
04
1A
AA
A9
98
54
A8
18
49
59
69
99
22
91
51
89
66
05
51
59
6A
96
A5
82
62
56
52
16
16
19
68
AA
12
81
25
21
06
58
26
56
66
55
86
A9
55
66
5A
96
5A
9A
A4
19
4A
95
14
A8
02
A9
28
86
62
A2
02
21
62
95
55
60
0A
25
A4
56
9A
46
6A
14
05
61
55
9A
64
A6
15
46
A8
20
4A
19
54
54
06
9A
02
AA
21
98
16
A2
58
A0
05
14
59
56
86
98
16
5A
A8
51
94
09
55
64
65
9A
58
95
98
52
69
16
80
59
A6
A4
55
54
29
A9
96
59
65
48
8A
5A
A4
56
52
AA
84
86
5A
2A
82
09
96
48
91
55
91
88
95
29
58
95
88
1A
42
55
54
AA
45
4A
92
60
45
65
16
52
95
A2
44
A1
08
99
60
A1
A2
86
20
65
59
A2
51
52
66
02
49
86
45
08
A1
16
90
60
20
8A
11
8A
0A
55
51
46
6A
46
18
0A
A1
A9
A1
18
1A
65
96
5A
A6
54
5A
11
88
56
92
98
A6
92
A5
99
84
10
9A
61
A8
51
55
26
50
98
19
9A
95
51
10
55
28
66
A0
04
20
2A
5A
8A
81
09
40
60
41
10
69
60
81
94
09
A1
26
51
12
50
4A
01
20
26
92
95
28
86
6A
60
46
65
16
94
20
68
65
42
91
A4
25
0A
50
06
81
66
19
94
66
A6
61
52
49
88
58
92
99
85
9A
29
05
49
45
A9
29
61
9A
91
A2
24
65
46
59
A6
62
56
26
54
66
14
54
46
80
56
55
56
00
95
6A
88
0A
66
56
26
91
14
96
11
15
A2
80
52
6A
25
A8
05
99
62
68
0A
A5
1A
92
58
48
66
9A
A2
95
A0
66
90
22
91
95
12
A6
A6
A4
20
48
12
5A
AA
99
61
06
9A
4A
62
02
58
50
6A
6A
46
64
4A
A6
84
19
66
9A
A2
05
A2
88
95
12
98
48
4A
66
A9
85
21
94
11
59
18
26
26
45
65
46
99
95
21
82
54
99
45
49
2A
9A
96
19
55
A6
64
01
5A
46
59
16
54
48
61
41
40
42
AA
29
25
26
A4
65
2A
A4
91
21
00
56
25
85
85
6A
95
89
68
66
A1
A8
95
56
26
62
21
04
8A
51
82
64
41
41
11
28
A4
84
55
2A
89
68
48
6A
56
26
64
29
94
9A
98
28
4A
62
A0
86
55
A9
21
89
29
91
89
05
86
56
15
24
A1
59
A2
68
29
61
6A
62
68
16
90
48
95
4A
54
59
89
88
2A
58
98
28
95
6A
80
A9
54
49
11
2A
04
49
6A
55
24
24
A8
A6
A5
A9
95
85
9A
12
96
62
69
68
5A
18
64
5A
49
A6
48
16
68
86
88
44
99
A2
45
00
A0
56
04
5A
19
92
69
56
15
82
15
82
10
82
89
09
54
16
44
06
62
05
95
A9
95
60
2A
15
5A
91
6A
29
6A
52
48
66
28
9A
81
0A
81
06
21
58
16
16
94
2A
89
55
62
59
92
4A
92
18
89
8A
89
82
9A
4A
28
A8
96
00
91
59
18
46
96
42
A0
89
44
9A
55
A6
88
60
19
2A
99
A2
A5
52
58
A2
54
5A
80
44
2A
98
A6
08
65
54
64
A6
A0
66
51
1A
00
06
21
AA
55
A0
54
46
26
5A
21
41
25
46
16
56
A5
9A
42
55
24
90
A2
91
06
60
A5
05
90
A0
22
21
95
A4
56
A9
A9
06
85
49
81
64
96
AA
91
29
1A
50
A1
51
50
69
66
19
AA
A9
85
46
95
99
A0
44
2A
62
2A
24
46
98
99
55
55
89
45
10
84
50
29
88
05
8A
4A
AA
69
91
19
29
44
99
94
25
98
9A
41
4A
15
59
1A
A2
91
49
A8
A2
A8
25
01
90
69
19
55
21
00
99
60
86
6A
A4
91
45
29
52
A2
59
16
91
62
58
66
26
28
21
96
89
59
44
05
69
81
66
45
69
60
56
65
59
A9
42
95
40
89
54
96
65
66
55
4A
45
66
84
69
A6
16
64
46
99
54
95
09
45
05
85
19
48
91
42
6A
41
50
68
48
29
55
69
48
A2
9A
59
98
A8
22
A4
00
81
66
16
48
66
A5
A6
69
9A
45
68
96
56
96
50
8A
5A
94
88
A5
69
92
00
86
59
45
44
9A
89
A5
15
20
28
69
60
29
A6
90
6A
A5
01
69
29
69
06
A0
16
96
05
52
2A
56
64
2A
56
96
00
9A
A4
20
22
52
55
42
06
95
82
26
55
AA
59
62
41
68
09
66
16
18
69
62
AA
19
A6
19
12
5A
66
88
61
90
69
90
81
61
89
96
04
16
59
25
0A
82
A0
90
52
61
86
58
26
90
05
46
A9
96
6A
65
5A
A2
44
98
A2
44
06
15
25
5A
A0
64
89
60
AA
88
05
59
62
49
88
A9
24
8A
A9
A5
40
64
22
29
89
0A
A0
98
56
A0
19
1A
46
95
62
48
68
85
A6
14
25
82
A4
68
98
88
81
24
5A
66
01
41
65
60
A8
89
A8
52
65
9A
41
52
A9
94
14
2A
26
01
91
AA
92
5A
A5
A4
61
09
51
24
9A
5A
A5
12
8A
82
40
9A
1A
01
4A
4A
20
26
8A
84
4A
A2
A9
60
06
6A
96
86
8A
11
92
AA
A1
A9
21
42
4A
25
24
A9
54
5A
00
52
8A
5A
61
48
54
95
52
5A
A1
66
96
A6
AA
95
A4
44
A5
98
18
62
50
65
AA
5A
4A
49
04
45
56
94
06
62
41
2A
8A
45
41
11
49
A0
15
91
61
56
98
8A
69
A6
89
82
64
49
16
68
4A
9A
22

