0A
22
65
12
01
A9
21
5A
51
45
05
95
9A
88
59
89
00
96
09
22
A5
96
25
8A
56
81
A2
41
5A
A1
85
A2
66
14
25
91
12
91
28
89
56
25
28
16
59
91
24
85
92
A1
A5
00
94
4A
94
10
09
19
60
51
91
66
65
1A
4A
62
15
29
1A
92
29
51
94
95
05
99
6A
91
86
6A
50
15
A9
59
61
08
A1
20
90
46
26
4A
86
59
49
69
9A
A8
AA
64
4A
05
56
51
A6
29
41
99
15
A9
56
A5
44
06
20
10
1A
91
41
24
6A
44
45
5A
66
95
A5
29
54
60
61
16
6A
69
92
99
54
A6
21
46
84
49
61
1A
8A
95
54
40
19
95
A1
08
86
98
95
2A
AA
69
8A
55
28
29
A5
AA
26
06
48
28
95
4A
12
99
64
2A
A9
5A
2A
99
66
16
19
65
25
A2
11
84
65
15
5A
25
08
44
A9
82
25
52
82
56
92
48
94
91
65
50
5A
61
6A
A0
5A
56
15
65
59
56
91
58
65
A6
45
44
54
51
2A
11
59
60
89
60
82
25
A6
65
56
02
92
A8
55
4A
96
44
69
92
62
60
62
61
60
26
14
96
0A
66
51
42
4A
64
19
55
59
5A
45
88
62
2A
21
85
02
64
2A
68
64
0A
A6
60
A5
44
9A
46
06
98
08
6A
69
50
AA
8A
98
55
90
54
50
55
58
49
59
06
84
A6
95
86
16
A8
A2
4A
94
05
68
62
A0
99
50
14
55
A0
06
6A
48
94
02
05
94
59
45
90
45
84
89
68
26
89
05
08
91
5A
52
49
81
69
08
22
69
15
25
2A
58
8A
09
A9
2A
12
59
56
60
A6
20
25
46
91
25
94
01
81
A9
12
41
16
66
A2
56
1A
68
69
09
11
09
41
92
00
21
05
56
10
46
49
18
14
61
59
61
56
AA
9A
92
01
98
1A
04
51
94
25
51
86
29
08
4A
A4
96
A2
42
96
15
81
80
29
A1
A1
94
52
2A
A1
05
28
64
6A
8A
5A
60
58
01
41
22
4A
08
A0
1A
61
52
99
19
59
29
84
1A
0A
4A
00
65
61
99
69
42
66
05
A9
A8
91
4A
52
4A
44
19
25
98
50
84
54
AA
88
51
94
8A
98
65
65
A6
05
66
A9
28
85
86
25
44
10
85
98
01
1A
26
85
54
AA
A8
66
62
69
16
16
82
86
40
55
48
98
56
5A
04
A2
6A
A1
40
56
A4
58
90
98
99
61
55
4A
54
54
62
24
65
56
65
62
0A
65
59
60
A5
45
11
14
AA
8A
65
49
64
89
90
9A
A4
90
9A
68
A1
48
66
50
19
A5
A5
85
00
A6
88
15
55
46
21
54
25
85
54
81
98
99
09
12
98
90
59
29
15
88
1A
09
24
61
89
95
06
59
00
04
92
A0
59
16
48
99
55
66
69
26
24
A9
66
56
A8
22
29
0A
A1
25
89
86
16
A2
49
96
28
96
50
48
4A
4A
29
A6
54
6A
24
61
19
61
29
A8
A5
9A
44
04
85
89
28
28
56
81
16
55
59
A6
41
92
26
A9
49
65
20
99
19
88
24
92
10
41
64
96
61
88
85
59
80
58
94
80
21
42
85
59
00
26
28
1A
48
12
95
65
4A
58
50
62
86
56
95
8A
98
11
9A
66
06
64
55
08
A9
05
09
55
54
62
28
5A
0A
66
64
65
46
46
A4
56
20
80
6A
26
62
44
4A
85
1A
4A
11
AA
66
26
42
46
49
A1
94
25
82
65
44
60
46
A8
94
15
86
94
12
55
90
94
19
62
08
A6
AA
A6
AA
96
25
25
09
9A
64
88
0A
A6
49
52
AA
A6
A9
95
25
66
6A
55
55
25
82
5A
96
54
84
9A
49
28
AA
59
0A
A9
05
91
65
40
58
90
98
62
96
92
56
55
AA
51
28
91
26
80
1A
54
56
A4
96
99
90
62
5A
2A
50
96
48
55
94
25
55
62
25
41
A5
12
A9
81
28
15
41
98
21
98
60
94
8A
4A
94
9A
65
55
14
64
85
95
1A
A2
46
0A
88
56
95
16
A6
00
89
86
08
4A
54
19
62
82
46
61
11
06
26
41
99
19
A9
54
9A
52
A8
05
95
6A
55
56
92
A8
2A
19
A9
04
A6
1A
15
61
08
1A
62
0A
59
16
28
69
9A
98
9A
22
81
56
89
A4
85
A9
98
06
10
8A
52
6A
29
92
85
86
52
4A
9A
81
46
49
A9
A8
96
58
50
A1
95
2A
28
A2
9A
90
91
42
85
96
19
2A
52
5A
84
92
51
51
12
0A
80
20
5A
6A
9A
A9
95
26
2A
59
2A
21
65
51
69
82
2A
96
5A
8A
55
96
14
66
95
A6
49
62
95
61
94
A5
1A
90
85
54
86
04
25
45
58
46
4A
2A
64
69
44
6A
6A
19
42
96
51
59
0A
46
40
62
2A
A6
22
21
95
29
16
55
AA
99
88
A2
89
9A
88
A9
12
61
65
A0
90
52
48
59
86
A1
20
68
26
59
A5
94
69
46
1A
58
21
59
A9
29
68
94
65
A8
0A
44
41
4A
54
48
16
54
65
52
86
59
51
45
94
46
94
A4
45
45
A8
9A
68
21
A8
22
96
8A
95
A6
60
88
2A
A6
2A
86
A8
A6
44
91
91
08
05
64
18
95
A6
12
52
A0
59
86
41
58
05
98
2A
0A
1A
19
60
AA
20
58
86
15
54
96
45
01
85
66
49
18
12
A9
61
22
26
22
25
8A
65
65
69
A6
A5
66
2A
66
18
51
16
61
4A
96
24
A6
61
A0
55
41
04
6A
52
25
90
92
66
62
55
2A
A6
A5
6A
15
AA
56
A4
9A
19
2A
61
96
48
01
99
81
A5
44
20
56
90
A8
11
19
0A
29
69
09
0A
52
99
69
24
8A
28
99
9A
85
56
91
40
56
A4
11
A8
42
A9
92
16
89
14
91
5A
52
11
92
AA
95
5A
06
96
24
A5
86
98
6A
88
20
69
51
82
61
81
80
10
55
51
85
58
49
55
91
52
68
90
59
48
AA
64
68
06
A8
51
24
60
99
45
4A
5A
6A
64
95
62
69
04
59
11
68
A9
A0
46
19
90
A4
9A
88
A2
96
62
45
98
A8
A2
15
62
69
85
9A
40
15
08
86
0A
A9
5A
A9
A5
90
89
28
15
61
8A
92
50
90
55
A2
19
65
94
96
AA
88
62
A6
A9
4A
81
52
98
18
20
AA
29
8A
12
52
29
80
AA
62
84
04
96
54
54
2A
50
29
15
A6
2A
96
86
09
9A
06
65
85
28
A5
95
26
96
68
9A
82
80
A8
19
66
95
91
24
50
68
06
49
AA
81
15
95
50
90
06
52
82
12
96
22
81
82
02
92
12
19
41
62
56
52
51
28
66
8A
98
90
1A
0A
55
46
A2
01
91
86
52
1A
18
91
62
09
0A
24
55
56
A6
66
95
54
26
62
95
62
59
68
A2
81
02
99
29
16
AA
00
04
24
09
00
09
50
08
21
00
26
14
24
A8
28
18
26
28
28
24
20
28
14
A8
16
14
14
28
02
14
04
55
24
18
24
24
00
08
14
10
A5
99
28
06
28
28
24
24
A5
18
10
2A
26
A8
1A
22
18
04
28
20
68
00
09
19
28
26
04
00
29
08
A8
09
84
02
08
4A
18
08
66
00
A4
24
24
10
09
28
62
99
24
14
08
28
A4
02
02
80
A0
68
86
11
1A
69
81
28
9A
58
44
99
21
45
19
09
56
41
85
40
6A
92
20
66
96
26
10
2A
69
11
A0
80
48
45
66
29
09
80
14
45
54
4A
64
8A
69
84
45
95
84
95
24
86
65
A5
0A
19
46
25
11
21
6A
26
49
86
59
41
5A
15
1A
4A
46
92
55
61
92
29
90
A9
A5
6A
46
1A
68
88
21
5A
11
56
64
40
81
5A
16
92
65
64
26
69
24
86
A1
14
68
2A
04
29
64
69
AA
45
02
84
A5
68
56
A2
86
16
9A
4A
8A
06
91
86
14
AA
88
21
85
4A
25
96
86
66
06
55
62
64
94
06
04
92
A8
A8
4A
24
48
14
21
A4
94
66
26
15
A0
61
9A
11
40
19
99
19
2A
5A
16
99
29
1A
19
59
61
20
18
26
19
29
44
19
60
6A
88
52
62
46
A9
95
62
16
A4
96
90
11
55
58
58
65
60
20
A0
A0
52
40
80
92
51
41
10
10
50
90
91
A1
10
22
42
20
41
92
46
02
51
62
52
A4
90
A2
21
66
98
50
80
42
80
60
91
91
90
60
A0
68
41
60
82
A2
59
A2
82
50
51
51
92
00
80
20
1A
60
62
20
80
45
A2
82
58
90
92
08
59
45
91
40
A8
24
A0
61
51
12
92
80
4A
61
55
98
51
50
90
68
40
62
51
6A
8A
52
99
11
56
A1
29
A2
64
21
8A
15
95
0A
0A
66
A8
86
62
90
A9
1A
96
25
85
25
21
18
84
06
A9
A9
42
99
A2
46
61
44
62
A4
52
54
58
59
66
A9
61
AA
51
16
46
54
60
95
A5
94
44
85
85
69
99
A8
56
9A
A5
88
54
64
21
99
A5
0A
48
88
05
50
85
90
40
15
88
81
A5
A1
6A
26
68
64
95
90
94
A0
89
A8
55
54
95
85
06
16
06
46
16
6A
11
90
85
24
18
98
60
26
55
80
9A
46
26
59
96
51
45
62
95
65
1A
09
01
21
94
84
11
56
A8
50
46
1A
14
68
86
2A
46
19
89
A9
A0
65
51
62
49
90
56
06
69
59
8A
51
9A
A9
5A
56
9A
A5
69
5A
A9
92
40
54
19
61
A4
91
45
24
65
AA
55
90
86
16
25
00
69
54
49
A0
68
A5
11
95
69
AA
55
91
18
28
62
19
49
8A
11
42
06
A6
26
24
59
A5
01
4A
99
91
A5
1A
11
59
09
85
15
25
50
09
40
86
86
00
92
50
22
68
96
56
4A
62
40
95
11
41
89
10
49
26
19
55
64
95
41
84
65
A4
A5
14
26
46
99
16
A1
A1
80
9A
91
66
96
65
68
0A
50
29
60
90
11
96
46
96
85
6A
2A
41
28
48
A5
66
82
61
22
08
21
4A
61
54
51
01
18
46
66
AA
98
A5
A6
68
A1
54
65
85
8A
4A
2A
A6
8A
80
9A
91
55
05
21
51
21
96
A9
98
9A
05
52
55
84
49
16
29
56
45
02
12
94
2A
A9
64
12
92
02
04
15
56
85
94
09
69
14
95
91
96
11
1A
12
25
9A
65
92
00
2A
2A
A1
A6
41
68
5A
05
59
58
56
85
90
10
45
54
14
45
12
90
52
26
15
1A
09
54
62
45
02
A5
24
55
25
64
28
09
A5
91
94
56
96
48
96
14
58
6A
A4
99
A5
29
56
91
95
41
25
6A
9A
A8
49
14
96
10
28
69
58
25
15
44
5A
42
15
5A
68
56
62
90
0A
60
26
48
26
59
68
A5
21
02
A4
A2
1A
59
86
A1
98
66
45
68
89
49
61
A4
AA
49
56
69
25
11
A8
56
69
16
00
40
A9
69
98
86
88
89
68
4A
92
05

