82
19
45
A8
19
0A
95
14
15
90
09
62
8A
92
51
6A
51
94
91
00
00
81
04
1A
92
15
06
92
A1
A6
52
6A
99
25
98
88
19
56
01
59
16
65
04
96
A5
48
02
A1
99
52
84
22
6A
1A
92
90
A6
28
48
68
58
65
A4
4A
02
20
18
60
20
85
12
50
59
21
15
A8
84
14
28
06
25
81
29
65
59
49
46
06
88
14
9A
A5
9A
08
62
69
A1
66
28
50
68
20
A5
A4
92
02
68
91
28
1A
82
5A
AA
52
A8
80
AA
98
80
91
19
85
02
00
82
25
04
50
14
5A
A5
A2
88
5A
29
4A
85
A5
15
41
96
A4
59
A1
02
59
A6
40
08
06
65
26
45
28
A8
A8
86
52
84
82
15
00
45
24
19
65
84
12
49
81
A6
25
92
06
A1
96
A4
8A
11
0A
A9
11
52
52
89
5A
AA
65
01
6A
45
62
02
09
05
45
88
62
09
92
01
69
69
25
14
08
2A
9A
25
82
A8
A2
45
0A
8A
99
9A
AA
58
A6
92
54
A4
66
98
05
18
24
68
64
89
05
18
82
A4
61
61
66
15
00
41
A1
66
A9
25
06
10
66
A0
2A
04
86
5A
42
22
04
99
AA
0A
19
42
18
92
99
09
1A
2A
5A
69
02
10
88
88
9A
61
26
25
21
16
A5
68
41
99
66
25
00
82
A2
14
69
26
90
88
90
04
10
A8
18
04
90
66
18
10
14
52
6A
44
90
24
9A
90
05
84
18
00
A1
48
25
62
5A
69
92
84
61
40
22
21
45
20
A6
A6
A4
96
1A
28
A1
96
62
92
64
66
69
21
64
16
40
04
02
6A
26
15
22
5A
42
49
41
55
8A
51
92
5A
99
54
A5
8A
08
44
45
40
69
95
65
81
48
11
25
89
AA
66
9A
69
55
59
64
94
08
95
08
82
54
8A
91
90
12
86
50
91
96
08
48
A9
96
98
45
45
95
61
46
A2
95
49
44
89
A6
9A
A6
25
A9
5A
29
19
46
56
A2
A4
02
65
AA
50
89
A2
14
45
21
90
41
05
86
01
90
20
96
02
6A
65
45
69
A8
55
21
95
99
62
40
90
96
A8
50
29
A2
A5
6A
A0
A8
84
A4
2A
49
6A
40
66
60
A1
81
10
04
A1
21
99
58
69
95
08
89
95
51
82
90
10
2A
96
51
16
56
80
69
91
41
A4
66
5A
96
8A
19
68
19
05
A4
A4
26
55
04
86
04
8A
86
89
45
2A
95
9A
98
12
22
58
24
95
2A
18
24
92
24
15
94
26
91
04
46
09
61
45
1A
66
90
11
A5
69
25
42
20
68
66
16
A4
6A
26
55
45
54
41
94
A0
A8
99
8A
41
16
19
2A
85
82
A9
A2
54
62
84
22
48
21
08
49
80
A9
09
AA
12
04
01
82
86
96
09
56
9A
86
4A
91
A6
51
66
52
44
6A
89
02
94
01
41
A6
48
51
02
A5
48
08
6A
54
46
94
11
66
69
20
56
56
99
94
58
90
96
58
56
80
96
89
9A
84
5A
99
00
65
58
09
A4
84
21
94
48
58
08
4A
69
12
65
60
A6
98
A5
A6
69
11
66
64
22
81
65
91
A8
05
55
84
49
50
A4
10
52
02
09
50
45
42
00
49
49
18
66
A4
60
9A
45
42
61
25
01
21
4A
19
46
05
08
4A
58
51
AA
59
0A
29
AA
51
12
69
56
25
9A
A5
89
94
64
62
18
00
82
05
09
AA
A1
A6
80
A6
A2
42
59
80
12
26
51
AA
68
28
A6
2A
56
1A
82
51
54
5A
6A
A0
46
66
56
92
58
5A
A9
29
6A
A5
A2
12
16
12
95
12
01
96
9A
46
A9
56
41
55
6A
25
45
4A
65
04
46
22
25
4A
12
A9
21
44
1A
25
61
62
62
4A
A1
12
44
82
90
44
61
A2
80
29
14
A5
11
8A
5A
99
62
A8
19
69
26
9A
00
66
91
6A
98
84
29
55
59
05
98
12
66
51
06
A6
21
26
51
62
41
82
25
A0
52
96
AA
09
61
58
A9
22
5A
9A
01
A9
81
91
41
46
29
A1
52
98
96
90
96
04
62
25
50
98
80
00
88
44
98
89
A0
86
A4
19
96
A9
49
52
08
06
A1
18
64
65
86
48
A4
12
61
A5
56
99
14
25
21
48
65
A1
94
95
A8
64
1A
26
06
10
41
92
25
85
50
85
56
12
4A
66
16
28
44
10
21
42
A8
0A
12
08
92
40
65
95
21
21
64
59
24
65
94
10
99
25
10
89
A5
21
41
85
86
29
8A
20
04
28
64
62
46
49
A9
4A
84
28
69
60
18
69
14
20
9A
09
52
24
5A
52
11
50
68
58
25
90
66
42
5A
69
9A
96
89
82
A2
14
86
16
A5
A0
58
50
24
9A
82
12
49
55
A6
98
96
42
59
55
14
49
14
24
80
2A
80
44
02
A8
02
86
09
5A
46
19
49
2A
09
95
4A
66
54
A4
48
20
52
46
A1
86
48
9A
15
A1
1A
90
90
A2
A5
59
52
41
2A
09
89
81
91
A8
24
58
16
A5
94
81
89
A1
12
01
68
04
46
16
4A
61
02
81
A9
06
8A
46
45
14
09
99
28
29
62
80
AA
65
A2
62
40
16
96
26
19
04
66
A4
49
54
2A
52
A9
86
48
82
49
02
58
91
46
60
92
64
A5
16
28
A2
24
45
0A
9A
00
A6
60
50
59
90
88
44
86
90
19
61
69
49
A6
59
A6
84
55
A5
02
A4
A9
59
29
22
20
18
25
04
91
80
AA
89
40
09
45
18
64
40
96
51
05
94
84
88
99
44
54
22
14
86
26
40
14
20
A6
A2
50
62
82
82
A2
84
94
A6
22
25
29
46
62
26
94
62
5A
00
94
46
90
60
82
02
10
99
60
A2
59
8A
AA
09
0A
06
81
40
42
59
20
58
22
60
A4
92
A8
62
4A
00
44
09
69
54
65
A2
16
40
A0
94
68
45
94
18
19
59
98
09
9A
65
42
09
56
16
65
82
21
69
50
05
40
45
41
10
62
1A
56
60
61
80
11
42
20
12
69
A1
6A
12
52
21
01
42
04
45
96
06
85
06
99
22
A4
68
44
88
09
55
41
41
82
51
A2
28
46
82
46
90
46
81
19
98
02
09
55
18
16
41
41
08
A1
45
91
55
1A
A5
25
11
55
96
48
0A
66
55
95
22
A2
09
94
89
88
86
69
22
1A
98
0A
94
42
8A
01
40
11
01
40
02
28
20
8A
40
58
AA
45
A6
12
40
40
49
82
14
8A
55
60
82
A6
05
5A
50
49
26
08
1A
68
51
59
18
52
24
56
20
84
45
5A
8A
46
45
0A
64
0A
90
64
4A
24
8A
66
66
45
AA
58
21
45
18
48
50
06
AA
21
10
58
15
16
55
40
9A
15
21
A5
A1
18
20
61
94
51
95
99
48
46
10
A5
25
96
2A
62
94
22
41
88
96
90
9A
86
92
8A
61
96
90
62
9A
58
50
88
8A
92
86
82
AA
44
54
82
68
86
69
A6
59
A6
54
21
61
69
9A
65
95
05
92
55
96
45
99
AA
65
96
96
60
94
68
61
41
12
89
65
50
90
65
65
69
82
86
9A
69
82
58
41
69
90
41
98
A6
98
92
69
A9
96
89
A9
51
64
51
64
65
96
65
26
69
49
9A
69
61
61
69
12
0A
15
56
16
92
92
82
05
01
40
16
14
A9
88
59
59
1A
08
69
28
96
A6
61
41
61
AA
50
6A
42
50
96
AA
40
A9
88
45
51
48
12
52
50
41
56
94
21
09
90
9A
21
52
29
05
2A
A2
6A
01
6A
14
46
51
95
18
0A
95
98
98
41
42
80
48
15
24
26
59
52
0A
56
44
92
41
25
68
11
69
09
2A
19
64
99
A5
96
60
68
85
55
64
21
24
8A
A1
61
85
45
69
55
89
AA
42
24
56
80
25
61
54
A1
81
65
96
86
86
95
65
12
29
A5
98
68
2A
58
95
A5
9A
02
65
45
96
66
04
51
65
A6
95
A0
66
82
42
99
AA
95
84
42
05
18
26
20
AA
1A
A4
5A
69
09
A1
14
1A
02
0A
54
6A
A8
24
65
54
A5
99
51
11
28
85
1A
06
24
14
44
90
9A
89
49
8A
9A
20
80
09
8A
14
29
09
59
A9
28
59
29
56
29
98
64
19
66
86
59
0A
AA
59
28
58
A6
26
19
A1
98
15
9A
56
28
62
0A
56
26
59
12
90
AA
68
A6
29
64
55
9A
A6
8A
69
06
59
26
56
16
A9
08
06
42
09
45
44
56
29
09
88
86
59
46
25
40
68
A4
28
A9
59
AA
05
99
49
A5
12
86
26
56
96
16
29
96
1A
66
46
29
46
54
94
56
22
50
A4
05
5A
52
14
0A
44
01
A5
6A
09
55
20
A1
91
A4
12
55
0A
52
64
8A
80
90
25
24
09
A2
44
2A
11
20
25
96
65
42
92
81
02
85
51
AA
98
69
09
86
A4
0A
04
18
20
15
44
82
29
41
55
61
98
80
50
19
44
9A
42
46
66
90
8A
92
06
45
59
0A
42
9A
29
66
92
14
85
52
91
01
41
44
22
A8
54
5A
05
2A
A9
A8
12
51
A2
54
44
18
25
69
05
A9
84
18
15
A5
68
41
86
68
64
6A
85
66
49
95
91
98
02
80
A2
86
A8
96
21
2A
80
05
59
18
52
69
91
16
96
09
5A
44
86
09
91
66
12
52
44
24
11
02
55
45
18
58
41
AA
80
85
59
26
01
02
59
89
20
21
15
68
06
85
6A
6A
4A
56
62
00
44
00
12
49
62
14
54
55
A0
2A
95
A9
15
29
69
82
21
84
24
48
65
A1
16
15
99
29
82
18
14
08
99
9A
A9
28
95
68
62
14
41
10
11
62
6A
2A
95
58
68
42
26
56
25
91
09
A5
6A
52
58
96
09
91
9A
42
40
9A
08
A1
92
16
AA
46
94
2A
60
91
40
1A
A9
A1
A8
41
22
A6
5A
A9
25
95
29
65
55
00
59
62
28
9A
22
A4
15
50
51
19
A9
9A
4A
56
56
AA
41
6A
15
51
55
0A
14
80
90
16
94
62
84
A6
85
A1
56
A9
44
61
04
90
15
22
55
A2
58
4A
02
60
56
20
A8
46
94
A4
68
A5
52
A8
58
2A
45
19
25
49
19
A6
96
1A
66
59
14
20
10
61
85
9A
88
1A
01
5A
58
9A
80
09
49
18
09
00
96
06
19
65
45
08
46
69
48
58
9A
51
28
04
26
5A
89
01
A1
A8
A9
A4
40
9A
4A
A4
8A
0A
0A
6A
48
50
85
51
51
41
26
4A
52
14
96
29
48
95
45
A4
18
58
28
4A
51
42
16
01
84
41
84
2A
06
11
42
10
91
A0
94
91
44
AA
21
4A
68
15
69
61
68
92
A2
49
41
92
50
A6
15
56
10
59
A5
52
62
06
84
21
A2
06
05
98
6A
16
81
06
82
82
52
2A
88
44
94
68
15
12
A8
92
96
81
45
84
4A
98
95
8A
98
69
A5
A5
99
59

