92
25
A6
61
A5
20
61
04
51
14
A5
55
88
96
A0
1A
88
41
10
5A
A2
52
A8
AA
29
81
50
46
58
5A
61
50
90
90
68
88
88
90
16
A9
98
2A
14
AA
59
98
95
18
A5
2A
A4
50
AA
40
09
A6
88
89
25
41
91
98
88
81
A6
92
44
91
66
60
19
20
12
11
62
16
55
22
81
58
51
A5
25
95
55
95
5A
06
98
88
82
41
A5
06
25
02
20
1A
12
88
A8
21
0A
29
6A
52
05
A2
16
AA
56
41
28
82
05
A6
96
25
18
92
26
19
85
45
A2
66
94
A5
26
92
54
86
14
6A
91
64
02
68
A2
1A
25
62
26
1A
98
80
25
0A
22
22
A8
21
86
50
04
86
92
94
98
59
58
18
51
88
56
84
50
40
80
12
A5
26
51
05
A2
96
82
52
11
11
02
26
28
24
65
11
65
09
69
98
04
49
29
11
89
00
01
64
4A
05
00
28
58
86
18
00
92
44
45
21
56
9A
9A
95
0A
05
18
01
4A
26
08
12
46
18
55
48
85
22
48
88
24
4A
65
61
50
64
01
02
06
15
62
20
98
4A
20
25
42
99
05
90
02
10
06
91
20
81
A9
28
60
26
21
19
A2
58
04
00
68
22
89
88
24
09
05
28
01
06
08
A4
48
2A
62
42
4A
90
28
20
26
26
2A
05
64
59
4A
95
9A
05
89
69
A1
98
94
88
A4
66
5A
95
6A
9A
29
56
96
09
80
05
85
9A
58
2A
45
2A
4A
59
1A
28
19
1A
25
40
5A
69
58
A6
A5
A5
45
65
5A
54
24
90
89
49
0A
5A
26
02
06
94
5A
51
48
15
58
98
90
91
18
86
41
59
A9
08
98
60
40
9A
A5
66
58
9A
89
25
19
6A
19
68
40
4A
02
82
56
94
58
59
98
46
A2
50
28
80
50
10
10
A1
01
86
92
49
40
A4
65
48
24
00
02
15
15
40
52
19
62
41
64
49
59
94
40
09
00
86
80
41
08
A1
0A
20
18
66
02
88
02
82
99
50
26
44
82
48
41
20
48
08
84
41
15
80
0A
81
A2
00
88
22
92
86
40
41
01
A2
20
94
15
59
66
50
66
81
94
94
88
11
01
91
55
05
10
59
99
59
06
98
60
04
15
24
56
44
24
52
A4
60
80
50
41
40
28
A1
06
62
A2
12
49
50
50
42
94
94
04
60
A0
69
AA
56
59
41
59
66
8A
66
A4
69
49
86
84
84
45
46
59
50
81
24
55
06
52
86
84
40
48
04
60
20
49
85
10
81
89
60
88
44
A2
2A
A0
48
04
41
02
84
A2
AA
96
00
29
20
50
40
84
62
10
4A
22
59
99
16
40
19
85
19
82
22
54
8A
01
AA
41
58
98
00
84
1A
A1
06
4A
00
06
A0
68
20
59
81
80
08
19
04
45
41
58
11
82
19
40
55
91
0A
64
24
5A
65
AA
20
10
20
A4
24
29
99
22
44
00
42
11
00
62
06
A6
40
18
86
22
86
AA
40
02
58
00
1A
65
18
94
62
85
A8
44
06
10
16
50
02
05
04
88
06
45
22
50
10
50
02
59
45
80
00
10
05
A4
81
41
26
18
82
22
9A
11
06
09
82
00
00
49
00
18
99
40
61
10
09
20
81
86
A5
21
A6
21
12
96
19
81
26
10
A2
68
0A
60
01
98
61
10
10
60
8A
10
65
9A
A0
A6
91
81
62
08
65
88
20
08
10
18
24
91
10
04
AA
40
91
98
10
00
8A
80
88
50
61
01
80
00
81
29
06
88
00
50
60
90
91
04
04
12
04
64
16
1A
94
95
00
00
05
81
01
00
00
01
15
14
00
11
02
00
00
20
28
01
00
01
01
62
20
4A
80
22
01
62
85
01
40
81
82
40
01
28
00
60
05
02
A5
21
25
05
84
82
04
01
4A
20
81
04
00
08
02
08
00
00
00
20
00
10
20
00
00
00
00
22
01
00
82
11
00
00
22
00
24
02
18
08
01
04
01
16
04
0A
02
80
00
91
28
02
48
08
04
61
25
9A
96
18
41
6A
42
25
69
86
A2
89
02
06
A9
50
9A
64
26
91
54
91
2A
1A
8A
A6
59
91
92
9A
94
59
09
04
A2
05
46
1A
42
15
1A
05
2A
25
66
20
8A
9A
41
86
15
25
95
0A
64
69
A1
56
0A
40
1A
81
A9
65
58
98
5A
85
66
25
46
A0
25
94
86
A4
55
A4
48
AA
68
10
4A
A4
26
95
05
12
A1
14
21
56
10
94
A1
51
01
00
59
A0
24
44
51
A6
9A
09
02
89
A5
56
95
56
24
2A
6A
12
98
08
4A
82
5A
16
24
81
10
46
95
81
5A
A4
A6
00
28
66
59
6A
91
A4
18
25
95
6A
64
18
41
5A
2A
21
44
A2
9A
2A
22
60
92
88
9A
62
50
60
59
A5
41
9A
22
29
89
68
28
95
24
88
14
14
99
A6
6A
26
28
89
84
A5
94
95
89
6A
02
55
26
48
6A
25
10
92
52
51
10
58
50
98
61
99
8A
62
14
65
65
98
45
12
10
A1
88
5A
A4
61
92
02
15
59
98
62
AA
28
48
92
52
5A
26
51
24
A2
25
25
68
5A
A9
55
52
21
92
01
1A
99
22
14
90
84
19
A4
40
01
84
24
64
02
01
18
55
99
00
20
15
A0
69
02
19
59
84
6A
94
09
88
09
19
68
9A
40
18
4A
98
59
1A
20
A2
81
5A
04
01
14
40
4A
68
66
44
59
95
55
11
14
49
96
25
8A
14
45
61
21
28
86
26
94
06
22
59
96
46
22
65
24
92
48
A4
61
26
95
62
65
69
AA
06
A9
0A
06
08
69
58
99
20
56
86
5A
88
A8
10
61
99
44
A9
11
A6
AA
81
10
59
65
60
95
A9
94
96
42
55
12
95
56
98
A4
45
42
18
95
20
A9
98
42
59
48
AA
24
6A
65
12
10
4A
24
A2
11
02
44
84
55
21
06
80
61
88
11
20
04
14
49
58
08
60
49
A2
24
24
AA
20
81
40
96
14
51
88
A8
40
82
40
51
A0
89
50
56
A1
94
20
82
26
41
60
08
96
94
10
29
08
92
88
84
08
19
A5
02
49
84
AA
04
11
29
A4
4A
15
88
41
10
6A
8A
98
62
18
2A
04
2A
86
50
24
A1
A5
58
A6
28
84
02
61
95
00
51
48
19
11
5A
09
54
89
99
62
21
48
05
6A
80
A2
98
04
20
AA
06
A2
54
A6
41
A2
40
09
29
90
00
14
96
5A
00
1A
88
06
46
10
86
24
26
1A
90
99
1A
90
9A
94
89
94
12
00
45
21
08
58
6A
04
48
65
48
09
41
19
00
14
85
02
84
8A
92
05
52
85
14
A2
24
82
A5
24
50
04
AA
80
5A
04
10
59
44
A0
40
A1
5A
90
14
82
20
10
04
A0
10
04
90
01
40
01
02
4A
A5
40
00
90
05
00
59
18
25
84
59
50
16
01
40
85
61
5A
86
00
58
4A
4A
88
5A
A4
A6
42
A8
96
65
A4
81
02
90
18
04
05
25
84
80
04
88
05
08
A4
52
08
00
01
84
10
81
08
24
10
01
42
49
85
81
14
4A
22
95
00
48
84
6A
4A
A8
16
02
10
A0
88
84
11
82
49
85
02
49
A2
59
AA
A2
A6
24
A4
26
A2
40
14
29
99
02
62
89
86
48
94
81
81
A1
4A
44
85
02
61
82
45
96
A5
55
10
1A
66
52
18
65
60
4A
94
56
61
41
42
A4
5A
A2
54
24
58
02
A0
92
24
54
A6
25
A0
22
59
86
A5
24
90
A6
69
58
A9
94
92
54
65
66
26
95
8A
68
10
04
95
69
A6
9A
A4
58
A0
4A
94
A4
49
A6
AA
A0
A5
AA
56
55
50
52
A5
08
A5
2A
91
24
92
02
A8
8A
22
49
98
A1
26
98
26
86
42
A5
09
94
1A
95
95
A6
09
95
A5
05
58
9A
50
A5
A6
A5
18
82
58
52
45
96
81
56
59
A8
21
51
A2
AA
8A
5A
55
14
1A
96
85
91
68
1A
45
4A
8A
98
88
80
8A
19
20
09
82
61
61
96
94
66
01
50
66
A1
24
5A
51
44
A5
A1
1A
89
4A
A5
62
88
56
12
56
45
61
A0
98
29
50
4A
20
80
21
A1
26
92
64
A0
0A
90
08
54
05
15
A4
50
58
06
6A
8A
12
A9
41
A1
1A
42
45
21
21
A0
40
08
52
21
04
92
21
02
69
51
82
A0
A4
A9
81
91
99
80
01
49
14
21
20
02
69
86
49
94
06
00
86
00
16
60
29
08
59
64
52
80
A2
04
A6
52
99
06
41
60
20
0A
44
A4
80
11
A0
52
25
5A
1A
2A
65
A1
9A
18
58
A0
59
69
9A
44
02
A1
A9
24
59
14
45
86
56
89
11
29
A6
01
5A
5A
49
59
62
58
2A
26
25
81
61
60
52
5A
09
A1
25
A9
41
58
A4
A5
10
22
64
68
15
50
68
65
49
2A
AA
89
18
11
29
42
2A
01
24
40
55
2A
96
51
5A
4A
14
22
AA
12
98
52
84
92
52
86
58
A0
12
5A
26
68
95
40
52
28
A6
40
A2
29
82
26
00
50
42
A9
64
59
29
52
40
00
86
11
50
4A
29
60
85
A4
60
85
16
54
59
45
84
00
0A
0A
A5
82
A5
65
A0
6A
28
0A
40
01
52
26
05
52
96
A1
22
08
58
9A
90
21
A0
15
84
42
98
61
A2
41
85
48
8A
A8
16
96
61
86
59
81
95
16
26
04
20
08
A0
81
10
A5
00
2A
82
05
A5
68
A8
4A
A1
82
54
25
04
48
60
50
08
04
60
A5
80
20
44
64
04
A9
22
49
60
A9
12
09
04
58
44
50
05
46
00
A6
40
86
A6
5A
44
55
81
8A
49
A5
45
59
86
A4
69
99
68
50
92
A2
A4
21
10
61
50
0A
4A
50
11
A0
A6
65
81
42
00
52
28
45
04
88
21
81
50
44
5A
A8
A1
24
AA
45
16
4A
5A
5A
40
95
68
62
5A
08
08
28
A0
82
25
5A
24
58
40
62
60
42
10
81
82
89
62
50
84
08
84
66
44
64
96
66
04
00
81
58
68
18
50
92
A1
12
80
41
00
06
9A
85
2A
58
A1
26
99
18
08
68
69
01
99
06
66
22
A5
60
85
88
02
82
48
41
89
46
50
59
62
A0
06
A6
68
88
92
A8
18
90
A6
19
40
10
96
80
A9
0A
01
A1
18
58
81
A5
00
01
94
42
12
52
26
01
A6
06
41
60
51
06
46
88
40
20
51
80
04
A0
06
24
29
42
82
25
A9
A6
26
A1
24
A2
52
16
46
00
61
25
01
24
92
02
81
21
84
12
06
A2
68
16
42
20
01
14
10
10
61
A1
48
44
06
51
64
50
A0
08
0A
80
86
01
10
26
00
06
40
06
04
06
18
48
10
00
4A
02
60
09
1A
44
25
48
A5
91
A0
80
40
1A
08
A9
00
01
82
88
01
48
25
00
11
00
00
04
00
00
00
00
44
00
08
40
01
00
40
00
48
00
02
00
24
80
00
00
00
01
01
04
14
80
12
08
11
00
2A
22
A8
28
10
02
21
40
60
80
90
20
64
44
08
00
00
60
40
00
00
10
40
00
00
08
08
44
01
04
01
40
08
09
08
00
90
44
00
A0
84
80
80
81
40
01
42
14
42
11
12
A0
89
00
81
52
20
21
42
42
80
A4
A5
4A
18
18
A4
46
26
50
A6
12
A0
69
A2
96
95
5A
AA
A5
19
26
61
29
A9
99
60
5A
46
51
AA
64
A5
96
9A
A0
02
65
12
6A
A1
51
52
44
84
96
A5
52
24
50
66
59
21
19
2A
58
50
65
66
00
AA
28
1A
60
A8
22
94
84
5A
99
12
15
24
18
58
96
5A
95
45
06
16
84
58
58
8A
AA
A5
00
A0
A6
A5
A5
4A
66
52
59
94
84
01
A6
48
49
A1
50
40
59
52
64
15
25
0A
19
1A
61
44
86
5A
86
61
05
22
21
45
99
A5
16
96
69
61
9A
58
A5
A5
48
56
84
46
48
A1
A5
5A
18
65
4A
9A
58
A5
16
62
A6
28
95
58
84
90
80
68
54
9A
94
09
48
82
80
41
56
50
48
01
61
22
66
10
91
45
48
64
8A
4A
A1
42
14
A8
A5
09
60
94
90
A4
68
84
59
A1
04
40
49
06
86
40
64
40
A9
21
00
91
80
00
85
00
46
45
92
AA
15
85
12
9A
A6
60
52
60
40
99
45
41
A0
50
40
05
40
89
26
A4
96
00
62
22
02
96
40
68
84
99
41
52
08
04
59
09
64
06
11
41
95
99
02
01
81
20
1A
54
64
09
00
12
20
6A
94
1A
60
50
1A
10
8A
6A
58
42
56
4A
60
69
41
51
96
50
92
A1
A8
66
A8
A9
19
52
68
52
98
A5
12
19
A4
04
25
4A
49
A5
15
A2
11
10
A5
06
8A
94
21
21
2A
6A
A9
1A
5A
25
A0
1A
A5
A1
A1
90
52
56
A5
59
98
49
48
00
65
54
50
4A
A9
45
04
09
5A
15
A5
14
68
A2
A0
56
A2
94
84
85
A9
AA
AA
4A
94
69
88
54
91
52
15
51
89
82
A1
69
4A
5A
85
5A
46
69
42
98
48
25
66
65
48
5A
01
24
08
6A
00
18
18
08
08
28
15
92
9A
10
80
40
A0
00
12
10
08
40
A8
A6
20
A1
80
85
80
10
85
25
5A
A5
58
85
A5
80
45
85
4A
92
18
A4
24
A6
66
11
A4
44
28
51
44
A4
88
24
04
04
00
08
40
80
15
60
4A
60
81
40
44
15
A4
80
08
68
14
42
91
66
A2
06
22
A0
9A
81
42
85
25
28
48
85
04
96
58
69
12
62
1A
56
A6
12
54
A5
12
20
4A
80
14
05
46
19
AA
51
51
65
92
A4
05
A8
81
19
56
61
69
50
68
46
99
01
96
19
01
98
61
A5
25
8A
85
90
A9
48
5A
48
1A
84
59
5A
48
61
4A
A9
60
66
48
A1
40
05
4A
91
82
60
54
05
01
A6
18
A0
66
5A
41
90
5A
A5
48
A8
A5
96
21
65
58
02
80
40
48
A8
52
61
2A
00
A5
50
A5
A5
44
88
25
90
04
20
50
80
40
10
00
88
04
00
08
20
20
41
84
94
08
08
29
00
4A
24
00
84
85
85
48
16
A5
5A
44
48
58
12
2A
20
A2
86
10
9A
AA
88
84
A4
08
92
00
00
A0
60
20
22
40
24
10
00
40
00
20
00
04
42
18
58
01
41
06
04
50
41
20
59
68
10
02
56
81
A0
5A
5A
06
0A
40
24
80
66
80
15
AA
44
28
94
86
5A
84
50
6A
58
40
21
69
56
A6
40
51
69
64
19
A1
16
61
89
26
AA
5A
64
AA
16
AA
A2
49
A2
10
55
8A
91
99
A1
A1
A5
22
91
A4
86
69
4A
54
A1
68
A4
1A
A1
95
60
A0
A0
04
A9
86
4A
59
9A
4A
92
20
60
55
A5
48
A8
52
0A
1A
51
09
19
6A
10
50
88
49
61
95
58
61
96
85
48
95
12
A9
A6
5A
A6
6A
59
20
16
59
25
94
A6
25
4A
62
52
60
51
69
6A
20
21
18
64
16
85
62
40
25
68
95
01
61
16
55
A1
45
96
A8
66
94
11
48
05
95
45
02
A1
62
19
81
A4
25
46
5A
42
51
84
02
02
90
58
AA
54
45
26
80
A5
56
28
15
29
21
88
A9
8A
AA
68
A5
99
54
52
9A
6A
64
69
29
85
86
90
85
85
04
58
89
68
19
86
0A
90
18
25
60
A9
5A
64
25
10
42
58
92
84
5A
25
82
92
1A
2A
22
42
08
69
02
48
68
46
A5
22
82
52
05
11
28
55
04
A5
54
00
5A
91
A5
20
4A
82
50
45
25
08
50
02
11
15
84
5A
24
9A
1A
68
0A
62
14
91
08
0A
00
20
6A
4A
A0
4A
28
80
00
A5
60
10
10
98
08
0A
85
49
00
A1
44
16
12
98
01
10
86
A1
60
92
82
84
52
01
58
02
A5
4A
91
29
96
41
66
A4
42
60
95
A5
A2
98
08
21
51
11
A6
A8
5A
92
44
94
62
52
2A
20
49
61
92
22
5A
84
A4
A9
0A
1A
6A
16
22
A4
A1
52
6A
56
49
05
65
6A
09
A4
91
84
66
6A
84
49
69
04
20
A0
A6
11
28
41
A1
01
AA
06
24
88
A1
A1
4A
69
66
95
95
08
95
9A
A8
1A
96
85
98
A1
06
94
21
85
22
00
A0
80
59
5A
A5
12
52
81
4A
5A
65
81
42
12
01
A2
02
1A
A1
08
64
A4
12
48
98
04
49
0A
8A
A1
68
64
05
05
12
08
81
5A
2A
54
54
91
59
09
A2
26
5A
11
49
04
91
86
06
A6
86
41
25
48
10
62
54
41
02
18
18
1A
86
42
91
46
0A
25
09
20
60
15
08
25
02
00
A1
44
52
4A
A8
29
15
21
55
62
A6
46
56
48
68
99
68
A4
05
A4
0A
01
01
18
5A
A0
00
98
00
09
00
8A
68
61
A8
84
26
86
A1
48
90
28
44
22
18
25
2A
0A
65
2A
85
24
91
66
2A
55
0A
1A
95
85
49
96
18
65
26
9A
06
81
14
02
40
10
50
01
01
40
A2
28
A0
42
14
12
29
95
14
00
52
66
28
A4
62
24
22
4A
56
11
84
29
85
26
64
91
66
64
11
00
18
8A
65
4A
A0
9A
89
04
10
58
68
04
00
45
52
65
A0
84
01
8A
A5
42
81
1A
4A
04
58
42
A1
1A
A1
00
00
81
02
42
29
01
04
26
19
01
66
15
01
18
0A
8A
86
A1
89
1A
22
52
84
28
5A
52
81
1A
24
08
50
01
02
1A
20
A1
08
58
46
16
68
4A
82
10
04
22
41
1A
25
85
06
61
A4
05
4A
92
42
41
24
0A
08
A6
86
A0
48
41
41
19
24
80
08
08
59
A1
88
5A
A2
50
22
80
82
02
84
42
0A
40
09
A0
92
20
01
48
01
04
00
09
81
08
00
04
92
51
12
15
41
02
02
16
81
61
04
64
11
A6
26
12
80
A0
06
42
62
50
A8
09
01
58
A1
52
02
A0
05
01
00
09
41
25
08
86
28
84
A0
50
8A
A5
80
00
55
82
6A
80
A5
90
80
46
4A
50
08
4A
91
A0
45
12
45
02
52
40
5A
04
50
00
51
00
01
00
00
00
00
41
00
80
40
02
04
40
00
00
00
00
40
40
80
20
90
50
80
50
9A
42
06
80
62
86
00
80
49
A0
00
82
50
48
49
41
24
A2
02
10
40
80
00
00
40
00
00
00
20
10
00
40
00
90
60
00
08
00
40
10
80
00
00
80
00
02
0A
0A
52
88
9A
81
01
61
0A
41
80
00
82
A0
10
80
46
21
90
51
58
A0
4A
58
48
86
95
49
24
40
A5
02
8A
6A
14
69
A1
41
98
52
86
AA
86
6A
84
56
61
20
51
A4
A0
55
06
6A
06
A8
4A
21
A9
66
29
90
26
A5
69
96
66
86
A0
58
21
69
A4
1A
9A
01
96
60
24
62
81
20
56
61
82
58
48
11
42
A5
69
49
56
01
0A
89
A6
10
81
96
68
55
04
95
24
95
9A
58
4A
98
40
42
62
A6
1A
65
A2
11
28
02
40
92
48
60
19
A4
11
05
6A
55
58
AA
19
61
22
62
92
2A
15
98
40
12
0A
0A
16
48
20
88
61
62
01
60
5A
58
88
84
5A
A5
66
51
42
A9
05
92
28
0A
84
AA
68
52
51
49
08
95
9A
40
90
61
50
60
20
8A
05
55
92
91
01
26
A6
46
82
48
96
51
81
24
80
69
12
01
52
84
A2
5A
99
19
84
26
46
08
21
44
24
81
00
01
09
46
02
A4
01
82
25
19
00
86
40
88
50
90
11
82
9A
05
46
5A
A0
55
68
A9
10
80
00
A2
48
51
94
99
10
18
81
22
45
44
AA
66
15
88
80
62
55
01
12
01
82
24
00
48
88
21
98
40
45
A9
40
19
18
2A
10
A8
05
51
01
84
21
02
46
89
0A
06
A5
A6
42
84
69
81
A4
A0
15
20
08
81
69
11
A0
8A
42
12
6A
41
18
9A
95
65
05
A1
19
86
64
1A
6A
55
49
61
45
6A
06
4A
12
96
14
48
00
A5
59
8A
85
18
48
95
25
96
59
00
5A
06
1A
60
A5
91
54
81
48
A5
88
05
65
95
A5
A0
9A
84
56
25
45
12
58
5A
4A
A9
20
45
02
62
2A
90
16
48
42
45
08
00
24
96
56
A0
55
14
29
5A
64
04
25
45
5A
A8
A9
0A
44
15
A9
59
99
45
64
18
84
12
89
99
28
02
86
08
00
AA
22
82
21
50
42
9A
61
05
21
44
4A
A0
80
60
AA
2A
40
19
90
48
6A
42
91
91
10
0A
22
44
21
0A
A0
21
5A
02
1A
04
90
40
06
00
4A
26
16
0A
1A
8A
10
11
40
24
08
66
52
10
A0
14
66
92
0A
50
A8
62
01
98
64
20
52
81
20
94
94
6A
A0
55
49
02
54
00
91
12
95
92
10
50
59
44
81
48
89
A1
64
22
A6
51
AA
55
65
22
96
5A
A8
22
A8
00
02
15
98
58
96
A4
26
56
02
55
08
00
94
6A
58
80
12
64
A0
82
A9
11
56
54
4A
99
81
92
58
41
25
24
00
A2
20
95
A9
5A
42
1A
20
64
10
42
94
08
18
49
11
81
A1
12
24
12
60
21
95
09
11
92
12
A4
40
48
A4
48
A1
20
98
5A
2A
41
4A
90
14
AA
20
18
44
40
A1
08
00
89
0A
08
20
56
12
81
81
0A
20
99
02
4A
58
00
00
20
8A
21
60
21
A1
21
80
09
85
42
0A
44
09
04
99
09
00
05
26
04
A0
0A
16
04
A1
91
58
42
01
80
A1
A5
81
25
08
20
08
A0
00
20
41
02
00
40
14
20
84
04
20
98
01
00
66
44
66
02
94
12
42
8A
85
92
85
66
51
6A
91
15
46
0A
44
94
81
42
01
94
68
09
11
10
24
80
00
1A
56
15
08
0A
28
2A
50
05
9A
45
AA
55
A1
60
0A
08
28
96
55
41
62
48
A6
61
00
26
64
66
69
45
26
84
A6
56
80
21
59
69
10
A0
04
20
2A
81
A9
58
0A
86
0A
A5
50
60
45
81
6A
80
50
62
28
21
8A
92
A2
94
96
21
1A
51
05
91
49
94
95
A8
24
11
2A
12
65
54
10
12
91
9A
91
89
11
61
26
26
6A
18
64
92
25
94
15
94
A6
46
81
0A
10
80
92
81
46
5A
41
64
58
91
99
06
84
99
04
94
9A
58
10
60
66
14
98
94
95
9A
4A
60
64
24
1A
96
22
62
99
85
65
80
45
5A
05
68
16
60
A8
94
A6
61
66
86
A5
4A
24
91
05
96
5A
18
98
95
18
51
65
4A
65
62
A2
61
05
19
60
64
68
92
1A
02
11
69
19
64
88
81
52
00
A2
06
68
40
20
42
65
68
25
02
A2
51
AA
52
12
64
A5
16
20
AA
A2
12
A4
81
A4
20
42
90
82
80
18
65
24
82
82
28
88
46
64
09
12
29
91
08
68
2A
20
49
40
14
00
80
06
25
81
10
60
11
90
95
00
21
11
68
9A
18
46
52
86
22
A4
A9
61
60
14
61
42
4A
A2
98
26
9A
04
00
40
00
00
82
A8
01
11
10
A4
10
01
28
24
20
8A
42
9A
91
05
16
20
64
01
22
91
09
A0
A0
A2
58
AA
6A
A8
68
9A
98
26
A9
A9
66
82
42
8A
66
28
9A
91
18
A2
44
62
89
16
54
85
29
29
88
55
65
65
80
AA
60
00
12
08
4A
08
45
AA
45
24
12
91
41
2A
26
A0
A8
A4
80
82
A2
91
61
A6
52
A1
A0
00
91
82
68
A6
44
20
A5
46
A4
18
90
0A
61
04
59
80
22
1A
00
02
80
26
64
AA
90
82
54
08
18
44
88
46
91
26
80
50
89
95
49
95
62
19
5A
60
82
51
40
41
98
A8
86
20
42
26
9A
85
29
20
62
50
A0
66
52
92
8A
22
05
05
09
60
40
48
09
86
58
08
8A
A6
08
46
99
A0
84
90
64
6A
8A
11
9A
92
19
96
28
09
98
10
A8
24
69
2A
11
28
06
66
42
6A
65
98
A0
42
00
64
01
24
A6
82
62
14
08
5A
00
51
99
20
11
08
08
10
80
26
98
68
04
91
10
51
01
20
A1
54
80
68
40
46
12
05
20
14
89
08
91
18
2A
99
82
56
62
00
54
40
84
01
99
11
41
10
62
84
81
A0
80
84
99
A4
2A
06
14
04
00
AA
8A
14
24
42
94
A0
46
98
91
81
21
66
A0
58
64
26
A4
08
60
46
05
06
94
59
24
82
84
14
A6
60
5A
19
68
A0
A0
06
0A
1A
19
14
21
94
88
81
48
05
6A
85
24
41
00
88
14
05
10
4A
25
00
06
08
11
40
10
22
04
20
68
06
80
08
18
68
05
91
11
20
18
24
91
1A
10
A0
A2
44
A5
28
A4
88
25
91
22
6A
66
00
80
42
A8
44
40
00
89
41
42
20
84
5A
58
A8
90
15
98
20
A9
44
26
06
15
08
84
44
94
80
24
88
9A
4A
82
14
64
A4
98
08
16
60
00
92
26
04
24
8A
48
6A
56
A1
82
55
80
00
85
5A
20
90
52
26
9A
84
21
01
42
00
08
82
64
94
10
48
22
12
51
61
84
04
60
24
A9
46
90
64
69
98
15
A4
81
01
42
11
24
15
A2
04
26
05
0A
04
04
22
05
01
45
5A
10
01
88
90
00
55
90
24
55
28
0A
45
00
18
52
11
00
20
04
00
00
00
00
00
04
00
00
84
00
00
40
40
00
00
00
04
00
02
00
10
20
80
00
0A
18
02
05
15
A5
4A
10
04
60
4A
00
22
05
08
00
66
84
A9
19
1A
02
04
00
50
00
00
40
00
00
40
A4
00
20
00
00
00
08
40
48
00
11
01
24
00
40
12
10
00
88
90
A1
91
44
4A
00
90
20
11
95
00
01
00
81
61
60
10
25
02
00
8A
86
22
62
21
56
86
98
05
96
81
55
A4
A9
42
6A
68
A1
A9
86
10
AA
A9
22
19
14
4A
A1
94
91
48
54
25
62
95
68
66
A0
26
21
01
62
98
0A
91
5A
66
AA
28
2A
20
9A
84
12
2A
85
54
92
AA
50
04
52
94
06
56
AA
18
60
95
A9
51
59
26
AA
69
A5
9A
66
21
64
58
61
24
65
54
11
91
9A
99
96
02
A5
24
68
29
9A
0A
66
11
5A
02
84
66
60
94
A2
91
84
10
A0
40
26
A0
98
A0
95
89
29
4A
0A
02
A6
6A
02
24
96
88
84
06
64
95
99
24
A8
21
44
8A
1A
92
64
28
80
A9
90
00
96
21
82
98
56
08
64
A5
40
90
06
58
08
1A
90
64
62
21
88
15
05
08
15
99
A9
94
6A
9A
82
A9
15
89
29
1A
22
26
99
99
91
6A
00
91
91
81
4A
68
99
42
A4
20
A8
84
40
02
60
40
21
02
40
00
20
02
44
82
82
94
91
10
01
64
01
26
98
18
82
90
66
9A
08
21
66
04
99
62
81
A6
96
A5
56
12
0A
86
29
24
40
15
21
50
42
12
10
46
00
42
18
1A
01
88
12
11
01
41
01
60
14
08
04
82
88
0A
06
98
44
08
04
64
A6
1A
00
64
62
A4
42
66
60
50
84
28
81
A4
80
85
64
44
99
95
28
44
24
89
55
46
04
AA
A4
5A
44
95
98
98
11
94
A5
94
94
01
9A
98
56
65
92
48
A0
68
59
92
58
12
49
6A
91
61
4A
8A
14
A4
80
45
18
58
65
82
A8
90
54
45
81
24
8A
1A
26
96
58
41
82
A0
45
6A
AA
44
68
89
68
6A
58
88
28
28
69
81
65
5A
9A
98
15
21
61
A9
98
45
46
44
6A
24
98
48
44
06
59
98
90
62
48
20
20
01
04
41
96
40
4A
50
08
41
A2
10
62
48
15
81
A2
08
91
82
89
A5
90
11
82
01
22
60
18
64
09
41
14
64
10
60
0A
69
29
16
22
64
19
51
12
04
65
64
18
85
54
88
88
A0
09
41
1A
98
18
66
88
91
60
08
A0
48
06
02
60
11
A2
20
88
00
20
A5
19
A6
88
49
19
10
96
69
91
1A
28
24
41
2A
61
5A
2A
42
24
22
48
6A
68
22
68
22
44
20
88
12
14
18
64
8A
92
A4
14
56
54
22
19
16
80
91
04
14
6A
96
60
08
69
21
11
29
A1
15
98
18
25
A2
66
6A
6A
24
A0
60
22
60
4A
62
11
42
08
21
98
04
90
00
65
05
85
86
19
8A
94
8A
16
1A
89
86
59
65
15
45
6A
98
98
28
22
42
21
66
99
60
06
A4
14
1A
A4
18
18
02
A9
12
04
00
02
10
10
88
11
05
04
12
81
2A
84
00
21
28
A0
8A
60
40
10
50
22
60
A0
A4
84
58
01
98
04
42
41
21
65
59
11
81
26
60
60
42
81
50
90
81
19
00
82
00
00
42
40
80
12
00
00
00
82
90
00
10
11
80
01
26
09
51
20
00
00
88
20
2A
01
26
04
20
16
24
2A
A6
44
10
A5
48
A0
A9
06
08
26
56
08
61
99
20
86
90
90
82
A6
06
50
A4
56
81
10
09
66
96
85
88
52
15
5A
85
49
24
56
18
96
91
A4
22
06
45
69
16
68
21
6A
95
A9
41
16
A9
92
29
41
10
88
95
28
06
04
64
1A
A4
04
28
90
09
2A
49
54
84
A0
54
A1
95
09
5A
29
24
28
A9
84
A4
68
42
96
A5
29
A9
95
96
41
68
14
68
90
28
96
54
6A
94
94
80
54
A0
61
6A
60
60
86
51
22
29
26
98
A4
62
5A
56
94
99
48
82
06
51
94
64
6A
4A
42
84
8A
8A
11
6A
2A
56
A1
16
69
AA
69
95
96
94
6A
9A
19
28
69
96
55
49
52
86
54
59
96
28
94
55
15
25
64
49
A2
54
45
61
9A
22
98
64
10
61
56
96
54
89
16
89
19
A2
55
91
5A
5A
AA
94
95
88
68
18
14
96
99
29
69
86
68
16
60
22
61
A1
88
52
24
91
88
46
8A
82
98
19
82
45
A0
16
82
49
04
09
55
40
01
88
08
68
89
94
51
06
9A
10
6A
49
69
40
02
88
94
81
20
94
19
4A
05
5A
02
21
56
9A
90
15
15
65
89
48
46
41
15
18
90
65
9A
21
50
00
64
08
40
80
68
8A
18
A0
85
58
29
84
48
A1
92
AA
49
60
20
8A
12
29
60
01
88
80
8A
61
10
64
A2
9A
92
8A
A1
52
68
22
0A
46
25
52
1A
85
94
26
62
92
95
12
50
81
1A
48
92
85
A1
98
6A
14
1A
1A
28
40
15
15
96
65
22
20
56
92
56
94
4A
80
A8
96
95
61
04
4A
2A
66
A1
89
60
55
06
95
91
AA
16
49
48
68
11
16
25
91
14
19
68
81
99
95
16
28
94
29
94
68
A9
4A
19
96
A1
18
56
62
85
14
A0
24
85
29
19
92
21
94
94
49
A1
5A
98
41
95
29
11
A4
0A
58
A0
29
56
90
41
88
92
09
65
11
96
29
68
15
AA
2A
56
64
52
22
01
66
9A
64
56
44
28
A2
86
AA
2A
56
01
68
28
29
91
00
15
51
02
14
82
49
14
59
96
42
65
58
28
48
80
26
68
A6
A2
26
56
68
A9
41
50
14
19
A1
91
26
0A
55
46
06
42
20
24
55
09
81
82
2A
22
01
68
95
04
80
20
11
06
18
04
60
82
14
40
85
2A
58
09
00
16
22
94
8A
60
95
69
A0
14
AA
89
2A
89
65
01
94
56
6A
05
84
85
2A
05
0A
84
2A
18
2A
10
20
84
82
40
25
42
06
16
50
92
12
05
04
09
11
94
55
42
25
20
51
20
54
64
91
4A
05
90
20
48
28
A9
96
69
A8
69
8A
49
45
15
54
48
05
24
A8
A2
86
24
09
18
46
A9
4A
AA
98
54
21
21
90
15
99
52
90
14
16
9A
09
04
21
26
20
10
25
44
49
09
21
8A
12
A1
68
50
69
88
06
48
04
4A
00
94
02
02
A2
06
A9
96
48
A0
12
29
0A
00
81
61
08
81
01
64
80
84
1A
28
06
02
21
16
86
48
16
02
04
52
05
8A
92
24
01
28
14
56
A1
25
88
49
01
01
20
21
9A
14
A9
21
91
91
52
A2
9A
54
51
55
44
10
92
00
A8
42
04
54
66
A8
82
1A
80
8A
14
09
10
91
14
48
50
22
09
16
01
10
22
18
80
08
22
02
18
10
A9
66
19
81
42
A0
81
88
08
96
08
80
9A
80
16
65
00
89
62
68
24
29
01
44
41
0A
08
56
10
28
20
99
04
14
A2
44
20
96
14
99
56
90
62
65
94
1A
96
54
92
51
88
09
28
20
00
00
00
02
00
10
10
00
21
00
00
00
00
A0
06
00
10
61
88
00
00
80
40
80
00
80
90
A6
44
00
88
65
50
21
8A
40
84
92
90
82
A2
A2
59
29
41
90
02
41
80
02
20
18
02
60
12
20
00
00
00
40
00
00
10
10
80
20
10
A0
00
44
10
02
A0
00
04
20
41
04
8A
A8
04
AA
51
80
54
55
00
41
02
04
40
A2
A2
10
A9
86
09
60
62
85
28
95
1A
A8
45
96
01
06
68
10
69
64
98
5A
A9
9A
46
A4
16
21
66
65
46
95
6A
A9
48
29
96
69
69
68
48
12
05
69
96
16
A5
15
A8
0A
69
10
60
96
92
81
60
12
41
59
18
01
66
61
00
A6
66
A6
A4
60
86
0A
6A
15
A9
68
99
18
55
68
91
98
52
69
68
58
44
16
85
94
94
91
56
28
49
61
69
95
21
2A
9A
69
98
96
29
25
54
51
42
1A
81
AA
61
02
51
98
6A
89
11
49
90
AA
94
A9
62
85
51
80
99
A9
AA
60
95
94
49
6A
12
00
29
94
46
99
11
81
69
2A
21
12
65
90
A2
A5
14
64
14
68
80
06
51
52
9A
95
00
22
A6
61
54
52
14
24
52
42
02
28
1A
29
28
99
46
09
56
69
89
15
96
A1
6A
6A
11
96
81
2A
A9
16
29
40
61
01
5A
56
48
04
40
84
0A
A8
98
00
80
89
10
92
14
58
21
20
20
04
A2
06
89
81
64
05
81
12
2A
A8
00
26
28
44
A6
46
84
49
A9
0A
6A
44
AA
68
92
65
80
48
21
00
00
01
41
11
A2
04
02
A1
68
00
10
88
21
68
68
64
04
81
02
A1
52
20
28
AA
6A
84
95
68
28
29
AA
29
69
48
28
A9
4A
20
62
A6
55
18
96
16
56
A9
29
00
41
96
4A
84
06
64
65
89
26
56
14
44
15
29
6A
52
61
5A
44
98
8A
A8
64
60
68
69
06
81
94
46
45
96
AA
64
81
48
52
08
A8
55
46
A9
9A
96
52
49
56
1A
69
AA
14
95
A8
86
41
68
25
9A
81
50
54
56
16
05
54
01
51
64
54
A2
14
64
46
81
11
55
69
69
54
95
29
82
51
69
28
56
29
1A
AA
56
16
96
28
2A
09
48
42
A1
0A
82
50
62
84
69
21
22
84
09
08
20
02
06
5A
06
00
95
A4
44
44
04
95
91
2A
54
1A
56
04
04
25
54
28
58
05
14
50
58
19
5A
54
52
04
04
A0
50
14
15
92
68
A0
50
08
86
91
42
29
6A
51
08
42
46
40
42
08
28
10
A9
46
05
92
19
89
16
40
16
60
95
16
A1
08
94
5A
50
A9
AA
62
26
55
A2
40
A2
82
50
60
92
2A
25
49
00
A5
26
96
92
69
89
18
56
45
55
16
9A
65
95
61
69
9A
28
58
96
16
69
95
54
09
94
11
29
96
AA
04
62
6A
2A
68
86
AA
62
09
42
4A
14
02
A4
41
99
02
09
91
10
15
A1
25
91
08
45
62
51
12
66
09
84
4A
14
2A
0A
69
69
84
84
0A
A4
02
48
A8
56
69
92
66
90
94
4A
86
56
10
00
40
00
02
84
10
A1
12
00
80
81
10
80
20
90
28
00
04
00
28
00
41
11
26
50
28
20
96
06
48
84
10
68
21
21
28
A1
29
11
54
22
54
99
2A
18
10
88
01
00
40
00
60
40
41
01
14
21
98
02
04
40
05
8A
00
61
88
08
A0
25
06
68
20
40
09
00
A9
25
49
61
44
54
69
A9
01
08
AA
65
58
41
15
04
84
46
5A
25
00
11
46
00
42
9A
56
89
88
8A
44
04
42
29
88
65
69
89
89
60
4A
29
60
A6
A0
08
A9
4A
54
66
88
45
91
04
26
96
A4
86
49
95
94
04
56
28
29
25
09
95
5A
85
40
15
25
59
85
69
00
29
6A
5A
86
54
09
61
66
11
1A
22
10
15
80
98
52
01
22
82
A9
58
54
26
95
20
68
98
19
49
04
48
96
A4
60
90
26
52
46
89
58
06
85
25
54
49
15
48
06
18
84
61
94
04
18
60
91
46
68
A0
90
51
96
66
41
15
80
56
49
91
16
25
4A
92
89
96
96
A4
AA
9A
49
5A
88
92
45
14
10
49
0A
44
58
98
95
A0
41
1A
A1
14
98
22
A2
66
66
84
45
59
96
29
91
61
A4
A8
6A
A8
5A
A9
91
65
42
18
08
2A
15
82
A8
29
95
84
48
1A
0A
56
15
54
69
96
60
15
94
15
40
48
04
12
69
50
65
64
84
42
1A
02
81
1A
A8
58
84
A8
00
85
44
81
95
A5
15
24
41
49
29
06
88
25
10
52
98
25
00
6A
98
69
20
85
66
20
41
00
06
66
4A
96
68
A5
A1
A5
61
01
09
52
4A
42
06
84
50
04
24
98
46
45
98
84
52
88
20
98
88
56
10
10
96
4A
A5
A4
86
18
84
00
10
86
80
24
60
A1
44
4A
25
A6
A4
68
40
92
24
02
45
02
05
66
05
19
5A
10
28
9A
04
A1
40
60
A1
89
99
28
49
A8
01
88
A8
00
0A
94
A5
65
98
A5
86
66
05
84
50
64
0A
24
60
2A
00
65
41
88
A5
64
04
81
69
14
45
69
24
95
59
05
26
99
54
69
48
91
4A
49
82
14
AA
48
69
49
84
41
80
A9
84
14
56
14
28
14
04
49
24
29
68
54
98
6A
04
61
18
01
0A
00
91
15
84
58
95
61
2A
08
24
62
28
86
80
82
64
64
26
42
80
21
90
69
98
62
11
54
14
68
01
69
5A
6A
58
89
64
15
59
0A
82
18
26
01
88
24
A4
14
26
2A
10
69
28
18
61
4A
10
21
A6
29
21
55
96
86
81
22
29
41
10
44
A0
92
A6
06
40
84
69
19
A2
08
90
62
68
A9
6A
41
22
00
69
21
86
21
28
A8
61
82
02
19
06
94
19
44
49
40
84
A8
80
14
56
20
45
06
92
09
A0
90
68
15
08
80
66
48
56
52
52
6A
89
98
19
69
06
05
A9
22
26
0A
06
41
49
06
A2
10
00
08
88
60
21
41
80
95
18
1A
02
A6
22
04
88
40
01
55
28
42
01
16
42
49
8A
A4
96
10
41
99
12
16
09
42
06
16
A4
82
28
68
28
50
81
05
10
98
52
54
91
48
26
04
24
05
99
41
A8
5A
50
56
5A
49
5A
20
42
A0
01
50
49
A6
A1
12
90
00
A0
50
52
84
59
10
12
04
54
88
80
61
10
42
84
A1
12
06
1A
9A
10
0A
05
18
12
00
10
18
11
5A
21
98
80
96
4A
11
46
94
24
51
91
06
81
04
61
1A
58
09
91
40
A9
A4
90
49
29
86
0A
02
10
85
10
60
01
40
20
A0
11
94
58
2A
24
18
18
01
84
08
05
60
58
80
64
A2
50
41
44
51
89
04
62
59
51
16
19
18
99
80
58
42
15
69
45
10
24
10
08
40
55
A1
50
84
02
12
24
29
00
02
92
52
94
48
51
68
5A
04
68
00
01
04
44
00
28
15
A2
20
08
68
01
19
59
44
40
91
5A
19
48
28
06
08
46
08
61
A8
46
18
2A
44
00
91
A0
1A
00
8A
00
06
01
00
41
00
00
00
00
00
00
01
00
00
40
08
28
04
00
00
48
00
00
02
80
01
09
60
80
80
02
96
49
80
69
44
68
65
46
84
08
68
48
0A
61
21
18
09
10
82
00
40
00
00
40
80
00
04
00
01
02
84
00
00
00
00
40
20
05
00
01
00
00
00
A9
95
80
85
88
02
29
08
A4
48
80
84
96
05
01
81
00
42
90
06
08
06
2A
48
A4
15
06
68
06
09
44
09
96
68
4A
60
96
66
95
84
29
59
65
9A
86
2A
64
22
89
96
24
49
1A
52
A8
12
68
94
21
82
56
96
84
A6
A6
A8
95
0A
84
05
A5
A0
A5
A8
5A
AA
91
18
99
24
28
69
16
86
6A
52
A1
29
28
52
59
81
54
18
A6
96
51
54
55
48
56
69
6A
86
94
59
18
24
82
AA
66
69
68
A4
62
11
19
49
58
61
1A
64
89
00
66
A1
04
95
06
19
28
41
11
89
A0
2A
04
66
55
42
60
29
42
20
A4
88
22
29
56
99
44
02
6A
29
16
94
91
1A
95
42
19
56
95
90
54
95
05
58
94
AA
22
80
8A
A4
86
94
AA
95
40
08
99
6A
A1
55
21
86
82
1A
8A
68
6A
16
4A
90
A9
62
94
52
A9
A6
42
16
99
81
08
9A
95
21
A0
5A
62
05
01
19
41
62
65
4A
94
00
42
04
4A
09
2A
16
15
52
00
94
64
40
90
48
00
09
1A
1A
60
A4
06
40
59
10
6A
09
41
96
16
10
16
A9
51
66
68
20
46
4A
84
11
40
06
00
45
89
46
04
01
44
20
20
22
24
00
28
68
91
08
09
10
26
94
40
16
06
42
61
14
A0
90
85
14
69
09
69
84
10
54
10
6A
96
66
52
40
51
88
48
85
0A
46
48
48
04
81
85
28
02
6A
50
01
28
98
AA
65
06
4A
64
2A
A4
56
6A
11
89
65
8A
A8
49
19
A0
08
89
58
69
61
61
69
56
6A
00
85
60
56
96
A6
41
09
54
04
56
22
01
50
4A
45
95
18
4A
24
92
49
80
55
89
8A
80
46
8A
94
62
66
88
68
64
42
46
46
14
A1
6A
28
28
58
14
15
98
69
15
21
96
84
59
1A
09
92
95
6A
20
4A
14
42
82
84
44
00
40
11
00
41
06
15
86
98
42
46
02
06
85
42
A5
01
48
61
41
99
20
15
81
09
54
A8
94
85
61
42
52
A0
12
45
40
81
28
60
55
42
A8
1A
64
A1
AA
A0
80
28
49
00
44
94
40
08
88
50
52
10
82
82
5A
08
69
68
89
55
62
14
69
59
19
16
40
60
49
68
84
19
28
A4
05
09
A9
21
96
24
29
44
95
A2
50
A5
11
59
94
89
84
59
90
88
94
A0
18
98
50
02
5A
AA
2A
94
22
90
25
90
84
51
06
6A
04
6A
69
84
81
29
69
69
09
85
68
5A
61
14
A5
91
85
12
A5
A5
65
81
26
A5
64
68
04
25
84
8A
96
50
4A
48
90
26
00
61
84
8A
A2
90
10
51
00
41
95
95
91
56
08
6A
98
2A
29
15
04
48
95
15
10
28
60
62
29
60
15
50
01
42
20
24
00
A0
18
20
10
21
19
54
A0
40
24
11
81
80
65
11
21
08
10
04
82
11
12
61
42
90
68
02
92
02
84
16
52
20
2A
44
81
49
08
82
64
80
04
00
08
88
00
08
00
20
04
82
20
08
90
00
00
60
20
14
84
80
08
00
20
04
A5
29
60
10
16
95
01
66
82
69
94
98
82
6A
46
2A
A9
84
28
A1
61
A8
64
91
19
86
11
52
06
05
A2
96
A2
A5
9A
24
91
A6
9A
00
44
86
66
AA
46
A4
84
58
24
95
AA
A6
A2
1A
66
91
99
18
55
99
41
6A
62
4A
99
A9
49
99
62
95
A2
55
06
05
61
24
04
0A
62
52
41
00
94
89
61
29
55
80
46
09
A4
18
68
55
66
62
08
09
A8
10
0A
62
A5
69
0A
86
96
92
08
02
85
44
59
0A
A6
40
05
05
01
85
86
4A
85
99
45
82
99
94
69
52
22
9A
00
95
86
9A
09
A9
AA
81
88
44
85
25
8A
60
8A
A5
66
28
48
A5
50
05
1A
59
5A
A9
A0
8A
84
A5
22
49
99
99
22
95
14
59
28
84
29
96
19
A0
14
51
19
59
45
26
84
59
A9
A4
64
55
96
08
58
A6
55
84
65
A5
29
5A
50
66
66
86
6A
62
96
88
41
89
24
A4
A6
10
55
05
95
25
66
00
51
A8
A1
84
00
44
84
52
99
05
08
00
09
98
A4
10
81
51
41
04
52
61
81
61
62
94
6A
91
95
00
84
16
02
50
09
49
00
84
A0
18
44
8A
10
81
52
04
2A
44
08
05
06
AA
96
04
A6
50
A2
29
90
05
12
80
48
04
00
50
6A
0A
4A
45
82
41
08
22
20
12
29
4A
04
48
20
04
10
69
A1
08
10
85
15
21
A4
05
94
84
55
A2
91
41
8A
5A
50
44
25
A4
A4
A8
41
66
50
5A
22
52
80
49
9A
86
52
96
15
A2
05
2A
A4
61
06
04
19
42
59
55
86
86
A6
90
96
A9
15
95
01
56
45
55
18
66
62
99
1A
A2
41
01
09
54
A6
69
04
5A
02
A4
41
64
51
A0
69
66
98
12
5A
99
A4
55
81
AA
56
16
A8
46
4A
86
54
12
4A
59
8A
81
25
62
44
56
92
59
54
22
09
8A
56
08
86
A4
09
9A
45
4A
99
48
A4
A6
48
08
89
82
81
01
98
01
94
90
46
69
26
90
26
50
92
44
08
A2
AA
A6
10
88
64
58
90
66
0A
90
89
52
19
46
20
84
19
18
08
65
05
80
61
22
10
45
11
82
A9
42
11
A1
08
1A
00
8A
25
85
A1
68
A4
41
25
A8
84
21
06
10
A8
0A
99
04
82
A2
54
A9
A1
56
66
01
20
05
00
60
11
21
A0
00
5A
20
86
18
94
99
24
24
68
56
86
52
48
51
19
44
92
40
22
18
86
48
21
A4
66
51
68
65
20
49
06
26
69
94
54
50
91
4A
19
62
00
62
42
01
20
15
10
49
40
98
86
66
02
91
81
40
05
41
88
16
88
86
20
58
A6
51
54
66
20
98
84
25
0A
68
69
59
24
58
19
48
15
61
88
6A
41
8A
A1
8A
81
85
22
11
29
91
52
06
0A
00
A2
11
52
A4
54
40
24
16
10
10
20
02
69
25
58
8A
02
6A
24
98
88
48
48
69
42
21
58
02
18
8A
09
91
69
41
80
01
55
24
A4
84
05
96
04
68
11
11
0A
06
11
60
A4
A0
20
AA
00
08
11
11
8A
22
80
04
96
19
02
86
2A
96
18
60
92
88
49
12
06
81
0A
A8
54
6A
11
68
90
21
00
25
84
18
00
24
20
12
08
24
60
26
A4
40
04
80
08
A2
00
00
92
10
14
0A
64
5A
04
20
20
05
92
49
81
18
50
94
02
61
52
6A
86
A1
92
55
A4
A0
94
45
28
AA
41
91
05
41
41
A6
51
0A
51
05
14
A8
45
62
80
42
05
45
62
48
64
14
19
40
40
48
50
20
08
50
96
80
59
04
AA
A2
12
66
44
50
04
86
41
20
46
81
60
05
00
10
80
80
02
02
00
00
04
20
01
00
00
40
42
00
00
10
00
00
00
00
02
00
00
80
56
80
46
00
80
49
22
84
40
49
48
04
41
00
08
A6
05
00
50
42
26
0A
80
01
08
12
00
02
00
81
00
00
02
12
10
00
80
16
22
42
10
10
00
11
00
86
A0
00
A6
62
20
48
00
09
84
08
20
90
08
59
01
84
0A
19
84
85
80
48
08
04
96
16
A5
48
11
25
A9
98
8A
2A
A4
94
65
06
25
55
54
04
95
AA
49
61
65
A5
94
19
86
19
65
81
25
26
A8
99
86
65
01
49
A9
A4
14
59
A5
95
86
68
A9
85
81
86
58
85
58
46
09
A4
59
A9
14
AA
40
1A
95
56
5A
9A
A1
88
1A
29
69
55
69
42
61
99
96
51
A2
26
05
65
AA
92
16
A6
A6
16
66
9A
1A
40
49
5A
18
12
42
89
AA
41
96
22
58
50
44
59
08
80
28
95
05
95
04
02
90
65
A6
98
81
95
41
50
25
80
29
62
69
15
56
4A
80
51
81
41
A1
51
48
06
05
59
49
A9
24
68
49
8A
58
94
80
90
54
15
82
69
24
6A
92
06
12
20
51
96
94
28
54
28
05
9A
86
5A
55
20
A2
A6
88
89
46
09
A6
09
50
84
A6
11
50
45
A2
66
9A
44
49
86
62
12
15
84
6A
0A
02
40
05
04
20
09
59
00
22
04
68
62
89
0A
84
00
81
94
86
41
22
A0
41
26
00
08
82
59
51
02
51
06
19
40
92
88
A9
54
4A
A5
98
46
28
15
42
09
10
08
11
01
00
22
48
14
80
00
A0
92
15
11
65
4A
18
45
60
42
20
65
68
15
29
41
86
90
16
28
99
6A
51
51
14
A2
A4
2A
46
A5
60
65
26
56
A6
A6
41
88
19
A8
A6
86
5A
28
58
26
A8
49
68
00
41
A8
85
69
56
80
AA
16
18
86
64
01
09
56
62
66
A6
9A
A9
44
1A
56
4A
49
10
9A
6A
4A
16
06
96
59
66
06
50
49
A0
59
8A
25
A4
10
08
14
80
69
21
A4
82
40
04
98
52
A0
02
89
15
28
86
18
A4
66
2A
90
60
55
19
49
22
99
15
46
5A
25
59
12
A4
29
4A
92
A5
1A
68
22
A0
50
09
08
08
06
52
46
60
89
A1
20
62
68
68
09
A0
1A
64
06
12
44
A6
14
A2
02
05
14
68
04
48
56
46
42
58
8A
00
80
4A
16
28
4A
41
48
28
46
11
15
82
96
41
22
84
54
01
44
68
12
11
51
18
10
02
04
1A
80
82
0A
21
0A
A8
21
26
51
85
15
95
04
40
0A
29
20
40
21
6A
84
A0
A0
08
91
80
91
88
15
69
41
55
68
14
94
21
52
64
66
66
A4
24
15
59
86
90
0A
46
A6
46
51
04
A4
52
6A
51
64
49
94
AA
59
05
84
59
0A
24
04
85
99
96
81
18
49
A5
1A
91
55
41
49
05
11
28
96
69
62
98
24
49
9A
95
50
89
80
54
10
40
05
64
24
95
22
40
56
96
00
06
65
20
56
25
62
6A
A9
4A
A6
81
19
02
64
04
48
88
41
94
12
80
00
20
00
20
09
55
21
20
00
06
44
09
00
08
10
18
42
28
04
9A
24
29
40
09
82
A4
24
20
58
A4
41
48
50
40
4A
40
2A
10
40
0A
54
5A
05
60
A5
58
41
80
A0
02
81
81
84
51
00
10
11
25
85
06
90
05
00
11
24
24
01
88
14
2A
90
0A
06
49
49
2A
14
55
06
59
68
6A
59
00
10
22
65
84
16
24
80
A2
16
81
64
1A
6A
41
41
64
19
64
22
14
12
21
14
80
55
62
69
25
65
01
A0
98
80
86
99
25
00
4A
55
14
54
88
5A
4A
26
5A
0A
69
6A
16
20
85
08
58
84
A5
A2
44
02
65
8A
12
A6
09
84
88
65
95
66
50
4A
59
55
1A
64
69
92
9A
46
8A
A8
48
51
40
25
29
4A
5A
46
00
59
49
50
A8
09
1A
09
96
44
24
92
85
85
2A
14
04
19
56
80
92
29
6A
11
94
98
A9
06
89
60
21
0A
28
A4
44
11
0A
A0
A2
96
41
AA
11
96
29
69
25
44
09
41
56
96
51
14
11
91
18
90
52
08
06
64
A0
A1
62
56
65
88
04
41
80
01
68
96
42
69
26
65
61
A8
94
64
22
A8
04
92
28
81
80
95
99
19
62
29
14
99
69
85
4A
12
49
A6
92
04
51
A9
62
46
22
5A
45
15
11
22
A4
22
44
41
00
24
19
62
08
58
62
19
61
68
62
02
02
1A
00
45
16
02
90
12
82
41
4A
40
11
80
65
4A
20
62
06
0A
00
8A
42
69
89
2A
01
08
62
81
52
94
62
54
11
00
19
25
82
00
09
05
08
80
91
45
A2
09
02
A1
06
66
08
A2
46
9A
00
54
00
89
84
00
44
16
46
25
46
02
42
A0
0A
04
62
24
60
5A
08
02
91
20
86
A4
12
A0
62
64
05
A4
91
46
05
16
84
15
6A
29
60
A2
44
66
01
02
24
81
96
A1
59
09
29
AA
66
0A
05
92
56
91
A9
A9
06
42
11
A5
A1
51
54
55
90
40
10
50
06
66
64
28
92
65
A4
90
90
44
50
81
06
55
A6
56
A9
A2
60
28
45
09
18
85
51
56
48
A1
04
50
46
58
AA
86
06
16
10
A4
A5
AA
09
A9
11
42
95
19
18
5A
10
A2
44
04
A9
08
05
00
88
0A
02
56
10
40
18
8A
05
85
10
01
A0
54
59
22
4A
4A
02
25
40
40
40
11
A8
00
40
89
8A
21
92
50
51
9A
59
6A
12
2A
05
06
A8
28
A2
65
59
52
81
02
81
50
5A
02
95
58
00
04
15
99
64
58
62
14
80
42
A5
55
54
59
15
49
65
60
10
A8
1A
04
89
A8
6A
4A
18
91
42
26
6A
90
91
55
01
85
80
00
84
82
84
28
42
4A
84
09
00
00
60
44
94
4A
A6
85
46
88
A9
22
48
28
9A
5A
16
A4
50
85
82
98
49
9A
55
28
42
59
00
21
59
5A
8A
84
14
A9
55
50
A0
58
68
59
40
22
48
81
80
01
90
0A
46
56
02
86
29
1A
14
08
81
1A
96
04
A8
90
40
A2
1A
00
8A
12
48
60
94
89
09
04
19
A1
58
44
02
40
60
0A
24
0A
09
0A
90
26
06
90
84
85
28
11
4A
40
6A
08
49
00
26
02
89
95
20
45
04
00
90
41
00
68
81
62
12
45
8A
08
0A
82
48
40
0A
25
00
24
45
11
A6
51
00
45
01
6A
44
08
02
46
2A
69
56
88
69
85
89
40
45
60
81
40
40
08
85
08
8A
11
82
56
45
68
A0
10
01
68
24
A2
06
40
10
05
00
84
00
A9
02
60
05
50
80
28
01
82
86
10
90
52
08
92
8A
80
0A
9A
12
40
00
02
05
41
46
1A
82
A1
68
19
12
00
21
69
45
02
20
61
02
80
05
12
94
44
64
A2
29
94
94
21
60
04
A6
51
A0
54
21
16
01
44
04
40
00
AA
40
02
5A
92
A8
25
62
88
A0
A1
61
84
41
69
AA
4A
29
60
A1
46
59
14
A6
08
10
88
09
69
10
00
61
60
00
00
00
94
94
94
00
00
00
90
00
00
80
00
00
00
00
00
01
00
00
00
44
46
49
12
01
00
40
84
85
21
92
24
40
40
94
60
41
14
02
06
14
12
0A
02
82
22
80
00
00
00
00
00
40
40
40
08
10
00
01
08
98
00
00
04
00
08
00
00
02
05
00
91
42
28
02
64
02
40
00
02
40
92
A9
82
21
61
80
21
95
60
00
10
16
40
65
45
0A
12
95
89
2A
64
64
81
15
58
A9
50
90
52
66
25
15
64
65
65
94
56
59
65
94
A5
1A
51
24
95
AA
10
49
90
18
A6
42
06
95
50
60
69
20
A9
AA
58
1A
2A
14
06
95
A2
84
22
96
22
55
2A
A5
4A
21
42
48
05
6A
95
A2
56
68
2A
85
5A
94
02
15
89
6A
25
45
56
A2
28
56
20
A0
95
28
51
55
62
14
10
86
89
01
14
66
10
49
82
98
80
61
26
96
40
02
89
91
18
55
A6
55
86
25
69
50
45
01
84
A8
09
6A
95
62
21
96
AA
09
81
0A
46
44
91
95
88
88
88
10
82
A5
95
20
64
99
51
52
69
51
A1
09
14
04
64
6A
25
65
81
99
98
49
A9
56
A6
A8
59
44
14
49
09
29
06
85
91
62
06
68
22
18
A8
5A
90
62
06
29
45
51
26
90
26
15
91
90
A6
04
8A
06
12
00
A2
81
84
10
86
69
14
01
10
00
25
25
4A
85
48
64
04
0A
48
10
0A
A9
60
66
16
24
44
12
28
84
19
89
22
08
64
A4
51
8A
16
01
06
28
10
50
40
90
80
0A
46
18
05
19
99
82
14
00
1A
8A
01
0A
02
59
44
49
12
45
4A
A0
16
45
01
54
12
26
88
66
00
98
21
86
AA
05
04
85
98
09
15
01
99
85
52
2A
66
48
4A
1A
6A
91
15
99
46
85
59
84
5A
48
62
44
4A
58
10
81
88
62
65
88
84
A2
48
94
59
86
19
14
64
9A
16
15
42
66
28
02
A9
09
A6
56
46
99
0A
9A
58
40
85
82
18
42
09
5A
56
45
81
62
A9
4A
98
51
56
20
05
85
05
09
1A
A5
46
99
92
11
89
50
46
51
60
81
21
25
16
52
69
A2
59
06
99
20
62
20
12
A0
10
89
18
1A
48
89
84
66
80
A0
28
40
0A
89
00
01
42
A1
19
1A
A5
60
41
21
19
18
A4
54
09
16
40
09
50
6A
25
06
04
04
18
02
1A
00
28
49
0A
20
80
84
89
89
08
06
40
44
4A
64
08
42
0A
86
6A
45
42
49
08
80
59
AA
4A
01
22
41
64
05
46
A2
05
14
89
68
25
01
21
69
25
10
16
06
91
05
0A
8A
44
A2
04
42
26
AA
65
64
4A
0A
64
65
A6
81
A9
AA
91
64
40
91
99
15
AA
15
49
AA
40
AA
66
0A
20
11
8A
29
81
8A
26
81
61
A2
84
A9
84
A2
16
46
05
52
81
5A
82
91
18
A9
21
8A
60
01
20
84
81
4A
51
04
46
4A
94
A9
26
24
AA
99
04
10
8A
44
14
94
16
81
10
00
0A
92
88
84
21
06
1A
40
A8
61
5A
29
A9
09
10
80
04
08
08
00
00
22
00
00
84
A6
40
02
20
01
00
40
10
05
41
90
81
89
99
08
4A
84
0A
90
45
85
20
88
86
84
A2
A6
62
42
84
08
95
52
45
18
46
52
42
21
22
94
A4
00
00
08
00
58
01
28
81
10
09
04
08
40
00
86
42
48
28
A0
00
49
18
02
12
52
94
98
08
A2
12
22
61
42
9A
A6
8A
10
89
81
21
61
16
81
44
10
66
06
64
45
24
62
A6
29
5A
20
A9
26
15
09
94
25
15
29
99
86
98
19
26
18
4A
00
85
5A
2A
18
18
59
28
59
9A
A9
5A
1A
29
11
1A
60
46
A4
09
22
89
A9
19
82
69
9A
05
90
05
92
86
58
48
46
0A
AA
A0
95
18
11
45
60
19
45
06
25
05
66
90
54
98
16
A4
29
66
19
25
98
66
A1
26
24
40
A9
26
46
64
41
9A
10
99
10
22
92
82
9A
61
A5
56
61
26
64
A6
8A
8A
A1
56
41
26
21
10
50
A2
58
80
96
A2
06
69
24
A4
64
58
58
1A
25
88
86
81
64
19
98
19
28
A4
58
98
20
65
A6
69
65
A5
A9
59
69
54
0A
50
26
49
98
66
10
95
46
48
9A
05
41
06
A4
25
A1
4A
64
A2
85
60
5A
10
66
A1
99
98
90
A1
26
A9
55
90
68
9A
26
00
19
02
65
41
88
44
A0
19
82
24
11
24
20
24
52
80
11
8A
00
45
4A
05
26
24
90
85
5A
44
24
42
44
82
28
50
18
88
21
40
25
11
98
10
06
58
04
A4
88
01
A0
40
20
04
12
65
46
48
A9
04
90
64
A0
65
60
88
2A
A0
20
58
48
88
19
12
81
82
68
A1
09
08
50
88
28
25
10
40
01
89
11
04
25
08
04
05
24
40
56
26
09
56
99
A1
6A
56
88
16
95
22
A2
8A
A2
01
64
04
A1
9A
89
0A
84
82
26
2A
9A
21
A8
56
99
9A
12
19
59
92
25
A4
66
26
9A
92
5A
66
A0
A6
84
94
05
51
A0
4A
48
60
88
49
42
A1
A4
A6
11
10
10
10
16
86
99
5A
91
88
25
A9
29
15
98
56
20
99
96
51
98
61
59
64
8A
1A
19
59
A9
5A
51
26
59
66
15
59
96
66
88
22
A6
90
61
25
19
01
58
65
88
98
01
A4
48
A2
1A
08
99
62
24
02
06
4A
69
59
05
96
98
A6
22
50
62
64
A2
04
10
84
80
96
99
21
05
99
04
08
8A
46
45
51
98
51
42
00
91
22
20
26
00
66
55
A4
09
6A
98
40
20
28
02
29
01
90
96
86
01
66
56
09
96
62
04
00
80
A2
54
26
89
85
80
81
19
12
25
99
91
08
18
61
02
80
11
05
56
11
24
12
29
91
84
A8
26
00
80
20
15
18
80
44
10
AA
59
A9
65
48
A5
89
09
65
48
20
59
1A
A0
95
11
A4
64
0A
8A
9A
50
19
25
20
0A
25
49
46
29
22
22
00
10
01
11
42
80
56
16
46
A5
65
24
85
61
1A
A4
49
01
04
25
A0
21
69
81
1A
09
18
21
99
10
5A
94
41
25
61
49
26
90
A0
11
10
01
90
58
45
60
40
24
10
88
29
98
6A
A2
52
40
22
04
A2
00
61
99
19
28
02
16
40
40
82
12
09
00
19
20
98
A4
40
20
44
80
A0
19
92
00
61
09
4A
46
66
98
64
22
66
00
90
98
56
42
98
10
59
6A
92
60
44
25
10
24
40
10
64
00
19
84
26
A4
24
15
91
01
A4
09
62
20
02
44
61
51
45
51
62
00
68
00
A2
18
80
60
00
10
10
40
82
52
24
82
80
60
12
98
50
09
56
04
91
94
20
56
26
82
8A
82
10
A8
10
A2
91
08
A4
42
14
01
84
94
86
08
11
00
A4
50
18
00
60
26
10
59
00
10
24
99
62
44
00
24
58
10
62
60
08
66
1A
20
92
82
55
82
10
84
18
15
86
65
11
80
42
01
06
68
4A
65
80
11
09
10
A4
82
A6
A6
64
64
10
00
00
20
00
02
00
00
00
00
00
08
04
00
04
A2
00
04
00
00
00
02
08
05
44
10
00
94
45
05
06
05
02
42
19
22
40
46
19
64
42
04
40
46
42
A9
29
89
20
20
54
A0
00
00
00
01
00
00
00
02
00
40
10
00
00
00
04
20
00
05
08
00
00
00
28
44
A0
01
A0
82
10
0A
4A
40
66
A9
52
11
89
04
89
00
04
00
46
46
09
19
0A
94
99
90
25
62
86
AA
A2
6A
41
59
65
4A
A0
A9
45
A2
18
68
68
99
A6
54
58
9A
5A
02
50
90
A0
52
59
66
59
95
18
59
48
99
59
21
61
50
66
99
1A
19
84
9A
40
6A
40
86
01
5A
65
25
2A
15
4A
42
A9
09
16
58
56
09
99
91
52
11
92
91
51
46
96
09
0A
44
0A
9A
58
66
A5
05
62
5A
24
60
1A
14
99
9A
82
51
A0
2A
18
62
A0
28
09
A6
05
44
80
66
82
99
05
51
A5
58
1A
16
98
86
5A
65
4A
66
A4
95
86
99
2A
AA
19
65
A4
59
19
64
69
56
21
68
98
19
09
10
26
18
55
51
62
22
01
64
00
66
89
AA
18
94
54
41
A6
16
22
00
59
00
2A
85
62
66
51
6A
19
2A
49
95
95
88
99
A5
9A
89
82
25
19
55
92
29
A6
94
88
59
0A
88
54
18
50
90
98
11
12
94
A1
90
56
A8
88
20
4A
84
2A
42
10
0A
44
92
24
61
54
01
82
22
82
54
A8
10
5A
89
12
19
0A
82
A5
5A
A0
50
24
52
16
26
41
A4
1A
81
58
90
A2
10
91
20
29
20
28
01
14
06
A2
21
1A
94
12
19
58
08
51
59
96
A4
9A
58
4A
89
86
A9
98
59
59
5A
69
19
51
12
56
5A
99
40
08
29
4A
44
66
AA
99
99
81
62
65
85
49
42
22
44
99
12
68
26
46
16
28
0A
26
24
A6
56
64
65
6A
60
44
A6
50
62
89
66
A5
16
66
89
48
42
92
68
18
46
A6
21
19
42
10
45
01
25
86
19
96
64
02
19
22
60
6A
2A
A1
01
66
51
92
64
8A
85
A6
00
02
56
90
A0
90
55
61
26
94
98
99
A5
68
A8
14
69
58
49
66
A6
48
09
25
28
58
51
10
50
A0
94
00
04
49
06
82
2A
80
51
99
54
51
18
92
80
44
69
26
45
20
24
00
00
85
20
50
A9
22
98
88
00
A4
51
62
19
10
69
25
22
20
10
10
24
25
40
98
51
00
42
41
09
09
42
85
19
2A
28
99
66
04
AA
92
05
05
24
10
19
1A
16
00
64
06
A0
98
01
20
0A
25
58
A4
65
44
5A
65
A5
68
18
18
AA
84
21
58
81
1A
16
61
82
05
1A
25
A2
66
A6
64
20
15
28
A6
A8
46
04
48
A5
A8
99
60
A5
98
29
54
85
84
06
98
65
42
98
26
A8
59
A4
21
66
1A
19
1A
18
60
02
91
18
A1
50
99
58
66
68
68
51
65
51
45
52
60
2A
64
81
1A
99
66
22
64
96
49
04
29
86
29
81
86
60
25
5A
51
A5
9A
18
25
2A
99
69
A4
2A
01
28
25
21
02
00
14
00
A4
0A
00
08
00
40
02
80
98
25
02
11
08
14
86
04
A1
84
00
08
02
06
05
4A
55
80
20
66
81
50
12
50
00
1A
21
A0
98
09
A4
90
A4
50
A4
1A
08
01
02
44
04
21
21
12
08
10
20
0A
00
44
28
00
00
80
10
10
40
20
00
82
04
09
18
42
00
84
80
06
26
58
5A
5A
A0
9A
58
98
19
A0
65
58
52
56
19
5A
64
89
25
65
20
04
45
0A
10
05
68
51
85
49
98
40
05
26
55
45
25
65
16
82
18
16
16
02
60
19
59
96
A1
98
92
96
9A
05
90
9A
50
19
10
60
09
69
69
69
88
40
96
59
A6
42
89
18
54
60
99
2A
58
51
84
40
92
A0
96
85
96
24
29
02
42
11
49
52
68
29
16
06
64
05
42
18
65
85
05
49
09
65
9A
21
60
64
A6
85
91
4A
82
A9
29
98
59
96
55
A1
42
92
62
45
51
46
40
05
48
96
A5
58
19
A0
40
9A
56
2A
56
A4
65
5A
69
05
12
11
AA
A4
91
44
52
25
92
99
92
A1
66
94
98
01
04
88
A6
A0
66
26
59
55
69
AA
10
45
89
59
59
96
A6
4A
59
8A
66
94
A1
06
02
20
95
40
86
A2
02
19
9A
54
51
92
98
85
56
21
15
55
5A
61
9A
45
88
90
80
20
24
98
86
21
A5
A9
89
58
48
62
49
18
21
50
25
98
92
60
9A
09
51
12
10
5A
49
69
19
84
48
00
01
88
02
52
24
40
92
8A
09
05
6A
59
A8
89
26
A0
50
00
14
69
12
14
80
99
06
82
20
50
05
12
21
01
A2
11
22
81
68
98
12
88
42
24
26
85
08
05
60
98
40
90
1A
4A
80
14
64
6A
80
42
52
68
62
8A
65
92
88
94
02
55
88
02
89
65
09
A8
A1
A6
50
05
26
25
A2
4A
66
16
12
84
90
8A
55
54
A8
62
24
A2
A8
99
86
46
A0
69
16
9A
50
A2
04
84
14
15
19
99
25
05
99
50
0A
A9
50
28
1A
56
52
29
89
A2
95
61
19
A8
A9
6A
68
29
02
9A
54
A5
19
29
99
28
45
9A
54
89
64
19
54
66
92
24
5A
91
6A
89
08
69
88
82
11
00
A0
01
0A
A8
56
22
95
02
11
54
A5
25
12
08
05
08
04
21
A4
80
62
0A
96
58
81
19
90
24
52
08
08
48
64
26
20
12
6A
88
00
40
69
90
22
10
19
A1
21
54
A5
62
15
24
AA
8A
A5
02
05
24
2A
6A
66
82
8A
96
52
41
00
54
24
28
22
0A
18
24
29
46
8A
62
60
55
9A
06
10
AA
45
24
28
A0
A6
20
64
11
95
96
05
06
15
08
96
90
24
06
16
A9
19
15
08
00
46
25
1A
A9
10
0A
55
01
25
21
51
A5
85
44
AA
59
A6
10
81
10
65
A1
52
92
2A
19
51
24
44
55
06
82
59
44
00
01
08
51
08
04
20
81
40
15
06
A1
21
02
18
09
98
98
19
A4
65
09
58
28
40
0A
61
A4
01
66
42
0A
98
AA
1A
60
84
56
5A
58
A6
41
A5
A5
45
90
19
0A
64
04
8A
14
40
01
11
20
62
26
18
91
42
00
89
59
41
68
85
05
25
44
A4
81
12
18
10
50
A5
80
92
0A
8A
08
9A
59
20
1A
26
94
A1
80
82
01
A1
88
A2
66
01
88
45
91
62
60
41
4A
50
19
14
00
02
18
9A
5A
26
08
28
11
06
21
60
14
A0
12
48
10
11
48
60
05
01
20
0A
15
64
02
4A
8A
40
1A
00
05
48
19
A8
12
10
A4
24
24
12
22
58
92
42
05
29
22
62
09
82
42
22
20
41
00
01
29
A0
18
50
08
42
25
20
4A
98
06
21
02
40
A0
01
14
14
12
01
2A
55
18
68
26
24
00
12
02
80
58
20
1A
15
0A
A5
09
10
08
05
9A
80
60
58
54
A0
68
08
01
A8
40
80
1A
16
22
28
80
28
1A
24
41
5A
61
22
9A
14
01
91
10
50
15
50
20
08
00
02
04
00
80
00
00
00
00
80
04
00
04
00
00
00
00
02
00
40
00
00
44
00
20
08
09
80
28
20
14
22
10
50
01
10
08
15
08
08
20
40
28
2A
94
95
5A
04
00
40
00
10
08
00
00
00
06
00
00
00
88
00
00
09
01
20
00
00
29
80
02
01
04
A0
60
68
54
11
48
00
89
92
64
88
14
26
51
15
10
14
68
11
00
2A
2A
44
6A
A0
46
02
98
46
14
88
89
6A
A6
04
AA
15
8A
A0
12
A2
22
96
48
AA
A5
6A
45
48
90
98
61
55
24
46
A5
98
A0
58
18
88
9A
04
19
9A
24
62
61
41
52
29
95
A1
5A
64
29
66
2A
64
88
66
45
96
99
92
A6
22
91
98
91
9A
84
94
9A
61
46
A2
55
5A
98
49
51
45
90
A1
90
9A
41
A4
24
61
91
69
51
28
92
1A
58
26
90
29
02
95
44
41
91
12
A6
A8
A8
55
20
64
8A
46
80
81
59
96
48
95
56
9A
05
6A
69
26
8A
62
58
85
A2
19
64
60
4A
A8
0A
59
26
61
14
49
59
96
A9
00
10
98
12
4A
40
04
5A
A6
4A
99
21
A4
42
89
59
22
81
59
24
9A
9A
90
16
9A
09
08
A5
A4
86
01
A6
A1
0A
18
6A
A8
8A
62
56
98
94
25
00
41
61
A6
95
61
98
20
80
08
40
14
48
00
A8
84
20
29
51
50
10
40
41
04
51
98
20
85
9A
A1
62
88
08
81
00
15
20
28
09
1A
1A
54
98
60
88
65
46
AA
22
44
10
54
26
00
42
92
92
00
2A
40
24
80
21
10
00
10
05
24
54
56
25
48
92
01
02
AA
20
41
88
40
26
08
88
62
08
24
65
04
98
18
9A
0A
29
14
86
60
98
12
0A
89
85
40
21
44
9A
88
AA
11
56
56
4A
11
60
42
6A
95
1A
15
64
65
54
19
51
18
2A
25
14
61
44
91
44
5A
99
A2
55
20
A5
00
66
12
12
12
46
06
91
91
66
20
46
81
68
65
40
88
05
92
96
5A
A1
10
5A
A5
40
22
25
00
81
14
11
69
45
48
64
46
29
16
16
09
65
5A
66
9A
00
66
9A
99
66
25
81
52
88
6A
A1
64
82
25
9A
24
94
44
19
4A
18
08
24
42
29
A6
00
09
15
4A
59
A8
40
04
1A
09
4A
60
51
02
45
68
05
04
12
40
44
00
A9
28
96
01
60
01
59
60
18
06
1A
A5
69
22
49
20
25
20
08
9A
42
94
A6
60
01
6A
88
58
A2
14
54
58
A4
29
24
88
1A
02
51
45
02
01
49
20
21
60
40
00
25
14
80
65
28
25
45
26
18
04
25
10
98
08
88
1A
A2
0A
2A
89
80
11
1A
A5
9A
A4
22
11
10
59
06
A4
4A
46
12
45
45
82
55
82
90
28
56
AA
15
86
61
A0
29
8A
44
28
88
05
66
60
05
58
04
99
A0
20
9A
49
12
9A
84
11
2A
A2
52
98
A8
21
14
24
10
51
18
46
12
1A
82
09
56
89
04
90
29
61
A9
88
18
11
56
15
66
40
A8
0A
22
12
9A
64
1A
A8
AA
A5
85
58
19
00
04
10
85
11
11
58
18
15
A4
10
04
44
84
80
00
00
14
18
61
20
60
92
44
65
58
40
02
84
00
02
20
15
41
0A
18
11
5A
45
10
01
24
85
90
25
19
04
18
61
08
00
20
00
21
20
40
10
02
02
00
21
02
48
15
00
21
12
80
02
00
68
88
04
09
20
21
12
12
41
04
11
10
25
8A
58
92
A0
40
25
62
5A
A1
01
51
84
A6
91
19
10
01
00
01
58
12
19
28
68
21
18
41
49
4A
9A
04
16
44
96
6A
A4
42
28
40
59
16
41
51
62
42
95
41
80
95
94
91
99
02
94
A5
01
81
26
82
91
4A
16
5A
A4
40
15
21
54
84
68
A8
86
0A
48
A2
88
08
22
68
25
58
26
1A
A8
04
A4
86
58
68
11
48
94
00
9A
14
4A
5A
59
95
6A
A2
62
A9
8A
40
96
6A
65
92
60
58
A2
80
04
A1
58
96
60
88
6A
28
6A
99
18
84
16
86
05
A0
61
95
68
56
45
29
16
6A
56
55
02
55
6A
26
14
89
25
95
99
6A
2A
56
56
4A
15
A4
95
5A
66
85
A9
5A
0A
25
82
A2
00
A2
86
25
84
16
6A
19
16
85
60
06
42
64
95
94
66
29
52
90
28
56
98
15
65
99
6A
46
81
59
66
A5
88
91
96
64
80
92
81
0A
A5
62
99
92
42
12
60
29
02
68
24
19
24
54
08
48
01
12
84
52
21
86
50
A6
90
A4
12
85
18
94
15
65
24
61
A1
6A
00
94
88
04
42
46
00
5A
02
61
94
A6
09
85
61
89
00
20
16
2A
92
42
20
88
58
52
02
20
19
90
49
10
09
26
42
24
19
4A
26
10
00
A0
A9
20
96
60
24
91
42
80
26
8A
A1
22
08
99
11
0A
20
86
04
26
0A
94
20
12
A4
22
29
08
A5
55
82
46
66
AA
95
92
68
95
85
A0
66
59
A5
58
41
68
46
59
05
9A
24
96
81
A0
85
9A
66
69
6A
9A
58
92
59
69
8A
44
A5
95
2A
10
81
5A
26
26
81
58
A6
49
A5
99
44
11
00
85
65
90
88
65
66
96
A2
5A
48
AA
59
94
29
26
64
81
6A
86
42
8A
01
15
99
6A
05
04
5A
85
49
41
A9
12
51
05
A0
28
82
28
4A
65
98
4A
4A
15
49
AA
18
8A
50
08
96
2A
62
1A
49
12
4A
52
82
95
1A
90
26
0A
88
95
5A
28
48
54
10
A1
56
A9
89
01
A6
19
49
81
48
48
2A
21
A5
12
82
85
20
51
4A
48
84
A4
08
02
29
50
56
6A
08
5A
80
A9
89
14
99
5A
49
42
1A
41
55
61
22
84
46
10
00
50
8A
29
89
81
92
19
85
81
11
02
40
50
86
09
06
01
84
01
61
61
59
06
2A
40
25
A0
84
60
A8
99
24
21
02
68
80
0A
84
A9
66
A1
09
86
4A
06
61
66
A5
A9
4A
A0
49
95
6A
80
2A
48
26
02
00
01
11
0A
56
00
81
64
10
14
48
40
68
80
45
85
65
52
46
40
91
05
81
19
46
1A
58
98
22
49
A8
A1
84
28
A2
A5
A2
19
10
58
58
68
80
A2
92
44
16
96
98
0A
64
62
85
08
08
44
48
A2
41
82
48
A4
86
A5
94
00
64
00
90
48
1A
51
20
18
04
60
AA
91
90
28
11
05
42
AA
58
18
10
98
80
A4
45
85
04
02
48
98
46
28
25
14
A0
18
98
A1
14
05
98
24
15
52
11
A9
0A
4A
18
48
86
21
A6
08
69
22
68
1A
80
68
42
98
5A
6A
02
08
50
05
04
28
40
20
18
48
2A
86
10
52
82
40
04
49
A0
18
56
46
0A
4A
08
88
90
66
22
44
02
A4
A2
2A
10
66
16
40
48
59
08
02
A2
12
21
2A
84
01
99
10
52
15
95
04
48
44
A8
40
59
09
84
86
08
A0
0A
A2
64
08
08
25
1A
00
85
58
A4
58
96
16
20
08
48
04
A0
06
08
8A
56
98
00
46
40
92
48
5A
99
68
09
A0
08
80
14
09
10
41
54
58
82
00
00
04
88
80
08
00
02
00
01
80
00
01
60
22
10
00
02
80
90
80
80
40
62
02
0A
64
00
40
00
12
10
2A
2A
00
90
0A
60
55
54
80
22
06
86
01
2A
12
02
00
00
20
28
82
00
40
04
40
80
00
62
00
00
10
00
40
40
02
80
22
80
28
40
14
20
AA
20
00
24
05
04
28
80
40
84
59
60
08
60
22
41
2A
04
00
14
02
01
4A
4A
94
60
A2
40
65
69
90
42
44
0A
82
40
45
4A
9A
51
50
19
66
94
A5
61
6A
8A
A2
82
65
68
95
46
85
5A
60
19
99
A9
A4
96
14
61
6A
16
6A
6A
80
92
04
68
90
50
41
66
95
95
85
84
46
58
A1
2A
6A
84
5A
69
8A
19
50
16
6A
86
06
92
65
82
06
89
86
66
81
81
95
94
5A
92
56
6A
92
48
50
A4
49
4A
98
68
00
09
12
89
5A
46
99
28
65
20
42
56
45
56
85
49
0A
42
6A
90
69
8A
60
68
54
A8
55
50
84
14
61
18
A5
25
52
65
A8
A5
25
28
24
64
4A
84
48
92
A9
08
15
0A
60
22
02
95
A2
06
56
95
45
04
A4
2A
21
49
45
05
55
20
A0
85
46
6A
92
A5
20
9A
29
58
4A
92
41
8A
62
80
88
4A
62
60
88
15
60
85
94
94
91
6A
80
84
00
40
84
20
00
95
84
06
84
0A
40
0A
6A
44
05
10
61
91
00
68
16
58
18
A6
0A
46
12
16
46
09
09
A5
A6
40
A5
86
21
28
5A
92
81
06
85
05
66
54
12
82
18
05
80
68
08
20
24
02
6A
99
48
86
45
64
01
80
04
85
85
94
21
99
0A
84
82
80
95
1A
9A
66
68
22
81
A1
91
11
81
12
82
21
14
A2
45
A9
68
55
68
40
15
81
80
68
86
40
91
A8
46
52
5A
02
08
80
69
89
06
60
44
46
59
54
64
58
01
09
A9
69
56
44
A8
58
4A
52
95
6A
81
9A
61
84
94
84
05
56
59
A6
28
86
42
55
61
58
85
26
86
68
85
69
1A
19
68
18
44
62
42
A1
52
25
9A
49
08
60
A6
98
59
A5
28
1A
58
69
11
81
52
68
59
62
A2
9A
29
89
10
51
84
69
42
12
41
95
50
98
90
85
95
12
08
80
21
84
50
09
24
89
80
81
A2
84
54
40
64
42
A0
08
44
55
46
50
91
49
86
21
49
60
A1
61
82
40
54
0A
49
81
8A
24
69
20
9A
44
19
02
9A
10
64
88
64
84
80
44
26
82
A4
01
49
81
A8
48
41
08
90
84
46
94
41
A9
14
82
A6
46
00
58
94
6A
28
46
99
60
4A
99
90
88
99
86
45
88
19
96
89
45
A4
69
19
66
94
12
61
45
25
61
A8
6A
20
05
42
50
60
A5
1A
49
96
29
85
11
05
40
68
01
40
49
89
6A
4A
81
AA
61
5A
90
88
95
90
80
A9
80
91
09
00
81
90
05
89
49
25
2A
18
42
10
94
89
66
9A
4A
1A
65
16
48
49
02
46
01
61
46
50
15
58
60
80
11
A8
90
88
46
A1
25
46
44
42
9A
5A
28
00
21
44
80
10
60
80
06
00
00
01
42
25
A0
4A
11
44
68
40
02
60
46
66
20
15
65
61
10
40
42
40
40
68
84
90
11
16
84
82
82
68
04
08
49
86
46
81
2A
90
82
11
14
40
56
06
40
80
02
0A
00
08
A1
54
48
00
50
58
89
24
01
10
02
05
84
40
11
91
80
66
59
04
62
81
80
89
41
A6
A8
52
00
48
A8
18
80
58
A2
A1
02
11
6A
A2
A0
89
A5
80
01
06
42
08
95
22
A5
0A
A9
29
85
95
52
61
29
01
89
94
44
2A
24
94
81
49
56
62
69
90
5A
61
91
52
60
52
A4
48
A9
A5
64
26
55
11
46
26
91
05
66
96
08
45
01
5A
59
A5
08
95
11
A1
16
62
9A
A8
A1
5A
01
99
A8
A1
44
50
58
50
A9
A5
5A
5A
84
18
A8
48
A5
A6
08
A0
96
A5
61
1A
56
5A
00
41
A4
61
86
48
A0
9A
2A
55
02
89
0A
9A
46
60
A9
40
A4
84
51
61
AA
5A
5A
A6
82
64
2A
88
A1
88
58
5A
24
A5
20
A0
16
A8
82
40
54
A9
A9
52
54
21
81
85
A8
89
89
28
10
55
16
66
54
01
25
55
A2
A1
4A
A6
51
6A
AA
91
A5
29
A1
45
69
49
20
22
A4
46
88
84
A9
55
18
15
61
86
41
10
5A
91
66
40
58
41
02
11
81
22
8A
91
58
41
18
69
98
52
42
82
50
21
51
42
21
86
49
40
01
A8
69
AA
08
92
04
A1
08
A2
6A
16
16
86
04
05
88
8A
81
A5
1A
6A
86
40
20
48
06
66
58
85
01
91
01
48
21
88
50
05
09
02
24
02
62
06
58
42
01
18
55
2A
A1
00
81
10
42
A2
46
9A
A6
46
26
06
04
60
26
12
96
61
49
81
21
44
88
95
A2
00
91
0A
05
4A
08
82
65
58
A4
54
84
69
1A
A5
0A
59
A5
26
41
A5
98
60
A8
A1
AA
61
A5
00
90
55
44
95
95
A6
98
94
29
25
98
29
A0
6A
56
49
6A
A0
40
A0
AA
42
01
45
19
21
66
52
A8
69
09
41
41
54
24
06
94
91
21
8A
A1
56
64
54
6A
9A
A5
44
68
52
85
5A
50
65
5A
52
05
49
15
58
22
85
54
95
24
40
5A
98
58
04
90
60
00
14
61
40
60
20
91
4A
A2
4A
24
4A
04
9A
98
15
21
92
58
01
29
60
4A
A1
00
22
18
46
A8
2A
18
6A
26
44
8A
19
48
84
60
52
52
A5
6A
50
16
58
11
51
28
81
80
89
81
14
99
09
82
02
11
16
96
18
92
42
59
90
22
00
4A
58
92
65
A0
99
51
A6
26
00
21
86
A5
80
01
45
82
01
28
89
89
54
10
66
50
A4
5A
92
58
06
00
A1
A1
48
A0
88
6A
20
14
45
02
86
11
64
44
88
1A
82
48
46
A5
52
A4
58
94
61
85
89
09
59
52
25
20
4A
48
11
41
98
50
04
50
44
84
20
14
60
18
A4
88
59
05
62
0A
54
84
86
42
85
80
18
1A
26
14
85
A5
94
88
A6
A0
86
51
04
52
88
50
02
51
A1
A6
96
65
01
1A
A6
1A
81
81
18
A4
56
15
80
A1
02
26
59
16
01
11
82
81
08
84
AA
9A
A0
00
42
26
52
90
85
09
90
80
12
02
40
88
25
11
15
68
92
89
40
60
18
92
25
60
60
62
84
22
50
02
62
80
14
A1
85
89
05
18
A0
09
65
60
80
84
26
46
44
45
A0
04
61
62
82
25
54
10
06
44
80
82
00
A6
AA
81
00
60
90
08
12
02
A0
4A
9A
22
52
40
21
99
06
91
10
10
86
88
AA
45
04
90
56
82
51
10
08
10
14
09
82
92
10
42
21
82
29
16
15
1A
4A
88
88
86
48
49
08
81
66
20
04
A0
42
10
26
28
02
99
54
52
54
08
40
AA
00
98
A0
45
52
0A
94
44
12
10
11
62
44
04
19
15
8A
0A
10
2A
09
80
08
88
60
21
A1
08
81
48
46
95
84
88
04
A8
20
04
90
85
04
62
06
00
04
00
01
00
80
00
00
00
04
00
00
00
00
00
04
10
00
00
04
88
A1
0A
80
2A
28
08
44
40
8A
06
80
02
0A
00
08
01
08
8A
88
08
04
84
44
18
04
08
01
00
00
00
00
00
10
40
00
80
08
00
00
29
00
00
20
00
20
00
00
00
41
00
88
A0
20
84
04
09
18
10
A8
08
45
A9
40
04
02
44
A0
10
02
88
88
01
98
91
50
45
56
90
66
1A
68
6A
25
98
A4
86
61
59
84
86
05
45
92
22
45
91
A5
08
10
54
89
08
56
62
1A
58
85
40
18
5A
56
06
95
96
A1
82
56
29
42
56
66
62
49
11
85
A2
20
A0
11
92
91
01
25
A1
81
08
A5
A6
99
64
22
5A
95
65
49
4A
06
10
A5
9A
1A
A6
55
45
52
58
A9
A2
8A
A5
40
95
A5
42
55
90
99
88
10
51
A0
48
A5
A6
51
6A
61
55
42
99
42
A0
09
A0
92
A9
91
68
90
16
86
88
85
18
15
89
A5
21
59
99
66
66
A9
06
08
15
88
56
16
24
2A
5A
19
16
81
5A
08
59
14
86
90
21
16
2A
94
2A
95
6A
01
15
81
55
66
00
A8
80
54
21
A6
99
25
92
60
A9
A1
88
85
81
44
52
A5
50
6A
A4
85
54
89
62
05
20
69
0A
50
84
80
65
00
51
00
54
18
60
19
20
61
90
86
06
09
05
25
A9
60
02
00
60
40
9A
86
40
A1
84
68
60
04
1A
1A
59
29
A4
09
06
01
AA
A4
80
90
19
22
01
A1
91
22
81
48
51
80
86
06
41
18
A1
8A
62
08
10
59
96
66
04
01
11
58
44
19
98
80
68
02
5A
5A
24
44
A6
A9
4A
42
41
58
58
80
19
54
51
54
20
60
85
A0
59
28
A9
62
52
16
62
86
A5
48
29
60
91
94
59
11
25
55
8A
68
00
A0
84
84
60
A5
A2
61
89
20
AA
8A
95
A9
65
85
A1
60
89
52
54
84
66
5A
48
5A
A5
41
40
6A
68
A9
1A
80
01
49
9A
99
85
9A
59
08
15
69
A5
99
14
A9
1A
A9
06
A4
45
51
86
59
28
89
85
54
81
91
A2
02
58
A5
66
40
A1
45
51
55
54
26
1A
49
46
22
11
50
05
44
0A
02
58
84
8A
81
52
50
00
54
08
86
41
11
09
48
16
56
A9
49
02
A6
15
69
49
15
19
44
A8
42
A5
95
90
59
20
51
19
20
A1
A5
59
49
69
40
A1
48
02
00
A9
64
00
26
8A
82
A5
00
80
2A
02
18
81
20
84
16
A8
40
00
6A
51
82
58
88
05
94
18
48
A8
42
A9
14
64
01
12
4A
04
82
01
46
A8
80
5A
18
16
50
41
56
55
66
82
41
AA
22
19
04
66
8A
29
46
64
88
84
A8
A0
29
61
1A
A6
19
46
98
6A
89
84
85
44
80
25
55
A5
65
06
A9
A9
A8
54
AA
41
1A
89
20
0A
49
49
00
02
54
48
49
10
96
89
01
85
89
29
55
98
09
16
94
69
94
59
85
50
5A
29
4A
65
55
06
04
A0
AA
89
91
54
59
85
46
55
01
A9
0A
45
86
A0
50
24
02
00
10
A0
01
00
12
45
10
01
10
18
80
85
80
08
81
42
05
20
02
81
58
81
64
21
81
65
86
A1
90
42
51
50
50
44
50
A8
25
00
09
24
88
20
19
82
20
08
60
58
40
00
A0
00
02
08
11
02
45
18
29
09
00
10
04
46
04
55
00
51
11
09
80
42
56
40
A5
55
56
A6
58
50
54
98
88
26
88
44
A4
04
64
98
98
48
A8
45
0A
49
48
04
09
14
61
24
2A
A0
A9
56
96
A2
41
A1
81
A0
88
86
21
98
A5
25
46
11
54
69
04
22
0A
02
AA
05
A2
22
64
88
A4
0A
26
46
42
19
48
A9
55
88
26
00
20
42
A9
05
29
80
12
5A
A5
26
64
98
82
A0
10
45
06
22
61
8A
69
08
A8
05
94
58
09
08
5A
45
AA
95
10
05
4A
54
AA
90
29
4A
65
84
59
21
4A
02
09
A0
21
90
AA
89
05
54
A6
94
54
96
95
05
82
61
41
A1
A4
A5
A5
A9
AA
62
40
9A
64
10
12
69
54
A4
6A
12
44
0A
45
59
52
18
65
8A
A6
26
88
86
99
96
6A
09
06
09
A9
81
A6
1A
46
96
A9
44
58
60
A9
58
61
16
5A
89
92
14
64
95
AA
98
01
AA
51
11
65
1A
5A
08
68
85
94
68
96
0A
61
64
94
48
9A
A5
52
A0
20
21
19
16
A0
84
80
95
A8
14
42
9A
0A
60
80
50
26
91
80
94
44
82
56
A5
56
44
24
64
06
00
45
21
58
28
A6
8A
15
29
A6
22
80
62
40
94
60
59
6A
00
99
20
46
04
A8
14
05
49
A2
8A
92
80
05
00
69
08
81
82
20
41
92
68
80
58
02
46
A1
A8
04
42
54
A6
99
20
20
A1
60
26
A4
29
A0
19
46
A4
84
00
A9
28
92
85
A2
A2
69
21
45
68
0A
10
85
80
16
58
61
84
14
06
21
51
6A
01
A1
64
41
69
9A
A9
AA
92
46
00
94
62
21
A5
15
40
89
A9
A8
90
95
11
A6
96
41
44
12
9A
18
20
A9
AA
99
85
95
28
92
8A
06
A6
6A
A8
56
A0
24
8A
50
16
52
05
68
00
15
6A
95
69
68
A6
22
02
02
02
0A
2A
4A
A9
4A
95
20
16
66
29
11
61
60
0A
16
A2
A0
04
92
02
99
90
A6
86
28
50
26
6A
4A
6A
02
55
45
28
25
02
80
AA
62
90
21
5A
05
50
64
49
6A
46
12
02
01
29
16
80
15
88
89
22
69
8A
15
96
89
84
82
11
A5
56
11
48
51
61
80
84
04
48
80
0A
22
59
22
65
84
48
56
41
60
62
68
6A
94
21
00
A0
11
88
A2
55
09
42
8A
A5
00
69
92
6A
48
49
94
09
82
92
80
82
40
40
49
89
48
04
98
10
12
A0
68
21
61
82
48
14
0A
22
41
58
10
59
61
46
4A
09
A6
86
90
9A
0A
59
20
61
22
AA
56
00
94
A6
05
00
90
14
00
A0
49
01
92
10
41
48
81
05
A6
69
80
00
0A
28
81
51
51
28
A6
24
A8
2A
A5
22
29
06
28
82
02
00
54
4A
20
84
59
86
A1
28
2A
14
90
19
91
00
00
10
20
91
06
A1
61
11
52
85
90
86
08
84
25
81
64
40
66
04
A0
AA
69
92
12
22
80
80
99
00
00
06
05
28
06
04
95
55
19
08
96
5A
61
0A
00
28
A1
20
91
20
6A
21
80
10
91
44
02
2A
92
94
A8
08
22
14
85
61
00
16
A0
24
90
00
10
86
08
91
80
40
50
88
81
54
06
61
11
80
19
24
80
12
20
80
15
58
91
44
61
1A
19
95
56
92
42
01
28
18
01
10
68
14
11
10
94
09
99
56
A1
58
82
00
05
11
00
88
91
40
24
14
19
92
04
80
09
80
2A
09
9A
2A
26
85
04
11
06
84
88
68
00
01
11
64
51
64
22
A8
18
26
60
80
20
81
2A
48
90
00
64
90
54
51
10
46
40
08
00
92
65
01
60
50
5A
14
06
99
84
48
99
96
0A
89
60
81
00
80
40
00
04
40
00
04
00
10
00
00
00
00
00
00
00
A0
00
00
00
40
00
24
82
04
20
40
44
00
04
66
22
88
1A
6A
62
48
66
06
22
20
26
21
59
18
98
52
06
28
40
04
00
06
06
08
00
00
04
00
00
80
10
04
00
00
00
80
00
20
00
80
10
10
20
01
01
08
81
00
18
08
05
40
19
05
02
18
00
18
10
41
80
64
24
59
81
51
95
16
6A
84
26
49
62
46
20
96
88
5A
06
22
01
98
84
9A
6A
61
66
05
68
68
9A
65
22
82
A1
54
AA
96
84
25
26
86
22
56
69
A4
A1
86
54
91
25
A6
A9
49
A1
82
52
85
92
00
90
A5
04
20
8A
A1
6A
20
1A
00
24
85
01
6A
44
A4
18
14
64
96
94
85
96
85
40
61
1A
A8
60
05
90
49
A8
81
40
98
6A
A5
9A
19
50
82
69
25
61
2A
29
A9
25
52
5A
65
29
40
06
99
9A
01
60
A6
85
98
95
A6
82
A9
A1
54
16
58
65
92
A4
29
09
01
A4
62
12
A9
50
61
19
A5
8A
5A
94
1A
82
16
91
81
69
84
11
42
85
02
22
25
98
1A
A8
85
06
A8
92
96
69
92
68
10
A5
1A
06
86
89
2A
96
16
98
28
55
22
9A
81
59
21
20
AA
50
21
25
9A
28
08
01
A0
84
80
81
A0
28
81
AA
48
81
58
56
09
09
64
04
20
84
86
42
99
04
14
21
20
26
06
A4
25
8A
48
18
AA
A4
84
A1
98
A5
45
AA
16
21
06
A0
04
24
85
48
89
25
95
80
18
84
A2
59
10
48
80
91
08
05
55
28
80
98
26
08
80
1A
18
A0
A1
41
84
10
48
91
15
05
4A
0A
61
02
41
45
45
A0
A8
A0
64
A6
61
60
84
A6
22
86
1A
00
10
46
21
21
A6
85
28
99
A5
22
4A
25
91
2A
A4
2A
61
45
29
85
29
25
A9
90
15
65
5A
49
89
09
14
02
29
46
59
56
A6
28
06
99
49
64
46
86
92
11
A1
26
01
8A
51
69
65
A4
99
40
62
14
06
59
1A
81
52
64
6A
95
92
90
5A
61
29
49
50
99
40
55
21
9A
29
15
12
29
00
16
5A
80
55
61
62
22
10
02
1A
45
05
22
2A
99
02
19
02
20
06
64
21
42
92
40
41
00
12
50
26
8A
68
85
21
A9
01
29
40
99
94
06
19
04
28
09
60
68
48
48
26
55
24
40
08
08
24
42
04
1A
01
10
41
52
08
40
85
68
18
18
48
88
A2
24
00
80
02
12
48
08
28
01
A5
61
16
02
95
54
90
82
85
42
46
05
51
19
98
A1
50
88
90
00
45
64
90
20
08
88
29
84
A0
21
58
08
99
01
52
64
2A
04
92
0A
56
10
88
55
A6
15
90
55
A2
56
8A
58
84
91
45
51
08
89
52
10
94
A5
60
01
96
54
82
82
9A
00
A2
A5
68
01
6A
21
A5
21
58
22
60
9A
56
82
52
18
21
AA
66
16
00
99
92
25
96
92
A1
66
A5
64
A0
41
89
A5
A0
60
81
86
80
46
01
02
24
46
01
48
AA
9A
8A
16
80
50
04
88
05
08
81
20
A8
10
14
41
02
09
15
60
08
05
14
44
21
08
40
18
01
24
04
44
84
98
41
00
20
02
18
02
66
88
40
01
00
82
08
2A
48
99
54
A1
00
12
20
80
02
40
20
00
00
05
44
10
04
48
80
00
00
15
45
02
A8
21
1A
00
58
65
20
2A
06
48
25
82
10
0A
02
98
A2
01
A5
59
46
01
04
49
10
58
A6
61
2A
11
95
60
22
41
AA
A2
69
05
54
88
45
45
40
54
09
69
40
69
52
28
56
9A
28
52
69
42
55
45
81
86
82
90
6A
16
86
91
9A
16
86
9A
01
49
68
55
86
89
06
29
26
81
04
22
04
82
82
A2
AA
62
95
42
88
A5
A9
24
A2
40
21
64
22
94
48
25
4A
41
51
21
05
1A
18
65
65
92
A9
81
15
0A
56
69
81
69
01
65
25
58
82
A4
24
AA
41
29
09
60
88
65
45
A5
08
5A
68
00
59
55
A1
4A
60
6A
86
1A
28
54
49
25
01
2A
A9
69
54
41
96
96
8A
A5
69
81
A4
65
9A
82
1A
61
65
1A
51
20
A1
A5
5A
50
66
AA
9A
16
08
19
A5
A9
6A
68
A9
52
46
69
05
86
49
65
64
86
68
46
80
9A
98
A6
11
9A
94
81
45
26
A6
50
55
49
16
1A
9A
21
88
A1
09
22
19
4A
40
11
82
42
0A
64
44
00
50
18
65
19
00
60
91
01
02
8A
52
91
50
49
44
1A
65
09
0A
44
96
40
98
42
96
04
A1
21
11
0A
20
15
80
95
50
66
01
94
65
68
8A
24
28
84
04
05
92
18
82
81
46
04
16
A8
44
11
9A
09
84
51
85
50
59
62
40
66
02
08
45
22
69
49
01
96
42
66
44
54
22
81
82
25
04
24
40
05
85
59
5A
05
84
94
16
01
90
68
54
A9
A9
61
52
64
A6
98
11
A5
94
09
18
54
29
65
5A
18
15
16
18
56
98
51
A9
69
95
9A
A6
12
05
69
A5
21
49
15
60
29
66
16
A5
26
58
06
9A
98
95
42
40
92
11
95
14
6A
58
AA
91
80
82
5A
29
50
A5
1A
48
0A
99
80
15
9A
21
82
84
95
86
65
92
86
82
1A
84
19
82
1A
65
12
96
9A
40
A5
21
AA
00
26
25
05
10
06
15
92
09
92
59
15
04
91
66
1A
62
66
82
85
41
16
89
45
02
9A
48
A4
09
92
19
16
05
1A
44
25
5A
65
65
16
05
25
46
12
9A
42
10
86
66
6A
20
05
6A
84
12
46
24
1A
60
A6
44
18
82
A8
56
29
24
09
0A
89
86
95
11
45
16
8A
02
88
69
21
A2
94
91
A8
52
41
26
68
A6
A2
80
51
A0
82
89
04
09
48
01
4A
A1
04
06
08
40
11
12
46
90
89
18
51
06
A2
1A
12
94
09
42
96
16
92
01
02
11
5A
59
90
68
19
58
A1
45
A8
1A
60
52
20
82
80
00
26
80
49
22
58
24
48
22
81
06
A1
49
62
44
18
14
61
86
51
42
22
69
28
41
94
20
68
16
1A
5A
15
56
68
62
91
2A
A9
26
81
AA
15
09
98
88
08
0A
02
1A
61
08
01
2A
48
54
04
21
06
99
58
50
0A
50
A1
11
0A
A0
01
A6
68
19
80
46
96
10
80
0A
09
52
46
51
A6
21
60
25
10
A6
19
69
22
26
A9
65
82
29
25
0A
48
0A
5A
69
82
26
4A
AA
51
09
05
08
05
08
29
0A
8A
6A
18
12
01
22
04
14
69
09
61
25
8A
44
44
09
28
A0
2A
5A
0A
44
00
50
64
A9
99
02
21
01
02
1A
10
56
85
09
64
09
20
16
85
00
2A
24
00
0A
02
09
01
21
09
44
59
26
08
84
60
85
0A
01
02
46
11
9A
56
49
02
1A
15
64
22
09
A5
95
A2
19
4A
A4
42
A1
1A
11
82
91
65
81
20
42
A5
12
24
1A
91
A1
00
A0
50
19
00
81
A2
60
58
1A
42
29
82
01
01
5A
01
01
82
56
10
09
06
5A
05
20
00
82
00
10
00
00
08
01
20
00
00
00
06
00
00
01
09
00
01
00
04
00
01
00
00
01
00
88
09
19
08
24
44
86
09
96
41
20
29
64
29
01
08
28
49
49
66
02
02
18
00
00
01
01
08
00
00
02
00
02
01
08
09
02
08
11
00
00
08
10
01
00
22
01
00
48
09
A0
0A
24
04
11
11
18
02
09
06
12
24
44
10
06
04
65
90
09
19
26
82
85
1A
14
A0
A5
55
69
6A
69
51
80
92
15
52
02
96
88
65
95
A2
55
8A
41
48
9A
49
8A
99
6A
85
65
AA
56
69
12
49
A6
2A
98
A5
AA
61
99
48
65
66
9A
94
54
92
6A
21
06
0A
62
62
9A
14
45
15
8A
65
46
50
14
89
94
25
56
8A
A8
6A
9A
A5
08
29
AA
18
61
11
8A
12
9A
05
29
69
85
25
55
01
9A
65
82
26
85
56
14
A9
14
59
41
94
64
88
90
26
A8
A6
A9
6A
60
06
49
0A
9A
08
41
69
61
29
06
61
A5
65
11
91
60
98
96
68
A8
06
A8
09
94
25
15
A2
52
16
5A
56
81
52
46
06
01
82
52
56
89
AA
48
50
68
09
51
50
65
0A
89
02
5A
84
0A
65
A2
90
50
50
66
25
A5
60
80
62
92
55
82
96
21
65
06
42
A9
45
49
A9
49
12
81
2A
08
90
60
4A
60
46
05
46
20
12
81
89
98
10
02
54
45
90
46
00
62
14
46
45
29
08
4A
00
84
65
86
95
52
0A
11
9A
0A
89
85
A6
95
91
15
48
6A
28
81
65
85
08
8A
10
21
08
96
92
49
06
21
80
80
20
08
00
52
02
22
2A
04
A0
28
4A
86
29
9A
58
92
96
8A
59
14
8A
96
9A
9A
92
19
5A
56
59
21
28
52
51
81
A9
64
A5
9A
86
98
92
09
50
90
69
25
29
05
24
68
25
56
95
98
19
A5
66
21
68
88
00
80
98
21
21
94
95
62
05
44
0A
65
52
A4
A5
5A
54
9A
58
69
89
8A
56
1A
25
99
80
81
9A
44
28
29
A4
55
6A
A5
68
28
68
A5
0A
82
05
58
09
56
42
85
90
92
21
84
65
58
54
25
82
92
69
58
91
A5
9A
82
12
51
92
08
96
01
55
12
06
9A
00
04
94
24
12
69
24
15
21
82
06
2A
49
0A
18
26
22
06
95
29
4A
24
28
24
61
19
26
25
06
05
16
09
21
45
02
48
06
10
8A
45
61
06
04
02
60
58
A4
21
46
19
44
59
04
A0
00
A9
00
54
22
94
88
19
15
51
64
06
44
25
A9
12
56
98
99
A9
81
86
A2
25
80
61
0A
25
21
95
5A
85
61
81
92
09
21
88
A2
56
4A
02
62
69
58
55
59
16
62
45
81
95
69
26
58
10
69
A4
6A
A4
15
95
56
59
99
8A
84
24
91
59
65
82
61
61
60
15
61
20
21
19
21
A2
8A
56
9A
A5
96
96
06
06
88
16
14
51
8A
81
5A
59
2A
29
05
96
22
A0
AA
26
91
20
42
86
12
10
29
25
99
A9
62
2A
26
41
16
A2
5A
96
12
61
82
8A
62
41
15
6A
55
68
08
62
80
16
02
29
06
01
09
02
02
20
01
00
09
48
08
08
2A
80
20
00
51
60
A6
65
20
82
46
66
05
8A
60
A0
96
94
14
56
94
01
A4
9A
02
94
59
01
51
89
12
06
00
00
00
00
A8
40
15
08
00
00
80
20
22
00
40
22
12
00
68
80
14
A2
98
01
48
22
A4
44
19
A6
40
48
02
02
90
84
09
64
11
06
06
52
A2
14
98
42
16
51
18
18
69
85
05
95
29
A1
21
16
A8
65
90
88
95
65
A5
15
25
46
94
02
A6
85
54
64
41
94
5A
29
52
08
0A
92
0A
08
A4
42
40
04
19
A0
55
86
A6
48
95
68
84
00
8A
49
44
90
A8
64
25
AA
16
28
96
25
16
06
5A
5A
49
59
52
40
99
A1
04
58
02
4A
06
88
28
15
46
15
4A
55
09
14
6A
06
A6
88
05
25
85
24
68
08
81
12
8A
69
12
58
8A
21
94
60
A8
66
94
18
1A
62
64
50
88
16
25
94
48
4A
58
86
54
1A
6A
59
95
61
86
82
6A
48
05
68
68
29
41
4A
A2
86
95
94
AA
46
55
04
96
8A
14
89
16
9A
24
86
15
A5
A6
85
A2
61
4A
65
15
AA
26
85
25
55
08
66
92
9A
16
A6
55
11
5A
4A
84
56
9A
0A
59
89
46
08
24
2A
A5
4A
15
0A
8A
02
48
05
91
A4
44
22
A5
48
89
11
A8
81
48
19
01
8A
4A
84
02
12
81
80
16
02
02
AA
11
86
94
52
26
18
2A
6A
06
44
05
90
00
60
04
22
90
44
A8
11
4A
15
14
95
65
50
80
02
25
A9
08
28
90
05
0A
58
46
2A
80
20
02
24
69
82
4A
98
08
40
62
62
80
5A
68
95
9A
0A
1A
62
12
55
48
20
10
49
54
51
68
41
A6
8A
55
90
51
21
A8
18
9A
46
60
69
85
69
85
96
06
4A
46
A6
65
A9
51
A6
4A
24
55
11
A9
50
42
58
AA
58
64
A5
85
05
5A
AA
99
95
95
24
22
28
2A
52
01
22
95
61
48
15
60
26
61
A6
A9
91
29
65
09
A6
58
90
51
09
45
09
A6
A4
4A
19
A2
20
55
86
2A
05
48
04
A9
0A
69
10
55
A1
AA
A6
52
25
61
0A
16
15
52
49
69
86
01
05
09
86
25
A6
84
89
A0
21
48
80
18
00
08
04
15
54
55
48
45
28
54
08
68
A0
42
4A
5A
65
98
05
18
86
82
22
A9
16
85
08
05
84
1A
89
95
89
0A
8A
18
5A
5A
45
66
15
14
44
4A
86
26
85
28
A5
05
05
85
4A
89
A8
14
A1
95
11
89
51
89
85
04
26
69
A4
90
11
81
05
18
11
59
01
A1
51
01
84
5A
02
40
10
94
51
A1
11
40
90
A4
A0
A6
12
50
48
09
5A
69
05
9A
92
25
84
46
28
26
A9
84
94
AA
69
09
24
16
10
46
44
49
A4
09
5A
A1
28
25
58
15
10
2A
10
AA
26
A2
8A
82
15
54
A0
00
00
42
20
98
41
50
45
A4
08
44
68
14
24
14
94
92
49
66
96
50
18
58
1A
68
2A
48
06
12
12
A5
65
42
89
90
99
68
40
42
8A
00
86
55
28
68
8A
82
00
58
41
24
16
11
55
62
40
22
45
58
66
65
80
90
50
62
1A
6A
18
08
98
85
14
12
11
40
80
59
6A
95
0A
A1
49
09
A4
51
85
2A
65
85
08
06
0A
92
29
48
80
5A
81
59
26
95
86
09
0A
96
9A
80
44
85
28
85
94
A5
05
54
60
85
06
02
A1
14
84
41
60
1A
04
4A
11
A0
50
51
A2
6A
2A
14
51
80
18
20
24
22
14
25
58
80
A0
49
90
56
25
91
00
A5
84
95
A9
44
0A
62
A4
28
05
24
11
02
04
41
6A
88
94
58
12
60
0A
1A
00
28
29
0A
80
41
48
60
69
28
05
68
54
69
20
15
18
60
14
28
62
10
5A
84
A4
80
08
48
80
A4
28
4A
86
84
6A
28
85
1A
44
14
99
A1
81
00
22
84
60
44
46
00
12
00
42
00
82
00
00
40
80
05
00
00
40
00
00
00
00
00
01
14
18
00
00
08
00
00
80
01
49
11
08
08
00
06
2A
11
44
10
0A
19
04
08
10
09
04
18
88
A6
95
24
08
00
01
00
12
00
00
00
00
00
00
14
50
00
02
40
00
02
04
00
10
84
58
00
14
29
02
11
04
01
86
24
08
51
00
05
18
26
A8
04
94
00
A6
11
02
29
58
18
04
41
61
69
22
90
50
82
29
88
62
56
45
50
5A
06
89
66
11
A5
00
52
4A
A2
49
19
1A
10
21
69
15
A9
26
11
68
95
28
22
1A
68
10
9A
2A
14
85
49
82
2A
68
92
A8
66
45
85
65
09
99
60
A4
81
A6
46
8A
A5
A9
61
28
59
AA
85
68
0A
0A
5A
1A
A8
55
51
85
5A
54
05
0A
2A
99
A5
54
45
81
59
65
65
0A
51
A4
10
65
49
09
04
44
64
44
80
A8
A6
AA
5A
90
A4
95
48
28
45
15
95
06
42
65
41
42
56
8A
A0
50
60
48
94
25
AA
1A
55
A4
2A
1A
15
6A
98
45
24
09
A4
11
01
A5
69
61
99
55
01
28
55
4A
16
50
21
81
6A
41
04
84
6A
99
45
04
4A
54
51
85
5A
68
64
8A
16
59
50
A5
62
52
64
28
2A
A6
05
A6
8A
89
55
84
A5
59
19
56
42
00
44
41
90
08
45
09
20
06
00
08
00
10
60
10
62
00
01
28
06
86
1A
20
00
64
50
20
50
0A
86
4A
09
59
01
45
08
21
81
40
46
18
89
61
89
06
58
21
9A
96
40
28
08
06
01
16
01
15
64
1A
24
24
20
A2
86
58
A8
16
56
09
88
24
08
08
6A
18
09
4A
25
06
05
1A
0A
52
4A
1A
55
98
04
86
69
44
04
52
16
48
55
05
85
5A
92
26
4A
A5
51
82
84
95
95
48
85
6A
A5
4A
A4
80
60
A1
94
9A
01
14
81
69
21
44
01
81
25
51
A5
20
59
65
A9
50
9A
A8
68
4A
28
15
99
9A
08
4A
95
68
81
2A
2A
A2
44
A5
5A
28
42
AA
98
95
54
26
2A
4A
85
09
56
06
62
55
A0
1A
25
11
59
14
A4
95
1A
AA
A5
69
84
5A
40
1A
08
25
52
6A
18
81
84
10
2A
1A
08
00
58
20
88
A5
26
10
0A
5A
90
2A
64
20
4A
89
88
91
90
28
85
26
55
81
A0
A5
86
25
12
94
58
00
04
14
9A
92
6A
54
94
26
A6
61
60
05
81
A0
85
A0
02
24
02
42
00
84
54
80
A9
00
96
A0
49
61
A2
40
A0
14
81
86
88
60
19
68
54
89
19
A2
A2
25
2A
25
0A
24
26
92
1A
66
22
52
8A
51
58
11
A8
58
28
89
8A
6A
86
29
68
85
A8
68
6A
59
59
04
2A
A6
48
08
05
05
04
18
61
55
2A
98
8A
02
4A
92
95
1A
05
22
AA
A5
95
19
65
19
A5
00
AA
0A
88
A9
1A
26
28
26
00
22
52
65
5A
5A
00
A0
2A
A4
59
45
5A
85
20
00
28
02
01
62
66
64
88
86
9A
56
28
9A
84
85
A8
86
04
0A
5A
25
18
12
21
06
15
29
91
85
00
48
A0
01
88
00
00
00
80
00
00
20
00
00
00
64
81
21
A2
10
00
18
28
12
80
10
15
04
12
95
8A
16
44
58
00
80
18
96
18
00
86
40
12
A4
10
41
60
49
90
00
04
00
21
04
20
20
00
20
00
00
01
00
00
44
04
04
94
14
40
A1
81
8A
89
05
20
01
2A
25
08
01
00
84
0A
58
0A
81
19
16
46
5A
26
14
46
69
A8
44
96
92
61
92
AA
92
82
92
95
9A
55
96
96
69
92
65
65
96
92
AA
9A
92
A2
65
65
96
65
9A
45
96
05
86
65
69
65
65
65
69
96
69
61
55
65
92
51
69
92
61
9A
69
96
69
61
45
28
9A
59
54
AA
51
61
41
8A
92
86
45
8A
41
41
65
82
61
81
92
8A
A6
92
A5
8A
61
61
96
92
52
61
96
29
9A
65
1A
92
69
96
9A
5A
16
9A
61
61
61
61
9A
65
96
69
A2
91
92
5A
49
96
9A
61
81
9A
82
55
96
A2
45
64
61
96
59
96
82
92
94
96
9A
96
69
65
61
9A
96
9A
69
96
65
65
65
96
9A
69
65
96
96
61
5A
96
5A
61
65
69
61
4A
9A
96
69
61
86
49
96
86
94
45
9A
96
8A
5A
9A
98
A1
82
AA
92
9A
65
69
96
96
65
61
92
96
96
45
04
65
9A
61
92
65
41
61
49
9A
A2
42
96
69
A5
A9
55
96
5A
86
41
49
96
8A
65
16
61
69
92
96
65
61
61
94
A2
82
96
28
96
65
65
69
52
9A
82
48
41
21
82
28
A2
8A
A5
92
69
96
92
94
96
52
59
69
A5
92
65
56
9A
92
49
61
65
26
8A
69
61
A9
45
49
61
9A
45
44
A1
61
96
65
69
96
65
41
51
69
24
9A
61
49
92
20
A2
88
50
9A
42
54
A2
92
A9
61
61
49
92
88
9A
A1
86
A2
8A
92
8A
65
49
82
9A
69
56
92
90
9A
9A
8A
65
66
45
69
61
61
96
96
92
92
65
94
61
9A
96
96
92
A5
65
68
92
65
92
9A
61
69
41
48
AA
61
49
92
61
9A
89
9A
65
61
69
9A
86
55
45
9A
69
69
58
65
16
96
69
9A
69
5A
65
A1
81
61
90
A5
61
5A
A5
92
92
61
6A
96
65
85
9A
69
9A
92
49
65
52
12
65
A5
A5
A2
65
A5
A5
69
A5
92
86
96
5A
91
49
61
29
96
69
86
50
61
61
9A
A4
92
12
51
69
54
48
A6
92
49
A0
94
61
86
96
95
69
81
61
4A
49
9A
52
92
96
5A
69
86
49
92
61
48
A1
96
A5
A1
9A
48
52
59
96
AA
61
69
86
8A
96
4A
5A
96
68
96
12
96
45
98
28
98
8A
59
91
89
42
86
66
44
48
6A
90
29
A4
60
80
99
9A
48
82
65
8A
60
49
65
61
82
A5
82
A8
41
96
25
25
92
69
21
61
92
69
0A
9A
9A
A5
46
95
56
A2
1A
65
45
94
9A
64
54
41
44
A0
64
A4
10
82
90
91
96
5A
9A
61
65
A4
99
96
92
92
69
AA
49
9A
96
96
29
82
92
01
69
65
61
9A
21
69
64
4A
06
52
62
96
85
99
85
61
42
41
69
61
62
96
A9
89
41
5A
8A
69
96
45
96
A6
96
41
96
A1
9A
61
65
91
6A
45
A4
50
61
49
65
65
65
9A
65
69
92
65
92
89
25
88
49
15
94
20
08
56
96
69
96
91
52
56
61
69
92
61
69
49
40
A1
95
86
5A
92
61
86
4A
46
52
82
69
96
92
49
96
41
59
96
11
41
22
96
92
59
AA
68
58
45
12
A1
A6
12
10
69
61
92
5A
92
42
82
61
85
92
95
A6
92
5A
89
86
64
9A
9A
49
42
82
96
8A
65
49
8A
1A
96
80
96
A1
12
92
45
54
20
46
04
88
48
64
01
54
98
40
18
80
81
42
65
99
69
9A
61
A2
A5
92
9A
65
89
88
81
61
92
61
04
81
64
A0
A5
42
46
61
41
58
82
65
42
96
65
92
92
51
86
00
65
60
1A
02
A5
52
A6
50
A6
41
10
60
28
80
80
80
80
82
80
80
41
60
01
82
82
88
82
00
41
41
11
01
42
8A
62
81
8A
88
12
12
82
61
85
54
82
29
A0
A5
A8
A2
12
15
80
85
95
55
52
55
80
44
80
80
88
80
82
60
80
48
82
82
82
40
00
82
82
82
8A
00
8A
41
41
82
42
82
90
02
56
80
42
A0
A0
61
52
89
52
60
02
14
42
44
52
81
52
A8
A2
01
58
92
49
65
65
92
61
92
65
99
92
96
41
9A
69
45
65
92
96
69
89
9A
45
96
86
29
A1
65
22
92
9A
A2
69
69
96
69
69
69
65
65
61
61
16
96
96
9A
41
69
65
69
65
92
96
96
41
96
41
55
92
9A
68
69
96
55
65
9A
86
65
9A
61
65
9A
56
61
61
60
92
5A
69
96
8A
61
65
65
16
82
9A
96
A2
12
92
69
48
61
65
92
65
99
9A
65
9A
9A
65
61
82
65
9A
9A
9A
9A
69
96
61
9A
A2
51
9A
61
9A
81
92
49
8A
86
65
8A
89
52
61
69
12
9A
65
65
06
28
80
9A
10
69
45
55
69
25
61
5A
69
92
92
41
9A
61
AA
59
8A
61
64
96
9A
8A
65
A9
86
60
61
41
16
96
82
61
96
69
9A
96
54
69
52
69
92
65
65
9A
96
69
69
AA
9A
9A
99
21
69
92
29
46
64
40
44
40
40
65
61
99
66
64
92
44
98
62
40
85
16
00
88
A5
4A
92
86
A4
44
92
06
89
9A
99
05
65
AA
9A
25
16
86
92
52
21
21
82
69
A8
64
04
96
44
08
60
60
90
44
60
45
99
80
18
80
42
85
91
82
60
65
65
69
65
61
95
80
65
A0
69
65
66
60
90
96
69
61
69
65
A9
61
85
89
69
65
A1
62
08
52
14
96
92
65
69
61
61
96
86
A1
25
96
9A
AA
21
49
96
9A
96
81
69
86
9A
9A
61
96
9A
86
45
51
06
65
69
96
56
9A
96
65
9A
69
69
96
A1
21
65
29
96
96
65
81
96
96
61
92
69
61
5A
9A
8A
51
94
8A
59
96
92
9A
96
65
91
90
29
82
1A
95
92
A4
69
9A
51
91
66
88
92
69
61
9A
92
65
56
29
65
65
62
61
A9
65
9A
96
92
41
69
61
65
41
61
61
51
92
82
61
69
41
61
9A
61
45
65
61
61
9A
82
92
92
9A
96
99
12
5A
92
21
92
65
99
9A
10
65
96
61
40
61
92
92
06
66
88
92
92
41
50
58
9A
92
92
92
A0
8A
85
41
15
2A
69
65
89
92
51
69
92
92
9A
AA
69
AA
69
9A
82
96
61
49
96
69
96
61
9A
9A
86
61
1A
96
80
69
A5
A5
2A
65
49
41
65
49
89
49
56
45
86
55
96
89
8A
96
5A
69
96
9A
92
8A
92
92
61
59
9A
41
61
44
45
69
A6
9A
69
92
92
65
96
9A
41
96
96
9A
69
65
65
61
12
61
61
65
45
69
65
61
9A
65
9A
45
82
65
86
92
66
61
A2
41
96
41
96
96
5A
46
92
A1
49
69
91
5A
49
9A
9A
61
61
45
69
65
96
41
61
6A
92
96
69
82
9A
08
10
88
41
40
80
45
04
40
41
54
A2
8A
55
80
92
80
96
90
58
94
84
8A
92
61
41
55
92
92
9A
69
AA
96
61
22
96
A2
69
A0
91
94
8A
69
00
05
95
94
95
41
45
80
00
80
80
08
8A
51
00
40
80
49
59
96
A6
9A
45
82
61
AA
41
9A
49
41
9A
92
69
61
86
A1
48
9A
92
61
65
65
49
29
56
82
5A
51
54
A2
4A
82
49
A1
56
60
42
54
56
52
14
56
52
90
51
A4
50
61
46
04
98
52
02
66
90
92
48
90
52
28
16
88
22
06
81
A0
09
29
48
48
A9
12
49
20
86
A9
96
95
45
56
25
5A
85
80
0A
22
81
94
99
65
98
14
26
90
11
9A
94
52
40
15
A0
61
45
5A
12
52
64
44
18
62
A5
15
54
01
42
0A
52
98
5A
A1
10
A1
96
56
65
1A
12
40
52
52
59
A8
A8
61
12
A4
9A
29
94
60
54
66
A1
12
22
21
91
A6
15
24
16
55
A8
A2
55
9A
45
25
11
A2
89
86
2A
06
29
20
A9
56
02
55
A4
44
05
29
A5
46
16
89
A8
56
58
89
55
65
16
88
61
89
29
19
2A
90
6A
A9
99
01
96
52
6A
A9
14
40
46
40
42
96
26
9A
94
02
20
A1
49
94
56
65
A8
A6
46
16
85
62
91
96
09
26
08
89
A1
50
14
21
55
54
05
29
80
1A
06
96
49
50
61
4A
A5
20
16
89
A5
26
45
69
48
91
58
45
91
15
20
1A
A1
09
91
11
98
56
69
2A
15
80
01
06
02
80
12
82
6A
24
10
16
46
10
A8
1A
16
25
16
A6
12
48
05
04
20
15
A1
A9
41
20
20
04
05
2A
61
05
4A
20
21
19
16
49
96
50
49
A1
40
15
19
96
A4
10
22
81
52
A4
08
25
08
51
A6
A9
41
86
99
90
11
06
A6
16
60
52
89
15
A0
46
89
A0
A6
92
98
82
A5
42
95
50
29
29
29
A0
82
62
62
68
10
A9
84
64
94
1A
A8
AA
96
56
28
54
10
88
80
89
A8
A5
59
62
54
65
01
09
02
64
A5
52
80
15
51
A9
5A
19
AA
45
A4
A8
A0
80
16
19
56
29
29
19
85
96
A4
05
59
60
95
20
89
2A
52
A9
19
50
15
08
16
59
01
50
56
64
60
12
86
29
A9
20
20
28
11
20
21
12
50
0A
60
82
6A
41
94
4A
A8
A9
16
20
90
28
25
51
42
82
22
12
21
42
12
A9
58
16
11
21
80
A9
09
51
00
1A
14
16
60
A4
00
10
40
A1
96
50
18
0A
41
41
41
02
40
84
A9
68
19
66
00
16
04
91
62
A1
06
52
94
20
52
10
69
96
9A
00
12
01
08
21
28
01
44
92
00
40
60
98
50
16
A9
86
64
86
00
11
88
02
80
82
22
16
91
48
92
2A
06
91
6A
80
96
42
21
0A
15
24
18
49
69
A5
28
60
50
84
14
20
60
00
28
52
40
08
14
06
10
41
94
01
66
01
85
9A
09
80
96
92
20
21
48
16
12
62
95
16
2A
28
59
01
69
96
95
61
09
6A
AA
96
56
96
51
22
45
25
21
45
88
A1
55
10
01
0A
11
85
06
00
86
49
52
5A
46
51
44
98
44
29
6A
4A
A0
10
0A
56
9A
10
1A
28
01
86
2A
29
A2
41
90
22
21
8A
60
00
A8
61
5A
61
52
25
42
8A
41
45
01
14
66
11
28
21
20
86
00
02
61
92
A8
02
00
A8
65
82
00
80
06
96
41
42
8A
12
11
48
12
00
26
12
06
51
81
49
1A
20
12
12
04
65
A9
22
45
86
59
16
80
A2
16
00
86
56
60
08
52
24
06
41
41
05
A2
4A
15
90
48
06
16
40
9A
12
80
44
96
01
50
28
01
68
46
08
69
12
06
10
00
20
64
02
69
50
12
91
56
81
29
82
42
80
A8
80
99
2A
29
08
20
22
86
62
10
A1
05
06
61
08
46
4A
80
54
60
60
12
18
80
A0
06
08
48
08
54
11
4A
86
14
84
40
00
08
80
10
10
10
00
12
40
50
00
00
80
00
01
01
40
40
00
00
10
82
00
20
60
00
00
66
04
18
02
09
40
42
10
A0
44
A0
A0
84
52
42
A1
21
52
52
52
52
10
05
14
00
00
10
00
24
00
00
40
64
40
24
00
00
12
00
00
40
06
20
40
00
40
80
00
02
52
80
00
A1
86
40
18
00
1A
01
22
02
50
00
12
A1
50
A1
01
82
49
12
19
84
A2
56
A1
96
A8
55
18
26
06
06
81
61
A5
60
92
12
4A
56
A8
05
06
2A
91
61
11
95
4A
A2
49
81
86
15
A5
95
49
A5
A0
A1
A6
A5
15
96
89
A8
A1
18
A9
56
14
46
68
6A
54
21
06
94
A5
A9
16
61
59
82
15
A1
80
50
61
96
84
19
60
82
52
09
50
44
96
91
A9
21
12
A0
12
58
5A
04
52
A9
42
69
09
14
54
00
16
A1
04
52
A6
28
82
85
1A
84
54
24
A5
09
90
94
86
51
29
60
A2
09
44
80
44
12
54
06
65
14
66
AA
5A
16
89
69
04
62
A1
1A
5A
29
86
41
80
00
A0
56
05
56
44
49
52
AA
12
A8
06
28
16
96
52
50
01
00
40
08
9A
9A
66
59
26
59
46
81
86
81
8A
55
AA
94
86
29
01
06
19
69
A9
46
40
24
A5
A9
29
96
0A
41
20
60
22
42
42
60
48
52
02
22
06
48
58
42
91
99
16
08
80
28
68
26
02
28
92
50
01
5A
02
94
A5
69
08
0A
69
8A
05
16
4A
86
64
55
28
6A
64
A1
14
A1
19
00
28
04
80
A8
58
12
92
81
80
8A
41
A6
0A
41
06
08
25
24
42
01
00
48
46
09
61
82
86
26
16
49
A5
68
29
15
A8
01
09
25
21
A9
68
A9
19
49
46
46
A0
29
51
A9
42
52
61
A4
28
55
99
69
26
56
A5
5A
A6
66
26
86
99
99
22
96
54
A5
A2
9A
91
90
66
55
16
56
51
66
25
A8
52
A1
24
25
55
95
86
81
61
69
0A
11
96
91
25
AA
18
98
62
A1
50
A1
06
98
68
86
28
9A
AA
59
42
64
A9
56
66
68
24
5A
A5
4A
94
52
19
68
10
94
95
26
62
29
21
62
51
86
69
96
26
55
05
25
22
8A
22
40
81
95
81
21
49
05
41
59
19
49
51
40
60
00
81
05
42
06
99
02
91
60
1A
84
09
8A
61
10
16
02
61
54
69
14
62
42
56
40
08
55
16
11
81
A2
95
0A
A6
41
82
25
1A
09
00
94
50
20
45
00
86
48
05
94
94
06
A6
11
02
01
80
99
66
28
28
06
A0
09
21
16
04
84
A9
96
00
09
69
A4
61
41
60
68
49
21
61
58
41
04
A9
56
50
4A
59
01
62
26
85
95
90
42
2A
95
06
25
18
9A
68
09
25
0A
46
24
10
89
52
96
09
96
06
5A
15
85
94
A1
19
28
61
56
A8
A1
8A
24
88
29
A1
16
26
0A
A8
99
28
81
24
A1
21
51
41
04
A2
A4
0A
22
95
0A
65
28
29
A6
86
45
52
54
81
48
59
25
80
02
20
29
28
18
04
29
56
64
10
10
14
12
00
00
49
00
44
41
00
86
15
48
04
00
04
00
90
11
96
00
A6
04
60
4A
11
01
A4
96
11
80
02
21
60
28
69
28
49
94
92
62
61
92
11
18
45
90
68
02
80
28
84
81
80
41
00
60
20
80
00
04
02
84
80
48
28
0A
04
10
12
02
60
04
80
20
29
A0
90
0A
62
16
29
68
51
44
91
62
58
68
1A
02
2A
84
05
28
5A
08
00
A2
62
62
1A
51
A4
A4
91
61
02
51
A8
14
85
20
A8
69
96
42
A5
95
94
64
00
08
00
A5
44
89
99
A9
15
94
99
59
14
15
85
15
99
65
59
A5
46
89
62
29
86
89
A5
42
A2
05
59
18
55
41
48
81
26
05
48
69
48
89
80
59
80
99
A6
28
84
50
46
48
09
06
81
66
15
49
90
6A
81
62
95
52
26
A5
42
0A
6A
65
60
A0
91
99
94
60
15
28
89
A2
41
46
80
56
46
48
88
AA
45
82
00
18
8A
A4
55
1A
26
A8
50
94
1A
AA
26
AA
42
92
61
88
AA
80
68
A8
5A
15
51
62
08
22
A4
95
44
68
50
66
52
A6
2A
A9
A6
91
19
49
28
A0
28
66
96
48
14
5A
05
A8
00
65
1A
92
86
69
6A
15
10
41
95
05
66
50
92
00
55
68
45
A0
92
80
68
A5
28
98
80
00
18
44
82
04
50
90
05
01
21
04
4A
60
4A
56
40
92
20
14
1A
94
66
88
02
01
20
48
9A
9A
64
02
46
21
10
94
46
1A
06
84
05
2A
44
A5
21
50
84
09
90
28
26
44
0A
0A
05
82
21
61
A4
98
01
46
82
00
05
91
92
01
26
8A
18
85
52
50
01
16
42
09
46
22
94
4A
06
08
8A
94
85
62
00
52
64
81
A0
A5
A0
22
58
AA
5A
42
42
20
11
05
1A
66
6A
02
A5
86
4A
12
05
85
5A
14
54
06
5A
52
0A
4A
4A
16
15
62
92
45
98
19
69
AA
4A
50
90
41
25
58
66
AA
54
98
80
A2
62
91
18
50
95
AA
18
A8
A6
82
A0
44
19
16
21
02
10
59
A6
54
28
94
95
01
A1
41
88
19
16
66
11
64
95
62
16
98
81
89
A9
42
88
5A
59
65
25
89
56
68
90
0A
5A
80
48
4A
94
91
66
22
21
50
90
50
29
A9
19
85
98
28
88
02
46
95
60
88
48
11
85
44
A5
A9
05
6A
59
82
A0
85
26
20
59
10
82
89
40
40
11
08
02
08
1A
14
08
50
A0
6A
06
05
58
20
A4
12
91
6A
42
06
88
98
02
6A
2A
90
60
61
41
12
80
44
44
68
65
42
94
00
85
42
25
2A
0A
01
59
22
00
56
40
01
81
00
08
21
88
22
54
0A
18
84
00
0A
88
18
0A
1A
90
50
86
59
10
04
A8
01
1A
80
A4
02
21
22
69
42
08
62
85
20
56
4A
24
5A
25
8A
5A
55
10
21
55
20
00
62
92
44
04
14
60
5A
01
44
08
80
00
5A
A9
00
12
1A
15
A2
42
54
12
40
4A
25
A4
60
62
58
A6
45
85
54
65
88
12
52
A0
86
49
5A
40
AA
99
14
08
48
18
08
88
0A
40
20
02
42
06
80
AA
05
08
81
A9
02
02
AA
00
02
06
22
88
98
51
99
18
5A
A1
82
A0
00
24
61
05
24
88
45
45
85
88
09
99
54
8A
40
68
60
90
6A
2A
94
54
14
50
41
91
00
20
85
80
11
41
50
24
81
4A
00
45
0A
45
80
62
10
10
40
08
A0
42
41
90
91
20
00
12
92
81
48
21
60
11
40
40
25
55
91
60
64
26
12
06
01
69
A8
28
08
22
50
69
01
A8
0A
68
10
16
00
19
0A
90
08
42
46
46
91
22
A9
14
44
80
01
A1
55
90
81
5A
60
42
10
28
01
05
40
18
19
44
09
90
64
94
68
50
60
24
89
10
01
01
00
29
09
40
48
08
10
AA
02
10
41
11
AA
05
19
04
69
00
46
64
1A
55
28
69
95
01
26
44
48
22
52
60
50
01
10
00
00
10
01
21
00
00
02
08
01
10
00
00
00
00
00
08
00
88
08
00
04
24
00
11
20
20
01
40
01
81
41
1A
80
20
00
00
05
00
61
88
82
12
41
41
00
00
00
00
00
00
10
00
20
14
20
00
20
00
20
00
00
00
00
00
01
00
80
01
41
12
04
19
40
40
58
40
84
08
80
51
82
44
04
40
40
00
40
09
02
20
A0
80
00
65
64
68
91
99
65
91
50
45
26
94
61
68
0A
89
55
94
A5
46
55
69
26
48
68
59
61
05
98
40
22
09
A5
24
54
66
92
95
4A
59
96
16
A8
12
5A
8A
18
99
45
98
A4
19
46
58
24
11
82
80
66
A2
A6
92
95
44
41
82
A2
45
41
64
9A
59
4A
AA
96
9A
48
46
90
59
99
56
68
91
95
8A
AA
A2
28
96
62
6A
91
AA
95
89
45
85
04
2A
18
5A
08
0A
91
51
80
2A
25
6A
85
91
00
80
24
22
68
95
50
48
25
96
95
45
8A
15
04
65
12
96
85
62
22
90
19
AA
A8
56
66
12
A1
11
10
04
A2
90
60
94
6A
64
01
02
90
6A
15
59
99
82
50
6A
55
54
95
65
A0
16
8A
A2
66
8A
21
58
24
59
1A
19
66
54
11
14
91
04
61
68
A5
91
A9
46
2A
A5
86
84
65
82
09
00
05
10
09
94
05
40
41
10
00
28
84
A4
16
02
04
48
01
12
26
51
2A
26
56
25
6A
25
55
12
A0
A0
10
45
50
55
56
46
6A
55
4A
2A
21
49
51
26
A0
20
52
00
10
92
28
14
02
64
A4
A2
40
24
05
64
28
82
85
58
55
94
50
09
88
28
24
90
58
A2
06
85
12
6A
95
89
92
81
09
94
2A
89
65
99
85
41
01
11
91
6A
6A
11
94
90
91
A6
61
91
25
99
A6
19
61
21
62
9A
24
42
89
66
5A
55
01
51
4A
81
95
41
98
48
AA
85
69
6A
66
A0
92
95
1A
65
A2
80
95
04
58
96
A5
A6
22
6A
85
21
24
05
AA
42
19
92
62
81
94
A2
59
40
61
51
24
59
98
5A
9A
25
20
28
A9
44
02
06
05
5A
A6
95
85
62
69
41
60
81
11
95
56
92
46
91
49
84
04
04
85
04
19
18
08
95
99
50
24
80
00
18
A4
09
00
84
26
42
22
14
60
14
40
26
16
25
29
01
49
99
2A
19
28
58
60
19
6A
94
40
21
65
0A
45
41
82
AA
96
99
99
41
40
58
00
00
80
4A
81
62
50
A0
81
22
98
52
90
19
22
02
11
11
86
5A
06
06
A6
62
81
90
04
42
4A
88
65
22
68
10
20
A6
08
81
68
88
86
84
A8
95
89
50
A1
91
58
15
26
48
09
88
2A
8A
42
96
05
29
6A
9A
28
40
52
55
82
94
04
49
91
68
14
5A
15
16
48
51
6A
94
8A
6A
02
62
94
59
05
99
69
58
91
18
10
59
5A
42
88
05
62
00
52
01
48
89
61
99
60
24
92
49
14
55
95
15
16
55
42
A0
89
96
22
5A
60
99
25
60
99
99
42
99
45
15
A8
62
56
56
66
98
09
06
28
00
00
4A
20
90
22
00
24
81
22
54
09
54
04
01
18
01
24
40
86
20
18
08
01
55
06
10
14
66
81
08
08
88
10
A9
56
12
85
15
1A
65
46
A8
42
68
28
15
12
85
04
02
10
08
05
A8
50
6A
08
00
00
05
08
80
01
04
4A
02
00
A0
48
05
14
10
48
64
98
19
66
95
41
91
81
A6
89
41
28
86
08
91
08
20
49
48
28
16
29
88
A9
09
AA
89
09
14
08
A9
15
48
96
45
68
59
98
49
68
A9
56
54
A9
26
A9
A5
A9
54
AA
16
16
16
96
16
16
18
16
16
25
96
A9
15
56
A9
96
A9
16
49
A6
44
95
0A
29
16
45
A9
15
44
64
68
A9
A9
16
99
15
55
06
89
64
6A
88
89
2A
59
4A
29
05
56
29
29
21
96
29
5A
89
96
65
21
66
A9
A9
25
21
69
86
56
66
56
A9
86
69
46
29
09
68
66
26
89
89
06
99
19
AA
16
29
A0
84
11
55
69
45
98
49
99
4A
A9
29
19
56
56
16
AA
69
A9
55
49
56
A6
06
69
29
16
06
A9
59
26
55
48
61
56
96
66
A6
96
69
19
66
56
48
56
59
09
18
96
19
29
99
55
29
14
22
AA
A8
2A
A9
A6
16
29
49
56
56
8A
29
89
64
51
16
29
16
09
56
56
96
66
29
09
04
69
66
42
89
66
69
44
89
56
46
28
68
56
04
16
46
69
0A
44
84
56
6A
09
4A
29
10
09
16
56
56
46
09
89
26
A4
50
29
10
19
29
98
89
06
49
A9
05
09
66
44
24
09
29
46
05
59
29
04
16
14
82
89
14
06
5A
02
46
84
89
04
02
A8
44
28
56
46
A9
46
86
96
44
96
89
00
26
08
98
09
88
94
28
2A
54
88
A8
49
96
94
16
0A
08
48
89
89
68
29
68
89
46
45
A8
29
16
85
59
49
A9
28
5A
85
66
06
56
06
96
59
19
29
89
66
48
96
28
A9
69
A9
92
54
55
29
04
29
29
56
40
95
24
69
56
56
58
56
89
4A
28
96
46
06
49
A8
56
86
99
46
14
24
44
49
09
56
69
96
29
66
12
52
16
29
50
66
89
1A
69
29
16
26
A9
96
49
69
56
49
69
46
86
24
10
86
5A
48
19
16
99
8A
46
5A
29
98
89
25
09
15
56
09
9A
56
88
41
54
96
A9
28
A9
01
66
56
16
26
20
A1
12
88
91
16
09
29
59
56
A2
16
55
14
69
25
09
99
45
26
6A
06
29
46
05
98
A8
49
48
29
44
A5
94
69
59
14
84
69
A9
A9
1A
95
8A
46
A9
A5
69
00
99
58
26
29
54
28
85
14
91
45
44
22
12
88
21
A8
26
A9
20
09
24
08
56
89
16
64
94
86
89
08
69
A9
16
A9
82
65
29
06
64
92
29
26
52
09
61
1A
99
49
52
08
61
A4
06
04
98
62
95
45
84
24
56
4A
04
AA
A0
22
08
44
28
06
21
0A
89
89
19
09
16
1A
16
24
A9
AA
98
A8
69
06
06
14
56
29
54
16
56
46
1A
99
94
29
9A
46
A8
46
66
84
56
56
46
89
8A
98
86
44
49
06
A9
A6
89
09
A1
24
A9
98
89
56
44
89
96
86
98
94
66
86
16
06
16
89
14
46
09
86
69
20
40
18
56
00
69
66
94
61
09
56
29
89
04
02
66
16
48
46
46
46
56
0A
88
A9
04
6A
46
89
46
56
45
88
66
18
29
44
89
55
85
A9
85
54
08
29
09
04
68
86
96
14
A1
48
80
00
21
16
06
A9
00
29
16
29
46
A9
19
89
68
49
46
88
99
15
29
29
14
46
09
A9
A9
06
56
19
95
A1
88
59
8A
12
29
24
85
20
06
12
19
96
50
10
85
10
A0
86
A8
59
16
06
99
56
69
56
4A
09
A9
29
96
28
00
01
86
29
06
9A
89
86
19
4A
16
94
86
06
96
08
86
26
09
56
A9
28
14
09
21
04
14
88
05
08
95
88
06
69
86
20
60
24
28
28
29
09
29
09
20
16
16
04
08
28
00
08
08
04
16
08
00
00
68
00
40
28
69
49
40
08
16
68
06
09
94
68
99
09
08
40
21
68
68
95
05
14
24
20
14
09
29
20
29
09
06
08
46
09
29
08
14
20
09
29
29
28
00
09
02
04
29
A2
48
08
61
05
88
86
6A
28
04
25
68
A4
16
98
91
24
84
04
18
24
6A
6A
91
A5
29
46
96
16
09
56
A9
96
59
89
29
56
69
16
65
96
99
A9
96
02
49
15
A9
89
52
89
A6
51
89
8A
89
55
66
A9
56
54
56
46
95
16
16
69
A9
A9
69
56
16
96
96
06
29
68
49
46
88
54
66
28
19
54
96
89
16
06
08
89
06
09
95
A4
29
54
96
55
55
89
56
64
19
29
56
56
96
A9
19
69
59
99
A9
69
56
85
46
56
89
86
0A
29
42
48
A9
62
26
A9
96
89
69
49
29
40
4A
04
59
6A
06
19
96
98
69
59
16
28
41
16
19
28
05
96
16
59
29
46
56
4A
14
8A
99
85
96
06
16
66
22
06
55
56
49
89
45
5A
46
68
12
99
96
66
A9
29
09
86
48
89
66
86
15
9A
09
4A
06
99
46
19
0A
56
66
85
56
A9
16
96
29
49
56
56
59
59
A9
89
18
16
59
65
06
16
85
46
42
15
56
54
89
06
94
09
86
49
04
50
49
AA
5A
69
21
46
29
89
00
44
A8
14
A9
A8
0A
02
96
5A
29
52
05
89
89
50
12
2A
99
22
44
54
0A
29
14
40
46
54
99
46
06
06
A9
48
59
18
54
50
09
29
46
46
06
86
46
06
29
59
96
99
56
16
46
46
A9
69
06
56
16
16
50
56
49
16
44
10
12
46
41
44
59
89
A9
26
16
16
56
48
A8
18
6A
29
69
08
12
A5
09
A9
19
29
AA
9A
49
42
46
19
29
A8
A6
85
8A
56
54
29
95
A9
A8
85
29
86
55
49
52
50
16
41
09
59
06
6A
0A
69
A6
A9
54
16
46
69
A9
16
A9
89
06
99
61
18
A9
26
51
28
8A
49
65
59
29
89
66
29
64
48
95
A8
29
56
16
99
6A
96
85
96
56
56
49
56
1A
56
49
99
59
06
64
66
26
96
06
26
16
29
68
96
86
46
64
29
26
16
56
56
14
0A
09
69
09
09
28
99
60
04
29
50
89
16
19
69
81
56
61
06
14
16
09
A9
05
A4
A1
29
99
46
06
20
19
29
89
68
98
90
40
06
9A
20
06
16
21
29
26
46
99
0A
89
08
26
18
16
99
AA
29
26
46
29
04
29
66
A9
01
20
56
A1
29
58
16
0A
29
48
56
66
56
06
16
59
A6
06
66
A8
56
29
09
5A
19
A8
86
89
29
18
9A
19
89
56
66
89
55
96
A6
66
94
29
19
26
69
49
96
A9
A9
96
A9
A8
29
A6
56
56
16
99
46
86
56
14
46
56
06
A9
15
09
56
68
56
A9
49
46
86
89
66
69
86
29
88
54
66
2A
58
A5
16
89
68
66
8A
29
56
16
05
56
56
A9
96
56
46
19
A9
56
A9
89
68
01
18
84
90
01
14
40
80
14
04
89
08
04
08
89
00
09
89
26
19
19
18
09
16
84
96
29
08
89
06
1A
29
96
4A
0A
6A
A4
9A
05
85
82
54
24
96
84
59
41
04
14
88
80
08
09
00
08
44
10
84
88
64
26
29
99
09
86
A9
26
09
66
09
14
06
89
58
66
66
81
98
04
9A
19
56
06
56
84
84
A5
59
46
A5
65
AA
86
4A
25
42
A4
18
81
95
A1
94
12
A5
2A
22
25
09
18
61
5A
51
45
00
26
6A
64
2A
48
50
61
92
41
80
A5
55
AA
94
86
24
00
02
66
54
98
69
5A
A6
06
A5
21
89
40
A4
51
28
88
55
58
44
61
04
55
A5
22
51
A2
46
81
00
55
04
22
60
92
85
A4
A5
A8
60
A2
4A
06
20
55
82
65
44
44
A6
24
A0
22
09
99
65
1A
55
29
A9
A0
A4
58
6A
62
21
A5
A9
88
0A
65
59
81
42
09
96
95
51
92
9A
25
42
69
58
66
A8
96
55
5A
68
96
28
6A
62
64
56
4A
68
45
56
48
54
A5
26
14
4A
9A
90
A0
45
6A
A4
80
26
92
64
45
16
92
45
5A
8A
68
A6
AA
50
85
50
65
A6
40
54
65
58
9A
56
29
54
56
62
54
A1
A2
40
96
42
55
45
42
AA
18
81
86
92
1A
40
85
86
68
A5
A2
61
01
28
12
05
05
26
59
2A
21
A8
10
60
88
88
58
62
02
90
99
00
89
AA
00
29
45
10
10
14
05
82
00
86
98
44
51
15
84
2A
56
20
11
14
A0
16
22
6A
01
94
85
99
A0
14
42
54
A8
8A
95
80
85
A5
60
92
42
92
1A
04
21
0A
59
28
80
45
84
46
20
28
82
6A
10
02
91
08
42
11
65
68
09
1A
51
55
64
49
85
64
24
0A
65
82
62
AA
A0
A1
80
51
66
14
A9
91
15
66
5A
A5
A4
69
6A
60
89
62
51
09
A2
15
15
AA
26
A4
82
91
A9
49
59
44
96
A0
81
55
45
2A
1A
49
88
85
88
51
91
25
14
98
06
95
18
60
44
06
20
65
45
2A
11
95
59
06
12
11
26
96
9A
12
A0
22
45
82
96
06
66
84
1A
00
6A
82
AA
2A
29
10
19
1A
94
A4
84
60
A5
05
02
84
88
22
2A
80
2A
10
A4
50
50
A1
60
60
0A
50
04
54
59
80
24
99
05
20
51
26
51
55
28
84
51
54
45
11
22
46
44
48
0A
54
5A
48
96
25
94
29
8A
58
20
00
54
28
60
04
04
46
10
5A
66
48
A1
26
18
A2
22
95
29
A0
44
19
12
A5
A6
14
01
50
A4
40
4A
06
08
06
9A
41
04
0A
65
4A
A5
62
61
15
56
28
54
12
61
81
01
41
91
88
0A
08
08
14
85
01
82
28
09
04
A1
12
18
89
AA
99
04
45
49
48
60
98
6A
92
49
A2
18
14
50
49
45
54
A6
52
40
29
86
12
81
51
28
25
28
14
50
56
06
9A
15
22
06
21
20
A0
08
02
10
92
45
48
24
41
8A
46
55
81
95
49
29
14
26
2A
28
5A
A0
61
99
92
96
49
24
66
94
26
45
18
09
18
48
22
80
81
94
80
00
88
02
52
89
40
40
A0
16
A0
02
81
84
59
21
A5
48
12
1A
12
06
12
20
82
16
40
88
24
4A
A2
45
08
45
20
22
62
64
00
04
99
94
2A
91
80
48
00
12
42
A2
20
49
86
60
88
A8
40
20
62
20
00
22
A5
28
59
09
52
44
14
22
A4
05
61
04
24
08
10
08
92
96
92
51
A8
00
40
00
14
A4
5A
48
45
10
11
82
19
80
61
82
14
8A
80
91
84
08
90
00
84
08
54
98
04
40
08
A2
80
40
A6
00
00
40
81
05
28
20
00
8A
28
10
A5
05
98
21
20
48
20
14
A2
18
5A
24
0A
94
18
04
A1
45
00
A0
06
04
20
18
21
84
18
40
18
02
88
0A
40
58
08
50
08
68
91
69
24
00
50
AA
68
40
20
48
65
94
42
24
54
AA
A6
08
20
40
24
00
20
00
00
00
00
00
40
00
20
00
00
00
00
00
20
00
60
10
10
02
00
20
14
64
02
20
09
80
04
05
22
18
02
90
18
29
00
01
68
68
24
24
10
46
20
00
00
00
00
00
00
80
00
20
20
04
40
00
00
00
00
04
04
20
04
00
00
01
00
20
14
06
09
05
11
00
00
20
21
20
04
20
10
14
00
00
25
18
00
0A
28
90
A0
86
A9
69
A2
99
10
AA
9A
51
21
94
1A
5A
52
86
48
21
11
6A
99
2A
91
A2
A6
98
86
A9
91
8A
95
04
A1
2A
98
01
4A
AA
A6
52
69
AA
18
59
05
12
48
98
A8
94
2A
42
06
58
A1
01
59
6A
61
41
16
6A
29
A2
A0
06
9A
A0
66
9A
91
28
41
8A
11
28
95
15
6A
82
02
04
18
26
6A
19
02
65
01
06
15
02
99
04
4A
45
A1
61
94
68
A2
95
59
11
85
48
64
A6
84
A6
61
62
22
55
4A
12
AA
9A
82
44
9A
56
1A
61
20
16
48
8A
6A
6A
55
08
09
55
95
8A
58
18
26
AA
9A
A6
59
69
4A
09
10
04
94
9A
62
20
04
A6
86
68
59
02
65
61
01
28
92
A2
40
04
60
84
A2
06
A2
58
46
86
19
58
94
94
41
18
A0
80
95
A2
22
26
88
21
AA
66
42
94
06
68
49
48
99
1A
09
19
60
14
29
A2
11
69
08
18
66
49
88
08
04
02
62
22
46
69
A5
59
8A
A8
29
19
54
82
62
62
88
65
48
21
A1
09
68
56
AA
A4
68
12
00
28
16
A8
68
52
08
2A
85
46
0A
15
15
A1
11
48
04
00
68
19
82
88
99
45
15
01
19
22
19
9A
88
69
88
24
98
81
22
0A
21
5A
A4
A9
60
28
22
A6
84
68
85
05
40
68
42
94
12
28
4A
A2
52
8A
42
15
12
91
25
86
8A
89
94
44
66
45
88
44
82
A4
56
59
56
A1
10
85
69
98
89
05
5A
25
19
16
A4
48
5A
95
92
68
45
95
44
08
6A
40
8A
19
A4
88
01
85
00
A2
85
44
54
A9
82
46
95
0A
68
50
55
55
88
A4
AA
06
51
46
18
85
62
18
5A
51
29
62
68
88
A0
91
45
06
81
65
44
50
09
94
81
02
22
A2
56
10
04
48
08
14
19
04
A0
26
20
2A
62
08
60
04
A8
12
A0
2A
0A
91
0A
51
0A
01
56
1A
51
02
92
85
80
20
0A
59
01
02
15
52
60
08
40
00
15
A4
18
00
60
06
40
08
00
09
14
11
01
01
2A
05
41
6A
08
40
05
21
66
99
99
82
21
21
44
42
20
95
18
12
96
09
98
46
01
1A
92
99
68
61
02
08
50
49
AA
12
4A
04
45
11
46
26
52
A4
94
09
84
56
18
00
14
A8
51
5A
65
08
A2
8A
90
58
09
18
1A
81
21
61
40
11
A4
A4
16
15
41
6A
29
21
60
44
68
28
60
61
A2
0A
20
85
AA
92
89
52
A8
51
A1
25
25
86
48
10
98
A1
42
A8
15
40
1A
41
85
55
64
08
48
1A
00
0A
16
28
AA
50
25
68
49
60
09
02
81
51
40
65
88
20
A8
10
88
90
10
20
20
10
12
05
81
80
00
00
1A
00
06
09
49
48
A0
48
88
A1
11
82
5A
60
45
22
A8
96
02
21
92
95
90
88
A5
0A
48
50
20
50
22
A1
44
10
50
10
80
10
20
80
81
01
08
10
00
00
09
20
21
00
40
02
01
0A
81
A0
40
A9
A6
20
68
88
41
48
88
22
86
5A
60
29
96
84
48
28
A5
25
20
21
84
04
88
86
A6
44
26
80
A6
5A
8A
94
50
66
55
49
69
18
42
06
A0
54
5A
09
52
56
6A
29
25
06
91
59
9A
86
15
55
22
A5
A6
59
05
65
99
42
11
91
20
9A
16
81
4A
65
21
85
A4
59
52
65
69
01
A1
0A
59
24
A2
11
20
59
19
A1
46
02
51
41
64
24
68
AA
98
46
85
86
42
91
91
42
48
40
95
16
12
9A
80
52
11
41
09
0A
19
69
19
0A
29
A9
09
08
A9
01
65
05
06
19
5A
99
A4
5A
26
69
65
45
AA
02
46
11
86
68
49
A8
60
AA
0A
81
99
5A
56
21
19
09
24
99
29
A1
68
61
69
99
12
65
58
64
61
65
08
95
22
95
69
64
59
16
52
5A
96
09
64
22
89
24
22
99
62
62
04
1A
0A
66
02
26
85
96
20
68
99
11
A6
A6
65
95
A0
59
56
5A
4A
A1
01
22
A4
51
9A
45
00
81
8A
90
12
64
41
A4
A8
A1
61
55
42
49
05
6A
80
06
0A
06
02
A1
85
41
49
A4
4A
48
81
80
44
61
54
A2
28
81
4A
00
10
20
98
58
14
9A
12
26
05
65
40
54
96
18
08
65
50
24
06
0A
40
01
94
18
88
8A
A8
52
86
10
50
65
81
A2
00
96
A4
50
41
42
84
91
44
49
A5
49
14
54
14
40
21
40
19
26
82
14
01
8A
58
28
26
A5
85
64
A5
96
46
46
56
80
41
44
52
19
A0
96
09
02
58
89
62
51
18
A5
A2
90
80
54
66
A6
91
96
92
61
88
82
4A
AA
84
09
54
28
68
04
08
85
0A
8A
01
91
99
24
16
80
96
49
10
02
19
A2
16
9A
04
54
56
95
95
96
8A
16
16
46
95
60
98
06
19
29
5A
66
10
96
86
AA
5A
60
41
52
99
92
24
8A
42
40
65
98
61
58
A8
90
80
24
AA
28
A8
02
45
62
92
82
66
6A
90
11
A0
66
24
64
82
01
90
92
84
68
01
99
05
62
A1
05
14
A8
19
48
91
06
50
26
85
A8
A6
81
05
12
50
AA
44
A4
91
84
50
28
11
98
44
68
92
84
59
85
82
41
52
08
50
A0
28
62
65
A0
16
A8
88
A5
62
06
61
24
11
00
68
96
40
68
50
02
04
51
91
01
48
16
25
11
11
90
44
04
88
06
18
0A
06
20
29
0A
65
20
0A
94
66
14
29
04
64
A0
89
68
88
9A
9A
64
9A
96
A2
25
52
82
A4
88
48
58
18
A6
24
8A
12
08
08
00
99
22
85
46
96
28
11
08
00
14
0A
90
22
98
59
85
05
44
08
95
82
68
52
99
8A
84
69
89
96
14
22
1A
41
12
58
5A
64
56
65
05
65
81
99
65
9A
0A
08
20
64
09
A9
46
A0
18
62
A0
00
A0
12
69
80
04
28
15
00
26
10
26
09
A2
14
04
0A
15
91
88
49
26
85
89
04
A8
08
2A
81
46
14
12
91
44
9A
64
61
65
25
28
81
0A
05
60
96
9A
26
24
81
11
69
51
42
25
52
89
12
50
82
80
28
00
28
5A
20
46
16
10
A9
85
44
52
14
02
28
A8
42
48
15
2A
0A
45
49
65
40
10
00
80
06
05
08
69
98
00
95
05
69
00
58
40
20
54
29
A6
00
08
22
88
49
90
46
49
88
A0
08
20
A6
02
56
04
14
42
8A
88
10
05
16
64
10
9A
09
02
91
A8
56
92
41
8A
10
06
08
05
22
05
A8
99
04
50
26
98
00
91
01
04
8A
A6
40
98
85
20
A0
2A
02
40
45
84
22
64
84
A4
20
50
41
02
10
00
40
00
90
08
08
00
08
10
00
00
08
00
10
00
20
00
00
60
01
90
40
26
04
00
46
20
88
18
04
02
40
04
68
82
00
64
A2
02
88
84
01
A8
1A
09
01
21
18
20
00
08
10
08
00
00
00
00
08
10
00
04
10
00
08
62
00
01
00
00
00
46
01
00
06
52
80
96
02
01
28
19
56
89
10
02
02
40
05
40
10
22
04
04
01
02
25
04
29
0A
19
62
1A
AA
9A
56
5A
25
A9
A6
1A
A9
56
42
12
06
82
24
91
05
62
99
A1
09
18
12
48
66
96
94
64
19
A4
88
99
A6
50
95
65
04
02
68
09
AA
89
06
A8
4A
90
66
99
48
49
46
5A
46
99
AA
09
90
61
92
A8
96
62
46
82
44
45
61
9A
45
59
19
14
99
15
94
85
00
20
64
52
52
6A
06
46
98
99
2A
99
68
A5
09
16
98
58
60
9A
69
8A
18
48
00
26
41
4A
18
69
9A
04
19
10
8A
15
A1
60
A5
26
4A
05
58
A4
68
89
85
66
26
A5
89
28
51
19
24
18
A1
81
48
59
6A
A8
61
28
54
46
29
14
22
55
9A
0A
65
95
00
A6
A8
0A
65
4A
91
A4
9A
49
58
A8
10
AA
A8
69
94
9A
41
04
68
24
89
19
64
56
A4
A6
69
A9
44
A4
A9
A8
88
42
89
01
A0
A4
42
18
80
94
A6
20
58
44
14
00
A6
10
92
01
91
4A
90
A4
41
61
10
89
10
A5
86
01
25
04
45
50
66
82
25
49
14
62
6A
29
24
95
96
09
24
28
95
22
10
58
40
19
80
9A
46
61
90
85
4A
A0
52
00
22
95
82
91
11
1A
9A
42
01
6A
6A
55
51
28
66
40
90
19
85
00
96
86
94
86
A4
45
94
09
05
8A
29
10
40
59
82
29
88
20
80
80
1A
69
1A
A9
94
18
82
55
90
46
50
91
05
6A
A9
A9
20
2A
51
94
48
12
80
26
18
24
A4
16
68
A5
A8
69
04
91
90
95
56
24
88
85
96
44
81
86
19
A2
05
46
58
41
96
2A
15
16
61
85
85
A2
A0
19
A0
49
11
A9
42
86
51
0A
9A
55
0A
22
4A
81
86
86
61
1A
25
84
AA
25
86
62
A6
89
66
0A
A2
11
06
05
90
41
A1
A9
40
69
48
00
00
95
55
26
60
88
95
24
12
68
4A
60
20
12
01
18
44
01
6A
95
28
94
82
40
66
98
59
94
48
15
22
28
A4
26
25
6A
2A
94
19
16
A8
01
A2
28
82
42
A1
11
58
41
A6
54
21
24
00
15
01
A9
84
06
61
45
06
66
81
61
80
10
20
A2
66
90
50
02
68
A9
60
A9
05
11
84
50
26
50
92
10
29
91
18
26
61
58
65
8A
10
58
24
60
49
89
10
52
26
26
44
6A
55
20
44
04
94
AA
91
95
A6
12
19
49
A4
51
94
60
29
99
A9
4A
59
06
90
19
54
88
81
00
59
81
19
80
6A
9A
80
85
64
9A
A2
41
69
8A
02
96
A9
01
80
66
48
89
6A
52
A5
89
6A
26
9A
58
62
16
06
09
59
A9
68
81
85
01
6A
62
80
56
26
60
48
08
42
00
A0
10
21
20
20
81
01
21
00
00
24
68
08
01
02
08
08
00
44
98
12
15
26
0A
4A
92
8A
64
85
24
85
A0
90
84
50
18
29
62
4A
41
10
41
45
91
00
40
10
09
10
82
00
20
00
00
40
24
0A
02
80
02
00
05
40
40
01
18
00
04
16
19
A2
94
81
92
A4
20
51
94
A4
89
89
90
A0
44
95
40
08
46
28
66
09
2A
65
18
69
A4
A1
65
80
50
05
50
10
69
91
52
02
4A
A1
5A
00
A4
52
A9
98
92
A9
81
A9
66
69
15
5A
9A
56
56
96
14
54
60
52
56
6A
56
25
46
6A
A9
12
29
16
69
11
1A
90
44
AA
5A
24
A8
50
4A
0A
A0
65
09
49
A1
96
16
09
28
56
59
21
5A
06
6A
91
48
40
60
65
AA
A8
56
69
12
A9
52
29
61
98
21
A9
29
A1
62
56
16
05
56
6A
52
2A
1A
52
90
A2
51
92
A8
09
56
9A
A8
18
15
82
61
AA
59
59
26
96
A1
8A
98
54
8A
A9
8A
12
86
58
81
69
68
9A
A9
54
12
52
60
A9
56
92
69
29
16
41
21
25
92
18
92
19
A0
A4
19
11
95
69
95
25
99
08
91
A5
A9
89
A9
0A
91
51
0A
99
66
65
92
56
A9
A9
56
16
9A
25
A9
65
68
56
A9
56
29
96
95
1A
64
21
19
44
24
14
01
04
24
A0
29
69
52
06
25
69
19
80
1A
99
81
58
81
18
25
65
09
00
A1
42
A4
52
16
14
A6
41
10
40
46
15
29
15
21
68
52
20
14
29
68
21
20
81
92
0A
92
A4
02
42
A9
24
91
09
11
18
98
1A
81
21
66
16
64
82
12
48
12
95
42
94
56
29
50
92
52
96
10
69
58
02
01
92
89
01
96
65
A1
14
9A
60
69
96
52
99
A9
82
28
92
82
58
49
29
09
46
6A
50
A9
92
28
81
A5
6A
AA
54
66
46
09
59
56
56
65
A5
A9
08
56
91
96
A1
A5
A5
A9
10
1A
01
61
1A
95
45
40
85
5A
66
A0
68
56
81
15
A8
61
08
89
0A
28
8A
19
A9
16
89
95
18
90
50
10
69
92
A9
46
A1
94
96
25
96
98
1A
56
A5
52
29
69
5A
22
2A
55
52
20
16
2A
A9
96
42
A4
A9
10
58
02
29
52
48
5A
12
5A
A5
6A
18
96
84
09
16
A1
92
56
0A
26
16
10
29
0A
A9
5A
56
5A
24
26
81
28
56
28
29
56
08
21
58
12
58
50
01
14
02
21
88
89
25
80
A5
06
AA
52
A4
68
68
50
42
08
16
A0
0A
A4
99
11
02
25
A9
A9
90
56
A2
55
A9
24
95
02
A1
41
54
A9
96
15
A1
2A
55
42
62
40
08
88
04
99
68
00
90
A4
62
A1
80
A0
09
9A
A2
19
A9
91
85
85
54
89
44
45
A9
50
41
16
69
02
5A
A6
99
52
A1
21
04
41
65
16
15
00
01
10
AA
41
49
60
40
51
09
81
A1
18
A2
4A
26
64
59
49
89
91
20
89
42
69
96
06
A8
88
14
25
21
28
96
12
56
65
52
4A
28
48
86
18
A5
25
A2
9A
20
11
A1
12
98
16
89
29
19
00
11
92
24
56
21
62
29
65
69
28
4A
0A
20
12
86
29
02
99
40
50
08
51
66
00
96
21
98
11
69
66
A1
5A
56
84
26
91
82
42
A5
A1
A1
56
61
48
81
A5
16
15
61
94
10
51
94
59
99
A1
A1
20
14
49
06
81
65
09
5A
2A
09
9A
6A
15
24
29
00
04
A1
2A
A0
60
92
00
01
58
20
9A
66
21
02
96
16
22
20
40
24
60
91
02
29
18
40
20
11
06
08
A9
22
9A
26
10
49
22
2A
84
90
6A
25
29
80
A0
24
45
29
A9
A6
5A
04
24
46
19
58
A5
A1
05
08
A1
2A
00
05
A4
26
90
68
14
01
64
66
12
90
92
09
00
11
28
56
89
12
91
66
62
11
20
56
12
02
21
28
10
28
54
25
A5
A2
09
81
16
20
08
65
0A
A5
69
A5
21
24
00
10
80
80
00
00
00
20
60
00
11
00
08
00
80
08
00
08
02
08
00
04
00
02
10
00
48
82
22
24
90
A0
40
15
6A
12
48
18
18
11
20
26
24
20
48
68
00
62
80
58
02
00
00
00
22
00
00
01
08
20
20
00
01
20
00
00
08
08
20
10
00
15
04
80
10
22
20
20
21
05
49
0A
A5
60
A1
A4
98
19
64
90
25
10
20
04
25
10
A0
20
94
59
96
28
12
6A
59
69
A4
A1
05
9A
98
9A
91
85
A9
96
40
85
44
56
A9
09
16
04
59
A9
29
A5
92
56
A9
12
44
16
5A
A9
98
56
A9
A9
29
2A
16
5A
92
92
52
A5
69
91
24
A1
24
26
22
19
5A
91
25
54
50
69
05
11
64
96
5A
60
86
56
59
A6
A9
A4
04
59
A8
42
16
9A
A9
A9
21
A9
98
61
69
56
66
56
96
29
14
62
80
61
60
61
60
56
69
56
89
81
08
66
9A
22
16
85
81
14
95
84
69
AA
A9
02
A9
24
65
12
54
24
5A
5A
A9
29
94
12
69
18
58
A9
A0
5A
86
A4
52
46
55
64
94
29
86
92
A1
41
2A
54
A1
51
0A
99
21
A9
10
99
0A
92
98
58
64
0A
A5
56
8A
16
69
05
95
16
12
16
28
96
52
A9
89
26
56
80
99
29
64
52
56
89
20
40
91
01
68
08
00
20
10
05
05
49
02
A4
06
44
20
84
08
04
80
