82
19
45
A8
19
0A
95
14
15
90
09
62
8A
92
51
6A
51
94
91
00
00
81
04
1A
92
15
06
92
A1
A6
52
6A
99
25
98
88
19
56
01
59
16
65
04
96
A5
48
02
A1
99
52
84
22
6A
1A
92
90
A6
28
48
68
58
65
A4
4A
02
20
18
60
20
85
12
50
59
21
15
A8
84
14
28
06
25
81
29
65
59
49
46
06
88
14
9A
A5
9A
08
62
69
1A
A6
04
A5
A8
59
05
58
A9
66
1A
A2
A6
A6
59
80
92
1A
14
24
26
88
06
95
A1
68
89
66
92
69
A1
AA
94
2A
40
22
15
6A
10
A5
26
61
99
99
26
14
28
08
A1
45
59
44
24
19
18
11
55
48
44
52
A5
24
52
55
19
6A
55
9A
51
08
55
48
12
1A
51
40
A5
20
51
82
A6
21
05
20
84
0A
20
15
45
25
0A
40
6A
14
10
A6
61
50
9A
04
11
49
48
A6
19
29
19
85
45
00
00
45
14
49
24
98
10
90
2A
20
46
00
6A
21
08
00
00
12
11
22
95
08
04
A0
26
28
66
05
50
62
15
28
86
15
68
25
54
12
25
24
62
18
81
85
16
92
12
16
09
01
89
21
26
86
21
99
10
99
10
94
61
20
18
91
05
08
64
25
A4
26
10
06
22
06
24
44
22
45
2A
22
AA
A2
5A
29
44
AA
26
91
A8
91
56
2A
8A
02
50
9A
46
6A
A1
26
95
88
42
05
95
52
66
02
92
46
61
69
99
28
54
96
8A
24
65
A9
0A
8A
56
A9
85
82
95
48
A4
82
55
1A
05
5A
25
A9
5A
2A
51
69
66
52
48
85
25
46
21
8A
11
58
92
51
A4
64
A6
11
69
98
84
40
58
A5
68
6A
49
11
51
A8
46
45
54
48
A8
18
81
5A
96
A6
8A
69
20
48
89
24
40
18
86
09
91
85
80
18
44
24
61
64
22
20
48
11
28
12
54
45
12
69
20
2A
29
A6
84
24
40
06
24
40
48
19
92
85
00
9A
18
61
4A
29
46
50
16
10
28
59
40
A8
42
59
A5
05
10
80
80
80
22
19
58
18
18
44
05
28
01
A0
A2
90
21
84
60
46
64
58
98
45
90
11
15
9A
22
A4
45
4A
82
19
44
26
10
08
54
16
01
41
85
45
24
98
52
0A
82
44
84
9A
1A
5A
18
64
9A
26
45
82
A6
45
06
04
95
56
91
58
A8
49
56
89
2A
94
46
A0
89
81
95
18
46
91
41
9A
4A
51
42
5A
89
42
81
05
28
A2
02
28
60
A0
49
26
22
0A
61
02
20
85
9A
81
88
88
11
A9
95
20
55
A9
59
42
10
95
82
80
91
82
08
01
0A
42
5A
86
49
44
1A
00
6A
98
59
9A
45
08
40
08
60
48
08
54
68
1A
46
04
22
20
59
84
10
29
90
22
58
01
19
41
10
51
08
44
A4
52
06
68
48
82
46
24
04
26
A8
08
64
84
62
42
89
12
91
92
40
2A
92
06
09
00
22
62
15
51
A4
58
00
10
55
4A
11
48
84
09
26
02
01
11
49
82
51
00
11
12
68
80
49
60
14
92
54
12
29
08
10
28
A5
85
61
60
42
82
80
8A
01
92
50
02
06
82
49
54
10
40
08
00
02
11
00
10
10
25
A0
A8
05
00
12
09
25
2A
19
22
AA
04
46
21
8A
05
50
08
29
82
08
81
11
A0
92
01
10
02
08
21
98
06
0A
00
48
26
91
51
80
40
40
29
98
21
82
AA
80
A1
41
01
04
90
9A
88
A1
00
09
84
18
40
09
11
00
40
14
24
41
09
88
04
52
00
0A
04
81
80
00
00
20
11
10
08
41
04
90
00
20
0A
09
42
00
80
0A
0A
48
2A
12
2A
69
20
19
65
1A
1A
90
85
4A
95
95
95
6A
69
82
84
A6
6A
4A
4A
40
28
00
05
09
15
00
08
10
00
02
08
10
00
84
81
05
00
00
68
08
00
48
18
28
94
2A
20
4A
95
00
05
12
95
26
AA
A1
49
41
88
4A
81
2A
95
4A
55
4A
85
0A
18
AA
16
15
09
26
41
68
6A
40
A8
5A
65
66
A8
51
51
56
94
05
52
94
8A
A1
26
98
59
A6
59
22
A9
9A
21
11
62
41
55
60
66
28
5A
49
A1
06
25
61
62
40
44
46
06
01
55
29
A9
5A
26
46
01
08
40
65
A9
91
55
19
10
19
66
29
40
A4
29
41
15
62
55
A0
4A
46
68
95
58
65
55
55
51
AA
4A
AA
61
56
26
65
A9
9A
58
41
99
21
18
A5
06
86
10
49
60
11
82
66
16
18
65
18
58
5A
51
25
88
98
90
84
12
45
60
8A
04
6A
9A
A9
42
A0
20
42
48
00
0A
AA
98
88
89
A8
42
A5
92
90
11
60
56
52
A2
9A
A1
4A
A0
42
48
25
52
10
59
09
51
46
65
61
59
65
49
62
26
52
55
56
99
12
A8
1A
64
50
89
94
85
A4
44
99
10
54
46
08
1A
81
42
02
AA
6A
5A
5A
5A
29
80
50
02
25
98
81
14
61
82
44
44
44
24
82
28
24
80
A0
A6
0A
4A
98
40
88
91
08
94
94
54
92
89
52
85
81
46
25
1A
89
88
05
98
94
5A
08
81
54
41
9A
A1
21
11
80
18
58
01
90
50
08
60
58
88
65
A5
A5
08
02
56
09
94
41
4A
69
22
52
44
6A
66
19
24
89
8A
44
A6
42
A1
56
09
5A
62
54
A4
04
51
24
56
48
54
69
65
A8
52
94
69
98
42
15
51
8A
8A
92
99
90
86
25
A5
A4
65
A5
19
94
99
19
22
69
11
A6
91
68
25
92
49
96
1A
A4
91
86
8A
65
52
46
24
86
AA
49
64
61
50
58
91
55
68
82
98
96
6A
24
25
10
89
98
14
06
56
24
56
98
45
A1
55
41
88
A0
9A
99
94
64
89
14
A4
A9
A2
65
56
52
44
49
21
29
50
41
64
6A
65
10
92
44
00
60
A9
60
68
66
5A
28
95
09
1A
91
91
19
95
18
A9
26
24
84
88
26
60
65
42
A9
89
00
44
AA
62
99
56
18
54
98
99
10
11
62
14
86
44
91
0A
2A
66
21
86
21
00
65
16
42
68
61
90
18
64
A9
90
6A
89
94
8A
42
6A
60
84
11
59
91
A6
89
25
11
64
82
10
11
08
01
18
A1
02
99
2A
61
09
66
25
19
11
28
51
50
11
62
56
68
A1
50
2A
60
A6
05
04
15
26
A5
A2
98
55
81
14
4A
01
94
8A
19
21
65
42
99
54
A0
18
AA
85
55
1A
84
20
81
11
10
A1
62
54
8A
82
92
AA
8A
21
18
6A
65
60
24
28
A6
4A
65
10
AA
80
12
09
65
A8
25
61
A5
A5
06
02
80
85
22
41
85
28
4A
8A
88
65
1A
80
01
08
80
6A
09
14
24
08
00
28
21
82
42
41
51
04
90
44
59
08
06
82
80
40
52
A8
4A
90
58
09
14
10
42
6A
02
82
44
80
24
02
02
10
51
48
05
41
25
60
09
00
02
95
15
81
11
06
20
50
21
14
08
28
10
04
00
09
56
4A
19
AA
82
29
02
25
14
1A
05
80
6A
98
A4
A6
01
40
42
AA
A8
89
60
59
99
2A
55
86
02
19
A1
66
28
50
68
20
A5
A4
92
02
68
91
28
1A
82
5A
AA
52
A8
80
AA
98
80
91
19
85
02
00
82
25
04
50
14
5A
A5
A2
88
5A
29
4A
85
A5
15
41
96
A4
59
A1
02
59
A6
40
08
06
65
26
45
28
A8
A8
86
52
84
82
15
00
45
24
19
65
84
12
49
81
A6
25
92
06
A1
96
A4
8A
11
0A
A9
11
52
52
89
5A
AA
65
01
6A
45
62
12
16
58
49
2A
A1
9A
29
6A
21
04
10
68
4A
A8
11
5A
08
21
65
19
26
A1
2A
85
92
45
5A
84
46
66
42
49
64
82
65
54
82
61
26
A6
5A
1A
A4
05
29
92
28
5A
49
A5
01
65
AA
62
A9
49
18
58
29
61
05
A9
86
0A
16
22
95
80
01
14
A6
89
A4
61
05
A1
89
AA
98
06
89
14
66
68
44
A8
51
19
49
59
99
A6
A5
91
24
A2
49
18
21
50
64
A1
A8
0A
41
00
05
94
A8
88
24
8A
60
24
00
91
19
40
48
85
A2
A0
56
26
54
A8
98
90
40
05
00
04
41
A2
24
12
21
8A
46
48
24
15
49
1A
40
50
80
26
A4
00
90
90
91
88
A4
49
80
44
04
04
2A
24
08
10
44
45
06
4A
92
60
40
59
50
0A
50
A9
21
84
00
02
58
A6
01
40
62
20
81
22
0A
40
04
19
06
05
69
40
02
42
1A
48
54
00
90
42
15
A1
80
02
0A
60
98
69
85
16
22
86
91
64
8A
29
85
60
A9
95
AA
49
16
98
45
06
14
5A
29
85
45
94
8A
55
68
21
A8
04
85
40
60
88
49
96
61
19
04
60
9A
A6
84
96
A4
95
5A
42
91
55
92
05
84
21
92
A0
49
15
9A
10
59
0A
1A
96
1A
96
92
92
04
58
80
95
56
99
94
4A
86
69
08
64
95
94
8A
21
52
5A
21
88
90
82
69
40
10
0A
24
6A
20
50
84
46
82
44
4A
62
58
50
40
A6
48
54
15
9A
12
60
01
00
68
4A
18
12
01
92
16
09
86
80
AA
69
10
28
61
49
20
24
94
48
65
65
A8
41
A6
49
A8
0A
46
84
6A
98
6A
A8
01
92
45
18
18
59
80
4A
09
84
85
A4
0A
50
14
0A
92
09
86
00
12
18
92
54
88
00
10
21
10
52
06
08
52
85
88
94
09
8A
90
1A
08
6A
40
49
A8
9A
89
29
00
98
9A
9A
10
16
1A
61
0A
5A
82
41
A6
02
9A
52
89
A6
00
64
25
52
69
00
46
10
90
98
08
A8
85
04
18
41
40
00
92
2A
96
09
A5
19
84
A4
96
02
69
10
96
81
A8
59
84
95
68
5A
96
0A
61
A2
14
92
59
8A
59
61
65
55
65
50
16
22
80
1A
10
86
92
1A
00
81
16
4A
05
60
54
46
86
66
60
90
98
50
28
68
10
16
A1
5A
45
42
86
02
80
81
A9
41
2A
82
80
10
54
A8
45
0A
58
96
45
24
A5
08
86
28
21
86
68
69
2A
08
54
4A
42
94
90
25
A0
A9
82
A0
10
98
A6
91
50
91
95
94
29
82
62
29
01
82
A8
69
A2
04
94
85
16
85
40
10
06
52
60
65
10
A2
60
88
60
40
18
98
21
80
42
64
29
00
A0
64
88
A0
22
89
41
60
56
52
64
80
60
84
41
42
2A
50
08
61
AA
1A
81
A6
60
14
28
64
65
00
50
16
64
81
09
26
06
14
65
49
80
08
20
00
82
10
05
06
00
24
40
02
10
04
08
40
88
40
42
42
54
08
40
60
25
A8
81
82
41
8A
50
09
22
88
66
99
A8
A0
24
08
51
04
04
05
00
08
80
01
80
01
00
00
50
00
84
00
40
80
90
60
42
40
00
10
56
46
44
94
12
92
41
62
6A
95
54
21
A0
4A
A1
8A
60
42
06
54
95
A5
59
42
46
42
08
41
08
40
12
0A
48
88
44
00
21
80
40
20
00
80
80
00
40
02
40
41
00
24
80
12
10
02
A8
48
00
40
89
56
55
68
42
90
A0
66
20
41
94
46
0A
52
85
89
A2
4A
60
55
A1
64
62
56
A6
14
09
61
41
22
AA
1A
94
86
18
61
54
96
A9
59
69
08
56
49
91
65
15
95
85
95
A4
49
5A
26
65
86
94
50
69
9A
28
86
46
99
95
58
11
46
25
62
92
42
65
98
92
62
59
56
A2
86
A8
61
90
84
09
46
05
51
42
55
1A
94
11
54
86
01
18
12
92
06
99
5A
9A
96
40
41
26
65
22
59
26
59
49
A6
59
54
A9
11
59
86
26
66
94
21
08
69
5A
58
06
56
9A
A2
0A
0A
60
26
81
9A
85
84
64
91
A9
0A
01
98
22
92
06
42
85
19
2A
5A
11
95
A2
90
18
51
A5
51
06
26
A9
66
49
04
99
25
52
09
86
96
A6
54
91
04
9A
A6
62
04
24
84
82
A6
98
A0
90
A2
25
5A
60
04
86
66
5A
86
04
94
65
A6
54
59
24
89
86
84
11
54
12
18
99
9A
86
15
14
58
14
A1
91
40
2A
11
82
A5
48
20
A5
60
04
28
16
65
A5
24
96
82
12
02
A5
65
90
A9
90
A4
29
98
A4
A5
24
1A
AA
A0
AA
58
00
40
29
44
A1
20
54
19
24
80
51
A0
52
18
A8
00
60
15
0A
90
66
25
24
09
28
29
20
89
28
48
80
10
52
8A
9A
52
58
89
40
29
60
86
15
25
24
68
05
06
A4
09
A0
A8
4A
95
99
56
AA
65
96
20
1A
18
55
19
85
49
05
54
55
A6
96
45
80
A9
2A
89
18
5A
98
44
0A
14
A0
25
52
55
96
29
25
A9
48
A9
4A
46
25
96
8A
29
01
46
19
84
89
41
5A
6A
99
A4
8A
A0
66
94
99
A6
86
9A
54
A2
49
98
94
54
56
9A
91
59
A4
40
11
A0
A0
85
69
AA
68
28
96
A8
98
22
65
66
11
85
20
08
00
80
9A
0A
A0
08
A0
10
90
6A
64
89
A4
61
00
4A
6A
00
28
9A
04
55
A4
24
91
20
95
00
91
10
00
04
58
50
5A
40
81
A4
10
81
4A
20
65
45
A9
64
46
22
82
29
21
94
02
80
94
29
50
6A
08
06
92
A1
94
20
66
5A
89
42
8A
92
1A
69
66
98
24
65
02
61
09
00
51
89
80
51
26
99
11
86
06
A4
12
9A
66
90
48
AA
08
59
96
12
42
58
16
60
11
A6
56
20
21
48
25
0A
66
AA
86
99
49
1A
15
20
55
44
16
89
19
89
98
20
06
21
8A
09
AA
19
95
95
A9
06
5A
92
20
48
49
02
09
69
98
A0
49
1A
96
26
50
66
85
42
19
A1
21
45
99
69
91
98
9A
51
99
0A
A8
10
AA
A0
1A
80
66
94
99
2A
80
19
28
84
A5
64
49
18
11
04
85
88
4A
01
4A
A1
54
80
2A
00
80
62
01
41
44
15
80
81
90
86
81
60
26
91
95
50
56
41
01
89
80
98
48
A0
4A
00
84
98
65
05
50
4A
41
02
AA
24
69
21
42
8A
A0
65
85
05
40
81
91
08
95
00
05
A1
0A
66
81
A1
6A
60
09
44
90
09
25
18
94
A0
8A
10
64
A5
25
04
A4
80
A1
90
68
10
A5
95
56
6A
48
8A
46
48
12
02
09
05
45
88
62
09
92
01
69
69
25
14
08
2A
9A
25
82
A8
A2
45
0A
8A
99
9A
AA
58
A6
92
54
A4
66
98
05
18
24
68
64
89
05
18
82
A4
61
61
66
15
00
41
A1
66
A9
25
06
10
66
A0
2A
04
86
5A
42
22
04
99
AA
0A
19
42
18
92
99
09
1A
2A
5A
69
02
10
88
88
9A
61
26
25
21
16
A5
68
41
99
66
25
00
82
A2
00
65
82
A8
01
16
50
90
A4
80
56
66
29
69
56
55
84
81
26
9A
40
86
18
68
95
45
95
24
49
AA
A9
46
16
41
42
46
01
59
22
AA
04
21
A0
5A
AA
42
09
25
85
95
12
4A
28
56
AA
86
11
55
68
A1
4A
2A
64
49
29
A9
A2
A0
66
24
A9
A6
49
42
84
42
16
49
49
A5
1A
50
51
58
45
29
98
9A
44
51
92
19
96
56
64
A2
5A
20
A4
05
24
54
84
80
58
24
14
80
5A
8A
4A
51
0A
09
58
20
68
56
26
19
80
51
84
44
02
54
04
02
12
26
22
98
40
4A
44
A0
54
61
AA
86
51
82
10
61
51
26
A5
0A
22
00
4A
26
10
26
09
9A
98
A0
60
00
22
40
00
9A
61
40
A0
44
29
99
28
12
94
21
01
A2
28
55
02
40
80
00
82
21
90
15
82
40
12
88
15
00
89
2A
09
81
54
9A
92
86
15
29
81
50
62
41
56
50
6A
16
26
14
A5
14
6A
66
6A
86
60
48
81
96
99
94
59
09
60
86
92
A6
52
A2
55
2A
68
44
98
2A
51
62
95
05
42
95
02
22
95
95
49
16
92
99
A1
29
61
A1
56
18
21
59
A9
10
68
82
98
2A
05
A5
62
19
18
A9
85
A9
29
59
54
A4
4A
52
55
22
26
16
98
92
A1
AA
A1
4A
A4
01
2A
95
50
68
A5
81
AA
20
99
40
16
48
69
51
08
96
85
4A
69
41
4A
0A
8A
61
82
49
04
95
50
08
25
50
A5
85
5A
89
41
18
20
25
0A
40
09
15
A5
09
42
11
A4
41
05
4A
A6
68
42
51
A1
5A
82
0A
A0
5A
01
06
2A
09
98
68
60
9A
02
A5
A0
4A
A0
50
04
A4
80
42
52
09
92
A4
94
85
25
14
66
0A
11
96
06
52
69
24
10
24
84
04
50
A4
A0
94
00
5A
A2
9A
10
62
68
99
10
84
45
40
A6
18
42
A0
25
28
A4
58
A0
26
8A
A4
45
08
09
25
24
A4
84
A0
92
92
5A
A9
40
28
1A
94
90
A0
10
05
41
14
40
1A
4A
04
98
80
85
04
62
04
61
A0
58
21
16
12
85
8A
61
9A
4A
04
91
55
15
AA
A6
58
92
41
A4
55
92
49
6A
69
55
58
85
40
49
A4
04
14
5A
44
81
A4
91
90
A6
48
45
80
59
90
11
88
81
0A
A5
52
41
01
04
58
09
61
40
92
11
40
84
A5
81
81
54
81
92
91
50
12
05
42
80
20
58
5A
A5
98
22
01
5A
01
A6
58
64
85
40
59
62
85
48
50
40
81
92
A4
41
0A
22
A5
80
A0
80
00
08
A6
20
41
92
20
60
06
20
18
5A
60
58
00
25
A2
88
21
94
A1
48
52
02
04
A2
81
0A
46
05
A2
1A
00
89
20
82
8A
48
00
11
81
40
00
81
02
00
12
98
19
06
84
05
81
8A
56
80
41
14
46
01
00
A6
00
48
68
24
46
28
24
04
18
05
12
A5
50
80
58
45
48
9A
64
40
00
4A
A2
00
80
A2
40
22
82
84
42
04
04
00
88
05
09
00
02
40
A0
89
2A
91
11
01
14
51
52
14
04
44
20
56
80
40
42
05
06
81
82
10
00
00
01
20
02
00
00
19
11
00
01
20
02
01
20
11
05
52
90
08
22
61
44
80
81
89
66
49
12
46
A5
59
A8
A6
86
A8
A1
19
89
A8
09
80
10
44
02
0A
01
02
08
14
05
10
10
22
02
02
09
02
55
11
00
01
10
21
02
A4
08
29
02
40
A2
22
01
A6
A5
2A
28
5A
A8
88
8A
A4
46
18
66
A5
46
11
0A
25
50
54
92
68
0A
A1
98
A2
08
06
1A
A5
04
1A
64
16
65
9A
9A
A5
16
64
6A
45
9A
05
55
62
19
11
90
02
80
A6
24
69
95
66
82
A5
6A
65
A5
82
A6
05
01
A5
4A
4A
69
64
62
96
A1
6A
82
65
20
0A
65
58
50
5A
29
22
59
14
68
A0
19
66
44
4A
84
6A
85
25
90
18
41
08
84
19
A1
15
96
6A
6A
56
45
56
A0
21
88
12
91
1A
0A
88
21
56
05
10
4A
5A
AA
99
25
66
A6
A6
21
24
88
88
14
52
24
50
0A
50
A5
05
62
62
44
96
5A
9A
1A
8A
29
A4
15
10
68
51
96
68
A9
24
02
61
5A
1A
62
1A
21
92
20
11
68
5A
28
22
56
05
15
58
29
10
A6
96
45
AA
10
68
21
A9
51
A2
64
46
14
6A
5A
92
45
58
56
82
69
90
A9
65
29
82
51
AA
66
00
81
25
02
08
44
60
22
25
89
81
50
92
A0
4A
59
5A
22
88
AA
50
22
24
52
A8
48
59
15
1A
04
0A
1A
A0
15
62
09
A9
81
52
2A
0A
18
A2
96
A2
05
08
66
96
45
61
84
49
06
59
14
58
22
04
16
82
16
26
49
22
8A
99
00
10
AA
A9
A4
08
A4
99
AA
28
44
A6
51
10
8A
A5
90
55
80
94
1A
A1
44
00
01
59
24
A2
22
29
15
A9
A0
1A
1A
69
89
0A
54
49
21
55
50
A1
42
46
45
51
24
1A
A6
19
4A
6A
49
15
82
86
88
95
A5
49
66
69
99
04
85
91
08
49
64
94
A4
52
6A
81
98
2A
10
2A
A6
12
12
0A
06
26
85
0A
94
21
52
02
A1
02
A1
59
20
60
04
15
85
56
01
45
54
01
82
14
40
54
44
06
AA
99
9A
04
5A
A8
99
A9
61
98
20
56
66
69
85
09
A8
8A
2A
26
92
86
6A
04
08
08
88
25
09
60
50
9A
08
11
82
25
2A
02
40
10
58
66
68
14
51
42
15
06
0A
01
25
2A
95
A6
51
91
60
16
60
64
04
00
98
65
16
62
02
44
80
46
95
29
41
66
90
85
24
05
28
51
98
90
06
00
A0
08
14
64
04
55
41
28
08
21
11
90
29
28
60
86
A2
90
95
24
14
01
50
A5
11
14
55
44
50
24
40
42
62
45
58
06
91
22
28
99
51
48
54
01
49
A4
A1
29
26
88
46
6A
56
24
25
04
20
52
A5
89
82
24
84
4A
19
48
0A
A9
82
50
99
81
21
10
25
81
24
40
48
46
AA
62
41
96
0A
54
56
14
68
98
65
68
92
61
51
54
8A
25
14
14
A6
AA
A6
48
21
44
60
14
0A
4A
84
2A
42
54
21
01
12
A9
99
08
A4
50
86
10
61
26
04
04
84
91
01
28
80
10
40
25
10
A8
A1
66
10
45
98
19
80
94
08
66
90
00
41
55
24
2A
54
41
A0
6A
91
94
49
51
40
09
94
52
08
80
90
1A
54
18
40
02
66
61
04
80
12
01
00
58
00
00
05
01
00
10
62
2A
65
85
12
68
46
18
10
52
01
A4
85
94
98
51
60
2A
68
18
10
81
8A
90
60
5A
49
14
69
26
90
88
90
04
10
A8
18
04
90
66
18
10
14
52
6A
44
90
24
9A
90
05
84
18
00
A1
48
25
62
5A
69
92
84
61
40
22
21
45
20
A6
A6
A4
96
1A
28
A1
96
62
92
64
66
69
21
64
16
40
04
02
6A
26
15
22
5A
42
49
41
55
8A
51
92
5A
99
54
A5
8A
08
44
45
40
69
95
65
81
48
11
25
89
AA
66
9A
69
55
59
64
96
84
A4
85
66
28
A6
22
45
55
81
55
66
84
91
60
28
8A
A1
59
40
66
12
56
44
A6
A4
96
1A
A9
95
45
6A
49
A6
56
55
56
80
12
26
08
48
02
59
88
25
05
46
82
29
04
9A
A8
44
0A
05
65
98
48
82
51
81
09
55
96
A4
8A
55
68
12
40
40
89
99
88
A2
54
61
5A
54
69
A0
26
A4
49
8A
55
19
A0
96
A9
A9
22
95
96
99
82
64
02
0A
2A
20
4A
01
6A
45
41
85
00
10
10
A8
5A
12
65
95
44
6A
12
A8
94
A8
05
81
59
66
80
96
11
1A
20
82
18
12
0A
2A
56
01
59
86
49
82
04
28
08
62
11
51
14
08
04
20
24
A5
84
26
50
91
04
18
81
50
26
2A
26
42
15
06
A0
84
A0
25
61
54
08
48
48
40
82
A2
98
89
12
94
08
5A
12
A9
69
69
89
29
51
18
A9
84
49
64
26
A8
46
44
69
00
1A
5A
68
16
A8
59
29
86
81
41
65
A4
20
58
A6
5A
56
A6
44
12
21
54
68
08
56
85
69
69
26
18
96
A0
A5
AA
19
26
2A
11
12
92
45
26
65
26
09
56
A6
88
82
88
A2
18
2A
A4
51
6A
50
58
25
58
88
65
80
99
66
56
09
4A
18
A0
2A
29
82
96
A2
64
42
95
65
16
50
85
95
18
91
02
02
99
02
82
00
88
62
62
25
80
68
08
02
20
82
64
A4
06
9A
15
89
95
84
59
48
11
08
49
95
18
65
90
85
A2
6A
90
60
26
92
A4
99
44
4A
54
82
26
45
22
21
4A
50
91
58
6A
21
69
91
14
10
28
A6
2A
61
64
00
24
26
94
24
44
9A
10
68
2A
10
05
22
68
48
28
12
25
96
66
69
68
A2
62
8A
68
55
60
A0
02
11
16
A8
0A
10
18
02
19
22
60
1A
10
60
94
40
22
00
98
18
61
5A
65
01
68
25
22
00
81
8A
54
29
91
85
24
22
55
9A
94
19
16
29
2A
A6
81
11
52
A4
00
00
1A
18
22
58
24
00
A9
11
90
61
02
A8
04
8A
02
52
56
09
68
80
00
99
06
28
88
10
45
62
22
1A
68
64
2A
11
88
A9
1A
8A
15
8A
16
4A
86
AA
05
A5
A2
A4
85
A0
2A
9A
01
65
00
02
02
68
89
11
86
01
96
18
A4
10
24
18
AA
14
10
60
A0
90
81
A0
4A
92
81
9A
00
00
29
68
26
45
20
64
04
51
8A
10
65
85
84
94
28
92
28
92
54
AA
A8
05
84
A1
49
24
A8
25
90
10
42
62
88
A6
41
29
44
4A
06
45
80
12
A0
80
48
08
08
10
20
50
64
A9
54
A6
42
24
2A
81
15
05
86
60
89
8A
0A
A2
94
00
05
11
49
02
A8
46
02
66
51
05
A2
52
52
44
25
0A
11
A1
10
05
00
A9
9A
12
80
10
84
29
11
60
00
21
A2
64
AA
62
99
10
42
44
45
84
08
21
82
29
0A
94
A4
21
10
15
01
91
04
8A
85
09
15
20
08
26
91
8A
40
22
A8
59
01
01
4A
04
A0
94
44
82
44
99
A0
45
64
6A
A1
A2
22
02
01
90
64
12
01
00
60
00
08
04
8A
00
80
00
58
08
09
10
00
80
10
00
06
40
24
48
19
80
05
91
80
12
66
4A
11
19
15
66
05
6A
62
18
A5
61
8A
9A
45
95
05
80
02
10
08
24
00
44
05
40
04
04
08
20
8A
08
14
09
40
00
81
08
00
04
20
09
98
10
20
11
A0
46
54
50
52
81
99
19
46
0A
26
64
04
66
99
22
24
2A
88
48
18
08
A4
81
24
68
54
56
14
AA
22
95
01
A9
86
6A
A5
12
22
15
8A
89
48
4A
6A
96
86
26
A5
06
26
8A
69
AA
1A
50
26
99
24
A8
A0
56
12
6A
91
68
62
95
25
40
80
90
56
58
64
11
56
5A
15
52
A9
5A
50
68
55
28
12
46
11
84
4A
52
09
AA
16
09
9A
66
88
45
24
69
95
55
69
89
98
A6
94
66
20
99
A4
94
AA
64
62
46
09
4A
81
95
28
60
56
A0
0A
55
10
91
64
50
A2
9A
89
44
50
28
60
94
21
55
26
52
25
84
19
06
A6
A9
01
21
59
91
49
2A
08
89
AA
59
28
11
99
A2
86
86
68
9A
95
51
8A
26
92
64
28
A4
18
08
8A
1A
A6
54
15
AA
68
46
89
52
4A
A0
05
42
0A
41
A9
15
22
59
96
99
42
60
64
85
26
46
91
86
99
99
99
98
02
00
02
1A
09
05
60
15
02
12
28
04
69
12
8A
2A
21
44
A4
49
64
90
56
95
00
00
68
48
A4
12
95
A9
49
19
42
59
85
9A
84
A4
59
64
94
41
14
66
65
A1
91
42
84
21
00
20
06
00
20
26
22
88
94
88
88
00
10
01
10
89
00
01
00
96
61
45
40
10
02
25
06
84
86
29
20
12
02
8A
05
1A
62
19
88
28
05
45
55
51
18
99
2A
46
24
82
19
22
56
A5
19
0A
48
84
A8
1A
6A
95
68
A5
42
4A
64
56
45
82
52
41
52
54
22
18
25
54
0A
68
4A
51
99
4A
8A
9A
94
05
48
69
68
52
24
11
81
A6
A0
22
05
1A
82
21
54
19
15
6A
0A
1A
15
69
65
88
11
58
85
98
82
8A
A1
25
29
89
52
86
98
45
06
15
88
11
51
29
89
8A
20
92
49
12
14
A2
58
58
19
A2
06
60
20
14
02
96
94
2A
90
69
1A
1A
25
96
49
01
88
90
42
82
42
16
99
A5
4A
01
42
0A
18
22
62
4A
10
59
86
A5
A8
92
91
29
86
12
98
52
65
24
A9
91
16
12
A6
56
68
20
05
A5
16
08
54
41
15
10
82
82
10
8A
25
80
05
09
1A
81
08
62
80
61
52
10
26
8A
A2
46
20
15
02
86
A4
58
51
61
55
69
06
21
60
25
0A
55
0A
82
6A
6A
26
10
14
9A
81
22
08
42
18
82
A4
A0
64
A5
16
02
48
82
89
89
46
82
94
6A
40
05
54
08
20
82
1A
20
52
50
80
A1
06
58
04
25
26
A6
80
04
55
99
48
88
21
15
45
16
42
05
A4
99
28
01
A0
55
AA
62
56
1A
A8
11
91
66
21
55
12
A2
15
A5
06
0A
92
65
5A
88
1A
24
21
A4
A6
4A
91
1A
25
1A
20
10
02
06
04
0A
88
68
A4
00
14
84
61
19
10
85
00
10
29
08
90
A2
2A
00
05
15
24
82
40
88
A8
94
14
04
19
00
20
08
42
A5
15
66
99
40
48
0A
21
2A
51
20
00
08
10
28
28
15
60
60
15
24
20
24
1A
12
04
44
80
11
80
80
58
65
05
06
55
26
00
20
66
60
11
89
91
12
52
26
41
2A
06
86
89
00
94
08
95
08
82
54
8A
91
90
12
86
50
91
96
08
48
A9
96
98
45
45
95
61
46
A2
95
49
44
89
A6
9A
A6
25
A9
5A
29
19
46
56
A2
A4
02
65
AA
50
89
A2
14
45
21
90
41
05
86
01
90
20
96
02
6A
65
45
69
A8
55
21
95
99
62
40
90
96
A8
50
29
A2
A5
6A
A0
A8
84
A4
2A
49
6A
40
66
60
A1
81
10
04
A1
21
99
58
09
44
2A
AA
6A
14
29
52
59
24
19
8A
A8
42
56
19
19
40
16
AA
19
95
66
61
48
59
06
10
14
99
49
2A
92
29
86
A8
6A
98
A8
51
5A
A6
6A
51
00
95
05
55
6A
AA
25
06
AA
12
89
44
4A
88
25
59
86
21
96
A4
99
5A
84
59
85
19
69
11
41
10
95
88
15
59
16
25
12
5A
16
2A
AA
08
15
51
26
54
49
55
25
02
22
56
91
26
66
11
29
08
46
24
19
9A
A4
89
20
19
51
A4
15
96
86
4A
41
85
59
45
40
A1
5A
29
40
81
92
60
64
91
45
40
40
0A
02
42
20
91
15
04
10
10
62
21
06
48
42
01
89
81
40
11
05
61
01
24
50
91
59
80
21
18
21
05
A2
66
18
60
0A
60
18
58
A8
81
99
28
86
12
24
2A
0A
61
04
46
05
22
00
2A
54
91
11
85
29
06
9A
48
85
10
21
15
02
56
4A
A6
04
49
89
60
09
44
82
20
A0
42
56
46
65
18
69
96
28
16
80
4A
69
55
80
68
56
55
26
61
25
45
10
55
22
94
95
95
10
88
90
58
A2
10
26
09
A0
16
92
69
69
01
68
66
48
49
56
46
15
86
18
99
16
92
12
A5
A2
40
95
62
62
8A
A9
A9
26
55
16
15
25
19
0A
6A
95
69
55
40
25
90
08
9A
A6
80
04
05
10
81
56
88
65
11
88
04
05
A8
5A
20
8A
66
88
19
A5
15
51
81
48
92
01
0A
19
00
20
44
02
1A
22
48
86
28
56
66
58
14
00
84
42
64
0A
4A
6A
22
21
19
49
A1
95
04
21
10
40
50
18
95
41
26
48
95
90
89
A2
64
20
2A
A4
44
28
81
64
68
50
51
80
14
64
4A
51
25
A8
58
02
A8
64
95
19
12
69
50
6A
48
48
69
98
AA
04
92
51
29
A2
21
41
2A
94
28
25
20
A9
41
1A
A0
99
A8
60
6A
12
69
61
55
96
54
61
65
A8
29
92
91
52
6A
92
52
96
06
11
44
18
40
48
10
20
08
0A
A0
01
80
84
10
44
10
00
1A
82
61
96
05
46
88
05
A0
20
45
95
54
96
04
95
A1
28
14
46
42
56
25
68
A1
95
69
22
95
84
94
21
25
A6
40
01
68
06
42
4A
4A
21
50
45
25
90
55
81
88
9A
96
04
26
29
04
01
49
68
86
05
41
65
21
01
8A
40
80
61
42
45
8A
82
02
44
99
11
02
00
69
A1
90
49
A5
1A
A8
64
40
20
40
14
09
48
55
64
94
91
85
4A
4A
80
49
60
22
22
40
08
02
80
62
54
0A
06
01
84
48
45
94
0A
92
02
49
45
60
05
20
29
56
58
A0
04
10
46
0A
98
55
00
51
44
18
80
20
A8
60
52
40
60
8A
A4
10
A5
88
15
10
10
08
06
00
58
28
91
20
68
06
20
10
82
90
A2
80
18
08
A9
40
12
80
48
89
10
80
50
00
0A
A1
9A
80
24
45
01
88
26
6A
21
41
11
48
41
86
89
4A
9A
69
20
90
80
14
A4
60
01
96
10
81
54
01
94
95
04
2A
96
54
82
51
08
01
21
40
45
80
81
00
0A
82
0A
00
21
00
00
82
01
08
00
60
19
61
00
10
02
09
09
05
05
21
08
A4
96
A8
51
80
11
40
A0
50
64
15
A8
01
59
59
A6
95
A0
68
40
0A
0A
92
80
94
12
20
12
A8
02
01
20
28
90
04
10
90
84
48
20
28
00
02
02
10
61
80
A6
A6
A2
98
82
59
20
11
86
08
22
06
22
62
85
06
28
49
29
96
19
14
91
AA
22
85
AA
81
62
89
48
51
51
56
69
68
49
50
48
5A
A4
5A
64
56
AA
A2
4A
64
48
92
60
81
51
82
56
15
49
5A
55
52
15
69
68
59
58
19
91
5A
21
48
92
08
85
91
26
14
A9
9A
92
11
2A
A4
09
2A
A4
96
69
06
20
1A
60
55
AA
0A
89
62
82
92
58
49
5A
49
96
86
55
6A
28
58
28
94
51
98
51
94
88
28
22
62
25
2A
11
15
AA
00
01
28
02
19
96
28
44
12
29
25
6A
4A
54
51
94
84
55
2A
25
85
02
2A
A1
96
56
65
68
56
41
18
5A
A5
99
55
68
A5
AA
5A
25
A2
88
52
04
82
60
54
56
42
A1
19
22
89
9A
5A
9A
54
25
91
04
82
64
58
60
A8
59
26
58
91
1A
AA
21
18
68
28
85
09
6A
61
AA
64
14
0A
51
A6
A6
5A
11
61
06
49
69
58
65
29
49
19
08
18
45
06
92
51
A5
5A
21
99
96
45
10
0A
94
10
11
14
89
80
42
A2
44
84
69
88
96
11
56
69
56
06
60
85
86
98
52
12
54
16
86
08
20
10
05
12
91
66
20
40
41
51
15
46
10
15
55
11
44
05
6A
10
6A
46
1A
4A
91
A0
21
89
88
55
96
68
21
41
4A
A4
55
86
22
1A
60
96
18
A8
AA
58
14
95
49
68
49
61
52
86
4A
1A
15
A5
55
A5
69
51
91
42
95
29
46
85
41
9A
95
24
82
26
62
9A
68
20
00
15
44
56
56
A9
96
20
89
96
80
94
85
29
9A
15
A8
90
46
9A
85
18
22
8A
02
96
40
A9
50
68
62
05
50
94
16
49
A9
45
5A
90
95
69
98
91
15
A4
AA
45
82
A6
54
56
46
45
A6
69
14
08
16
56
A6
52
92
69
52
14
A8
4A
61
65
62
05
42
24
14
04
80
25
6A
01
5A
22
49
A0
09
AA
80
44
54
8A
58
06
1A
81
49
19
60
91
96
6A
6A
2A
12
11
11
00
50
25
01
18
98
4A
05
12
50
69
55
15
14
14
4A
81
18
2A
4A
A1
20
25
26
82
8A
18
2A
45
84
82
99
24
18
01
85
49
5A
61
08
90
50
64
12
14
9A
89
A0
98
A5
41
40
A6
10
49
AA
61
82
60
89
0A
10
49
6A
96
28
0A
AA
A0
86
84
08
A1
4A
91
45
44
60
82
69
95
49
20
82
60
59
02
82
48
05
18
51
89
59
21
A2
AA
6A
16
65
04
82
A6
40
69
41
22
48
65
4A
06
42
98
11
41
05
54
0A
A1
28
01
98
20
64
56
16
45
29
16
68
14
08
80
62
88
92
85
86
A4
A2
56
42
41
95
91
54
55
4A
1A
0A
16
A0
00
54
00
88
04
20
54
60
04
80
04
09
24
12
44
84
18
40
89
91
09
81
04
01
02
21
18
92
51
41
81
46
A1
15
44
40
9A
91
21
20
55
68
68
4A
A6
64
89
05
20
9A
22
10
50
96
02
A9
88
05
00
01
A1
92
52
24
10
69
28
82
28
91
18
18
10
A6
4A
28
65
8A
56
21
95
A2
90
68
85
84
16
2A
61
22
49
69
29
98
50
69
95
08
89
95
51
82
90
10
2A
96
51
16
56
80
69
91
41
A4
66
5A
96
8A
19
68
19
05
A4
A4
26
55
04
86
04
8A
86
89
45
2A
95
9A
98
12
22
58
24
95
2A
18
24
92
24
15
94
26
91
04
46
09
61
45
1A
66
90
11
A5
69
25
42
20
68
66
16
A4
6A
26
55
45
54
41
94
A0
A8
99
8A
41
16
19
2A
85
82
A9
A2
54
62
84
06
A4
09
69
40
2A
51
06
85
0A
46
99
24
15
5A
46
84
85
68
A0
65
48
86
64
22
49
24
59
91
28
22
6A
A6
56
90
20
A4
86
86
09
26
69
09
28
5A
60
49
45
A8
29
52
4A
88
4A
45
50
88
54
86
98
98
26
0A
09
55
09
89
55
19
05
15
95
66
2A
42
24
62
A4
14
01
8A
6A
29
A2
A5
54
52
89
A9
28
59
56
59
59
54
16
6A
11
84
09
11
08
01
56
69
58
A9
44
A6
16
12
26
85
52
AA
59
90
08
18
91
44
A8
01
86
95
A0
40
48
68
06
40
44
6A
18
80
25
A8
08
50
81
80
21
06
02
A1
19
51
24
58
04
61
84
29
A1
01
46
19
52
08
42
26
91
50
52
A8
50
16
A5
80
20
16
12
92
A0
99
14
50
11
80
92
44
84
A0
8A
08
25
46
21
94
08
91
21
51
A2
48
15
58
58
2A
15
99
91
96
84
68
65
56
4A
58
19
66
19
55
61
01
65
95
64
24
40
6A
55
62
5A
86
49
68
92
29
84
65
A0
61
24
9A
14
28
60
15
22
59
20
98
29
92
95
14
25
56
69
46
6A
81
14
04
91
A0
86
45
56
A5
84
6A
96
A4
94
21
80
4A
94
15
69
94
0A
A4
24
28
A0
28
18
19
55
69
91
12
1A
09
65
42
22
95
44
6A
15
04
62
88
00
0A
1A
84
05
21
42
44
A6
29
A6
45
52
A2
21
14
46
50
09
96
69
04
22
96
54
84
A8
81
24
48
28
59
88
66
95
1A
64
84
55
94
22
A8
04
64
19
05
4A
15
69
91
89
28
5A
8A
24
A2
21
00
0A
2A
24
95
21
18
49
00
08
18
11
A2
20
05
A0
24
08
A0
A9
86
46
20
89
28
69
04
10
21
84
42
15
20
06
18
26
2A
A0
11
41
62
A8
98
08
01
46
19
A1
29
05
12
05
A9
51
09
14
40
15
56
06
41
5A
96
98
19
A1
1A
88
58
11
29
65
28
84
20
09
69
59
05
52
A2
22
68
6A
01
00
98
84
54
0A
2A
05
59
6A
44
00
A4
54
08
81
19
65
82
29
64
52
41
20
A2
44
22
59
2A
64
49
54
A9
52
A5
0A
19
14
98
64
89
29
85
02
44
05
11
60
26
94
25
00
91
41
81
96
10
20
48
59
6A
60
22
08
A1
44
09
26
95
14
80
02
8A
49
04
A2
19
94
04
12
86
16
01
69
6A
6A
12
A5
01
04
48
8A
10
02
81
08
50
64
15
80
15
16
02
02
50
94
42
11
58
10
06
25
04
46
10
20
64
10
18
11
11
11
02
A2
49
15
46
52
82
48
90
A4
28
05
28
20
10
A0
19
91
66
42
04
08
12
15
24
16
A5
4A
49
82
60
84
54
45
A4
58
11
06
64
55
14
12
09
10
09
A8
56
66
16
00
41
41
04
0A
A8
86
14
09
06
10
15
16
66
A1
01
96
50
40
09
18
40
69
69
24
6A
02
05
50
60
00
48
A5
12
21
16
60
85
1A
50
20
29
84
1A
19
40
69
2A
48
42
14
41
06
64
0A
AA
14
88
90
11
02
21
86
84
44
01
00
00
20
00
00
08
00
00
42
84
00
41
00
08
48
02
04
80
10
24
08
50
00
A4
A6
8A
29
59
02
96
46
85
89
A6
40
91
58
A4
96
59
19
26
26
26
86
51
40
48
00
A0
84
00
00
00
86
20
41
20
02
81
08
00
00
18
00
22
06
44
00
1A
10
48
A1
48
A4
09
12
08
94
28
48
62
49
00
46
06
12
28
59
06
19
49
81
A4
06
41
60
28
62
09
98
96
92
82
56
64
62
95
91
66
A6
19
11
66
19
06
41
8A
42
89
40
AA
99
6A
55
89
08
45
9A
65
65
56
96
A9
A9
96
95
94
02
A8
5A
A5
91
11
68
1A
10
69
98
A5
59
21
14
99
26
4A
08
95
55
5A
55
41
0A
52
48
65
89
59
58
50
A9
4A
52
4A
26
65
86
90
11
89
84
41
29
54
62
28
98
62
94
64
21
A6
50
94
46
24
A4
A6
A8
49
26
04
49
11
29
25
2A
45
AA
45
96
18
21
41
A1
2A
AA
58
69
01
8A
69
A8
62
58
52
95
94
9A
16
A2
46
5A
29
84
02
11
59
18
86
12
04
22
1A
98
A6
98
89
16
09
00
92
41
01
45
60
A8
06
5A
16
A1
62
81
9A
8A
21
04
91
6A
A9
15
09
44
94
A9
96
A8
A1
29
66
96
68
68
62
95
48
A0
40
05
24
54
54
01
68
82
15
A2
00
96
19
04
25
5A
15
68
00
88
68
21
11
0A
A1
42
19
08
80
54
92
52
49
A8
4A
0A
4A
48
95
46
01
44
05
A2
98
19
99
49
02
44
68
00
55
41
44
01
5A
45
19
44
69
12
82
96
66
4A
94
05
52
68
41
25
95
11
4A
85
41
99
64
95
84
A6
65
65
A0
04
92
A5
89
8A
95
A8
56
58
48
59
89
94
A2
58
A6
66
6A
A6
10
A8
25
46
42
1A
0A
69
54
8A
89
51
A5
11
98
04
1A
A0
59
81
69
22
54
61
6A
80
49
8A
2A
45
95
48
4A
92
A8
02
12
62
84
26
61
0A
60
A9
84
4A
42
25
65
A0
56
A9
88
56
45
62
55
52
51
10
91
51
8A
44
22
46
A0
A9
09
80
A4
59
45
58
A5
4A
96
02
2A
21
09
81
95
5A
29
14
26
64
81
A5
59
98
00
40
A9
44
29
29
24
82
59
56
68
08
0A
A2
42
65
18
A8
64
66
46
29
01
46
2A
25
84
16
09
20
61
05
68
98
18
49
25
29
A9
58
9A
01
82
86
28
64
84
20
48
29
14
A2
04
18
02
04
02
40
25
2A
98
00
14
44
68
61
80
A1
A6
62
88
9A
00
12
92
14
51
48
28
AA
01
68
28
10
08
21
22
06
82
86
95
26
98
80
58
58
95
4A
96
48
9A
88
99
24
58
16
51
68
14
19
68
4A
08
8A
A9
09
95
68
00
6A
10
AA
58
A8
88
01
28
00
A9
05
24
54
21
05
41
58
2A
96
09
89
99
19
9A
11
05
54
10
40
A4
A2
92
65
5A
44
12
26
40
69
A5
26
86
88
29
84
9A
91
24
85
A1
66
02
68
58
69
5A
22
40
9A
14
22
1A
98
04
48
81
52
12
00
01
09
08
50
00
68
82
82
52
00
22
06
00
0A
86
20
4A
80
18
90
22
40
14
40
A0
60
81
89
05
A8
9A
82
18
5A
20
A5
88
A1
A1
84
11
04
55
A0
5A
60
08
01
00
81
01
01
84
08
02
24
12
89
01
22
64
28
00
60
50
18
48
10
01
4A
62
01
A4
15
18
5A
49
48
09
60
48
84
95
92
28
5A
69
89
A4
A2
05
00
A6
41
22
48
21
08
49
80
A9
09
AA
12
04
01
82
86
96
09
56
9A
86
4A
91
A6
51
66
52
44
6A
89
02
94
01
41
A6
48
51
02
A5
48
08
6A
54
46
94
11
66
69
20
56
56
99
94
58
90
96
58
56
80
96
89
9A
84
5A
99
00
65
58
09
A4
84
21
94
48
58
08
4A
69
12
65
60
A6
98
A5
A6
69
11
66
64
22
81
65
91
A8
05
55
84
49
51
88
80
2A
06
6A
AA
86
8A
96
62
6A
86
06
A9
14
15
5A
61
24
91
16
86
64
6A
49
90
80
61
81
5A
95
46
98
98
20
5A
A9
55
62
84
96
6A
88
84
A4
29
95
80
A1
68
01
29
86
98
04
85
85
51
45
26
55
A5
60
9A
05
02
55
94
A8
52
99
A5
06
15
A9
2A
99
84
54
66
41
51
2A
04
29
44
95
10
55
29
55
19
A4
90
25
62
A9
01
88
15
06
A0
54
14
54
A9
12
A8
52
81
19
A4
1A
20
18
98
61
1A
84
80
6A
AA
00
22
80
90
05
41
04
54
58
24
05
06
04
84
20
9A
AA
55
88
25
55
60
04
99
88
02
42
44
00
64
60
20
21
98
55
85
44
80
81
04
80
66
49
1A
21
2A
55
18
02
48
80
44
00
46
08
44
05
04
21
00
41
80
04
10
64
89
98
8A
A0
19
45
29
9A
6A
25
50
56
01
18
09
96
22
6A
49
12
44
51
84
46
6A
9A
92
8A
05
99
92
56
55
29
AA
14
A5
9A
29
9A
49
85
86
25
AA
66
A1
05
9A
68
2A
2A
A1
92
A4
42
95
26
1A
22
92
18
95
1A
08
65
59
1A
85
A5
5A
21
12
25
95
96
24
A9
59
64
98
8A
A5
91
14
81
69
29
9A
61
91
42
5A
89
19
69
A4
04
46
62
59
12
09
98
52
01
14
20
29
A2
10
00
40
46
25
12
2A
28
9A
A0
90
01
9A
49
42
A2
59
01
1A
0A
56
5A
22
00
4A
02
64
12
02
A8
46
68
16
66
21
96
29
56
98
88
24
26
11
48
20
18
54
0A
05
26
50
08
48
A2
81
46
10
19
18
94
04
0A
05
00
29
65
25
0A
59
18
15
49
14
59
A6
02
92
10
16
64
64
61
99
26
81
40
00
26
08
59
68
81
1A
48
24
11
41
88
00
9A
05
20
95
A1
29
18
46
84
18
91
81
18
89
66
66
A8
6A
A1
01
95
09
A5
61
A2
1A
A6
02
49
8A
A0
54
80
19
A6
14
09
28
86
4A
16
84
20
98
AA
24
12
54
A4
11
28
21
24
40
A5
04
50
2A
A0
08
2A
A6
24
06
15
22
05
65
18
28
64
08
62
82
64
60
AA
29
4A
92
52
AA
96
21
01
82
61
01
98
26
0A
2A
82
8A
01
42
05
06
11
80
02
18
24
11
0A
28
20
00
48
26
0A
16
58
12
69
49
60
08
A6
58
1A
10
62
01
84
20
29
10
09
14
21
90
90
49
14
26
01
99
16
28
84
95
0A
12
84
A8
A0
04
A9
90
89
2A
91
59
18
86
58
48
94
6A
96
88
A8
12
68
89
12
46
10
9A
08
86
A9
A8
19
00
09
01
41
A4
20
9A
95
10
46
50
A0
A8
94
21
51
14
08
18
12
91
40
10
12
82
1A
95
56
86
44
25
01
44
55
90
5A
51
89
20
21
42
2A
46
84
92
64
10
80
11
14
49
A0
41
14
20
22
21
85
49
82
60
24
15
A8
21
00
82
58
05
21
90
89
15
06
00
51
14
68
02
50
0A
86
16
15
41
02
10
26
08
68
02
96
22
40
50
01
04
80
21
29
81
02
20
81
85
11
02
85
A2
04
00
02
20
82
29
04
02
10
40
00
14
05
9A
22
08
22
09
A2
86
40
11
01
6A
0A
62
65
12
81
05
22
92
66
65
28
14
9A
1A
26
2A
12
2A
92
02
80
04
00
80
00
02
40
80
00
01
04
84
0A
00
02
92
10
02
10
26
91
00
48
94
15
58
69
49
08
A8
2A
15
A2
55
55
46
14
62
55
06
A5
6A
01
4A
A2
59
A5
29
22
22
62
A8
6A
40
55
49
44
21
92
41
A5
88
29
69
59
28
26
55
5A
A9
69
41
18
55
25
29
A9
A2
A6
56
A9
5A
A5
86
99
61
94
A1
96
A4
A4
69
98
41
80
60
96
95
66
99
96
12
41
69
50
14
A6
2A
9A
69
1A
28
69
69
92
41
5A
66
48
1A
92
6A
64
1A
24
42
96
86
66
2A
A2
89
51
91
A5
A6
52
98
81
95
A4
42
90
6A
46
1A
18
26
15
A0
A6
20
85
9A
55
10
89
A8
2A
20
4A
85
99
95
0A
A1
56
04
12
04
55
19
50
A9
55
24
A8
98
65
29
82
09
45
66
A8
A5
14
89
A5
19
61
4A
08
25
15
59
2A
26
01
1A
24
05
19
59
9A
21
69
95
28
29
8A
04
A8
60
25
41
A6
22
40
08
AA
64
62
19
15
26
A5
80
96
A9
19
54
82
A9
A2
94
00
88
48
9A
19
29
04
18
41
10
95
86
29
80
80
41
25
60
88
42
29
61
82
02
26
A5
91
15
22
10
A2
1A
64
80
19
82
08
88
20
21
85
14
92
15
01
6A
80
16
68
02
42
02
A0
90
61
08
44
41
A8
00
25
88
68
26
2A
14
21
48
68
24
14
80
04
65
69
A2
46
10
60
54
51
A2
84
59
16
A5
16
4A
0A
46
01
85
68
45
08
66
52
68
25
01
68
29
56
66
29
80
20
94
02
25
A1
56
12
A1
62
46
A4
A4
AA
16
55
59
25
A1
5A
65
66
82
28
69
55
51
52
A2
50
9A
14
A6
82
9A
20
56
91
12
14
51
26
18
09
1A
80
25
98
44
16
98
62
92
A4
11
50
64
98
26
98
59
15
A6
19
44
64
80
90
90
89
64
04
10
20
69
A2
8A
99
50
68
9A
56
14
A6
26
28
6A
6A
81
11
05
A6
59
A5
9A
85
42
52
29
29
86
65
A5
25
0A
9A
52
90
81
45
10
64
59
1A
08
A6
6A
44
6A
90
59
09
AA
28
84
A4
22
48
68
81
22
96
8A
19
81
10
A5
91
29
24
4A
65
99
05
A1
96
01
58
89
29
14
A5
06
95
29
81
19
80
A6
A8
49
80
A4
A4
A2
20
51
51
59
86
A4
A1
16
85
28
2A
85
48
28
81
A0
19
A5
98
92
82
9A
8A
94
04
88
16
26
16
66
A1
45
45
18
8A
50
8A
55
65
54
66
5A
A4
29
AA
51
61
68
59
48
64
84
85
65
4A
A5
A0
59
92
12
2A
45
A0
64
98
01
26
A9
AA
09
26
88
15
AA
28
52
22
69
54
14
45
99
49
4A
48
46
91
64
55
0A
8A
44
88
90
29
56
49
A4
66
04
46
0A
65
50
A4
96
96
05
41
2A
12
82
09
04
09
49
A1
01
20
00
11
82
08
02
41
A0
82
04
84
4A
28
04
08
4A
80
00
9A
00
2A
4A
00
19
41
80
80
19
69
01
86
04
85
84
00
9A
09
28
A9
22
A8
A6
40
28
88
44
82
60
51
00
69
A0
20
20
24
18
88
46
40
88
A0
84
19
09
08
60
48
02
00
91
99
42
A2
48
60
49
20
59
48
82
85
46
85
28
8A
50
69
98
11
A5
08
50
A4
10
52
02
09
50
45
42
00
49
49
18
66
A4
60
9A
45
42
61
25
01
21
4A
19
46
05
08
4A
58
51
AA
59
0A
29
AA
51
12
69
56
25
9A
A5
89
94
64
62
18
00
82
05
09
AA
A1
A6
80
A6
A2
42
59
80
12
26
51
AA
68
28
A6
2A
56
1A
82
51
54
5A
6A
A0
46
66
56
92
58
5A
A9
29
6A
A5
A2
12
16
12
95
12
01
96
9A
01
AA
16
95
0A
65
62
51
86
2A
91
58
15
40
25
65
05
86
42
4A
6A
80
56
86
46
9A
95
92
61
A9
25
26
8A
29
90
89
58
66
11
A4
1A
5A
2A
A1
96
65
22
92
12
16
65
59
A6
68
99
19
92
0A
88
28
AA
A5
6A
A1
94
24
9A
6A
65
91
A1
45
21
89
A9
09
66
A8
69
96
66
04
49
92
A0
9A
A9
45
55
99
68
48
99
4A
12
50
80
00
86
40
02
10
01
81
08
22
46
5A
56
09
01
40
68
20
50
00
52
20
12
88
81
40
44
64
58
45
21
80
18
40
40
40
84
92
51
12
06
A1
05
06
18
04
46
88
09
86
66
50
44
25
98
04
92
94
02
85
49
0A
15
24
08
60
90
26
81
A4
48
22
40
80
60
65
4A
11
00
80
09
45
22
46
44
10
60
0A
45
48
44
08
46
44
14
04
28
12
61
62
59
55
54
8A
12
11
49
49
80
81
02
6A
96
86
22
4A
A6
96
99
8A
96
0A
66
59
A5
46
16
A8
68
A0
A6
86
65
86
98
A1
56
6A
91
61
14
1A
02
6A
48
8A
16
A5
99
22
09
5A
44
84
80
88
06
95
9A
21
25
05
50
56
A2
51
28
11
55
A8
19
86
66
46
A4
19
19
80
59
90
16
15
60
15
92
11
6A
5A
45
52
61
21
A4
89
10
58
80
42
00
05
09
86
05
26
92
10
58
08
18
46
59
00
95
85
19
01
A8
40
18
82
5A
40
52
81
54
86
00
64
A2
48
20
92
24
A8
24
5A
46
49
62
22
40
19
05
59
88
24
4A
22
48
12
68
6A
81
A0
52
52
15
08
24
00
80
49
88
08
06
1A
A8
A6
82
82
49
11
59
4A
14
40
58
A0
94
06
05
AA
16
6A
29
A6
6A
44
98
62
42
06
10
66
91
54
01
0A
46
14
10
06
28
12
64
00
08
08
90
A0
1A
02
6A
08
0A
09
A6
92
A4
55
A4
86
49
A5
02
A8
55
46
68
92
04
21
18
05
62
A4
18
00
40
16
10
04
18
14
45
02
00
91
04
41
50
A0
22
50
48
A1
40
A9
40
A5
12
89
A5
04
A9
A2
19
25
16
58
62
24
68
66
A9
A2
81
88
6A
5A
56
50
44
52
8A
48
6A
5A
80
2A
21
81
A2
82
22
A2
91
95
6A
19
68
60
68
08
58
84
06
16
04
89
01
50
52
59
90
62
08
A4
84
5A
09
00
A8
21
60
94
40
08
50
A5
89
26
48
41
26
08
10
64
66
48
50
09
80
50
A9
49
11
09
28
06
A4
A0
61
62
85
00
05
29
A5
88
42
20
10
16
00
20
06
2A
00
58
52
41
28
20
09
88
04
20
2A
91
66
02
91
20
00
A8
00
80
16
19
91
0A
88
98
AA
80
80
18
4A
20
11
0A
04
11
44
8A
90
81
20
89
59
28
65
01
44
4A
A8
20
A2
45
04
9A
84
84
25
A6
21
96
12
21
64
40
A4
10
AA
04
80
46
18
42
50
26
46
AA
42
40
04
18
80
60
62
89
A0
00
60
25
05
64
A2
02
69
04
21
56
9A
40
06
09
09
A9
91
29
84
01
04
64
81
09
28
81
91
00
24
10
04
14
08
00
28
04
24
82
00
99
00
4A
40
00
51
10
00
42
58
59
28
64
56
21
19
18
80
86
58
84
85
84
58
56
96
A6
55
59
48
11
00
66
40
85
04
01
40
00
00
00
00
00
81
00
00
04
00
80
A8
12
11
19
22
81
80
A4
14
69
56
45
48
A2
A8
62
56
52
45
46
29
15
51
85
5A
84
51
4A
4A
A6
88
81
A2
98
45
69
88
46
52
54
25
99
64
22
90
58
81
61
94
9A
69
66
2A
12
05
61
59
46
82
14
6A
64
52
98
62
80
44
98
48
59
41
45
26
A9
92
9A
A5
49
98
86
59
16
45
8A
62
69
9A
95
25
99
2A
60
62
56
2A
25
62
24
6A
60
58
19
84
98
48
0A
98
29
58
16
94
86
81
6A
12
48
92
A6
28
52
2A
19
26
55
29
9A
12
56
28
08
91
82
0A
5A
A6
82
14
42
16
21
4A
69
46
00
05
9A
86
69
45
45
99
04
A4
40
4A
55
54
65
99
09
5A
98
98
1A
9A
A4
A5
A9
20
61
50
A9
10
19
10
00
48
99
19
60
45
21
98
42
95
82
69
80
80
90
86
A5
85
4A
19
12
18
85
A2
81
08
44
5A
18
9A
8A
86
46
4A
A6
99
2A
06
91
45
92
85
46
18
29
89
A6
25
A0
22
80
04
45
05
02
02
55
21
19
95
29
48
29
04
85
04
22
68
82
48
94
28
20
45
44
46
54
18
02
91
45
25
A9
24
A9
8A
2A
8A
4A
64
55
11
84
50
04
26
00
50
01
28
14
68
28
98
9A
21
62
44
25
44
04
46
64
48
48
05
98
82
94
52
11
51
24
55
19
46
A8
66
A2
8A
99
88
90
A6
10
44
51
48
20
11
65
52
40
A4
A0
22
54
85
06
6A
51
55
14
09
19
21
44
20
58
91
56
19
26
84
AA
AA
88
A8
99
22
02
9A
54
66
52
16
59
81
5A
99
26
01
69
92
A9
22
84
10
9A
59
25
44
64
85
18
89
9A
48
A0
98
11
51
52
15
AA
55
62
11
69
6A
98
45
A8
59
A4
95
99
55
92
06
9A
89
0A
60
95
14
55
29
26
46
45
65
19
0A
5A
AA
95
66
8A
99
80
24
4A
62
48
16
66
A0
66
92
14
58
26
80
8A
41
69
4A
08
54
52
A5
96
60
50
66
24
26
69
81
A9
12
A1
88
80
06
12
54
25
08
96
A4
54
64
48
28
28
A6
99
48
01
A5
89
09
91
80
88
40
64
02
66
90
98
06
16
51
24
9A
90
A4
18
54
4A
61
40
09
64
64
80
82
81
98
4A
64
40
58
94
60
09
02
95
40
94
80
9A
01
06
26
16
44
04
25
55
06
AA
44
54
64
91
49
88
90
25
84
99
58
99
A5
18
45
52
A9
56
09
59
9A
04
15
02
81
08
11
65
96
46
26
62
A1
06
A9
61
04
95
1A
10
4A
12
90
90
12
29
20
62
5A
18
20
65
98
05
54
00
A8
95
20
69
60
A8
14
A2
41
15
46
61
14
11
06
1A
68
59
AA
8A
84
86
65
55
A1
2A
46
26
A0
22
22
08
19
28
81
41
00
20
06
04
58
1A
52
02
91
18
0A
02
49
24
8A
2A
08
42
82
51
58
25
61
81
4A
48
00
58
00
00
24
05
0A
92
04
59
66
48
61
95
19
11
61
09
12
50
98
90
11
09
65
14
2A
42
49
18
81
02
68
04
12
00
21
01
45
41
20
14
02
08
01
60
54
11
A1
14
92
55
48
49
6A
61
15
A4
54
19
1A
68
08
6A
46
A9
56
41
55
6A
25
45
4A
65
04
46
22
25
4A
12
A9
21
44
1A
25
61
62
62
4A
A1
12
44
82
90
44
61
A2
80
29
14
A5
11
8A
5A
99
62
A8
19
69
26
9A
00
66
91
6A
98
84
29
55
59
05
98
12
66
51
06
A6
21
26
51
62
41
82
25
A0
52
96
AA
09
61
58
A9
22
5A
9A
01
A9
81
91
41
46
29
A1
52
98
96
90
96
04
62
01
95
A1
95
8A
52
40
41
85
65
92
55
81
85
A6
01
A2
55
82
56
95
64
69
55
46
44
08
85
02
25
15
29
66
19
A5
45
19
40
99
A0
11
95
99
41
96
60
99
11
15
94
60
62
A5
89
99
99
A5
59
65
96
05
2A
A6
99
91
55
92
99
94
94
94
66
A1
92
90
46
59
92
6A
A4
40
A2
94
22
11
91
A4
5A
A4
A9
09
A9
50
15
9A
62
66
09
14
11
18
00
08
10
25
99
18
04
88
60
A2
A2
2A
86
0A
90
89
98
06
08
A6
40
94
15
52
05
04
06
01
54
A2
00
A2
26
28
62
65
91
11
21
19
18
06
A2
A4
48
89
6A
01
04
66
42
08
49
09
86
99
6A
04
21
01
19
AA
12
62
99
89
50
11
04
05
85
41
81
25
42
12
80
64
90
09
40
04
A6
11
61
26
60
11
05
11
55
A8
55
45
89
04
0A
45
46
92
69
44
55
45
95
02
A6
4A
66
A6
16
89
99
60
01
41
86
15
45
89
90
96
0A
44
AA
22
11
05
65
A0
A8
A8
99
10
99
85
99
52
86
8A
98
66
AA
60
AA
9A
25
89
02
80
12
6A
54
56
64
16
55
56
92
64
65
5A
92
16
86
15
A9
98
22
51
15
59
94
16
5A
65
84
6A
46
9A
5A
81
66
61
42
A2
64
56
26
19
10
26
49
40
24
89
08
4A
49
05
16
05
14
1A
05
90
01
40
44
14
24
40
42
89
4A
00
85
08
84
A2
20
64
19
A6
49
91
A9
94
94
22
44
88
08
14
48
59
66
20
62
11
20
44
00
99
94
81
66
14
62
81
05
99
0A
91
68
42
62
40
15
68
A0
22
99
68
24
11
40
22
01
04
42
09
42
65
10
90
A5
2A
05
21
10
40
80
69
A5
21
86
81
18
11
81
00
1A
45
40
A0
A6
41
40
05
18
65
16
02
29
48
29
94
11
64
18
00
88
59
15
16
86
A9
89
A9
9A
05
16
98
06
12
46
68
98
62
51
22
59
48
0A
82
02
88
8A
91
98
46
12
11
94
29
52
00
18
89
06
A9
58
44
86
80
14
92
82
42
4A
A8
09
56
09
10
06
99
09
06
24
56
85
AA
A5
15
AA
4A
AA
89
81
25
98
81
00
25
62
00
08
25
18
0A
62
22
56
85
20
24
84
50
21
29
98
04
50
58
25
46
28
12
20
00
81
05
85
91
29
82
10
85
22
95
16
04
61
08
52
44
64
88
65
82
65
20
80
98
02
16
48
88
01
68
56
40
45
85
80
41
54
89
2A
05
90
82
42
46
82
A1
94
01
05
01
5A
19
00
66
60
05
40
94
08
20
28
1A
84
51
AA
62
55
12
11
96
8A
42
50
08
05
24
00
4A
45
01
84
45
00
92
25
41
24
12
42
00
9A
A0
AA
00
91
05
90
18
46
01
81
9A
8A
40
28
10
82
51
51
11
4A
80
49
40
40
11
66
99
21
01
6A
84
48
90
62
48
28
64
12
24
1A
54
51
82
94
90
01
89
80
A4
00
82
02
A1
A4
01
58
45
91
41
22
08
A2
88
28
8A
12
05
80
A0
41
80
A0
80
00
11
00
84
A0
00
50
88
06
84
00
11
02
20
18
98
88
40
45
14
50
06
16
66
19
01
08
94
51
50
8A
60
06
8A
48
24
59
5A
90
A9
25
44
48
01
01
A0
05
82
20
00
11
41
00
44
11
50
00
08
00
24
04
04
10
46
09
50
44
80
42
1A
66
00
A2
64
48
1A
21
08
99
25
41
44
41
49
09
15
8A
50
5A
58
A6
91
86
99
05
08
A9
21
84
86
8A
66
69
68
45
16
19
10
6A
A6
86
64
54
A9
24
18
42
16
59
2A
A5
42
26
6A
16
61
A1
96
A9
58
68
11
65
11
99
54
96
68
10
14
95
94
04
68
26
5A
29
08
29
81
96
54
69
60
89
A5
A2
69
4A
A6
62
19
61
99
16
AA
51
55
2A
91
81
96
68
68
68
10
A9
96
98
95
55
9A
46
44
12
A6
58
91
62
19
A9
06
02
A9
20
40
52
56
69
25
50
90
01
56
18
09
8A
95
02
5A
82
44
14
46
66
12
56
28
24
4A
A8
A9
28
A6
1A
19
A5
60
18
20
89
A1
18
04
64
8A
40
24
42
51
A1
26
11
42
99
28
49
98
44
20
86
56
81
62
98
A1
52
58
60
16
12
28
91
19
25
92
04
99
50
94
06
28
A8
8A
62
46
5A
99
56
05
59
49
19
60
90
02
49
99
10
20
59
1A
51
01
15
09
9A
60
A9
0A
08
68
A5
91
8A
51
65
A2
88
10
41
18
52
A5
82
66
40
51
22
66
05
24
55
A5
88
06
52
20
61
49
51
55
00
61
00
4A
90
28
04
02
50
86
12
69
25
01
89
66
09
84
8A
14
09
91
04
26
41
50
89
1A
16
60
21
60
99
86
A4
20
86
AA
94
10
18
28
58
0A
59
A2
61
A0
2A
8A
61
18
50
A2
61
82
58
96
92
95
A9
16
8A
85
21
58
5A
66
49
94
08
16
14
2A
26
66
16
81
0A
40
11
66
80
12
29
89
14
00
42
04
26
24
90
A5
60
61
64
5A
99
A2
1A
04
99
60
58
19
A6
61
1A
96
09
25
82
42
86
22
8A
96
96
91
A8
1A
1A
AA
96
59
58
19
82
A5
A9
9A
85
6A
16
8A
14
A1
46
61
AA
69
09
66
26
98
99
58
92
1A
40
18
40
91
A1
84
85
A5
68
22
85
5A
20
50
A0
26
05
89
04
81
6A
98
45
99
06
99
26
2A
A6
51
11
69
08
62
5A
40
A8
09
45
24
26
42
50
84
19
2A
25
02
49
14
66
2A
04
18
82
51
85
45
54
A0
19
88
42
61
65
65
12
86
12
9A
61
40
11
89
26
08
A9
21
2A
11
10
A2
1A
40
21
A5
66
68
15
A0
01
09
1A
11
44
20
82
19
20
26
62
A6
15
22
8A
A8
26
18
10
08
41
A2
AA
12
95
22
48
2A
42
14
92
10
50
24
82
46
82
19
1A
20
A5
20
1A
A2
2A
00
98
9A
22
89
00
11
98
40
4A
4A
40
90
84
15
66
59
88
A1
60
85
12
89
A2
61
88
54
41
50
59
88
22
28
86
65
82
A6
59
41
02
26
11
46
55
69
28
8A
25
9A
99
01
22
02
09
95
04
86
86
A4
80
48
00
60
40
10
06
00
42
61
40
46
54
60
54
58
56
90
80
A6
A2
00
80
80
92
16
81
02
22
65
18
82
16
92
40
50
04
52
20
02
05
40
01
48
A0
08
84
10
14
02
80
81
48
48
A0
00
08
20
82
98
20
A0
61
41
02
61
68
0A
09
98
62
48
04
91
80
92
55
40
01
14
91
89
8A
2A
19
1A
60
25
50
98
80
00
88
44
98
89
A0
86
A4
19
96
A9
49
52
08
06
A1
18
64
65
86
48
A4
12
61
A5
56
99
14
25
21
48
65
A1
94
95
A8
64
1A
26
06
10
41
92
25
85
50
85
56
12
4A
66
16
28
44
10
21
42
A8
0A
12
08
92
40
65
95
21
21
64
59
24
65
94
10
99
25
10
89
A5
21
41
85
86
29
8A
20
04
28
64
62
46
49
A9
A5
41
14
A1
AA
50
69
64
A4
59
80
1A
59
48
62
56
26
26
55
99
19
84
65
89
A5
68
59
5A
A2
5A
25
94
68
28
06
09
59
82
51
19
6A
59
95
00
91
26
98
6A
02
11
44
56
82
12
45
12
05
08
55
0A
A2
95
5A
A4
49
12
55
64
62
25
1A
54
A9
69
56
82
65
A5
5A
42
89
99
19
91
98
49
59
29
15
92
80
54
62
66
96
21
68
80
06
01
14
10
11
A6
01
82
81
11
11
40
24
41
00
21
44
20
01
82
20
91
41
52
50
90
02
05
09
18
80
AA
54
01
51
28
50
A5
1A
9A
A6
48
08
25
8A
AA
61
28
A4
41
40
50
68
86
16
96
98
02
19
26
48
00
40
81
61
80
02
A6
45
AA
86
58
80
50
86
62
54
18
05
24
0A
11
55
02
10
2A
11
91
05
55
01
0A
20
88
96
10
04
60
11
95
88
66
92
55
65
20
18
55
42
18
A2
94
61
44
99
19
95
18
06
41
96
80
21
88
99
A5
AA
A5
20
A9
A9
80
98
91
59
88
A4
9A
2A
19
82
66
96
82
A1
05
25
10
59
19
44
55
81
89
28
82
55
10
A6
95
A0
84
98
91
A9
9A
15
25
A8
92
66
84
45
98
99
26
46
24
A0
89
09
05
62
A9
19
A9
46
46
49
55
26
61
46
69
68
1A
6A
46
29
85
69
86
11
84
19
22
09
14
A9
90
01
64
26
56
92
A0
56
91
99
85
A8
90
60
90
26
16
86
40
25
02
28
A9
88
48
24
08
55
19
14
19
02
11
56
01
19
28
12
25
22
98
94
62
04
A2
10
6A
A6
42
41
14
1A
45
08
8A
9A
88
96
A8
06
92
22
02
59
15
40
00
A8
08
58
19
55
24
14
62
9A
19
02
20
A0
61
58
29
60
86
18
61
94
68
08
85
29
98
80
42
10
58
51
0A
21
00
51
25
98
40
2A
56
A1
0A
51
A6
A4
24
8A
51
A4
49
89
61
86
90
99
04
A2
91
04
84
18
46
A4
84
49
59
48
92
90
40
86
44
A6
80
A5
66
86
44
A4
91
41
82
92
91
AA
04
A8
05
29
64
8A
48
22
21
60
A6
59
44
12
92
AA
8A
AA
8A
2A
09
2A
60
20
89
52
40
11
90
28
66
26
8A
81
28
41
60
98
61
28
01
00
25
54
01
54
18
18
81
65
25
50
01
60
20
20
66
18
08
18
06
10
81
94
14
09
A4
A1
91
62
04
00
20
91
60
64
20
68
00
18
46
12
22
98
02
4A
64
A2
08
00
82
24
69
14
00
40
A2
0A
01
20
45
00
15
24
0A
19
06
62
28
44
54
40
12
09
24
54
A4
40
51
82
A6
A2
08
08
54
86
02
26
01
28
4A
11
60
62
00
44
46
50
50
A9
25
18
42
94
20
21
00
49
91
91
02
20
00
8A
40
41
85
10
55
00
05
AA
06
82
20
01
00
6A
80
02
01
4A
16
10
01
18
90
84
52
0A
40
60
80
54
24
69
A1
89
29
29
A8
10
86
29
A8
60
29
88
00
08
48
50
20
9A
65
14
21
42
51
20
40
A0
12
40
40
09
10
04
04
04
01
02
40
08
88
00
00
00
00
80
42
20
58
00
00
14
08
86
18
14
05
49
68
1A
A0
14
14
01
05
46
80
20
88
42
48
15
11
25
15
4A
50
60
04
00
20
28
00
80
88
06
28
40
A4
02
0A
81
01
04
40
00
18
01
02
82
06
05
88
50
60
19
25
21
89
88
01
41
11
28
99
02
92
1A
A8
49
84
5A
80
5A
A1
12
50
AA
08
02
44
4A
89
95
A9
24
A1
89
A9
65
06
44
A4
05
99
68
26
05
69
19
AA
99
25
A8
49
06
66
25
99
99
29
48
A1
81
9A
62
10
A9
A1
29
48
21
A9
42
02
2A
A1
49
49
14
05
A9
25
66
55
60
04
A1
98
48
55
11
92
86
16
1A
24
69
16
20
69
80
18
9A
55
14
24
84
AA
08
A5
05
15
95
1A
9A
68
00
11
48
68
96
A9
42
40
84
A5
65
40
66
8A
18
A6
46
89
9A
50
29
49
55
90
09
04
59
8A
89
5A
49
26
89
9A
60
16
84
52
62
61
48
69
88
69
1A
0A
59
69
89
54
09
A9
69
02
42
41
15
A2
19
98
44
A2
9A
A1
12
9A
61
56
85
48
44
61
62
85
15
AA
58
4A
12
1A
95
52
98
22
08
09
58
58
65
6A
11
40
95
61
0A
A0
22
58
55
59
A0
22
0A
44
42
AA
22
6A
A0
20
22
14
80
1A
49
08
06
40
58
54
21
2A
00
54
81
55
66
28
60
10
44
54
81
85
2A
60
41
A0
44
92
94
84
89
89
15
09
4A
48
41
A2
A9
02
14
05
1A
84
52
60
04
26
2A
9A
2A
00
05
4A
41
04
20
52
95
15
01
0A
46
82
00
25
58
51
08
02
92
84
62
16
91
84
61
55
62
21
60
A0
84
12
A5
95
16
2A
40
00
01
46
89
86
91
68
0A
62
10
05
1A
21
14
9A
1A
18
AA
24
A0
5A
60
96
A6
52
68
A9
8A
99
60
61
24
58
10
55
66
66
84
48
66
50
2A
26
6A
02
41
2A
02
91
42
58
2A
50
6A
84
A5
58
89
81
64
54
2A
A9
04
09
A1
5A
11
05
05
69
55
5A
56
A6
1A
2A
A8
65
85
86
96
5A
49
58
4A
10
59
26
99
A0
65
49
1A
22
0A
9A
66
5A
26
18
A6
12
88
20
8A
94
51
A8
28
19
02
95
6A
15
15
45
09
24
81
A6
2A
04
59
08
02
41
20
1A
04
59
64
52
99
A0
12
22
A2
14
21
64
0A
06
58
60
21
48
15
01
22
25
40
91
98
1A
56
A1
41
60
8A
96
88
51
02
06
48
86
16
46
28
A2
91
02
98
92
91
04
6A
05
99
82
26
59
05
09
09
A2
42
12
A0
99
46
28
9A
64
80
06
62
45
56
4A
A4
15
88
44
16
42
54
A0
56
10
12
61
06
5A
55
24
21
04
96
01
05
60
95
54
81
29
A1
11
05
A9
85
68
62
88
54
18
96
14
0A
52
08
A1
AA
4A
60
08
8A
44
A4
00
4A
88
66
A2
40
A9
90
9A
64
49
4A
26
08
A8
90
49
4A
42
84
4A
19
84
88
12
00
26
29
82
06
9A
98
01
08
64
90
62
60
20
62
09
58
20
12
00
11
40
44
20
89
15
55
88
08
18
99
14
08
14
09
15
25
66
98
21
A8
2A
60
0A
16
48
A0
45
48
50
40
A8
18
01
A9
01
20
41
1A
00
90
90
60
20
40
60
4A
00
24
05
04
91
80
01
06
62
22
18
06
80
22
90
91
95
20
80
5A
55
AA
1A
58
9A
89
82
98
84
18
64
20
50
54
96
89
61
4A
84
28
69
60
18
69
14
20
9A
09
52
24
5A
52
11
50
68
58
25
90
66
42
5A
69
9A
96
89
82
A2
14
86
16
A5
A0
58
50
24
9A
82
12
49
55
A6
98
96
42
59
55
14
49
14
24
80
2A
80
44
02
A8
02
86
09
5A
46
19
49
2A
09
95
4A
66
54
A4
48
20
52
46
A1
86
48
9A
15
A1
1A
90
90
A2
A5
59
52
41
2A
09
89
81
91
56
15
29
2A
81
52
99
0A
58
09
5A
4A
99
0A
95
2A
A6
A5
66
51
00
1A
10
65
99
66
08
68
29
5A
40
AA
95
40
69
28
15
55
84
85
46
6A
69
42
66
86
49
54
95
29
4A
0A
A0
99
A2
98
09
A1
15
64
0A
26
82
94
28
62
28
96
49
A2
41
44
A2
51
88
91
56
51
94
25
A5
45
6A
25
A9
A9
89
59
51
A6
49
A8
81
2A
94
45
42
88
91
65
8A
4A
A0
55
02
24
14
28
58
94
00
04
16
96
52
A9
AA
5A
24
12
84
52
01
80
40
02
94
66
48
05
2A
29
0A
68
22
14
60
00
42
04
41
46
82
A1
20
29
A8
25
24
16
12
16
52
A4
01
59
19
06
8A
18
A2
0A
04
55
20
48
A0
80
09
22
88
88
05
A9
02
90
4A
A2
00
04
9A
26
4A
24
4A
08
05
52
50
50
05
68
05
60
19
14
4A
AA
60
16
40
A2
4A
A8
A2
50
58
89
91
66
58
16
45
56
08
69
1A
06
28
50
A4
26
58
65
94
25
08
A5
24
12
50
49
56
58
06
A6
99
28
25
59
6A
94
48
25
88
41
9A
09
25
94
96
65
96
A6
54
A4
26
19
84
19
89
1A
68
8A
96
A6
20
8A
18
1A
A2
21
09
61
92
95
95
42
A1
66
42
64
0A
1A
28
18
42
50
16
56
40
60
82
8A
00
50
25
58
24
4A
A9
51
22
99
18
A5
59
04
28
46
50
62
82
52
00
A8
91
02
09
22
80
80
95
12
9A
05
52
06
A8
56
A9
89
10
25
11
88
10
54
52
69
21
20
A2
82
11
02
14
5A
00
86
84
55
20
59
15
A6
69
49
5A
84
81
89
92
89
82
50
08
09
08
15
21
22
50
42
5A
85
A5
A2
A8
25
A1
9A
A9
95
48
0A
85
09
80
94
96
21
08
20
A4
02
5A
84
19
02
6A
A0
62
01
21
18
28
4A
84
AA
82
20
85
90
9A
A1
21
58
08
69
95
96
65
A6
0A
64
6A
61
56
4A
54
42
26
A1
14
86
A0
24
48
A9
18
0A
42
41
12
48
A1
14
4A
2A
40
65
49
62
6A
A2
81
4A
12
06
22
AA
92
64
61
61
81
66
5A
A1
50
12
86
29
5A
A8
11
96
A8
15
46
46
06
98
81
64
66
81
A8
09
49
00
80
41
84
46
05
91
25
14
A8
08
AA
15
49
02
64
06
46
A9
66
AA
10
9A
29
00
00
48
A5
19
9A
0A
48
64
69
51
19
41
66
44
80
46
08
26
52
25
41
59
A5
09
41
49
40
45
42
90
89
40
4A
21
19
16
A9
81
90
28
AA
A2
41
9A
28
06
42
00
26
54
A5
00
24
10
42
80
01
98
08
85
90
00
0A
12
41
84
69
29
09
50
52
0A
66
04
18
09
04
24
06
00
05
29
22
08
68
52
A4
49
98
91
60
20
08
04
2A
9A
09
09
18
46
01
84
14
82
40
A9
52
10
28
98
50
80
06
02
A8
06
20
00
26
1A
48
14
60
25
26
16
18
29
60
00
44
A1
68
88
20
4A
89
28
40
A1
16
4A
92
88
28
12
62
20
90
06
09
06
54
06
11
22
81
14
00
8A
98
00
62
88
22
81
80
06
20
21
00
00
40
00
09
00
80
20
25
11
56
61
00
49
19
08
11
AA
41
62
64
1A
55
2A
9A
62
95
54
28
0A
0A
66
45
45
10
64
00
90
88
98
28
02
40
10
00
00
44
02
82
02
00
40
40
04
00
80
24
48
02
A0
88
62
92
00
84
20
22
24
8A
6A
00
A0
99
41
15
91
0A
98
91
91
21
0A
16
68
06
09
89
28
64
2A
18
64
9A
11
AA
92
49
58
91
51
58
85
24
6A
54
66
A9
A9
11
9A
A9
69
95
95
60
26
96
18
6A
68
9A
A6
5A
69
9A
90
95
25
6A
96
05
45
A6
69
1A
64
41
58
45
94
02
49
64
95
8A
26
58
61
9A
44
64
9A
96
96
84
A6
69
94
9A
AA
92
62
A9
A9
14
A4
80
9A
94
45
96
01
52
44
09
66
59
21
85
48
05
A8
50
00
49
04
55
90
56
58
55
55
26
41
50
2A
26
5A
25
2A
44
6A
14
A5
06
50
5A
51
09
4A
64
24
19
65
A9
A4
A5
5A
06
A4
2A
51
49
A0
A5
60
88
10
54
40
28
91
92
A5
54
50
98
14
A5
AA
40
18
54
60
56
56
99
A1
1A
A8
44
85
28
16
66
99
12
96
A8
A9
56
98
A1
66
8A
42
2A
54
A9
14
55
86
06
22
00
26
05
16
4A
6A
24
62
19
21
92
44
56
40
65
12
2A
82
01
08
88
16
20
62
52
06
84
20
88
49
26
81
68
A2
88
66
09
49
19
A2
66
96
A9
28
44
01
08
0A
20
06
89
00
84
04
85
01
09
18
22
25
62
20
6A
11
00
06
A8
89
42
84
15
15
51
19
91
69
A6
41
2A
10
5A
84
92
54
91
A8
45
9A
84
55
54
6A
6A
1A
11
94
68
08
18
85
05
0A
19
51
01
51
26
40
55
22
12
AA
46
A0
59
AA
A5
69
55
21
12
59
4A
2A
A8
61
61
A9
A8
20
5A
0A
98
48
44
86
A4
49
AA
A0
55
95
86
50
15
46
55
21
6A
2A
84
46
90
15
91
92
9A
AA
82
51
85
48
69
A2
02
68
88
A9
62
01
A2
51
52
09
6A
56
41
09
61
A9
01
28
5A
96
1A
62
22
48
68
4A
09
29
69
6A
96
2A
92
16
85
14
A2
86
A0
A8
05
A6
85
19
28
19
26
44
20
91
5A
44
46
28
10
8A
48
8A
95
50
45
48
00
00
24
45
68
18
68
42
42
99
20
26
A1
85
61
61
12
98
52
28
AA
69
05
6A
64
82
01
44
45
A5
85
60
4A
52
8A
45
62
68
89
84
61
05
58
49
05
89
04
66
58
11
44
4A
A0
8A
55
90
A8
66
15
66
24
64
01
A1
02
A6
69
A4
A0
A0
12
50
25
96
40
06
01
41
89
92
4A
05
69
41
A6
09
2A
41
82
68
96
99
85
16
68
85
44
A5
88
29
4A
14
98
68
5A
95
A6
5A
56
16
8A
A8
98
29
A1
09
A4
9A
A8
58
A5
98
A0
0A
24
48
20
91
09
A0
60
10
56
09
0A
56
08
86
59
86
28
61
51
A4
02
58
40
46
40
A6
46
65
66
A5
15
19
06
04
44
86
88
94
48
51
02
22
11
18
00
11
10
04
41
04
88
50
80
10
41
20
11
04
22
1A
10
28
22
0A
85
12
45
20
0A
01
44
09
48
28
11
80
86
58
A5
59
85
44
02
5A
80
10
09
80
41
50
00
50
90
40
88
80
80
56
00
81
2A
A2
50
04
88
58
80
44
26
21
44
81
20
08
49
09
85
59
84
00
91
01
85
A6
04
18
85
26
A2
14
A8
24
58
16
A5
94
81
89
A1
12
01
68
04
46
16
4A
61
02
81
A9
06
8A
46
45
14
09
99
28
29
62
80
AA
65
A2
62
40
16
96
26
19
04
66
A4
49
54
2A
52
A9
86
48
82
49
02
58
91
46
60
92
64
A5
16
28
A2
24
45
0A
9A
00
A6
60
50
59
90
88
44
86
90
19
61
69
49
A6
59
A6
84
55
A5
02
A4
A9
59
29
22
20
18
25
29
54
04
A2
05
69
01
6A
4A
25
AA
A2
05
A0
8A
AA
68
A2
88
10
A6
28
A1
65
61
9A
50
14
A4
1A
15
62
81
84
A8
16
08
A8
21
56
49
96
22
9A
25
A5
06
51
65
28
A8
80
50
88
A2
99
1A
14
04
55
08
86
11
40
92
10
99
A1
A6
40
A5
8A
54
80
A5
29
01
21
A0
69
A5
9A
66
A8
44
5A
11
94
A5
45
96
85
99
51
59
A2
A4
54
54
08
18
29
40
00
02
10
40
98
01
A8
56
A4
91
09
20
06
56
20
42
59
00
A8
08
49
82
22
8A
28
84
26
86
45
85
40
14
54
51
29
2A
18
A4
40
60
04
42
48
51
42
22
A9
66
00
81
41
40
21
18
04
44
89
52
44
14
46
08
21
86
56
88
40
08
A9
A2
58
80
80
80
A6
08
02
00
50
00
11
61
02
50
19
41
41
58
21
42
40
6A
14
18
A0
86
08
20
90
81
66
A1
61
04
66
68
92
29
45
52
8A
05
5A
05
02
96
49
A8
60
92
45
85
16
89
11
9A
9A
54
40
68
AA
A9
16
62
28
68
A9
98
41
92
42
09
25
46
5A
59
98
4A
09
10
18
68
96
19
8A
A6
99
44
60
19
15
25
49
14
54
A4
AA
81
A6
28
AA
5A
59
51
A2
61
58
69
A2
AA
85
9A
59
02
12
A1
81
2A
18
98
45
80
10
62
60
90
45
42
5A
90
11
00
06
68
22
19
A0
18
94
89
81
92
06
55
89
46
09
45
04
09
02
55
0A
89
14
48
01
22
02
51
82
04
4A
18
49
85
60
08
52
08
10
41
18
88
94
12
81
14
89
02
A8
2A
05
95
94
09
98
69
01
00
26
66
82
84
90
60
46
11
15
8A
92
A6
54
86
11
A9
42
66
22
66
00
15
9A
60
06
61
66
48
24
22
8A
66
29
11
96
89
8A
11
54
49
A6
88
50
6A
22
6A
88
A5
00
64
05
28
95
00
85
A1
24
66
85
94
58
6A
82
8A
92
49
64
64
85
A6
2A
64
42
08
46
99
59
18
91
90
88
26
12
11
A4
A8
05
0A
26
90
80
55
A9
6A
16
0A
0A
A6
14
89
40
94
14
22
10
81
94
68
46
82
15
64
16
50
50
95
49
60
A2
AA
86
42
44
A1
00
12
41
51
06
11
94
6A
85
88
81
21
9A
25
19
02
A6
52
86
95
08
8A
18
1A
2A
02
21
00
44
81
49
8A
28
90
49
48
11
28
00
00
20
61
A0
22
06
50
00
A0
21
91
95
02
92
81
28
55
12
A0
06
44
64
49
05
06
24
61
62
80
A2
14
14
46
44
18
22
22
86
08
08
00
92
00
24
54
50
20
51
29
45
10
60
22
10
24
11
00
54
84
A0
24
55
04
04
44
A4
44
04
28
80
40
28
A4
10
46
04
60
08
48
86
55
0A
6A
50
88
04
08
29
80
A9
52
0A
65
50
2A
80
06
55
92
09
40
18
54
11
48
8A
15
9A
A0
05
50
92
85
06
90
52
84
20
45
A0
99
09
22
80
80
08
89
80
80
11
20
81
21
14
64
49
24
08
16
42
16
90
46
01
21
80
01
68
90
90
81
80
08
41
80
01
10
20
10
00
80
08
08
08
40
00
54
14
4A
09
28
80
80
82
A2
82
61
A2
04
0A
54
00
01
41
05
54
80
08
92
90
62
40
80
42
09
AA
80
61
21
11
01
00
09
48
04
81
40
00
01
01
00
08
00
44
00
40
00
09
60
00
82
9A
08
26
84
10
45
16
1A
18
68
8A
A0
40
4A
68
92
64
00
90
16
64
66
25
46
94
42
88
5A
55
61
21
A4
A9
26
95
55
51
26
A9
45
69
8A
9A
46
A6
21
AA
94
62
05
90
02
66
10
92
24
95
95
96
59
46
6A
A6
16
61
4A
92
15
91
6A
41
62
A9
50
A9
9A
49
12
51
0A
65
56
A1
65
45
62
46
50
66
68
11
94
21
50
0A
06
86
20
9A
A8
08
15
65
51
68
A2
26
1A
66
11
98
81
69
24
80
80
55
52
59
99
46
A1
81
51
18
A1
15
09
99
68
AA
11
2A
94
A4
82
91
18
46
A2
9A
A8
08
69
81
29
69
59
89
46
56
59
02
A8
81
89
56
26
42
02
42
11
99
21
08
60
45
52
A0
88
94
A4
05
85
50
95
20
50
65
05
04
44
22
A9
99
05
55
86
28
51
40
26
99
99
95
A2
05
86
09
A1
A5
06
44
98
16
A9
55
12
06
5A
98
08
50
11
02
02
40
26
18
58
02
22
08
10
24
59
44
04
54
A2
6A
00
8A
82
09
42
90
1A
29
18
A2
40
92
40
26
54
10
19
66
41
68
65
55
56
62
A0
12
58
9A
24
81
41
08
10
02
08
09
10
82
10
60
11
28
10
10
08
88
11
01
96
20
94
28
81
49
A8
14
A1
AA
84
49
A8
28
82
44
AA
12
62
A2
94
AA
21
05
60
15
90
54
10
55
A8
99
68
61
64
50
10
20
8A
81
94
99
55
88
01
04
69
92
4A
29
A2
2A
85
0A
51
66
91
25
64
98
A8
55
54
69
A0
81
41
19
86
41
14
01
98
0A
14
A9
60
11
40
04
91
48
00
42
61
98
15
A2
28
15
25
51
09
9A
60
15
49
62
99
A4
61
94
94
06
88
58
A5
45
44
16
A1
25
16
09
65
60
55
99
58
A1
65
15
16
19
26
44
11
85
42
A0
0A
0A
54
10
69
40
A0
80
66
18
6A
12
85
A9
04
42
A2
92
84
91
16
54
20
29
12
09
60
14
01
A8
48
61
95
42
15
94
14
80
5A
A5
14
52
28
59
65
A1
50
21
98
81
64
81
44
AA
11
A9
40
00
89
10
55
21
02
95
A8
12
08
91
62
41
62
50
64
62
22
A8
55
00
86
1A
24
81
55
08
12
60
A6
95
99
06
04
65
44
80
40
16
85
16
14
29
19
A9
86
8A
A2
50
88
48
46
68
A8
16
06
18
82
59
86
44
89
24
A8
26
58
55
44
50
19
55
99
A6
50
24
2A
48
08
18
04
81
95
58
09
10
48
10
59
42
12
29
62
51
16
A8
51
25
6A
A1
66
20
21
A6
98
44
2A
2A
22
42
64
A6
6A
54
00
95
21
95
A8
99
58
A9
A8
25
51
85
15
24
68
66
82
46
09
18
62
90
20
05
10
00
61
02
91
06
21
01
41
14
24
28
42
45
26
09
59
82
68
42
02
28
26
21
16
A9
64
22
01
54
15
19
06
01
54
A8
95
89
12
82
86
14
01
94
02
22
22
86
20
06
21
A6
80
40
8A
01
91
00
66
00
00
00
A8
00
40
A0
02
88
00
01
99
86
9A
44
80
95
12
09
21
58
66
44
90
90
14
95
81
91
21
91
04
91
80
AA
89
40
09
45
18
64
40
96
51
05
94
84
88
99
44
54
22
14
86
26
40
14
20
A6
A2
50
62
82
82
A2
84
94
A6
22
25
29
46
62
26
94
62
5A
00
94
46
90
60
82
02
10
99
60
A2
59
8A
AA
09
0A
06
81
40
42
59
20
58
22
60
A4
92
A8
62
4A
00
44
09
69
54
65
A2
16
40
A0
94
68
45
94
18
19
59
98
09
9A
80
92
50
50
95
24
A2
05
15
A5
48
59
94
88
52
99
91
29
45
58
0A
05
A5
29
42
28
86
88
25
15
A5
59
55
A2
4A
24
46
0A
55
69
58
88
62
A6
5A
95
6A
95
88
92
6A
12
14
21
05
89
29
9A
21
A9
15
65
59
A6
85
2A
65
8A
24
2A
54
A6
0A
44
05
A9
55
82
84
81
41
26
2A
66
90
59
95
64
A0
98
69
08
98
69
18
91
62
19
00
58
11
06
48
11
A1
11
42
02
40
00
A8
20
01
15
81
25
89
80
90
98
4A
A5
40
10
04
02
80
02
61
40
09
18
A2
A0
21
20
0A
44
52
4A
20
40
40
94
6A
62
14
22
24
55
80
84
68
61
42
20
99
82
21
40
41
29
81
1A
00
46
10
65
14
6A
06
16
05
21
22
16
15
05
05
96
90
09
21
04
02
A8
81
85
50
40
48
58
88
58
82
92
00
50
49
22
94
05
51
25
19
AA
49
66
52
1A
19
21
24
96
A5
A6
12
A4
65
44
89
24
A9
54
96
90
98
25
19
15
81
89
92
66
90
68
49
10
60
65
26
82
08
86
65
59
A2
4A
24
A0
28
81
56
46
12
2A
AA
08
50
6A
04
14
98
A6
49
66
15
0A
99
62
64
46
8A
26
A4
85
08
00
56
66
A2
65
64
A8
A5
82
14
89
94
64
08
48
95
A8
A2
84
A8
09
98
A0
A2
90
28
44
64
62
90
4A
A8
04
64
22
26
02
89
29
60
94
28
54
A0
40
82
60
69
02
52
A4
51
98
06
A5
09
01
88
08
20
44
15
50
98
60
28
95
19
02
95
22
45
00
AA
86
92
40
14
28
02
14
00
05
A8
6A
14
59
41
62
48
42
A8
A9
82
40
58
04
9A
01
59
50
89
81
05
01
0A
60
A4
06
42
16
99
22
11
A4
8A
95
AA
05
54
18
41
60
45
18
90
02
20
55
21
98
20
94
80
64
81
8A
14
66
50
04
9A
05
81
44
A0
55
48
96
82
AA
20
A5
A0
0A
80
02
22
89
56
10
28
22
80
61
14
90
06
06
A9
88
06
66
26
45
20
55
AA
51
26
00
04
18
95
05
90
81
85
A1
A5
46
52
20
00
14
95
A0
1A
A9
AA
2A
15
10
1A
40
2A
66
A2
91
64
29
20
80
90
95
18
10
20
56
21
80
20
40
66
54
A9
A8
68
A4
A0
42
08
28
80
02
68
51
81
40
84
20
14
55
05
89
54
56
28
A8
51
00
08
80
81
55
60
10
80
8A
91
06
98
A8
A0
00
A8
AA
25
05
04
A9
40
90
91
A2
05
02
14
10
81
50
98
28
09
A1
00
15
82
20
50
18
11
A5
84
02
A9
56
10
18
11
42
22
89
89
14
14
91
22
91
08
98
81
90
0A
84
99
92
86
20
90
04
40
40
00
65
25
10
29
01
18
00
64
14
60
02
00
84
21
08
9A
00
02
08
60
04
80
89
14
44
A0
80
01
91
94
68
04
A4
00
28
14
14
60
A0
20
01
A0
42
81
20
66
96
05
40
42
40
40
0A
09
AA
24
44
62
44
88
11
84
81
04
29
20
26
A8
A0
02
06
52
80
08
42
40
02
89
44
01
40
00
28
00
04
00
80
08
20
42
20
42
11
62
20
24
00
08
69
41
42
A6
52
21
29
66
99
28
16
95
44
68
2A
19
19
46
68
25
68
02
A0
42
44
00
46
26
00
02
00
51
88
00
05
40
04
00
00
00
21
04
40
58
00
A4
50
89
40
A0
56
62
88
82
21
48
69
06
4A
16
66
6A
16
49
90
22
95
28
51
08
49
01
96
16
A5
92
58
20
61
A4
54
92
5A
66
A4
26
9A
A6
92
21
42
A6
52
20
92
1A
44
9A
4A
88
91
60
6A
A8
A4
A6
AA
6A
90
95
24
18
A1
A9
9A
68
AA
A2
8A
92
19
51
A9
82
01
98
80
56
A8
50
A5
6A
98
21
66
64
4A
56
8A
A6
98
58
86
66
25
12
88
19
46
16
89
19
91
88
99
A9
4A
A1
54
66
99
16
66
58
40
12
62
01
2A
52
A5
20
19
09
52
52
60
29
50
86
19
15
12
45
A6
91
82
11
22
85
01
89
98
54
46
55
AA
95
A5
89
09
58
A9
44
25
5A
8A
98
A9
16
22
49
8A
46
9A
88
11
40
A6
18
66
51
66
20
55
98
9A
A9
A8
2A
A5
A2
86
09
41
49
28
96
28
52
AA
84
58
56
44
95
28
42
6A
A8
9A
00
89
54
95
20
A8
1A
20
60
2A
06
99
48
02
98
25
02
11
15
42
82
44
00
20
42
09
A2
A1
02
99
A0
80
0A
22
44
10
28
81
40
A8
16
16
45
29
90
91
0A
05
9A
88
85
62
01
14
15
54
06
90
65
54
40
09
82
10
29
82
14
24
08
61
59
1A
58
06
50
48
62
A0
84
A8
02
2A
42
61
9A
88
21
A8
62
AA
62
12
62
0A
90
64
25
64
90
16
A2
99
98
01
65
94
01
45
46
89
06
92
5A
01
26
A6
84
66
1A
09
16
89
25
9A
AA
81
28
08
64
4A
A4
41
46
8A
9A
04
45
4A
18
A9
29
95
9A
A1
19
44
56
10
66
60
54
99
55
55
A0
29
51
44
44
5A
88
15
49
46
A6
19
69
08
54
54
19
89
A9
52
62
12
04
26
95
5A
51
48
19
59
88
89
81
26
12
41
05
56
59
A0
52
8A
0A
16
11
41
64
5A
56
A4
08
28
02
1A
52
6A
2A
A6
46
2A
26
08
09
A8
26
29
51
59
80
41
05
22
22
16
11
99
98
24
95
A0
A0
44
24
54
11
29
50
56
00
66
14
02
56
AA
62
05
94
84
08
51
AA
64
54
68
14
A9
64
85
48
6A
A0
00
82
22
90
00
91
09
46
01
16
41
59
02
68
12
41
A9
A9
A9
22
52
54
24
22
18
11
62
88
16
99
56
15
81
88
68
9A
40
99
52
91
56
48
40
15
0A
28
29
A8
11
19
A6
20
19
55
A4
24
19
66
08
52
AA
5A
28
95
00
24
1A
90
58
55
10
81
0A
81
0A
5A
9A
16
40
51
99
2A
18
26
18
A2
19
82
62
A8
AA
92
55
94
46
58
20
2A
02
16
96
5A
19
A4
90
90
89
A9
21
69
20
55
91
6A
64
25
95
18
66
56
58
68
8A
10
24
52
A9
10
98
08
0A
25
4A
06
00
80
02
10
26
2A
42
50
08
88
A2
08
40
40
04
94
05
45
44
00
24
00
80
60
00
6A
00
2A
28
84
05
10
29
01
49
A9
AA
94
88
5A
04
69
26
1A
8A
05
04
44
14
00
14
88
00
00
16
00
08
18
05
55
9A
56
52
18
22
11
66
55
25
58
48
06
02
25
15
06
82
A2
28
A9
48
44
06
A6
A5
08
08
A8
05
09
08
65
42
09
56
16
65
82
21
69
50
05
40
45
41
10
62
1A
56
60
61
80
11
42
20
12
69
A1
6A
12
52
21
01
42
04
45
96
06
85
06
99
22
A4
68
44
88
09
55
41
41
82
51
A2
28
46
82
46
90
46
81
19
98
02
09
55
18
16
41
41
08
A1
45
91
55
1A
A5
25
11
55
96
48
0A
66
55
95
22
A2
09
94
89
88
86
69
22
1A
98
0A
54
92
21
28
AA
19
6A
99
98
16
4A
45
11
42
49
98
51
95
95
64
60
62
A2
60
95
0A
84
81
6A
16
2A
88
22
40
66
55
5A
28
25
16
A8
84
56
1A
49
61
A5
06
06
15
89
61
A5
50
69
46
A6
5A
16
2A
5A
61
A9
69
68
25
88
00
69
49
1A
81
29
A9
92
5A
A2
65
98
96
66
19
59
48
92
56
86
69
29
9A
61
50
A1
A9
A9
29
89
A6
06
0A
06
00
09
44
61
02
28
06
A2
41
14
01
20
81
59
81
90
44
02
52
91
19
28
00
0A
69
09
4A
A6
02
06
80
41
A4
A8
6A
20
14
88
64
14
A0
92
12
25
90
06
60
19
09
25
42
90
06
20
81
02
56
82
66
42
86
28
14
19
8A
04
A0
15
A0
96
50
40
59
54
86
85
91
48
8A
69
A2
05
10
A1
50
04
60
A5
80
24
95
88
A2
88
50
29
85
A6
AA
62
56
82
15
11
19
59
19
A0
24
A2
84
52
4A
86
4A
85
29
48
16
91
00
98
28
62
99
11
86
15
6A
66
1A
0A
85
29
52
86
29
85
11
41
92
54
69
49
A4
94
14
41
1A
26
01
5A
89
12
00
86
68
66
A9
99
19
65
20
94
66
9A
58
85
94
48
50
28
58
22
64
05
08
60
84
86
61
61
25
68
68
95
6A
58
55
8A
A1
41
00
15
65
89
8A
26
09
45
56
21
11
86
01
02
58
25
08
8A
64
1A
6A
06
81
84
49
11
45
09
20
9A
20
65
9A
08
00
05
56
A0
60
A2
59
22
15
89
05
50
82
52
A0
20
48
A6
64
6A
01
40
A8
00
41
0A
A6
92
15
26
66
55
64
88
69
28
A6
09
28
10
86
11
50
02
15
8A
86
02
81
22
A0
80
48
19
12
95
2A
5A
19
56
59
A0
1A
2A
54
90
99
06
AA
91
61
50
26
12
89
99
1A
A2
22
55
04
91
40
80
10
62
80
42
A8
08
62
41
20
A4
86
29
05
15
A6
8A
25
95
46
40
64
19
01
42
84
02
55
19
49
14
42
84
89
24
2A
04
15
54
06
69
98
05
A6
55
45
1A
51
44
58
41
99
81
09
8A
21
9A
00
16
98
1A
49
05
29
64
A8
68
9A
44
18
92
18
59
68
12
01
61
01
80
20
48
46
84
20
00
00
58
1A
0A
49
29
59
81
08
22
84
14
19
00
20
91
18
88
21
89
24
86
19
A5
96
0A
61
45
94
09
08
22
96
1A
44
92
0A
22
18
19
08
04
4A
96
96
08
1A
58
9A
46
18
00
99
20
42
81
4A
42
89
24
06
16
10
19
29
04
86
88
16
46
09
1A
28
02
5A
94
06
01
60
06
88
02
82
21
99
05
0A
41
84
55
10
84
18
60
91
90
10
1A
16
11
48
A0
59
94
A0
90
11
59
26
49
A4
64
80
18
02
56
52
10
88
41
01
12
08
84
02
22
59
88
80
24
98
6A
24
06
08
08
99
22
91
04
15
06
90
86
40
64
90
95
05
00
A2
15
68
90
A8
04
44
41
48
60
29
48
01
08
41
44
60
92
04
91
1A
80
48
08
60
2A
00
60
00
24
04
20
01
02
01
42
28
00
50
02
65
40
00
08
80
80
10
A8
01
05
00
42
02
81
85
24
82
66
02
19
58
05
22
12
65
64
60
90
AA
0A
A1
91
15
48
92
02
12
12
05
00
25
00
12
20
00
00
50
02
12
08
00
21
45
01
52
81
12
10
05
A0
00
06
05
02
85
01
A1
19
29
1A
88
44
1A
14
05
9A
86
0A
01
1A
02
1A
21
02
58
96
55
90
89
42
95
58
A9
49
19
12
90
55
9A
25
29
88
55
06
45
52
A9
9A
59
55
8A
9A
68
18
19
2A
A5
41
59
29
65
55
96
01
A9
05
12
26
A5
65
21
62
5A
88
99
65
02
05
41
22
11
95
61
69
26
80
62
2A
41
A0
26
44
A0
A4
8A
65
99
98
41
86
AA
20
49
02
8A
04
8A
6A
9A
AA
A4
85
90
26
A9
40
51
A9
85
86
A1
41
91
51
06
11
94
68
84
89
08
64
89
99
11
AA
41
68
96
48
94
15
51
49
24
69
66
6A
51
91
66
96
A0
A2
2A
29
2A
86
A9
46
94
86
86
11
2A
65
82
88
6A
11
45
41
6A
68
8A
49
90
55
2A
54
58
41
49
18
19
61
89
29
A1
01
69
81
A1
56
49
61
45
95
28
64
41
62
68
82
06
01
22
55
88
09
1A
A6
65
65
99
01
90
2A
02
91
99
9A
21
02
08
51
64
90
8A
40
91
42
90
62
9A
08
69
82
69
21
10
59
04
11
85
5A
96
61
29
20
21
65
16
26
40
91
4A
20
29
66
85
52
40
05
24
A4
99
28
54
05
A1
22
62
45
68
18
14
4A
01
54
82
42
98
45
08
A0
0A
52
91
12
A5
24
68
05
90
81
1A
9A
89
A4
42
41
48
56
55
20
28
29
24
64
09
85
81
98
4A
89
8A
89
A1
15
91
51
59
58
82
52
A5
26
61
50
95
61
1A
66
24
6A
50
A9
A1
AA
AA
66
85
92
6A
A5
05
A4
12
80
82
55
69
29
68
62
9A
69
45
99
40
84
86
A9
9A
49
16
66
99
42
A5
A5
98
29
62
64
95
19
88
44
19
28
46
54
A5
99
82
68
A4
45
8A
16
45
44
20
08
99
89
91
19
18
09
99
25
29
05
92
26
A4
90
11
19
81
6A
08
45
52
80
15
60
10
50
22
24
9A
01
20
42
14
05
62
0A
06
50
16
85
02
55
A5
01
11
84
55
65
51
54
46
66
99
4A
92
26
0A
06
2A
46
54
A9
59
A8
05
80
25
10
58
4A
51
29
05
69
59
A2
21
65
89
28
1A
01
10
62
52
AA
04
26
69
4A
61
22
69
00
86
46
61
4A
16
94
04
82
60
66
21
A0
68
46
92
86
A6
4A
55
9A
49
90
08
21
89
85
89
51
26
48
29
42
40
41
81
55
06
81
60
9A
25
16
80
1A
50
40
94
61
82
25
14
46
2A
91
05
95
95
69
08
90
19
8A
09
88
01
08
A6
85
11
21
50
88
69
A0
25
56
85
AA
99
42
54
95
59
99
56
29
4A
89
26
91
52
15
4A
02
66
40
86
41
05
11
06
2A
61
99
5A
42
51
54
46
12
44
51
25
01
0A
20
20
06
21
08
00
8A
80
24
5A
00
82
20
16
10
80
08
00
01
04
40
10
40
96
A2
8A
05
00
09
06
64
95
81
90
85
69
91
85
55
81
A1
09
04
84
92
18
19
41
46
A5
12
25
80
00
48
9A
18
01
88
12
49
10
21
00
40
54
19
45
50
95
54
04
59
80
A1
06
6A
50
AA
90
56
4A
41
02
94
50
20
14
09
94
94
42
8A
01
40
11
01
40
02
28
20
8A
40
58
AA
45
A6
12
40
40
49
82
14
8A
55
60
82
A6
05
5A
50
49
26
08
1A
68
51
59
18
52
24
56
20
84
45
5A
8A
46
45
0A
64
0A
90
64
4A
24
8A
66
66
45
AA
58
21
45
18
48
50
06
AA
21
10
58
15
16
55
40
9A
15
21
A5
A1
18
20
61
94
51
95
99
48
46
10
A5
25
96
2A
62
55
A0
A8
49
AA
59
88
51
01
85
84
66
98
A0
59
99
5A
59
52
25
81
95
05
49
82
52
09
98
12
59
AA
11
84
01
A5
A5
69
69
89
21
49
1A
29
26
29
62
50
5A
A9
A9
40
66
AA
12
54
8A
12
AA
A5
26
49
64
9A
20
95
80
59
46
18
95
81
45
25
19
99
58
11
9A
95
12
42
61
81
99
AA
68
86
95
99
9A
6A
89
18
52
42
55
95
AA
02
A8
28
94
08
86
44
A2
05
10
19
44
4A
61
50
0A
44
84
42
96
02
9A
11
A6
40
02
92
48
40
16
54
16
01
08
02
40
6A
60
18
02
49
61
84
0A
98
44
49
88
AA
54
02
A1
45
56
95
16
85
01
22
04
90
01
4A
4A
66
04
89
A0
22
69
08
80
08
01
89
46
20
48
91
00
04
9A
52
0A
18
84
16
51
51
40
18
98
22
09
21
12
66
62
14
81
26
82
29
55
A4
54
10
A6
65
55
46
86
92
A8
40
26
99
88
A2
15
49
96
41
96
06
96
66
6A
98
49
25
42
54
40
A6
58
45
69
2A
48
91
96
08
66
54
61
08
62
0A
62
41
95
06
58
91
82
66
24
A2
89
AA
6A
48
86
66
6A
50
5A
89
95
59
68
55
15
AA
12
40
28
26
86
61
60
65
85
11
56
91
96
12
06
05
15
8A
48
26
40
41
95
06
05
04
06
A4
15
94
8A
49
19
49
88
00
86
49
04
14
18
54
65
69
18
A2
4A
52
08
88
18
91
60
88
24
91
2A
88
65
66
02
19
65
2A
45
84
59
68
A2
11
68
68
04
42
84
25
84
28
21
10
84
08
24
10
54
84
0A
60
86
44
81
44
88
A0
14
01
01
20
21
9A
A5
19
59
10
A0
45
51
58
59
04
59
45
51
01
86
08
60
42
A0
20
15
A0
1A
45
15
A0
48
92
44
04
06
A8
04
21
60
92
A6
14
26
A6
50
28
86
45
AA
20
19
82
60
64
85
09
A6
88
59
14
86
55
A4
12
A0
A1
14
00
41
11
09
02
62
06
00
92
12
A0
A2
48
10
81
85
98
24
6A
A2
95
99
A6
21
84
09
85
05
01
26
9A
A5
A8
49
06
65
19
90
48
02
45
29
84
00
8A
10
82
08
1A
84
55
20
18
8A
80
61
21
21
A6
01
18
65
0A
55
20
01
48
50
A0
99
99
59
28
08
2A
18
18
19
A5
85
24
8A
11
12
51
60
95
12
88
18
05
01
11
15
0A
65
21
8A
16
08
82
A0
68
A2
50
98
49
96
85
50
48
0A
A1
82
84
56
84
92
14
80
65
40
69
6A
18
06
92
41
50
96
58
41
04
22
06
82
A2
80
10
22
28
A2
14
01
12
48
88
26
A6
41
A4
58
88
A2
21
24
56
04
69
54
A4
21
26
89
14
28
00
06
AA
04
00
44
26
4A
44
2A
02
10
4A
68
21
08
21
4A
A2
05
0A
48
29
60
81
18
88
01
4A
44
01
46
54
55
19
40
25
24
50
50
95
A4
A0
28
58
08
22
21
02
46
85
9A
20
06
10
92
56
60
88
09
A0
81
A2
68
02
44
09
12
09
80
82
60
28
80
00
A0
00
00
91
40
00
00
A8
80
00
A0
44
02
28
00
01
90
18
85
14
88
16
A9
89
48
59
48
96
96
20
26
5A
84
A6
A2
58
09
A6
A0
61
8A
5A
41
64
49
05
00
40
A0
01
40
00
00
00
40
82
00
42
00
80
14
8A
00
10
80
80
90
25
24
90
58
49
49
49
A2
05
00
81
A0
49
59
54
55
41
51
80
44
51
0A
8A
06
26
94
0A
A8
29
09
69
29
69
45
50
50
50
95
15
69
96
56
15
6A
14
58
A5
40
28
0A
5A
29
64
41
69
58
61
95
44
61
6A
86
6A
A9
A8
96
9A
9A
92
2A
A1
52
AA
A0
AA
51
56
25
4A
49
40
06
5A
15
21
90
01
25
48
95
45
26
15
51
92
64
12
9A
A2
65
09
56
59
56
19
49
64
50
A4
AA
12
89
18
51
60
84
A9
24
54
21
24
58
48
20
A2
66
64
44
62
AA
A8
2A
64
48
20
42
56
80
65
56
AA
42
4A
48
59
64
09
64
69
48
80
A2
58
55
66
54
24
40
69
14
84
A6
86
94
90
A0
56
98
0A
28
26
10
41
48
9A
22
62
58
A1
11
62
99
02
22
4A
AA
46
68
91
1A
08
20
1A
08
58
40
41
65
6A
86
6A
00
45
65
46
A2
66
A6
99
59
24
1A
A8
26
95
68
22
82
82
48
18
25
19
1A
90
14
00
19
04
12
20
21
12
A6
42
A5
61
81
A8
41
50
94
88
24
91
80
01
9A
91
A9
62
9A
85
58
05
A6
19
86
26
99
A0
84
44
85
84
41
85
12
40
11
62
9A
64
58
99
84
80
84
65
45
15
95
22
20
04
49
80
A6
A1
91
25
0A
48
1A
48
95
26
92
48
85
18
00
06
A2
60
95
94
66
18
9A
42
19
54
64
A0
9A
18
AA
66
94
58
88
15
15
51
19
05
58
46
52
80
8A
26
20
65
22
66
00
10
8A
29
51
88
84
84
4A
21
40
49
A1
91
69
49
A6
A9
25
98
6A
55
6A
1A
52
58
A0
80
88
84
A8
69
99
54
2A
65
88
58
A5
51
26
82
45
91
18
68
16
52
65
25
A2
A6
91
22
44
04
94
59
A9
51
41
8A
48
65
54
12
82
85
A8
14
8A
95
05
68
40
02
1A
10
89
28
06
51
A0
91
4A
51
4A
85
00
A8
29
59
10
56
88
A2
94
68
86
12
02
86
44
80
02
09
99
84
49
96
86
01
51
86
11
A2
69
A9
18
06
19
18
18
26
80
26
A2
81
92
A5
15
09
90
A5
0A
65
4A
45
10
48
58
A9
44
42
5A
59
21
50
A2
6A
80
44
85
80
6A
86
95
4A
64
96
0A
9A
86
A5
96
86
18
26
12
92
10
62
51
55
50
50
42
19
14
58
11
89
95
A9
60
60
0A
25
24
8A
81
48
90
20
0A
95
66
9A
65
0A
18
14
98
29
22
85
58
24
69
A2
A4
64
A1
11
AA
0A
6A
AA
48
4A
AA
52
A1
2A
42
12
68
0A
24
12
20
48
25
0A
24
8A
2A
21
95
62
A4
88
15
04
24
95
89
80
89
00
AA
65
54
68
59
50
54
55
0A
9A
51
10
40
40
A1
14
09
01
84
22
25
42
48
09
24
46
00
00
44
80
14
44
44
28
12
10
14
61
82
A8
18
A5
A6
92
A8
91
4A
96
25
04
48
00
A2
AA
A2
A2
9A
66
8A
46
19
65
48
18
18
12
84
15
12
19
16
24
04
08
80
80
00
02
42
58
48
80
88
08
00
00
56
54
02
A1
62
99
92
82
8A
A8
08
00
58
45
60
A5
26
28
09
A1
86
19
21
94
22
41
88
96
90
9A
86
92
8A
61
96
90
62
9A
58
50
88
8A
92
86
82
AA
44
54
82
68
86
69
A6
59
A6
54
21
61
69
9A
65
95
05
92
55
96
45
99
AA
65
96
96
60
94
68
61
41
12
89
65
50
90
65
65
69
82
86
9A
69
82
58
41
69
90
41
98
A6
98
92
69
A9
96
89
A9
51
64
51
64
65
96
65
26
69
49
9A
69
61
61
69
82
69
65
61
49
92
51
96
69
86
92
8A
6A
69
82
9A
69
81
8A
AA
69
96
5A
65
01
51
86
45
96
12
16
49
42
98
96
92
65
28
80
90
69
A5
65
92
9A
A6
69
69
69
45
94
86
65
4A
96
9A
41
60
49
64
6A
96
A6
49
64
82
51
8A
96
86
44
96
16
AA
5A
1A
11
A4
0A
26
96
96
96
41
65
69
96
96
88
45
19
82
52
A2
69
92
96
61
42
61
41
9A
A5
62
9A
69
01
89
65
82
42
92
68
48
A6
82
49
56
48
48
96
82
02
69
28
80
2A
9A
05
8A
86
61
96
8A
48
88
45
28
02
2A
61
8A
04
29
A4
95
61
86
96
96
92
5A
50
65
85
96
61
46
9A
94
49
61
41
06
82
49
45
A9
A0
05
65
92
61
A2
85
68
16
65
88
69
65
55
96
82
96
29
9A
11
56
82
61
5A
69
95
8A
69
08
92
81
46
49
49
A6
00
95
5A
9A
10
96
92
8A
60
69
A9
96
45
12
92
84
A6
A4
82
59
65
5A
65
9A
69
94
19
55
0A
62
99
8A
68
51
69
69
9A
A9
61
94
61
99
86
61
49
61
68
98
69
65
A0
41
96
A5
9A
51
45
58
94
96
65
45
92
51
51
48
95
5A
96
51
24
61
61
92
96
A6
96
69
8A
91
5A
92
50
40
96
56
96
65
85
96
69
9A
92
69
45
51
54
61
A8
A5
A2
55
A1
99
69
A5
96
92
96
52
91
59
61
61
80
28
92
65
65
65
01
A4
41
92
15
1A
61
90
04
49
82
49
41
41
82
92
81
64
29
25
66
61
99
56
92
86
42
69
A6
49
9A
65
45
91
92
84
81
9A
61
54
59
86
AA
65
69
A6
69
49
AA
1A
86
9A
51
65
00
41
88
8A
18
69
59
90
A2
62
91
55
60
14
24
96
85
50
44
10
65
90
40
96
A1
96
85
49
49
A5
81
2A
26
56
21
00
A9
05
AA
98
16
85
96
61
96
94
96
94
69
25
42
88
55
52
51
26
48
5A
56
51
22
99
59
89
68
1A
92
66
00
02
1A
21
5A
12
80
0A
95
91
05
86
42
12
04
08
A6
A9
4A
A0
45
69
9A
65
A5
86
AA
A6
52
46
69
69
A9
89
A8
69
4A
56
69
45
62
86
A1
81
59
5A
82
69
9A
54
A2
86
54
51
82
A9
A2
45
49
85
8A
41
A6
9A
45
20
A1
61
66
9A
41
41
59
81
45
94
A4
98
9A
40
61
80
41
52
96
69
96
81
56
92
65
49
12
61
41
41
52
29
89
96
5A
8A
45
85
5A
22
5A
81
69
12
9A
45
10
41
59
44
41
9A
60
51
1A
49
92
92
02
96
55
40
80
41
69
69
61
96
52
86
68
86
61
81
9A
11
A6
92
46
81
82
64
92
82
45
66
82
96
8A
65
58
AA
1A
55
82
12
A5
92
61
65
06
65
16
96
88
28
A2
19
61
49
92
41
41
89
40
40
91
69
96
61
09
81
92
92
41
99
0A
19
68
82
41
06
A1
46
80
81
62
46
61
05
52
92
25
56
96
51
92
59
51
61
51
06
82
51
68
A1
4A
69
00
80
90
80
40
4A
81
81
80
82
91
80
09
60
02
50
90
92
0A
82
80
44
A8
08
41
A2
9A
22
8A
92
8A
9A
82
A6
69
82
92
04
41
A2
55
59
49
AA
92
59
49
65
82
8A
A6
05
56
00
A5
20
81
90
40
05
42
8A
AA
82
64
51
1A
85
82
8A
0A
8A
40
28
8A
45
56
9A
A6
82
A6
82
51
44
61
8A
69
46
A8
86
46
86
46
9A
55
86
69
AA
55
62
96
68
59
69
86
49
80
45
99
96
8A
59
9A
69
69
69
AA
96
64
29
92
54
AA
86
A9
A4
24
49
8A
A6
8A
69
9A
8A
96
88
69
A6
55
0A
AA
61
1A
5A
51
92
AA
49
49
69
92
A6
96
69
96
61
50
9A
96
59
60
86
49
65
86
96
64
A6
65
61
AA
52
69
69
69
88
1A
09
96
48
69
96
69
65
65
61
69
59
69
69
9A
A2
86
84
69
69
81
82
61
96
82
65
60
86
49
A2
96
96
92
65
92
4A
82
96
59
8A
65
9A
A0
9A
9A
8A
12
59
A2
99
5A
68
8A
69
AA
92
55
65
92
92
69
69
A0
96
15
92
21
61
51
62
92
82
45
92
69
96
69
A6
49
66
86
92
A2
62
A2
96
51
59
69
AA
82
82
41
16
26
96
9A
1A
15
48
61
56
96
61
69
55
29
9A
2A
59
65
69
10
92
41
A5
48
42
44
68
55
40
49
48
99
68
1A
A5
44
80
01
6A
98
46
5A
86
84
40
96
8A
5A
45
96
12
82
02
A1
A5
85
46
92
96
11
46
65
8A
49
16
A6
52
12
56
66
98
49
82
6A
48
81
44
66
41
82
84
18
A8
42
18
88
98
69
50
55
20
61
65
92
91
59
8A
52
29
61
81
52
5A
61
29
9A
49
88
96
95
86
5A
A2
A9
4A
41
19
16
96
96
65
69
61
69
96
86
81
A4
92
8A
8A
81
69
95
92
88
86
AA
96
96
AA
69
96
19
86
5A
55
92
59
61
55
65
9A
86
55
41
9A
AA
59
96
9A
90
69
41
02
9A
A5
96
96
69
8A
69
66
48
82
8A
50
9A
96
69
A2
9A
96
96
24
19
8A
A9
92
50
80
9A
A6
69
14
61
85
54
92
92
9A
9A
69
A2
45
49
A6
92
A2
2A
86
89
A2
69
90
84
62
66
48
49
65
68
64
42
96
20
21
64
21
69
98
51
61
85
20
41
04
A2
04
9A
84
92
A9
41
46
16
81
28
82
A1
9A
65
49
49
92
26
49
04
49
A6
A6
A9
98
9A
65
48
52
96
86
A2
88
96
02
95
48
26
42
65
59
09
82
69
41
80
8A
92
8A
85
82
45
26
52
06
16
56
92
41
85
81
55
69
56
A5
44
45
90
90
A2
A9
96
69
68
51
69
61
A9
69
62
51
12
59
96
91
A6
96
1A
55
8A
92
AA
92
86
88
69
55
49
55
69
16
55
69
A2
60
69
1A
9A
A6
86
12
01
25
25
65
AA
92
96
96
29
69
49
61
69
65
49
69
86
69
92
68
96
61
86
9A
62
61
A6
51
9A
41
86
96
5A
62
96
A5
69
61
85
56
14
92
45
92
96
45
96
96
65
82
86
02
59
49
A8
29
69
61
29
96
A8
08
82
69
89
15
60
61
82
99
49
8A
41
82
91
56
64
82
82
84
02
A8
64
69
49
8A
54
81
A1
82
21
5A
52
96
69
92
88
A0
A9
45
69
59
82
A0
94
28
6A
11
42
82
86
06
26
45
22
61
94
44
64
86
40
12
A9
82
46
92
A0
66
49
01
82
92
54
26
45
85
54
A6
44
65
28
A8
6A
A9
55
86
96
65
61
96
59
AA
51
12
0A
15
56
16
92
92
82
05
01
40
16
14
A9
88
59
59
1A
08
69
28
96
A6
61
41
61
AA
50
6A
42
50
96
AA
40
A9
88
45
51
48
12
52
50
41
56
94
21
09
90
9A
21
52
29
05
2A
A2
6A
01
6A
14
46
51
95
18
0A
95
98
98
41
42
80
48
15
24
26
59
52
0A
56
44
92
41
25
68
11
69
09
2A
19
64
99
A5
96
60
68
85
55
40
28
10
89
59
85
A2
96
01
15
52
55
A5
91
A6
64
64
22
2A
04
81
50
91
6A
88
96
99
65
6A
A4
6A
19
A4
5A
26
22
81
69
12
92
45
96
99
16
18
26
26
40
15
A6
90
A1
A6
45
21
55
96
61
96
A8
95
5A
01
AA
69
64
98
5A
4A
2A
91
85
A9
22
91
10
92
A6
16
95
16
21
1A
61
04
62
56
AA
A1
16
05
92
26
52
19
92
A6
15
29
11
49
40
25
54
40
05
69
81
28
02
84
81
04
24
28
21
A8
00
50
A5
20
50
69
A8
50
18
55
95
21
41
02
21
92
14
04
00
14
60
4A
14
25
52
00
25
00
52
05
82
46
12
0A
4A
26
21
98
92
A0
94
06
01
4A
25
15
85
55
04
A2
59
A0
22
81
15
49
89
95
50
26
05
50
25
20
94
56
85
80
89
90
28
54
42
50
92
24
9A
96
65
A6
10
A8
28
58
A4
8A
A1
94
68
46
26
99
89
A5
56
6A
1A
05
29
56
A9
A6
94
25
2A
49
61
19
A1
24
54
94
45
46
86
82
58
15
99
09
69
45
96
04
49
16
A1
60
11
21
68
65
A9
1A
5A
60
A1
51
94
95
84
81
A5
89
86
4A
A9
26
02
95
19
11
22
5A
9A
66
A8
58
A1
56
24
05
6A
56
A8
60
45
9A
26
68
A0
20
02
11
20
40
05
26
16
40
A9
08
16
21
62
12
06
28
69
AA
A2
61
82
04
20
16
06
46
0A
85
86
A9
56
68
59
00
58
0A
21
02
01
88
A9
AA
49
41
A4
08
69
21
2A
9A
09
08
08
68
11
95
01
54
00
82
44
25
05
98
21
81
22
52
12
1A
04
95
A5
28
20
12
45
8A
85
21
01
20
96
05
82
A5
66
09
14
44
46
16
29
41
18
84
1A
60
85
28
55
1A
08
A0
55
86
29
56
40
58
66
04
A9
A9
68
45
20
01
90
82
61
8A
49
AA
58
41
A8
00
19
60
54
61
59
25
09
58
A1
01
96
A2
46
56
06
00
A9
22
10
68
14
95
28
A0
2A
12
80
14
02
15
81
64
88
21
80
84
50
A9
18
24
86
28
44
54
00
A0
24
A8
25
A9
82
59
61
16
6A
81
06
5A
24
16
48
66
9A
21
21
69
29
20
00
14
69
80
40
2A
96
00
80
51
81
02
26
44
05
80
96
08
60
9A
01
10
69
01
18
94
96
69
1A
02
68
A1
22
54
A1
8A
85
8A
A6
28
29
41
84
21
92
64
81
8A
29
24
61
04
12
56
A9
62
20
02
91
45
28
92
22
65
92
28
64
09
0A
85
85
08
84
42
AA
0A
19
01
10
05
20
18
10
20
18
68
50
22
56
14
02
05
A1
6A
55
04
59
94
84
80
16
66
A6
18
60
60
42
02
42
40
50
21
22
0A
44
94
5A
46
52
05
0A
12
28
14
95
90
18
20
85
2A
46
62
60
00
28
59
14
05
25
04
40
15
08
91
10
40
60
AA
41
20
AA
90
10
2A
01
89
40
26
06
06
10
98
04
14
40
18
52
82
80
44
61
08
90
06
8A
21
15
54
02
19
24
15
40
A5
04
05
15
01
50
21
00
00
94
10
00
00
40
08
80
08
12
00
80
00
28
64
2A
00
00
00
48
28
89
A2
00
51
08
48
08
A8
28
98
95
A9
96
94
58
68
88
19
14
96
89
20
08
44
80
12
06
60
04
04
21
12
29
10
01
0A
20
10
00
14
14
00
88
4A
28
20
00
04
00
01
28
10
92
88
05
A2
12
0A
28
44
69
40
84
08
06
29
86
68
21
29
96
68
8A
64
95
96
5A
01
15
A5
59
2A
6A
06
98
A5
41
80
48
95
86
5A
56
62
68
48
68
24
95
21
51
21
8A
19
21
26
16
A1
AA
2A
14
A5
26
6A
95
99
9A
10
89
95
95
92
96
4A
58
62
48
24
55
05
11
62
60
6A
50
56
46
9A
A6
84
54
48
82
26
2A
05
62
4A
21
1A
29
25
88
AA
49
99
A4
09
91
18
65
65
9A
85
01
A9
11
61
91
40
85
86
1A
66
69
2A
21
59
55
04
4A
65
98
19
52
A9
09
19
A0
96
91
06
99
91
AA
62
85
29
8A
58
1A
19
12
90
81
65
A4
95
85
59
68
92
15
20
60
08
56
61
82
44
69
94
88
12
85
A6
69
8A
06
82
86
25
A4
24
88
05
4A
64
45
66
99
12
85
A2
A5
98
64
99
25
6A
82
51
99
01
59
92
5A
55
A0
60
60
15
81
01
20
18
09
01
81
A5
29
29
40
65
81
44
50
56
51
6A
52
9A
54
40
56
A1
85
80
42
64
86
60
A4
26
28
12
86
1A
25
46
59
10
66
A6
59
54
86
86
54
44
A6
8A
80
12
04
89
04
25
20
2A
68
A1
20
26
24
99
01
02
19
01
01
24
94
4A
12
42
05
88
85
00
9A
20
00
61
09
6A
90
49
65
42
A6
A6
92
09
51
15
61
90
65
92
A2
92
61
48
42
A5
8A
28
A0
8A
95
91
6A
26
58
21
A0
A2
46
06
82
55
4A
A8
96
15
95
A8
84
9A
01
A4
61
86
2A
5A
55
95
86
55
56
21
12
10
89
51
94
69
68
AA
51
A6
94
24
19
95
86
6A
10
14
55
92
55
96
82
82
4A
46
14
A2
69
48
06
8A
2A
85
12
5A
A5
16
6A
98
16
50
56
50
22
26
12
15
01
96
15
69
21
96
A6
29
21
21
21
0A
41
81
26
02
49
05
19
68
44
64
15
00
19
40
66
51
6A
56
A2
18
96
A5
60
1A
A0
44
05
84
21
05
19
61
61
14
00
9A
99
45
51
84
64
90
40
81
01
AA
86
54
A5
16
90
08
A1
60
20
28
A9
01
60
59
A1
00
50
14
04
50
12
A0
89
40
2A
86
91
01
86
48
69
50
56
60
04
24
80
A5
45
96
98
61
65
64
09
41
41
09
55
64
50
46
92
01
45
41
66
02
AA
81
85
46
54
19
AA
24
04
A9
A8
21
58
00
9A
62
22
61
49
15
44
28
5A
06
10
19
99
A9
61
55
12
00
50
21
A1
01
A4
06
88
21
02
06
52
61
91
02
20
15
00
05
40
5A
22
18
85
18
04
81
1A
05
52
A0
16
68
60
52
40
95
52
99
16
0A
40
96
51
99
44
61
18
11
A5
68
11
06
01
84
05
09
05
28
45
08
40
0A
00
00
54
22
1A
52
52
06
0A
22
20
24
14
56
46
58
54
09
10
61
21
52
0A
12
16
A2
94
05
00
48
A1
68
91
65
19
25
01
1A
44
02
84
40
42
00
00
69
10
02
01
82
12
A2
10
14
04
A2
40
80
40
6A
A4
A2
90
98
45
52
A5
80
49
59
01
29
A1
28
42
15
46
81
11
58
96
81
1A
64
21
24
8A
A1
61
85
45
69
55
89
AA
42
24
56
80
25
61
54
A1
81
65
96
86
86
95
65
12
29
A5
98
68
2A
58
95
A5
9A
02
65
45
96
66
04
51
65
A6
95
A0
66
82
42
99
AA
95
84
42
05
18
26
20
AA
1A
A4
5A
69
09
A1
14
1A
02
0A
54
6A
A8
24
65
54
A5
99
51
11
28
85
1A
06
24
14
44
90
9A
89
49
8A
9A
20
80
A8
98
10
50
02
42
66
A8
18
56
25
16
5A
55
25
66
A8
A9
29
92
54
95
AA
A1
55
AA
42
89
81
52
5A
06
64
10
58
54
55
95
09
81
64
48
99
48
46
62
AA
84
94
00
46
54
15
42
18
24
16
42
62
80
5A
49
21
60
89
A9
98
AA
16
58
5A
AA
A5
55
56
96
6A
49
58
98
16
64
45
59
A9
44
6A
65
15
85
16
61
A9
24
A1
92
22
91
80
05
51
50
20
65
58
94
28
21
42
11
12
28
22
04
2A
5A
08
02
92
90
41
18
00
05
06
61
98
10
60
20
66
22
42
96
26
2A
24
95
01
66
10
65
A0
99
8A
60
19
22
22
04
28
10
01
44
21
50
15
90
AA
40
28
12
24
91
02
12
00
AA
58
A5
15
5A
99
40
50
8A
60
02
62
98
28
84
AA
02
25
28
60
18
66
05
A4
21
90
A1
0A
14
48
24
69
96
51
68
89
A8
59
85
90
15
46
11
A0
A1
45
40
20
29
49
54
85
51
21
41
80
45
4A
15
49
91
94
96
89
88
49
49
08
85
91
A5
9A
4A
41
00
A0
28
58
66
08
26
91
10
4A
68
08
26
11
01
59
AA
84
92
A5
14
24
95
52
AA
51
68
1A
A1
A6
06
9A
56
1A
68
52
04
45
6A
60
6A
85
48
41
9A
51
94
16
6A
92
0A
12
85
60
41
16
90
50
01
90
1A
48
50
10
28
89
A8
AA
6A
5A
61
49
25
55
80
51
62
A5
04
21
50
51
61
40
91
60
95
2A
6A
90
41
20
80
51
01
99
09
60
59
92
4A
08
06
12
28
12
65
80
4A
20
04
99
62
52
21
00
88
40
6A
15
02
01
91
09
40
00
54
45
68
91
45
84
86
A1
91
80
02
11
48
10
02
09
12
66
08
0A
46
00
40
A8
94
14
40
45
04
12
A0
42
2A
61
25
85
A1
98
20
82
02
52
90
48
8A
90
24
66
40
60
04
46
26
96
04
90
40
62
96
85
81
58
05
66
55
9A
55
64
01
01
15
50
56
A2
08
01
82
84
40
28
1A
5A
41
65
04
16
28
A8
1A
A4
81
18
81
50
25
91
62
85
81
94
10
65
24
05
90
A9
45
16
A9
15
60
44
10
84
85
04
89
10
8A
2A
40
98
90
86
82
48
44
98
80
20
00
82
02
28
4A
04
01
59
89
00
A1
80
66
41
82
01
41
06
05
24
22
46
54
40
52
54
49
04
01
0A
01
04
66
84
68
8A
04
20
21
01
48
85
1A
48
24
82
85
64
11
04
89
A8
00
55
AA
44
88
00
86
15
00
20
80
0A
61
A2
15
A4
05
90
59
05
98
A0
08
80
48
51
69
44
91
25
44
06
50
12
92
48
00
00
41
26
50
61
44
8A
28
49
96
96
60
01
60
99
81
42
02
94
01
08
80
24
90
98
08
25
54
9A
29
58
42
54
18
A4
A5
05
00
09
40
16
41
90
40
92
41
49
21
01
09
8A
44
45
82
48
A8
40
0A
04
41
88
06
92
01
98
22
15
18
55
88
40
45
44
18
10
62
60
80
08
24
41
58
14
10
62
01
41
48
85
80
10
00
00
08
62
08
01
80
04
00
01
20
00
20
80
00
09
40
90
20
A6
A8
08
A0
24
04
5A
A2
55
20
55
58
88
11
58
64
A2
60
62
66
59
81
22
A1
49
06
60
58
02
08
02
80
00
A2
40
50
22
20
08
08
11
40
81
80
20
80
00
24
01
01
2A
16
00
51
12
29
51
91
22
26
15
A6
11
19
21
55
6A
18
A0
A2
A2
59
9A
4A
98
10
29
48
80
21
25
A0
85
4A
60
A8
A8
49
96
51
9A
A0
26
5A
24
A8
69
96
95
52
45
A8
98
96
06
4A
62
2A
8A
A9
19
9A
68
AA
16
4A
00
29
95
20
80
86
A5
69
46
98
51
89
92
00
22
98
94
95
65
11
56
98
51
52
5A
6A
65
4A
09
11
AA
25
18
45
45
05
22
59
21
06
06
A8
A5
09
99
52
0A
45
26
58
46
89
95
42
60
48
41
55
09
12
A8
00
4A
65
91
A6
89
96
52
A8
6A
69
15
08
50
A8
92
86
A9
14
92
4A
45
0A
A0
82
02
09
49
09
88
44
44
95
A1
24
45
01
55
A5
9A
56
9A
0A
68
14
6A
16
08
99
69
96
04
55
60
5A
88
50
64
0A
10
9A
A2
A5
56
12
42
92
28
59
54
40
8A
01
84
50
2A
AA
41
A9
09
2A
01
94
60
86
62
55
51
06
10
10
26
89
01
86
10
44
20
05
61
46
1A
29
98
A2
90
20
55
1A
21
50
92
42
6A
80
8A
64
51
52
02
0A
52
2A
46
80
56
10
21
50
40
9A
6A
25
94
96
09
20
21
A0
22
62
85
89
42
48
22
99
22
4A
68
8A
49
60
A4
90
49
56
01
64
42
10
54
25
92
0A
95
A5
26
01
98
61
26
42
19
A6
10
44
15
61
A9
29
21
00
69
62
5A
91
90
91
65
A1
96
10
89
86
58
59
A1
2A
56
2A
65
40
60
56
51
81
25
08
A4
05
85
5A
99
26
29
01
5A
24
80
94
21
4A
A8
2A
62
14
65
11
A6
26
19
01
4A
90
A1
95
29
06
62
42
42
A6
62
58
A6
96
6A
68
49
A2
28
29
4A
61
A5
09
AA
A8
95
88
58
95
05
9A
2A
6A
29
66
51
49
58
4A
65
96
95
69
14
29
48
A2
06
25
05
95
68
14
A2
25
21
AA
60
01
9A
09
66
20
09
1A
19
81
5A
A5
90
59
24
68
A0
A2
62
66
0A
12
4A
26
42
55
89
A8
02
46
41
65
89
24
26
16
1A
9A
05
45
46
80
6A
10
40
22
51
19
21
24
10
16
05
90
18
86
45
80
90
11
28
96
06
48
91
AA
12
16
46
46
A5
82
91
A9
15
69
26
44
9A
1A
59
0A
89
51
95
00
A0
AA
41
84
A5
A4
09
14
A6
AA
62
89
85
46
95
56
49
08
A0
80
24
84
2A
64
92
55
62
18
88
60
80
15
81
9A
52
60
05
A6
A0
56
06
56
56
64
29
41
58
89
88
89
59
55
01
55
85
69
00
02
89
59
06
46
59
05
5A
55
00
45
09
85
61
26
A5
25
25
A6
AA
A5
58
65
14
AA
66
00
68
A5
51
44
55
1A
41
69
44
64
24
08
41
02
61
00
04
81
24
11
58
49
02
68
A8
10
24
92
A0
02
81
02
A6
28
08
A9
90
02
16
10
04
86
14
90
A0
20
10
28
04
48
68
A6
81
A6
20
AA
A6
08
00
41
00
01
08
90
21
01
02
81
00
68
08
A0
22
45
61
A0
21
2A
02
A5
59
84
20
89
41
20
82
54
92
AA
20
84
94
A6
12
A6
50
94
41
59
20
08
08
55
86
A9
09
8A
14
29
09
59
A9
28
59
29
56
29
98
64
19
66
86
59
0A
AA
59
28
58
A6
26
19
A1
98
15
9A
56
28
62
0A
56
26
59
12
90
AA
68
A6
29
64
55
9A
A6
8A
69
06
59
26
56
16
A9
08
06
42
09
45
44
56
29
09
88
86
59
46
25
40
68
A4
28
A9
59
AA
05
99
49
A5
12
86
26
56
96
16
29
96
1A
66
46
29
46
54
94
56
A9
06
54
16
56
A9
06
49
A5
68
A9
A9
61
A6
09
A9
06
90
99
68
24
6A
25
46
65
16
6A
56
A0
69
85
A6
05
A6
A9
A9
64
62
46
29
46
51
56
89
A9
A9
16
55
56
54
A9
69
16
54
0A
48
56
46
64
86
44
A2
19
44
16
19
16
59
99
28
24
58
AA
8A
51
68
14
99
81
89
AA
29
A9
06
A6
56
69
89
59
56
96
59
91
99
06
A9
69
56
16
96
84
A9
59
96
88
86
02
89
06
28
85
29
54
65
68
28
16
86
04
04
29
69
40
26
50
48
18
2A
24
49
10
54
29
09
54
49
05
96
90
61
16
09
50
06
99
08
16
69
89
A9
19
04
04
16
48
A9
06
A5
59
A1
16
16
94
AA
09
05
16
58
0A
56
16
49
06
0A
98
00
84
56
68
46
66
84
A9
A8
89
06
69
82
09
89
54
01
06
19
59
06
4A
99
98
46
26
66
19
50
89
90
29
99
29
88
59
46
96
59
69
86
22
69
19
99
09
89
54
64
65
56
A8
2A
4A
61
04
98
A0
51
69
54
95
06
26
A1
41
96
29
06
A9
09
86
92
54
96
29
96
56
29
46
99
51
89
44
A6
12
59
28
56
85
99
66
62
65
A1
55
A2
80
69
56
56
09
18
0A
A9
15
48
6A
42
61
54
96
19
28
89
66
59
A9
16
A9
09
44
06
A6
64
25
58
59
29
96
1A
98
A6
69
09
88
88
65
18
14
05
02
A9
18
88
66
56
16
11
AA
16
09
46
40
86
28
60
06
4A
04
A5
46
19
89
09
66
56
12
64
56
09
45
29
A9
A6
66
68
56
99
16
24
98
A9
09
89
19
45
A5
94
69
49
56
A9
69
96
66
A8
15
A9
29
96
96
A4
22
48
48
16
56
46
29
41
56
A6
04
46
44
00
09
58
50
14
89
92
81
94
89
52
09
12
46
45
02
61
89
99
95
11
4A
99
95
6A
82
11
89
A9
56
68
08
82
A5
12
A2
A5
98
15
25
45
6A
08
05
44
80
50
A1
A1
98
62
89
29
50
45
96
90
16
50
98
49
A8
61
A9
06
89
56
1A
55
09
6A
0A
80
1A
46
6A
89
54
29
69
18
12
AA
56
61
A5
69
2A
58
56
56
21
16
16
46
09
09
18
16
64
59
04
29
A6
49
58
A5
04
89
8A
28
44
54
9A
4A
85
08
28
86
80
12
06
16
09
04
06
04
18
16
09
59
8A
19
86
56
29
14
1A
29
16
49
A9
46
69
16
84
08
16
46
56
56
59
19
A9
44
1A
14
29
22
96
44
A8
06
10
29
64
91
54
46
04
96
58
04
04
85
66
29
89
96
89
14
84
08
06
06
56
86
09
26
09
16
A9
66
98
29
04
08
89
06
8A
89
94
89
89
96
66
09
89
A8
46
55
99
84
84
89
00
8A
09
A4
46
95
64
29
18
88
12
59
82
96
14
89
86
86
A9
96
46
99
16
69
46
02
99
89
29
56
48
65
90
06
89
44
0A
4A
A4
9A
08
48
A4
04
16
84
29
90
A4
08
14
89
04
44
00
04
69
89
16
04
A9
95
26
02
01
2A
60
54
00
28
28
08
18
00
18
20
04
18
26
28
AA
80
08
09
64
18
42
24
58
29
8A
1A
08
58
5A
0A
89
16
89
A9
25
96
18
A5
A6
A4
58
49
26
A4
95
89
49
59
14
00
19
08
00
68
08
04
18
46
08
08
08
16
04
A0
00
08
08
08
29
50
04
A9
24
86
58
A8
09
80
AA
26
84
16
58
04
45
5A
49
09
59
44
89
86
59
16
5A
A4
A6
29
46
46
06
A9
56
99
A4
19
99
28
06
A9
64
54
66
59
19
46
80
98
24
A9
A9
88
59
9A
14
99
8A
99
54
49
69
09
12
46
08
55
94
29
A6
02
15
54
29
59
46
46
66
59
99
19
56
98
46
22
A8
59
16
06
0A
55
A6
A9
28
06
99
25
26
69
64
16
84
55
29
09
61
A8
26
46
AA
86
96
55
56
96
58
A6
26
99
99
29
A9
56
96
AA
A9
56
A9
89
46
16
A9
24
49
99
99
98
44
8A
16
49
98
95
19
94
98
48
18
16
89
20
46
88
11
A4
A1
88
56
A9
89
42
56
18
98
54
26
89
09
46
29
AA
16
64
06
29
29
A5
29
86
69
46
99
96
62
29
88
09
06
8A
89
05
04
44
8A
09
29
56
99
8A
49
58
6A
65
56
56
61
A9
84
46
16
55
48
A9
45
06
85
05
A9
06
A8
06
16
44
06
A0
02
06
96
02
54
44
90
26
A9
62
02
12
92
04
29
81
12
00
29
56
16
0A
11
81
AA
6A
10
98
15
89
48
41
A6
16
8A
A5
A4
2A
15
12
26
15
88
40
08
66
16
99
06
12
62
09
21
86
11
50
60
21
01
96
20
44
00
46
10
91
21
20
2A
64
06
21
29
51
10
16
62
29
16
69
19
A9
09
94
59
59
52
55
A2
9A
89
89
96
56
16
56
49
2A
AA
99
A9
A9
2A
AA
A6
59
A8
99
99
99
59
29
A0
86
49
20
61
51
46
8A
56
85
A5
A6
29
29
45
84
A9
A9
56
49
49
29
81
56
62
09
89
A9
09
46
A9
86
04
66
69
29
16
69
09
14
89
22
69
89
90
50
A9
99
68
84
09
A9
08
A6
A1
A6
6A
56
89
A9
89
29
56
19
16
66
29
09
29
45
99
19
A9
66
29
89
46
56
26
06
15
86
14
60
99
9A
1A
46
24
4A
69
52
96
21
95
A4
66
19
59
29
49
00
9A
05
14
28
88
5A
6A
AA
08
2A
15
45
29
10
26
45
54
09
49
2A
29
29
66
06
05
09
21
18
80
82
20
2A
96
09
45
54
66
88
61
92
45
91
02
59
2A
89
18
26
19
88
A8
66
64
29
56
AA
09
65
06
55
5A
06
16
2A
A9
2A
5A
6A
56
56
06
16
66
69
65
64
66
51
45
99
98
59
19
AA
66
29
A8
99
0A
11
88
66
96
15
65
96
A5
06
25
69
66
56
21
58
89
A1
4A
96
AA
66
96
28
19
19
19
A6
94
96
56
16
56
46
16
A8
16
29
56
28
16
09
4A
A6
56
29
06
A8
16
69
AA
56
66
AA
5A
06
66
5A
66
62
AA
55
89
9A
66
89
69
96
19
59
08
16
56
68
94
A6
90
96
20
42
04
00
12
A4
60
06
11
20
28
00
09
05
18
21
84
86
A8
08
08
19
08
16
14
05
00
A5
1A
AA
58
12
05
15
19
05
A8
2A
1A
2A
65
46
65
1A
88
AA
96
46
60
48
49
60
60
20
82
61
14
65
04
52
89
04
60
1A
18
04
08
22
05
A4
08
69
89
66
12
14
88
64
4A
46
56
40
8A
96
0A
25
98
49
06
05
19
A4
2A
45
22
50
A4
05
5A
52
14
0A
44
01
A5
6A
09
55
20
A1
91
A4
12
55
0A
52
64
8A
80
90
25
24
09
A2
44
2A
11
20
25
96
65
42
92
81
02
85
51
AA
98
69
09
86
A4
0A
04
18
20
15
44
82
29
41
55
61
98
80
50
19
44
9A
42
46
66
90
8A
92
06
45
59
0A
42
9A
29
66
92
14
85
52
91
01
41
44
22
A8
54
5A
05
2A
A9
A8
05
28
6A
92
89
61
29
99
16
49
81
AA
91
82
12
A1
95
91
86
84
AA
9A
58
20
1A
A5
51
98
AA
A4
69
86
4A
A4
28
0A
06
88
24
4A
85
6A
A6
A9
92
89
90
88
4A
66
A9
18
24
9A
45
99
84
18
45
86
AA
10
89
60
95
25
06
20
2A
45
26
84
49
04
04
59
6A
15
2A
16
90
9A
64
22
6A
14
58
15
66
29
8A
96
55
49
5A
91
88
62
40
26
08
89
60
02
90
05
02
48
68
00
A8
48
06
85
88
09
A0
00
01
A4
00
20
01
40
A9
58
00
60
42
14
82
84
84
94
05
25
95
60
80
14
42
94
84
AA
26
09
06
29
91
99
91
89
20
44
44
82
88
01
81
51
A0
02
92
06
04
11
00
A6
01
40
68
89
40
15
10
10
58
86
AA
08
01
24
00
20
15
84
A0
22
12
40
14
95
40
A6
05
18
96
6A
21
06
41
98
88
09
06
60
2A
24
AA
52
58
81
9A
49
02
19
54
52
24
2A
42
52
48
11
A8
42
5A
81
82
26
90
25
1A
1A
A5
22
55
50
A2
56
01
64
02
59
80
02
09
80
99
48
8A
89
9A
9A
2A
A4
25
2A
86
18
94
26
8A
8A
59
6A
82
16
5A
92
62
55
15
02
24
A1
41
85
26
85
94
6A
04
49
82
19
6A
52
5A
14
52
14
91
6A
01
8A
64
0A
22
A8
55
81
44
10
08
20
14
15
05
15
90
48
8A
A0
08
44
86
10
80
51
69
28
90
15
61
00
18
2A
81
56
22
89
14
60
48
04
20
A4
41
A4
11
A4
00
01
8A
81
16
60
94
10
10
00
09
40
82
6A
86
12
20
84
84
45
48
48
81
29
04
41
08
84
00
6A
90
28
49
92
11
10
96
85
A1
89
2A
64
02
01
49
48
69
02
28
28
58
52
2A
81
06
24
A4
18
98
65
00
50
92
60
A1
A0
59
59
49
88
21
86
19
59
94
8A
68
25
19
16
1A
95
64
59
24
66
98
60
22
14
15
96
21
42
51
A4
10
01
98
45
00
84
81
11
AA
02
19
A6
A1
A2
AA
5A
15
A0
55
59
A8
A1
68
06
08
1A
0A
16
08
21
96
95
84
89
26
01
A6
49
A5
85
59
A1
48
68
59
2A
05
05
42
00
84
00
98
14
12
02
59
40
08
55
21
44
AA
14
05
29
21
22
02
1A
42
22
16
00
80
42
88
A0
25
90
69
58
26
51
2A
66
91
60
40
61
49
94
00
51
A2
40
01
28
00
4A
21
41
02
08
06
09
21
20
02
21
10
28
A9
21
18
18
40
58
14
00
49
01
00
01
01
80
82
91
06
02
2A
58
28
0A
01
62
42
88
58
20
05
82
08
92
98
00
29
1A
40
88
82
98
82
29
91
A8
A0
16
06
1A
28
40
50
88
86
50
00
46
80
40
2A
00
60
A8
04
22
09
40
24
21
90
21
A0
02
A9
84
AA
12
08
20
22
92
16
64
92
44
10
20
02
62
20
04
25
80
01
62
91
02
02
01
48
15
00
54
50
60
90
04
85
1A
18
82
20
00
A8
41
84
00
60
26
40
24
A0
28
48
42
09
28
09
02
20
10
00
00
00
00
00
08
40
00
00
0A
20
80
00
00
15
6A
00
A5
22
51
09
40
68
54
92
2A
2A
51
A4
01
29
68
24
05
6A
48
5A
24
A6
94
04
00
02
10
00
10
04
91
10
00
42
01
2A
20
10
00
48
20
10
00
00
08
15
42
90
18
40
44
42
00
68
AA
88
52
48
42
90
68
84
86
80
91
2A
88
84
68
22
58
89
90
08
40
A0
A1
84
25
92
A4
28
92
9A
64
94
A4
0A
48
2A
6A
91
22
18
69
24
51
48
89
25
62
1A
98
25
28
59
04
92
08
45
A8
51
65
99
08
59
56
91
58
6A
60
42
A4
44
18
60
A4
91
0A
95
69
12
08
49
65
58
45
9A
49
12
16
84
98
A8
2A
95
24
62
14
66
A6
AA
15
88
55
61
90
5A
A8
8A
00
62
15
99
66
6A
81
6A
A9
94
82
08
8A
12
44
51
64
55
01
82
88
69
49
64
12
54
86
09
94
99
49
18
48
51
98
A5
A6
50
2A
66
46
14
89
81
25
A1
14
66
42
42
1A
92
A5
61
48
62
A1
5A
94
14
42
41
AA
94
02
22
A5
58
55
61
10
65
28
96
06
50
11
91
05
98
66
05
64
25
11
04
49
26
91
08
A5
A9
80
00
5A
59
92
85
68
AA
65
45
96
08
45
10
80
12
00
22
11
11
65
22
82
10
12
2A
24
2A
28
00
81
21
00
A8
94
21
48
8A
18
64
9A
20
8A
94
95
88
52
11
42
25
29
58
A9
20
91
22
06
A5
8A
09
15
A2
92
10
81
16
28
1A
16
21
20
20
02
86
51
04
06
11
A6
45
02
1A
08
19
16
AA
9A
14
2A
A2
51
88
02
08
18
66
09
44
A9
61
02
45
82
92
24
90
48
A6
16
24
81
80
05
02
61
26
65
06
62
A5
55
45
0A
85
86
5A
96
2A
8A
09
49
08
65
18
A1
59
28
65
65
A4
98
60
1A
16
94
81
42
01
A8
80
18
28
91
58
25
A1
85
92
2A
A6
06
00
41
24
A2
29
45
42
A5
06
55
0A
8A
8A
42
05
8A
68
9A
15
85
5A
04
A5
52
29
64
98
91
28
11
46
19
55
15
5A
65
81
A1
0A
95
06
A8
86
64
68
80
85
04
02
40
1A
A1
80
98
60
94
10
21
49
56
A1
15
02
50
92
09
48
06
99
68
29
4A
88
9A
A0
1A
60
6A
94
22
54
01
84
42
0A
04
A4
82
81
62
1A
11
26
21
24
92
A2
19
92
98
24
A0
62
66
89
98
54
99
08
26
10
04
18
12
50
11
44
54
85
58
25
98
80
0A
1A
05
02
26
80
69
A1
51
80
09
21
18
69
84
48
02
02
06
10
20
96
20
24
11
06
61
86
A6
89
59
02
10
69
69
10
41
00
51
26
80
4A
A2
88
69
42
15
A2
25
19
01
55
66
09
A8
54
56
68
2A
6A
A5
10
46
56
42
44
42
28
0A
0A
04
62
A0
89
50
AA
0A
A9
68
A2
51
46
20
6A
98
20
29
28
58
61
45
94
19
20
61
48
00
16
2A
1A
01
2A
82
A4
6A
58
21
A9
92
14
5A
00
18
44
08
40
00
21
80
08
09
54
82
00
04
00
90
10
22
66
11
40
00
98
02
40
64
84
0A
28
6A
98
68
6A
44
5A
15
06
56
58
04
24
11
29
69
21
00
54
89
18
48
04
22
06
45
04
60
18
62
81
28
0A
84
84
A0
26
02
52
58
81
0A
44
0A
11
51
15
18
28
00
81
26
82
16
89
00
15
8A
14
5A
61
A5
24
46
54
88
00
85
12
51
A2
54
44
18
25
69
05
A9
84
18
15
A5
68
41
86
68
64
6A
85
66
49
95
91
98
02
80
A2
86
A8
96
21
2A
80
05
59
18
52
69
91
16
96
09
5A
44
86
09
91
66
12
52
44
24
11
02
55
45
18
58
41
AA
80
85
59
26
01
02
59
89
20
21
15
68
06
85
6A
6A
4A
56
62
00
44
00
12
49
62
14
54
55
A0
2A
95
A9
15
29
64
4A
98
49
29
8A
29
21
60
98
86
51
48
11
21
11
46
04
86
41
59
6A
41
69
48
84
59
91
62
66
55
04
AA
61
56
28
82
5A
A6
59
14
A9
A1
0A
49
56
69
A5
69
89
02
1A
9A
45
65
04
90
90
12
84
6A
46
18
A0
49
04
56
11
05
68
50
86
28
88
65
40
66
49
66
24
A6
96
82
86
84
69
18
52
09
99
64
12
16
A9
05
5A
56
A1
01
60
A5
00
08
01
42
01
2A
96
94
62
25
84
08
85
25
85
58
49
25
68
58
66
9A
A2
24
20
89
44
50
40
16
01
18
26
05
65
55
0A
46
50
0A
02
98
22
8A
18
01
02
22
56
44
65
58
45
5A
48
08
66
50
50
16
A9
51
0A
92
98
10
86
A6
50
90
00
02
61
62
82
98
10
11
95
11
05
04
98
48
41
90
21
14
00
85
50
05
20
12
05
49
A9
42
99
14
89
82
92
A8
AA
28
9A
8A
15
05
16
91
48
68
81
56
AA
9A
14
98
95
24
5A
52
08
24
A6
82
A0
01
69
98
41
86
51
15
58
94
28
16
21
9A
22
09
41
64
69
99
55
91
61
11
A9
A9
50
02
1A
64
45
A5
82
69
50
A6
A0
95
96
05
44
58
26
65
A6
96
88
99
69
6A
96
05
6A
49
8A
A1
55
A9
2A
22
AA
A9
84
64
90
10
45
19
2A
54
41
AA
20
0A
24
A2
98
28
26
10
41
A2
22
46
09
85
82
A0
26
04
04
8A
18
A0
96
8A
21
65
11
00
42
80
81
85
02
84
66
05
96
49
96
A8
86
86
00
20
05
0A
9A
68
06
A5
41
59
62
88
95
00
2A
02
96
91
12
42
01
5A
81
41
86
40
00
20
86
50
06
51
A5
0A
56
60
68
98
44
29
86
42
48
14
16
58
A2
42
02
68
20
59
24
A0
59
80
6A
64
24
A1
89
68
A8
24
A0
5A
6A
81
88
51
16
11
58
68
15
96
65
91
88
16
2A
A4
95
90
20
A8
08
68
0A
84
A5
88
05
19
14
60
4A
0A
A0
80
40
10
98
12
A8
02
89
8A
82
40
26
09
60
16
61
05
A8
80
40
46
51
66
01
41
4A
80
11
29
05
6A
26
94
55
84
94
6A
8A
69
81
8A
81
00
10
82
A1
90
49
44
20
89
66
A2
15
60
A2
88
A6
9A
20
5A
14
8A
05
08
A2
50
20
49
22
80
24
11
01
19
89
6A
A9
45
09
42
98
48
98
A8
02
8A
0A
61
82
80
42
05
19
45
A0
18
1A
05
60
84
90
66
65
99
11
8A
94
25
94
09
99
16
A4
1A
10
0A
91
49
4A
00
65
10
45
99
A2
50
26
18
80
01
AA
42
59
65
2A
02
65
50
21
40
45
98
45
00
04
68
61
10
14
15
15
24
25
0A
09
04
04
40
02
80
91
42
A4
51
98
0A
01
04
41
04
2A
A6
AA
86
06
96
02
AA
89
18
55
10
21
20
8A
20
61
01
8A
81
10
11
00
14
06
18
10
06
01
42
11
64
18
86
A2
41
19
08
10
A6
20
50
10
11
10
10
02
84
59
44
26
00
60
96
26
00
82
A9
00
40
00
42
00
80
42
08
08
19
84
84
08
01
00
10
18
22
02
01
06
24
98
42
A4
02
01
20
66
48
A1
06
00
51
54
44
88
26
59
0A
04
84
85
91
10
29
65
06
24
40
20
40
08
10
02
48
22
00
09
01
09
48
00
84
60
40
42
00
09
28
00
08
40
01
01
80
06
81
4A
06
08
44
10
84
94
A9
84
68
28
A4
28
25
58
86
90
96
49
25
56
61
29
A0
02
89
81
4A
16
81
02
25
A0
48
98
94
96
58
A5
66
96
49
58
66
26
51
81
6A
82
61
56
91
8A
85
A9
05
A8
88
85
4A
98
45
29
A1
69
20
08
25
A5
A9
11
5A
A8
90
00
59
05
A6
56
11
A6
60
92
20
2A
66
80
86
A5
95
A0
16
86
49
65
28
11
A0
49
A9
11
54
AA
88
45
04
00
28
8A
4A
4A
91
80
28
4A
A5
09
24
A8
20
28
AA
08
8A
98
59
86
64
86
28
92
59
52
11
91
02
42
A9
11
21
14
6A
4A
69
12
A5
60
94
A0
25
61
2A
4A
5A
61
00
A2
99
20
85
18
48
98
01
01
01
15
06
2A
95
8A
52
50
98
25
14
99
65
AA
2A
4A
40
54
02
18
41
55
60
51
0A
66
69
A6
1A
50
51
A1
50
5A
55
61
86
21
9A
51
20
10
A5
52
00
60
44
45
91
A1
00
48
00
01
25
25
40
02
82
89
10
4A
14
88
00
4A
40
65
18
A8
58
20
42
01
09
64
62
12
40
A8
89
64
09
64
58
59
4A
56
86
AA
51
A5
68
19
42
A5
90
A0
15
04
11
01
A9
80
04
12
69
04
28
0A
04
85
21
5A
64
A5
24
25
A4
85
14
91
28
44
08
00
A5
A4
52
A5
52
46
99
6A
A9
69
59
14
28
05
96
08
52
56
1A
85
8A
89
2A
5A
99
95
59
16
AA
16
59
91
AA
44
56
99
6A
96
4A
21
99
4A
89
A4
A9
A1
55
85
49
A6
25
42
A1
99
55
02
41
24
16
82
25
8A
1A
08
11
04
56
89
86
98
80
45
66
96
84
06
86
91
10
41
16
82
AA
15
5A
AA
65
61
69
56
84
50
42
5A
56
29
60
48
40
52
96
A2
64
28
A6
62
AA
8A
6A
80
91
05
42
5A
A0
20
A5
A8
55
A5
82
A2
6A
25
40
A1
54
98
44
10
55
81
05
52
85
21
14
48
28
50
14
1A
91
62
A8
20
14
04
04
96
08
09
06
02
59
94
19
16
45
68
9A
10
98
A9
AA
00
A4
98
61
98
4A
56
12
A2
60
A9
04
8A
55
60
84
08
81
50
50
28
04
91
A4
08
06
95
84
00
19
42
19
58
1A
51
05
40
81
10
48
24
19
91
65
86
95
20
99
41
00
56
09
40
11
50
62
02
08
42
99
96
00
66
42
50
59
14
51
60
88
92
62
99
49
84
96
28
68
85
01
55
89
55
91
20
89
1A
95
9A
58
95
A1
01
24
59
A1
28
26
20
08
A0
64
91
A2
62
92
68
A2
40
94
11
00
A9
21
81
98
A9
99
A5
66
68
24
92
59
59
41
8A
90
24
82
28
6A
08
99
48
54
81
64
A5
84
85
60
09
02
40
95
02
14
91
A2
28
50
96
06
02
00
02
8A
95
84
14
40
24
01
16
A4
81
41
69
95
14
01
A6
09
14
08
28
28
18
14
06
59
00
A6
99
48
94
04
11
28
69
4A
68
20
05
94
50
18
15
81
08
02
00
01
82
99
11
18
05
11
A0
84
20
64
01
21
9A
21
48
26
25
05
A4
1A
25
A2
41
01
12
05
61
96
18
81
A2
69
82
21
84
24
48
65
A1
16
15
99
29
82
18
14
08
99
9A
A9
28
95
68
62
14
41
10
11
62
6A
2A
95
58
68
42
26
56
25
91
09
A5
6A
52
58
96
09
91
9A
42
40
9A
08
A1
92
16
AA
46
94
2A
60
91
40
1A
A9
A1
A8
41
22
A6
5A
A9
25
95
29
65
55
00
59
62
28
9A
22
A4
15
50
51
19
A9
9A
4A
56
56
AA
41
6A
15
51
A0
19
42
16
40
A2
62
12
86
68
86
68
02
A6
AA
46
96
0A
94
49
09
49
22
48
58
22
66
81
89
9A
41
61
98
25
58
28
95
42
11
62
62
A1
0A
66
80
41
66
16
90
56
68
00
54
64
66
A6
99
59
9A
99
55
A1
99
44
04
62
94
64
15
AA
91
90
99
05
A5
99
22
4A
48
A9
51
A0
AA
58
50
01
A9
A9
96
96
91
54
6A
65
80
89
69
16
91
1A
26
60
81
14
24
52
86
26
04
21
61
41
50
56
A5
69
11
20
08
92
09
A1
81
05
25
05
45
89
00
20
14
18
81
00
10
12
04
16
2A
64
11
20
01
90
56
20
56
A9
60
29
A0
A5
82
14
80
A9
06
69
8A
24
12
46
50
28
99
28
4A
16
42
14
64
A5
02
11
64
0A
88
25
95
50
52
92
A1
15
22
50
01
54
A2
A8
26
2A
16
0A
A9
95
55
A2
58
98
56
12
01
59
49
0A
19
59
62
25
89
00
09
84
84
95
AA
16
59
A9
04
92
29
02
8A
51
29
46
A9
52
55
66
00
42
A4
95
4A
40
04
92
44
10
28
11
A4
52
24
22
90
26
6A
96
24
9A
86
80
28
21
98
85
02
A5
A8
04
25
65
45
94
A2
00
48
00
66
58
2A
86
A9
65
09
22
86
10
58
98
0A
21
56
61
29
A1
52
52
21
22
68
21
01
16
2A
69
25
16
24
45
12
62
9A
94
56
29
00
00
06
41
41
16
81
14
44
84
55
16
19
54
40
12
12
96
0A
6A
20
1A
10
41
4A
59
52
88
A1
96
14
52
06
21
16
16
81
A1
29
61
08
85
A6
29
54
AA
22
A8
00
06
00
40
A5
2A
05
21
18
21
05
A2
11
29
16
A0
26
10
15
05
09
61
45
92
A2
44
20
95
89
A8
18
11
29
11
00
52
58
40
2A
20
A9
08
11
54
40
01
51
48
12
A0
AA
58
44
1A
64
01
58
45
06
6A
28
59
51
25
A9
80
60
59
25
86
1A
A1
21
86
09
50
25
50
42
96
A2
9A
88
64
68
06
14
81
11
90
12
56
1A
06
08
11
5A
46
60
54
A6
8A
46
64
66
00
56
50
58
A5
24
58
21
62
55
65
84
5A
84
64
04
24
96
85
89
12
14
A4
20
52
0A
15
81
A5
16
A0
26
20
02
20
48
20
08
06
16
81
22
01
51
4A
10
5A
64
02
19
14
80
80
91
42
24
14
94
A6
05
25
09
92
A2
96
21
29
50
20
4A
84
A1
90
91
11
94
18
51
95
02
89
21
A5
50
10
68
90
09
A9
42
6A
02
80
9A
46
95
8A
50
04
A1
84
12
29
06
91
20
40
40
04
18
16
04
18
04
16
20
69
29
45
60
10
82
A1
90
29
20
10
62
89
28
1A
18
06
82
5A
88
62
00
00
2A
41
26
60
A1
44
41
10
84
AA
10
90
24
68
61
58
41
50
11
29
09
10
00
15
A1
26
80
A5
52
51
46
44
18
85
91
21
81
19
65
12
21
1A
29
20
25
01
00
54
12
44
05
22
42
21
56
21
05
06
1A
95
19
22
92
04
22
06
54
90
15
80
10
00
14
04
04
00
00
44
04
00
00
28
00
24
24
00
00
02
86
8A
1A
00
40
18
19
40
49
18
58
46
42
64
99
18
68
A6
19
26
A4
24
59
58
56
52
22
48
19
18
09
08
02
08
02
00
0A
00
48
00
00
24
29
02
01
20
04
20
28
82
68
90
40
20
84
24
56
69
04
6A
49
02
A8
08
52
16
66
5A
21
69
5A
20
42
A4
19
24
10
A6
00
A9
54
15
12
21
54
6A
84
A0
82
A9
98
2A
94
2A
94
96
88
8A
28
A4
86
12
69
62
54
9A
15
58
65
15
58
08
89
A2
92
96
2A
56
19
69
59
92
92
94
AA
20
5A
5A
06
08
A9
86
56
21
41
98
A0
28
12
88
AA
41
92
A0
96
16
A9
56
12
29
91
54
69
14
09
19
21
8A
5A
26
61
1A
18
04
91
98
52
1A
42
A9
22
56
95
85
16
60
AA
56
28
69
46
82
88
14
12
45
20
18
A2
44
51
61
1A
56
59
69
69
40
69
12
85
88
95
54
69
09
0A
26
16
28
89
15
51
68
1A
06
82
68
21
21
06
62
56
95
05
59
A8
98
09
81
A9
44
A1
54
85
11
41
69
89
18
48
64
54
92
A6
92
64
50
51
16
90
41
94
92
14
96
A5
89
5A
92
11
26
89
AA
14
08
22
64
26
51
60
18
11
50
1A
06
05
12
42
54
94
10
20
18
20
81
58
AA
65
02
06
