42
01
80
9A
06
88
A6
AA
44
60
A1
86
2A
68
20
44
44
6A
60
52
56
99
80
19
24
84
95
62
44
80
A4
44
62
04
09
A8
46
86
66
95
A6
0A
64
28
24
95
51
6A
0A
84
68
95
85
82
94
08
A1
6A
6A
89
65
66
15
28
99
81
50
A9
61
21
22
92
95
42
5A
A9
18
5A
44
62
8A
22
10
84
49
95
45
55
A5
89
A8
84
05
85
05
69
55
90
A8
65
86
21
99
92
95
2A
44
01
5A
01
0A
1A
16
1A
5A
A5
A5
25
60
60
8A
A5
0A
29
A6
61
55
45
90
45
0A
6A
99
46
16
69
A6
A2
A8
29
AA
5A
90
99
A2
98
61
21
81
5A
65
52
89
5A
A2
64
65
44
A6
55
80
62
A1
95
59
42
94
42
25
69
24
15
96
52
80
98
15
58
28
55
8A
85
62
54
A8
08
49
28
54
24
AA
5A
4A
89
A0
84
99
42
10
A8
40
A0
49
A1
29
54
82
59
48
04
48
90
82
28
94
52
1A
10
50
21
A2
14
50
10
28
40
28
02
4A
62
4A
52
06
20
66
06
89
06
20
49
98
00
99
6A
06
6A
42
21
12
A8
42
40
25
82
66
28
20
01
6A
69
50
A0
85
01
2A
14
11
04
81
41
10
26
80
89
48
21
29
92
42
08
62
55
62
18
60
A4
06
66
15
68
A4
51
58
46
98
55
05
25
A0
04
A8
12
50
A8
50
60
26
85
45
56
4A
25
A8
81
02
0A
42
55
A0
A6
A5
0A
6A
A2
14
88
2A
2A
90
42
69
A9
24
11
00
94
10
99
6A
16
61
6A
80
54
01
95
19
91
91
2A
12
40
A2
19
54
02
A9
61
AA
A9
96
15
59
20
2A
18
99
82
01
92
95
95
A6
4A
6A
56
A4
6A
66
60
9A
40
94
4A
A6
65
A0
10
46
96
50
58
92
05
69
45
84
89
15
06
11
00
54
9A
90
44
05
59
46
40
89
10
90
40
89
96
88
81
A0
48
08
15
90
09
A1
A5
16
58
89
44
50
19
95
55
00
09
84
A8
51
22
85
10
40
49
69
A4
80
5A
96
80
20
10
21
62
52
8A
22
22
04
80
00
61
50
80
20
20
85
6A
0A
48
60
94
A9
91
59
94
06
48
66
9A
19
62
85
09
95
A0
09
82
42
61
81
81
98
48
00
54
68
80
96
95
52
84
64
69
64
62
02
A4
8A
25
89
12
0A
28
50
52
89
82
98
A9
58
90
84
46
18
86
49
4A
52
22
18
10
21
10
40
81
25
54
40
40
28
06
04
04
06
A2
84
06
40
85
92
96
01
04
04
29
AA
24
04
9A
95
A6
94
48
28
84
42
65
1A
84
A1
92
68
A9
04
68
80
A0
04
89
99
A0
50
04
41
A9
22
91
51
42
20
24
05
61
A4
50
21
04
10
09
89
10
90
15
20
94
18
21
05
85
64
8A
14
15
98
14
4A
61
12
A4
50
90
60
61
02
26
91
26
48
A2
25
85
61
00
10
09
29
A1
50
52
40
22
A4
09
42
29
A0
60
56
05
80
06
14
28
80
18
80
09
26
41
15
50
00
12
81
69
21
81
02
20
81
A0
A1
99
50
84
08
A5
A1
90
88
6A
58
88
A2
A0
10
4A
A0
22
42
A5
00
00
68
04
18
AA
0A
04
48
46
A8
40
A0
04
84
02
10
09
44
51
00
45
80
25
92
4A
20
15
49
05
A0
08
8A
22
91
10
29
52
52
18
82
84
58
80
60
A2
A0
19
28
A8
8A
0A
21
84
A1
04
00
81
60
22
24
48
94
82
21
9A
48
65
84
25
49
25
45
61
89
AA
54
20
01
54
54
00
08
50
28
08
84
26
81
00
40
81
00
04
08
01
00
80
04
61
16
84
24
26
4A
04
41
99
A4
45
A9
8A
16
09
18
09
56
21
A9
28
44
24
04
04
01
0A
00
41
50
40
40
00
09
14
00
40
40
02
18
42
40
09
04
04
42
02
84
18
01
00
00
A2
04
5A
04
88
50
A0
65
24
40
A0
54
09
01
11
25
48
05
98
A5
48
14
8A
A5
40
00
A9
18
59
4A
22
11
56
A5
44
42
A9
9A
66
59
52
AA
84
94
8A
56
6A
12
A5
88
9A
62
5A
64
64
40
55
91
61
52
46
9A
AA
55
64
95
98
20
6A
81
1A
50
29
A8
62
65
52
A5
11
A2
A2
86
15
A4
89
89
9A
84
55
06
19
55
A9
96
25
98
55
94
A1
59
60
66
29
AA
04
A1
91
81
89
19
84
42
01
46
00
66
A1
A5
A9
00
19
15
24
19
A9
02
9A
19
06
85
41
2A
A1
A4
69
10
51
22
50
14
94
11
AA
56
02
09
4A
2A
51
94
AA
48
16
64
95
65
9A
6A
0A
92
96
26
A2
28
05
51
91
89
00
26
16
82
19
A6
10
62
44
28
42
55
46
10
91
92
01
50
29
95
A2
00
91
50
52
22
61
45
59
92
81
59
41
95
95
88
96
26
19
88
99
10
46
4A
88
82
00
94
89
41
46
59
02
8A
20
14
15
19
11
A0
89
84
88
06
68
40
A2
10
12
66
69
8A
22
90
12
48
A5
4A
A8
A5
0A
42
04
58
82
5A
44
62
68
A2
59
08
2A
62
02
84
90
00
08
90
80
64
61
52
84
02
40
02
44
81
90
90
21
51
20
05
62
20
94
48
96
69
02
94
92
95
90
51
52
00
58
16
62
2A
AA
0A
56
00
82
91
42
42
6A
80
90
94
88
64
20
40
8A
48
42
64
94
85
92
64
69
9A
A5
14
66
46
A9
40
2A
2A
66
04
55
A4
29
69
01
42
92
51
2A
68
25
91
6A
AA
99
AA
65
29
60
95
14
6A
81
60
A9
40
2A
41
44
14
58
21
89
6A
65
6A
52
90
95
65
AA
45
88
88
90
0A
A9
64
AA
12
19
22
AA
58
6A
15
92
89
25
56
44
A4
56
08
5A
6A
25
69
52
A1
94
90
81
28
91
9A
A2
69
16
5A
11
98
A5
42
11
02
A1
84
40
94
64
0A
20
46
46
14
A6
1A
04
8A
14
41
51
50
00
1A
86
4A
84
90
65
99
29
25
49
48
40
01
A9
92
18
12
50
86
40
08
49
A0
1A
55
99
20
A4
41
98
A2
42
18
01
26
00
06
60
55
61
AA
64
A4
40
04
68
9A
18
4A
66
14
25
41
50
00
50
96
15
94
94
20
25
94
99
A0
05
20
A1
22
A2
29
0A
60
20
40
89
08
62
26
12
09
68
96
10
5A
25
41
66
AA
45
1A
94
6A
26
56
20
A6
62
59
48
82
20
60
69
0A
0A
A8
A4
98
A1
84
19
50
40
28
90
25
56
A8
41
A2
45
20
05
84
50
28
1A
64
6A
99
50
AA
45
89
42
06
22
44
45
62
4A
01
52
68
98
24
94
14
22
11
60
10
41
58
9A
26
4A
45
82
98
00
91
25
28
00
09
01
55
68
02
20
41
18
18
08
28
44
20
15
08
1A
18
44
11
08
6A
81
50
22
02
22
00
55
11
48
92
90
AA
14
42
25
1A
00
44
05
65
24
04
05
14
65
9A
A4
84
90
59
86
84
20
0A
64
00
12
02
00
49
14
2A
02
55
28
45
40
54
90
99
1A
81
26
24
15
81
A6
92
44
1A
85
99
12
98
45
06
45
05
01
01
95
56
48
22
40
5A
65
46
04
88
49
6A
45
41
69
19
28
6A
52
04
64
A4
A2
12
64
62
92
22
AA
59
59
55
69
49
A9
80
10
50
A9
A8
A6
01
82
09
A4
28
A5
51
09
9A
21
04
06
A2
9A
19
95
45
61
48
90
04
40
44
25
12
55
66
69
21
A9
65
16
14
60
A6
84
AA
14
14
02
65
09
26
96
A6
24
95
82
A1
64
80
0A
02
22
5A
11
A2
55
59
65
18
A2
61
95
A6
02
AA
15
95
99
49
61
A2
92
45
AA
66
1A
98
99
69
96
95
49
44
54
A6
65
24
8A
86
51
55
50
A2
49
84
82
60
49
52
20
9A
61
05
88
52
A6
AA
05
61
5A
12
14
25
01
59
96
85
44
62
99
46
50
A4
96
61
29
51
59
21
9A
4A
81
99
45
AA
A4
12
86
96
69
08
61
59
06
21
82
1A
01
22
01
11
82
9A
92
98
00
40
15
21
10
58
18
12
49
86
8A
00
49
05
94
08
94
25
25
18
01
40
18
40
45
51
50
12
06
98
44
02
98
08
A2
9A
40
A2
14
54
25
60
A5
28
80
2A
69
92
08
48
01
94
20
55
48
61
A1
90
00
10
98
40
02
A2
58
15
20
A0
1A
59
5A
88
18
01
44
28
08
11
00
0A
82
4A
18
0A
42
54
64
52
6A
16
52
A8
89
0A
9A
68
56
04
A0
69
95
52
8A
A5
66
01
94
2A
A9
16
55
88
5A
98
85
A5
56
09
8A
5A
80
58
69
25
66
69
92
A6
66
2A
96
86
02
24
48
61
18
A0
96
18
66
59
16
61
61
26
A4
12
01
24
20
50
01
41
96
15
51
92
19
AA
11
6A
95
4A
2A
86
98
92
50
64
91
0A
41
58
19
26
A5
2A
55
89
15
AA
88
89
22
18
11
24
18
24
44
00
98
05
19
90
90
2A
42
11
65
51
49
64
14
A2
86
14
18
16
50
2A
86
52
9A
82
24
99
91
8A
A4
62
88
10
68
59
96
8A
90
65
16
8A
96
00
04
2A
89
49
44
15
84
AA
01
A4
19
9A
25
96
54
26
85
10
68
64
22
04
56
64
54
49
A1
80
56
60
11
66
10
94
22
91
A4
64
A8
56
04
49
12
54
25
20
41
A1
1A
5A
A0
5A
60
00
A0
19
61
68
98
11
22
44
08
02
68
2A
19
85
A8
59
81
58
81
02
65
A9
69
46
55
12
25
88
A8
A4
18
69
68
51
14
11
4A
50
A8
80
8A
40
04
A6
42
01
10
A0
A0
2A
44
05
A4
20
0A
09
00
51
58
82
80
61
48
21
81
20
64
64
84
82
45
00
84
69
4A
69
84
90
42
56
99
96
85
66
66
65
60
04
08
11
00
92
61
69
18
A8
05
21
04
02
01
01
81
A2
A0
4A
44
85
62
45
25
15
60
18
A6
94
46
58
14
4A
58
A0
46
58
00
80
94
48
41
81
94
64
11
12
06
94
61
41
42
21
10
6A
26
50
6A
62
44
55
51
5A
58
A1
88
56
41
6A
AA
10
15
2A
11
40
A4
01
50
41
16
9A
50
A1
42
08
10
09
14
08
A4
98
24
54
82
A9
98
08
80
18
82
80
40
82
91
A1
00
91
81
84
98
41
21
62
11
01
21
42
11
58
40
10
88
44
A0
12
40
80
44
29
59
49
51
08
11
9A
12
11
25
80
14
48
04
86
00
02
52
88
50
90
01
49
14
42
20
18
82
11
16
80
84
A4
58
84
08
A0
94
A2
24
20
82
21
04
86
41
AA
18
A1
20
80
01
20
12
62
60
92
42
12
04
42
06
00
60
00
60
01
00
49
00
00
10
12
00
88
00
00
02
80
90
02
80
90
10
05
50
A9
12
4A
92
15
52
A9
81
29
26
94
69
60
29
96
51
41
69
A4
82
92
80
26
89
20
62
84
22
00
81
60
82
40
80
40
02
00
40
21
0A
60
04
00
82
80
80
00
40
56
98
05
A5
94
29
21
21
12
82
80
12
A4
A5
94
80
96
25
14
44
15
61
6A
A9
48
9A
46
50
84
58
26
60
5A
A9
04
5A
A4
48
84
5A
68
02
99
96
6A
08
16
A9
AA
25
26
12
84
89
5A
50
49
41
12
A9
55
5A
A6
49
94
69
A8
95
09
06
82
A0
18
50
A4
24
4A
20
86
9A
A5
05
46
5A
51
12
65
64
69
5A
22
95
84
55
6A
AA
96
9A
22
64
95
99
52
06
4A
49
80
82
9A
96
44
A6
46
69
56
49
8A
91
02
9A
2A
98
45
24
10
14
19
4A
A9
59
54
54
28
59
26
A0
99
15
65
94
88
A6
A4
91
A5
62
A6
56
98
69
26
41
9A
62
99
52
66
55
60
AA
0A
12
55
52
29
66
16
60
50
59
21
66
0A
50
91
A6
24
9A
82
69
91
21
42
95
64
05
1A
AA
0A
68
11
AA
05
06
21
14
42
10
66
12
65
51
64
AA
5A
18
26
55
A2
16
8A
26
69
10
58
A4
25
60
11
00
A4
21
92
0A
05
88
82
24
51
10
58
84
20
59
55
88
25
59
25
A0
9A
56
21
A4
1A
28
81
48
19
69
A1
6A
26
A2
49
46
04
85
48
49
66
A2
4A
A0
12
26
A9
0A
65
41
60
10
45
94
96
64
52
06
00
A2
09
51
92
22
90
98
08
25
82
86
58
84
A8
25
61
22
14
59
41
89
59
16
51
59
56
AA
21
95
45
A0
54
54
26
22
96
A2
21
59
99
55
69
24
51
95
22
82
0A
59
69
56
66
46
61
2A
A1
41
02
42
A8
19
8A
46
68
42
80
25
21
A8
5A
8A
81
91
49
59
28
26
A9
15
2A
01
11
06
58
AA
A8
A9
59
58
55
98
1A
A2
80
51
59
65
64
99
05
82
5A
62
28
12
99
60
29
A1
A9
54
A4
41
55
05
16
5A
90
04
06
A5
66
A9
44
A5
01
18
10
52
8A
58
26
58
A1
02
66
20
61
5A
82
01
86
16
11
96
A8
85
58
84
44
58
48
61
59
86
81
64
66
A0
4A
60
90
A8
55
82
55
46
4A
05
25
05
46
82
A1
A0
65
41
26
A8
00
40
66
42
60
04
81
A1
82
20
51
21
98
64
01
61
91
22
51
06
56
8A
88
91
10
60
82
A1
40
01
06
84
66
06
A0
41
28
A4
58
05
55
89
AA
19
22
88
68
90
9A
45
09
1A
14
01
9A
8A
A4
68
62
A6
29
90
41
18
4A
49
80
A9
6A
61
96
69
99
26
A1
A9
A9
20
64
26
19
09
54
46
49
A8
00
15
59
40
56
AA
5A
1A
4A
2A
12
AA
08
04
44
A5
68
10
84
A9
58
85
62
91
80
09
20
85
15
61
99
29
16
A0
8A
62
54
90
41
50
86
09
68
51
65
55
26
49
09
A4
01
56
25
81
88
00
44
50
40
A9
08
40
80
50
90
60
20
00
10
AA
41
A2
24
25
45
85
25
40
11
06
16
80
61
26
85
81
48
98
62
45
01
82
21
06
94
A8
50
8A
50
2A
81
12
91
55
26
44
24
66
60
41
8A
04
20
41
00
28
95
24
60
02
01
A0
00
00
40
A2
09
42
29
00
A0
10
85
0A
90
6A
02
0A
82
28
A1
62
0A
55
62
62
90
01
A8
54
01
41
4A
42
05
61
14
94
82
52
2A
29
61
2A
14
12
01
98
A0
69
68
28
64
0A
51
02
51
A4
28
56
20
04
15
26
58
19
A9
A1
66
04
44
28
96
6A
66
51
58
15
66
08
88
09
62
22
04
51
55
45
26
29
22
1A
A9
1A
A4
89
21
85
24
00
60
4A
55
8A
44
54
42
95
59
46
44
29
22
96
8A
16
A1
16
A1
A9
69
06
8A
9A
50
59
02
A2
14
9A
84
A0
56
90
56
A9
A5
AA
9A
14
09
A0
45
42
46
85
44
20
09
2A
55
46
55
65
56
44
8A
05
21
2A
82
81
8A
99
44
5A
96
55
48
54
11
A4
46
11
26
68
10
92
96
55
15
AA
45
86
28
04
55
A6
00
66
09
A5
54
5A
91
A9
A6
29
20
29
52
15
58
66
A5
69
A1
89
A6
14
02
65
28
96
58
5A
12
09
AA
25
1A
29
A1
54
42
40
58
81
94
49
00
50
16
01
06
08
14
90
62
10
85
1A
60
28
18
41
82
A1
12
A4
45
85
19
14
0A
A5
18
00
05
15
91
15
41
64
0A
10
28
90
01
28
56
15
52
A5
A1
A8
81
A8
62
12
28
A1
51
A8
05
2A
15
46
51
02
81
22
92
00
54
16
42
84
22
41
29
48
2A
05
25
50
6A
04
21
85
81
01
49
90
22
20
11
05
6A
55
82
6A
9A
19
12
25
09
98
65
80
40
86
69
55
95
08
69
95
9A
8A
04
90
48
56
95
05
59
95
25
54
65
59
14
12
05
A1
AA
99
12
50
68
56
52
18
4A
4A
12
6A
11
62
A1
45
6A
92
06
5A
24
0A
68
99
01
10
52
A6
60
4A
25
24
50
59
A6
21
A5
5A
A6
AA
9A
81
A6
26
06
4A
AA
86
16
19
29
19
85
6A
96
28
84
A0
A6
A5
59
54
A0
02
82
A0
49
02
59
89
A0
48
61
A6
54
40
44
88
15
A5
84
80
65
24
18
22
86
48
52
A8
48
58
00
82
60
48
04
A6
50
05
08
45
64
58
62
80
06
A5
25
51
18
64
65
10
52
88
04
A0
84
90
1A
20
58
AA
54
A0
61
01
A4
A8
54
26
A8
92
66
50
14
6A
54
04
24
44
2A
26
98
00
9A
5A
65
6A
48
44
25
4A
21
02
21
A6
18
62
1A
A9
61
44
01
54
1A
08
50
05
84
54
19
4A
10
0A
49
20
15
80
49
16
24
65
59
4A
99
94
68
09
68
91
82
26
25
9A
91
46
AA
05
65
61
16
01
10
06
09
50
18
1A
1A
A0
06
12
11
06
91
10
95
05
09
56
18
90
48
14
81
59
54
26
11
15
A8
08
99
82
4A
A6
21
A1
05
98
18
60
09
5A
66
A5
A8
25
4A
20
A2
61
42
2A
89
00
05
02
86
41
59
82
88
60
86
11
84
99
A5
02
44
08
01
24
59
52
46
41
04
26
50
4A
06
12
19
04
82
06
28
26
92
20
41
08
21
81
04
85
46
08
05
02
22
40
5A
11
52
26
18
56
49
98
A2
40
90
00
68
A1
96
84
20
04
00
50
66
18
52
02
08
49
42
91
59
44
16
60
92
15
48
90
00
20
92
61
4A
52
A1
01
A9
54
A4
12
20
01
28
25
08
10
26
02
8A
21
80
01
10
20
22
85
40
0A
01
00
18
14
89
24
A0
18
94
20
48
44
15
24
81
50
90
21
AA
A6
00
45
56
0A
10
04
52
21
12
14
64
24
84
06
21
A6
20
92
95
08
94
06
90
20
25
98
00
66
06
21
14
88
82
90
02
00
22
54
10
40
2A
54
48
08
50
51
15
11
20
20
84
20
22
00
81
10
10
80
00
11
60
42
00
00
80
12
08
61
96
22
00
80
46
60
66
04
02
21
A5
91
00
95
2A
21
09
5A
66
8A
0A
A9
26
1A
88
A1
56
24
20
50
01
00
41
04
80
01
14
42
10
84
01
10
01
04
90
10
00
08
A0
00
81
44
12
28
41
10
20
91
20
92
80
60
10
A0
84
21
19
95
52
5A
58
18
09
5A
56
84
A4
18
22
18
18
69
20
09
68
56
64
9A
40
89
15
42
61
A1
5A
80
46
0A
A2
5A
25
28
24
A5
88
48
86
16
A5
68
55
4A
09
48
56
21
A5
1A
96
A5
0A
51
69
9A
91
45
A2
56
00
99
0A
12
89
24
14
19
28
91
56
64
A5
1A
41
04
25
16
A2
6A
64
9A
28
68
95
54
29
60
4A
05
54
00
81
98
99
26
52
49
66
56
82
95
58
59
50
56
2A
4A
A5
20
69
06
A6
11
A5
22
11
A5
21
48
61
0A
49
84
85
85
09
06
08
54
92
18
22
69
6A
A2
84
21
20
99
51
00
18
20
2A
A5
99
69
41
A9
6A
A9
19
24
2A
14
AA
29
51
48
5A
26
A6
A0
64
15
9A
09
9A
A4
61
8A
29
02
19
14
25
61
AA
50
08
22
A4
98
AA
28
4A
45
00
98
68
5A
25
55
11
A6
5A
85
91
08
A9
18
20
89
22
4A
08
A4
00
08
91
48
20
50
20
22
01
12
21
20
4A
A2
92
40
02
62
21
16
10
20
11
58
65
94
56
52
29
89
8A
25
92
2A
15
68
6A
A0
A6
51
44
AA
00
60
09
20
20
01
8A
51
02
11
96
29
59
52
1A
6A
45
4A
18
22
91
21
56
22
90
48
95
09
14
6A
89
55
92
69
00
55
89
84
80
60
26
56
A0
A9
59
A0
69
A0
82
50
42
6A
19
A1
86
A5
89
25
89
A4
A1
89
A6
69
A8
49
A5
28
66
89
A8
41
AA
25
90
45
9A
59
A6
5A
19
64
09
05
66
9A
02
4A
64
86
66
21
28
65
A1
45
A8
A8
11
50
89
18
52
16
55
89
60
55
4A
4A
04
A0
54
22
61
29
A4
19
16
A2
06
AA
92
45
A5
24
96
15
A1
88
89
04
6A
44
54
26
6A
25
49
A5
85
15
48
9A
21
05
22
54
42
08
99
02
06
05
20
45
40
80
16
60
28
AA
56
26
04
A9
41
84
86
20
A5
40
90
29
24
29
1A
00
65
15
06
A6
18
14
62
2A
95
05
52
61
68
01
94
81
A2
88
22
40
12
26
15
18
09
58
98
A1
95
45
21
16
90
A6
21
20
A0
20
64
A2
86
19
92
9A
82
52
4A
29
01
A9
91
11
25
45
81
68
5A
90
14
11
94
94
96
8A
00
24
10
4A
68
56
89
62
64
45
64
56
18
A1
44
91
89
08
A5
98
45
25
62
20
20
A8
88
20
60
A9
89
24
85
56
05
4A
86
4A
A8
82
0A
A5
62
85
44
51
62
4A
5A
4A
02
50
12
99
42
82
26
45
14
24
95
59
46
88
82
82
24
05
8A
56
01
20
19
29
12
16
24
64
20
66
5A
21
28
84
99
41
24
64
58
60
46
26
55
02
04
10
08
80
49
80
10
01
A4
19
64
00
22
04
90
00
09
84
86
18
08
10
08
40
41
14
50
54
2A
56
91
08
50
42
42
00
A4
64
80
08
49
21
46
41
21
91
98
89
10
58
21
29
01
08
20
88
90
41
04
88
98
00
06
08
20
01
82
18
48
40
22
81
09
44
A0
81
95
11
41
59
80
04
10
49
A8
88
95
52
25
48
49
6A
20
A4
96
69
51
0A
A5
A2
82
10
5A
10
82
18
2A
81
61
96
19
42
2A
96
52
A4
58
84
42
48
40
95
90
61
86
89
24
96
06
AA
A5
52
6A
28
21
0A
58
1A
01
54
95
85
66
48
10
A5
5A
22
04
06
16
42
68
5A
26
05
2A
A4
58
14
98
04
95
68
61
82
58
9A
60
4A
5A
58
55
85
06
06
24
A4
08
6A
A1
A4
58
94
41
8A
42
5A
29
A2
88
22
42
25
25
54
A1
9A
90
59
45
A9
56
19
89
88
59
90
96
A5
55
A9
89
25
99
01
9A
92
08
91
25
45
94
A8
69
AA
14
15
24
99
51
14
56
6A
2A
90
28
11
98
84
A5
84
19
19
01
1A
69
6A
A6
86
69
66
04
49
56
92
19
90
5A
28
95
55
65
58
A5
94
6A
99
9A
25
28
51
80
56
95
22
46
A9
51
51
20
46
A9
A6
52
20
12
59
11
80
25
25
8A
98
11
24
98
19
14
12
10
6A
18
80
14
0A
11
49
14
14
09
11
44
41
18
82
44
10
08
50
50
84
45
24
50
01
89
89
91
80
58
85
A2
11
A4
28
80
19
92
01
89
92
18
54
04
84
26
41
58
22
84
9A
86
90
46
65
25
04
21
A1
01
18
8A
00
4A
51
80
2A
49
25
44
88
52
01
51
25
95
60
00
28
14
56
91
54
45
84
50
45
68
A0
68
1A
A9
49
45
25
90
95
64
12
2A
98
58
80
49
A2
94
94
59
14
AA
42
15
29
1A
50
44
60
84
62
A1
01
A9
54
56
A4
51
4A
46
A8
9A
52
24
94
04
60
40
02
A0
A1
46
81
21
66
26
95
04
11
92
20
06
28
A0
8A
55
99
15
26
AA
11
11
A6
96
2A
29
92
85
A6
8A
11
91
54
61
A5
80
24
02
41
5A
41
05
50
A0
28
15
46
48
80
A9
66
04
49
20
15
28
88
20
A0
A5
82
62
01
69
04
58
46
69
48
88
16
02
11
94
94
06
1A
AA
24
59
44
04
18
2A
9A
6A
65
02
8A
A8
A4
59
92
05
2A
16
10
81
54
54
16
41
18
08
50
68
20
24
55
61
00
06
10
0A
12
50
84
86
25
A5
21
12
81
00
69
64
69
04
66
20
81
2A
00
01
56
A4
2A
50
10
45
11
41
14
51
29
90
88
24
05
45
84
51
04
02
00
40
26
26
89
A4
41
9A
45
66
01
61
48
26
80
A4
5A
98
11
A0
65
10
A6
49
25
80
55
82
55
19
95
98
25
66
A1
A0
81
0A
A2
58
50
88
80
00
9A
04
00
50
84
82
88
21
41
44
45
96
25
09
95
A8
22
48
06
19
A2
A1
05
22
8A
55
59
A5
99
51
A4
19
28
99
98
64
44
95
6A
25
01
4A
00
6A
05
95
51
22
04
00
64
1A
0A
88
0A
A2
22
22
A6
A9
24
02
A2
85
09
A5
14
84
10
A6
95
26
A5
50
96
5A
55
95
51
65
28
1A
1A
55
55
24
50
4A
41
85
24
A6
8A
25
02
50
95
54
62
94
06
81
50
20
48
80
20
12
25
1A
10
16
98
64
AA
01
51
65
56
04
85
A1
02
4A
09
12
98
44
10
01
84
A0
6A
52
11
15
29
51
06
42
14
22
11
55
40
2A
50
42
44
15
09
64
44
10
00
94
00
00
A1
48
A1
12
20
48
89
11
54
82
21
09
19
25
18
92
20
8A
80
22
2A
88
6A
02
82
04
11
20
22
6A
20
14
A2
80
10
16
00
94
02
8A
20
04
21
89
01
20
2A
01
18
18
20
51
64
2A
11
80
50
00
A4
06
42
29
58
A6
19
98
01
A6
61
45
00
61
00
11
00
20
04
10
14
00
4A
10
10
41
00
00
00
08
28
90
10
00
96
08
00
21
64
04
94
18
82
66
11
92
40
22
25
61
91
22
92
90
14
44
A4
02
22
14
22
50
10
01
10
02
00
00
00
00
08
44
28
81
09
15
41
41
60
10
86
22
21
52
01
10
21
12
40
11
A0
21
2A
95
90
02
9A
60
A2
A2
AA
11
65
A2
A8
AA
55
24
55
46
54
21
16
A9
82
0A
42
10
64
2A
A5
99
66
99
41
96
09
AA
A9
A6
A9
56
A6
50
A8
66
06
69
95
6A
88
A4
46
26
91
8A
92
08
A6
08
66
A9
59
18
14
A4
A8
A6
50
48
51
5A
46
2A
96
85
45
91
86
05
8A
81
A5
24
A4
69
56
A1
45
9A
96
21
66
56
2A
AA
15
55
96
55
40
82
95
50
65
02
28
0A
55
A5
4A
4A
62
A5
A9
5A
80
12
08
92
11
92
A6
55
52
49
18
15
64
19
59
92
8A
A4
44
60
06
8A
AA
1A
58
62
95
21
98
55
65
AA
15
4A
28
26
42
6A
26
62
21
AA
61
8A
96
85
99
25
51
5A
5A
44
95
59
24
99
A1
19
95
88
41
95
05
5A
52
00
45
61
A9
62
A8
85
40
85
1A
55
9A
55
AA
58
48
A6
40
60
85
54
54
46
A0
A9
91
61
68
A8
00
55
90
04
11
84
24
02
A1
90
46
00
20
01
40
55
9A
29
11
11
66
25
16
81
89
19
10
60
82
99
08
96
92
58
55
91
60
00
8A
A1
99
18
90
59
29
89
91
00
0A
90
44
A4
0A
64
55
62
58
1A
45
21
00
05
01
60
46
90
02
1A
96
4A
11
4A
26
49
85
82
54
A0
45
11
28
96
05
66
80
05
12
AA
A9
A5
46
19
9A
2A
15
41
59
66
24
A5
24
58
6A
A5
98
04
51
29
80
94
91
60
95
52
46
64
41
65
AA
24
9A
46
1A
56
6A
50
2A
95
10
58
14
84
08
59
96
96
15
15
A8
99
06
04
A1
26
25
59
80
59
81
A6
88
99
29
20
22
A1
81
81
55
25
26
88
55
26
25
12
55
16
54
AA
64
08
60
98
58
0A
22
55
05
26
64
56
24
65
1A
A5
6A
5A
58
99
49
15
94
2A
61
20
A8
52
AA
86
91
15
85
A9
2A
82
00
50
08
81
08
25
28
89
51
18
51
28
25
96
98
49
55
A4
A0
15
24
A0
2A
92
20
59
A1
A4
64
59
81
21
21
95
95
02
49
55
80
95
10
15
08
12
55
01
98
52
26
2A
42
58
52
12
82
05
52
15
AA
02
AA
6A
66
29
22
6A
05
25
46
1A
56
0A
41
29
81
02
04
40
14
05
26
A1
26
28
14
09
09
44
11
42
16
95
92
22
66
01
51
00
99
69
51
52
55
02
58
A2
45
96
AA
9A
11
A9
58
92
A0
41
45
51
1A
48
21
52
15
59
25
A1
0A
16
A8
06
25
88
21
28
A1
16
54
A2
66
86
51
A8
16
29
58
95
06
A8
45
55
58
45
41
91
50
0A
54
19
9A
58
6A
61
81
88
1A
05
51
10
26
82
15
49
22
66
14
25
60
6A
68
95
A4
84
40
29
11
50
24
28
00
08
0A
11
00
60
02
50
02
60
42
A4
54
05
A9
20
10
05
51
81
01
05
20
42
01
1A
14
19
66
40
60
62
20
60
00
61
82
A0
A5
02
95
00
00
48
84
22
05
08
16
AA
8A
42
49
40
68
08
82
A4
82
50
0A
02
51
0A
1A
24
6A
89
05
44
20
A6
80
59
01
08
40
06
64
06
10
44
48
29
44
24
56
28
21
81
41
48
86
94
04
18
80
28
55
51
8A
51
A2
59
A6
50
51
19
80
28
A5
20
51
19
92
96
5A
89
9A
14
1A
89
A9
59
64
86
A2
28
99
69
96
04
05
65
14
04
94
14
19
90
25
A5
26
59
51
49
AA
69
46
09
11
49
91
50
26
65
9A
16
82
68
A2
85
A9
4A
56
09
90
18
10
19
99
20
09
10
29
11
50
98
8A
46
26
14
99
AA
00
69
68
22
64
11
41
A6
64
46
0A
55
A2
96
69
44
61
92
85
04
41
25
46
04
41
55
54
65
89
18
A6
66
15
08
64
55
92
40
66
49
64
A5
18
96
45
99
09
0A
26
08
44
52
96
A4
24
A1
19
A6
10
6A
88
58
42
9A
6A
56
62
22
64
69
45
04
A2
86
2A
68
94
02
16
12
96
59
90
08
A5
05
16
95
26
56
52
66
42
A6
A9
01
08
09
00
22
14
16
4A
81
22
80
48
00
16
A5
40
95
56
08
80
2A
11
88
18
11
80
11
00
22
14
14
A5
21
10
16
45
29
41
18
25
22
28
91
A6
99
88
88
6A
68
06
62
54
00
15
94
19
A8
84
22
00
04
15
08
68
08
AA
11
85
6A
04
80
42
68
10
1A
90
48
22
26
41
58
89
8A
10
14
29
00
11
00
10
84
64
48
A4
69
96
A0
00
A5
90
44
98
20
51
59
18
96
81
56
28
A8
15
92
82
A0
16
90
90
21
11
48
A6
82
A9
15
55
42
95
68
24
96
16
A5
05
A9
59
56
4A
49
92
6A
22
29
61
56
A9
66
56
19
01
20
51
46
20
84
88
29
50
54
55
29
99
18
95
16
45
99
4A
91
A5
05
69
1A
95
A5
08
9A
81
89
91
46
24
29
62
92
80
45
A4
58
86
56
06
09
40
46
48
06
02
98
69
86
99
02
61
A1
24
6A
80
22
2A
22
16
22
65
16
85
90
80
88
A8
A9
10
A1
19
0A
91
05
99
46
12
54
A0
00
01
08
95
90
61
09
85
84
28
60
49
25
00
29
60
46
15
45
15
82
04
2A
56
52
08
82
80
15
24
12
56
00
12
0A
54
0A
98
6A
52
0A
99
06
11
80
04
96
94
6A
14
14
44
5A
84
44
92
08
90
49
85
24
08
08
19
96
51
42
08
40
16
28
85
22
59
A6
91
12
09
02
55
21
50
24
90
26
19
50
44
00
44
15
A8
A8
96
52
80
28
09
96
49
50
45
1A
15
01
24
4A
89
28
09
14
86
A8
00
40
14
00
10
58
15
94
25
96
12
69
45
A1
01
45
41
64
48
48
6A
59
10
A9
44
18
92
55
44
25
59
5A
A9
41
A6
5A
46
88
81
20
08
A0
45
20
24
99
56
55
10
AA
24
24
10
80
04
16
46
89
10
A8
00
A0
48
A9
A8
80
0A
85
20
02
18
41
19
48
88
02
59
8A
46
01
A4
52
14
46
84
86
06
40
05
18
84
95
20
65
96
A8
A8
05
91
A6
0A
41
51
16
80
29
20
58
24
51
49
4A
50
09
46
AA
0A
80
56
40
89
60
42
A8
40
11
10
04
81
40
80
11
04
02
49
04
96
06
10
00
48
24
A4
42
8A
06
10
22
45
22
14
14
46
10
29
56
84
A8
64
06
00
90
85
A2
2A
90
90
04
16
18
98
01
20
84
50
20
80
02
66
A8
88
21
88
16
16
00
86
0A
54
00
82
14
A0
20
02
A4
29
94
08
A1
68
04
00
05
44
02
08
49
54
26
14
12
04
51
48
46
25
00
AA
04
25
51
8A
89
14
09
81
82
01
60
81
00
08
28
00
00
01
08
20
00
06
42
08
80
10
06
04
40
24
44
48
84
54
94
44
A0
24
14
02
80
98
66
04
64
09
24
08
19
48
84
16
59
58
60
66
85
46
20
84
41
20
00
69
14
80
15
04
08
02
80
00
29
90
09
10
00
04
80
24
04
8A
40
18
05
A4
65
0A
A0
58
48
08
49
68
86
18
84
84
44
82
61
19
94
59
49
08
45
66
86
90
91
60
01
51
49
49
8A
62
61
22
99
61
A6
96
49
98
9A
56
55
55
68
28
95
5A
99
A9
65
14
51
41
55
56
84
98
AA
52
95
48
45
A0
55
A8
65
84
95
91
28
26
19
22
A8
65
5A
66
15
A1
55
82
18
60
65
99
25
0A
15
91
59
AA
56
A2
89
90
42
95
88
6A
8A
6A
84
22
69
85
81
92
86
59
8A
A6
48
46
88
8A
85
98
62
A8
26
46
8A
05
28
19
51
9A
18
A6
28
45
41
45
84
42
06
66
42
81
04
A2
58
49
49
51
A8
16
10
55
89
56
A6
26
92
62
84
11
58
16
56
14
85
18
A9
14
A5
92
66
8A
90
80
6A
18
65
55
52
44
84
61
20
92
46
81
10
68
61
49
5A
98
64
91
65
A9
A4
21
15
84
26
66
55
A9
26
15
8A
56
15
98
99
51
15
41
6A
59
15
60
04
20
00
1A
65
01
A1
28
06
51
04
86
26
20
04
01
48
58
20
51
69
25
14
54
02
44
04
52
15
80
22
26
85
11
01
49
05
44
6A
2A
24
8A
18
05
58
15
29
80
61
86
1A
64
40
A4
26
92
02
65
90
8A
12
55
88
52
61
10
64
06
82
8A
A4
66
69
92
01
1A
82
80
18
81
64
56
49
0A
98
A1
15
25
65
28
AA
A5
16
42
AA
55
18
00
06
26
95
0A
65
21
14
02
A1
68
80
56
A2
86
11
80
50
6A
45
55
55
54
A0
65
42
22
69
49
14
66
55
A4
26
A4
49
0A
92
02
59
12
A9
50
55
04
04
88
20
68
48
50
08
45
94
26
06
99
69
24
56
0A
22
A8
66
80
45
59
28
8A
2A
04
46
66
62
21
8A
65
45
66
28
66
68
10
19
50
66
59
45
10
01
08
26
01
86
09
89
88
22
80
41
09
44
12
44
A8
20
41
A4
2A
54
60
84
28
96
A1
61
61
9A
41
42
44
26
24
04
84
56
92
08
89
09
81
06
80
19
21
48
14
10
98
05
51
A0
82
29
05
26
64
95
0A
92
22
26
68
02
A2
01
15
48
10
A0
98
60
98
18
19
16
10
11
40
44
A2
6A
40
21
16
4A
11
85
6A
5A
14
66
92
A2
26
8A
20
69
0A
19
88
60
98
2A
68
12
14
A5
26
99
96
65
A5
99
01
96
06
49
54
21
28
20
25
90
42
A5
A6
98
89
48
89
96
A4
A9
4A
4A
94
6A
41
28
10
12
10
86
82
6A
A2
48
88
8A
69
28
24
98
86
4A
29
4A
41
85
0A
A8
00
50
8A
19
42
64
96
41
54
58
66
28
56
91
1A
55
18
60
05
16
20
24
9A
66
69
86
85
50
8A
0A
16
8A
88
44
A8
00
11
98
46
01
20
00
86
04
81
44
01
A0
00
A0
88
02
08
A4
65
08
16
41
59
A1
95
58
19
81
11
60
90
40
15
40
2A
98
15
A8
19
65
40
8A
AA
88
88
52
41
40
44
64
12
18
51
00
04
92
48
66
84
00
01
28
08
05
86
02
A4
00
24
10
81
06
12
84
08
95
10
11
94
A2
59
92
14
04
A2
11
04
25
26
4A
A4
25
24
1A
05
60
A5
41
64
18
08
12
6A
A1
99
00
50
9A
60
48
54
15
51
44
1A
49
89
11
06
16
90
18
A2
08
62
10
14
61
29
61
46
50
95
1A
10
AA
92
96
45
A5
98
44
9A
9A
80
64
64
96
16
66
50
95
02
45
A5
08
94
65
21
26
A2
88
91
19
61
91
51
A9
64
26
15
24
18
A8
64
49
1A
62
A0
94
16
14
A0
1A
9A
A6
51
60
1A
0A
69
52
24
41
65
44
60
58
54
65
22
89
5A
80
91
69
AA
84
5A
9A
29
08
29
96
15
6A
90
96
54
A9
92
24
64
96
A2
58
29
22
66
46
A1
41
10
96
54
8A
64
01
88
92
04
69
11
80
06
25
64
A2
5A
01
80
29
55
08
95
29
65
0A
81
05
21
45
A9
11
64
26
54
4A
44
61
4A
8A
AA
59
49
68
15
14
86
19
45
19
55
29
06
1A
00
44
45
A0
80
00
26
82
A6
16
4A
A8
65
41
01
29
24
08
22
82
09
08
64
02
14
46
96
A2
08
05
24
00
15
21
0A
18
09
58
A6
51
5A
24
08
46
25
21
05
12
29
81
12
28
AA
08
22
40
68
40
02
A9
24
8A
04
15
68
21
85
0A
96
45
48
54
20
86
69
24
06
11
08
14
94
A5
18
04
0A
01
95
15
A5
00
22
4A
09
55
24
1A
90
12
24
64
82
14
02
09
A2
A2
58
A6
A2
21
14
51
54
26
11
60
AA
04
A1
69
61
5A
62
5A
20
4A
86
65
52
AA
8A
99
84
18
26
45
A9
09
04
65
A0
11
90
60
5A
29
88
51
98
5A
94
25
94
94
A5
15
21
21
24
65
15
50
95
61
11
95
89
20
54
A5
94
9A
21
85
54
02
00
24
20
04
A1
05
A0
90
1A
05
20
6A
A8
4A
65
12
A5
A9
9A
88
2A
10
00
12
26
45
A2
42
62
86
00
45
50
A6
A8
24
00
82
82
82
04
18
65
05
4A
0A
06
50
80
42
99
A5
22
A9
16
24
42
60
25
41
18
96
58
60
85
50
85
90
88
81
A1
9A
42
65
82
55
0A
AA
05
20
49
06
56
8A
A1
91
55
20
14
08
10
28
44
54
89
02
55
A4
44
55
06
94
44
05
A4
05
09
56
08
44
51
62
A4
04
6A
10
50
41
98
95
10
28
8A
81
49
65
11
11
62
90
1A
92
01
09
90
96
06
10
66
48
58
92
95
A5
29
9A
69
02
20
21
56
16
49
21
09
28
12
12
60
46
A8
5A
10
25
46
05
29
60
90
91
15
88
84
40
86
25
95
59
44
69
11
88
15
58
12
81
A5
21
1A
60
0A
12
A8
61
66
29
92
18
60
64
92
22
95
29
25
9A
12
2A
92
8A
05
10
16
01
1A
69
29
65
5A
A6
54
80
02
06
A0
56
A5
69
A2
05
5A
58
8A
40
84
55
50
1A
A2
51
AA
59
19
96
88
29
A5
06
92
49
81
85
44
02
60
8A
00
95
42
59
04
18
58
82
18
82
28
19
18
96
AA
85
01
10
41
50
02
61
89
12
41
51
A5
04
68
01
06
21
5A
48
09
0A
90
06
A6
50
16
11
84
46
05
98
21
42
1A
14
A2
02
00
10
2A
50
25
88
26
46
00
A0
41
21
88
01
11
A4
06
10
22
01
AA
00
40
48
18
02
10
81
88
49
46
04
06
16
81
16
96
08
29
06
86
25
82
9A
90
18
02
40
51
00
26
45
45
01
16
50
14
A8
24
06
A1
A4
00
0A
29
80
04
04
8A
89
64
42
21
20
41
A0
28
91
2A
09
45
01
16
51
90
10
94
00
61
91
80
16
01
01
00
00
00
21
88
12
42
94
20
11
00
40
00
10
02
04
00
00
45
02
00
62
42
A8
64
11
86
42
46
42
11
92
09
89
41
06
46
64
65
89
54
92
0A
84
02
02
11
94
01
00
02
08
00
28
49
40
02
00
00
09
40
41
02
21
04
06
40
10
82
60
24
11
48
65
10
0A
12
65
45
89
64
88
9A
82
8A
65
09
8A
15
56
25
86
06
0A
41
A2
62
05
A6
42
A5
A5
41
92
55
51
5A
55
2A
AA
55
98
19
4A
44
26
06
61
24
AA
0A
45
65
5A
59
62
A9
A5
80
46
81
A9
90
09
15
A2
85
10
51
59
99
51
49
22
85
48
4A
09
16
98
69
11
69
86
8A
50
95
86
65
A2
98
56
25
A8
62
10
80
95
26
A1
98
49
A6
45
58
12
A5
44
42
15
5A
88
85
9A
65
62
9A
9A
15
20
54
02
22
46
20
85
8A
25
69
A2
02
81
68
16
42
88
94
2A
90
49
89
A0
86
69
8A
21
49
AA
89
56
26
9A
05
08
94
16
A9
44
56
5A
66
AA
96
04
26
96
82
28
6A
62
94
29
94
6A
99
98
94
A6
99
A4
28
A9
5A
50
55
94
09
40
8A
26
9A
94
19
28
19
19
86
18
84
01
46
16
95
99
99
29
65
1A
20
40
56
54
92
00
12
91
00
81
01
50
15
80
01
14
08
40
85
49
02
99
61
AA
05
62
A1
01
99
25
21
62
21
40
81
29
66
A4
9A
12
29
52
64
41
9A
69
94
18
21
69
98
8A
92
28
14
09
90
96
22
29
18
94
20
06
21
21
95
81
94
08
80
98
9A
50
84
16
10
85
49
06
12
80
A6
55
59
98
1A
05
45
6A
64
9A
21
92
2A
69
96
29
86
98
09
61
A9
66
9A
66
14
A9
44
00
4A
A9
19
64
26
18
95
58
0A
09
9A
AA
9A
62
06
90
50
84
54
94
69
42
42
41
8A
A0
65
A0
08
45
68
5A
25
A6
6A
89
0A
60
A6
9A
98
64
56
65
05
9A
A9
61
52
6A
54
2A
1A
81
22
26
61
66
15
42
55
99
85
61
64
45
56
58
1A
44
98
48
48
21
64
8A
15
5A
25
A1
A8
65
41
52
41
A1
25
A9
25
16
21
08
58
14
9A
56
06
40
02
52
80
12
14
05
92
82
05
08
16
05
1A
24
69
58
60
54
88
20
60
0A
06
A4
11
69
6A
69
19
21
06
A8
24
20
26
6A
14
A5
09
01
19
61
A0
95
20
11
46
06
56
A4
06
09
92
50
42
A0
96
61
50
A5
94
0A
40
59
49
69
21
26
66
84
05
64
69
A1
24
A6
9A
09
06
A6
85
99
18
1A
68
98
19
18
51
10
88
16
98
86
A6
88
A9
1A
AA
09
A6
44
46
92
19
10
AA
15
80
15
25
52
A4
90
A4
66
60
59
80
86
21
15
44
49
99
82
46
00
15
02
44
96
0A
50
81
A8
00
10
90
99
99
04
54
88
21
92
46
A8
08
6A
09
96
49
1A
24
59
90
64
60
64
91
40
15
12
56
A6
12
64
90
6A
89
A1
52
22
61
59
81
56
55
51
96
40
00
11
48
00
A0
06
6A
81
02
42
01
80
04
60
86
09
00
01
98
44
15
08
80
62
02
06
44
15
91
46
16
59
42
40
49
01
A1
41
20
40
49
46
94
01
92
68
26
04
50
02
89
A9
21
01
84
06
90
00
81
02
90
61
11
A9
64
26
82
09
09
20
90
44
64
29
09
10
80
12
AA
20
8A
9A
10
50
24
A4
90
08
A8
08
00
59
42
6A
A5

