92
25
A6
61
A5
20
61
04
51
14
A5
55
88
96
A0
1A
88
41
10
5A
A2
52
A8
AA
29
81
50
46
58
5A
61
50
90
90
68
88
88
90
16
A9
98
2A
14
AA
59
98
95
18
A5
2A
A4
50
AA
40
09
A6
88
89
25
41
91
98
88
81
A6
92
44
91
66
60
19
20
12
11
62
16
55
22
81
58
51
A5
25
95
55
95
5A
06
98
88
82
41
A5
06
25
02
49
A2
59
AA
A2
A6
24
A4
26
A2
40
14
29
99
02
62
89
86
48
94
81
81
A1
4A
44
85
02
61
82
45
96
A5
55
10
1A
66
52
18
65
60
4A
94
56
61
41
42
A4
5A
A2
54
24
58
02
A0
92
24
54
A6
25
A0
22
59
86
A5
24
90
A6
69
58
A9
94
92
54
65
66
26
95
8A
68
10
04
95
69
A6
9A
A4
58
A0
4A
94
A4
49
A6
AA
A0
A5
86
5A
84
50
6A
58
40
21
69
56
A6
40
51
69
64
19
A1
16
61
89
26
AA
5A
64
AA
16
AA
A2
49
A2
10
55
8A
91
99
A1
A1
A5
22
91
A4
86
69
4A
54
A1
68
A4
1A
A1
95
60
A0
A0
04
A9
86
4A
59
9A
4A
92
20
60
55
A5
48
A8
52
0A
1A
51
09
19
6A
10
50
88
49
61
95
58
61
96
85
48
95
12
A9
A6
5A
A6
6A
59
20
16
01
94
68
09
11
10
24
80
00
1A
56
15
08
0A
28
2A
50
05
9A
45
AA
55
A1
60
0A
08
28
96
55
41
62
48
A6
61
00
26
64
66
69
45
26
84
A6
56
80
21
59
69
10
A0
04
20
2A
81
A9
58
0A
86
0A
A5
50
60
45
81
6A
80
50
62
28
21
8A
92
A2
94
96
21
1A
51
05
91
49
94
95
A8
24
11
2A
12
65
54
10
12
91
9A
91
89
61
99
20
86
90
90
82
A6
06
50
A4
56
81
10
09
66
96
85
88
52
15
5A
85
49
24
56
18
96
91
A4
22
06
45
69
16
68
21
6A
95
A9
41
16
A9
92
29
41
10
88
95
28
06
04
64
1A
A4
04
28
90
09
2A
49
54
84
A0
54
A1
95
09
5A
29
24
28
A9
84
A4
68
42
96
A5
29
A9
95
96
41
68
14
68
90
28
96
54
6A
94
94
80
54
00
11
46
00
42
9A
56
89
88
8A
44
04
42
29
88
65
69
89
89
60
4A
29
60
A6
A0
08
A9
4A
54
66
88
45
91
04
26
96
A4
86
49
95
94
04
56
28
29
25
09
95
5A
85
40
15
25
59
85
69
00
29
6A
5A
86
54
09
61
66
11
1A
22
10
15
80
98
52
01
22
82
A9
58
54
26
95
20
68
98
19
49
04
48
96
A4
60
90
26
52
46
89
19
86
11
52
06
05
A2
96
A2
A5
9A
24
91
A6
9A
00
44
86
66
AA
46
A4
84
58
24
95
AA
A6
A2
1A
66
91
99
18
55
99
41
6A
62
4A
99
A9
49
99
62
95
A2
55
06
05
61
24
04
0A
62
52
41
00
94
89
61
29
55
80
46
09
A4
18
68
55
66
62
08
09
A8
10
0A
62
A5
69
0A
86
96
92
08
02
85
44
59
0A
A6
40
05
05
01
85
81
64
1A
6A
41
41
64
19
64
22
14
12
21
14
80
55
62
69
25
65
01
A0
98
80
86
99
25
00
4A
55
14
54
88
5A
4A
26
5A
0A
69
6A
16
20
85
08
58
84
A5
A2
44
02
65
8A
12
A6
09
84
88
65
95
66
50
4A
59
55
1A
64
69
92
9A
46
8A
A8
48
51
40
25
29
4A
5A
46
00
59
49
50
A8
09
1A
09
96
44
24
92
85
85
2A
14
81
44
10
66
06
64
45
24
62
A6
29
5A
20
A9
26
15
09
94
25
15
29
99
86
98
19
26
18
4A
00
85
5A
2A
18
18
59
28
59
9A
A9
5A
1A
29
11
1A
60
46
A4
09
22
89
A9
19
82
69
9A
05
90
05
92
86
58
48
46
0A
AA
A0
95
18
11
45
60
19
45
06
25
05
66
90
54
98
16
A4
29
66
19
25
98
66
A1
26
24
40
A9
26
46
64
5A
64
89
25
65
20
04
45
0A
10
05
68
51
85
49
98
40
05
26
55
45
25
65
16
82
18
16
16
02
60
19
59
96
A1
98
92
96
9A
05
90
9A
50
19
10
60
09
69
69
69
88
40
96
59
A6
42
89
18
54
60
99
2A
58
51
84
40
92
A0
96
85
96
24
29
02
42
11
49
52
68
29
16
06
64
05
42
18
65
85
05
49
09
65
9A
21
60
64
A6
19
10
01
00
01
58
12
19
28
68
21
18
41
49
4A
9A
04
16
44
96
6A
A4
42
28
40
59
16
41
51
62
42
95
41
80
95
94
91
99
02
94
A5
01
81
26
82
91
4A
16
5A
A4
40
15
21
54
84
68
A8
86
0A
48
A2
88
08
22
68
25
58
26
1A
A8
04
A4
86
58
68
11
48
94
00
9A
14
4A
5A
59
95
6A
A2
62
A9
8A
40
96
6A
65
92
60
A1
02
11
6A
A2
A0
89
A5
80
01
06
42
08
95
22
A5
0A
A9
29
85
95
52
61
29
01
89
94
44
2A
24
94
81
49
56
62
69
90
5A
61
91
52
60
52
A4
48
A9
A5
64
26
55
11
46
26
91
05
66
96
08
45
01
5A
59
A5
08
95
11
A1
16
62
9A
A8
A1
5A
01
99
A8
A1
44
50
58
50
A9
A5
5A
5A
84
18
A8
48
A5
A6
08
A0
96
A5
61
A8
45
0A
49
48
04
09
14
61
24
2A
A0
A9
56
96
A2
41
A1
81
A0
88
86
21
98
A5
25
46
11
54
69
04
22
0A
02
AA
05
A2
22
64
88
A4
0A
26
46
42
19
48
A9
55
88
26
00
20
42
A9
05
29
80
12
5A
A5
26
64
98
82
A0
10
45
06
22
61
8A
69
08
A8
05
94
58
09
08
5A
45
AA
95
10
05
4A
54
AA
90
29
4A
65
84
59
21
61
2A
11
95
60
22
41
AA
A2
69
05
54
88
45
45
40
54
09
69
40
69
52
28
56
9A
28
52
69
42
55
45
81
86
82
90
6A
16
86
91
9A
16
86
9A
01
49
68
55
86
89
06
29
26
81
04
22
04
82
82
A2
AA
62
95
42
88
A5
A9
24
A2
40
21
64
22
94
48
25
4A
41
51
21
05
1A
18
65
65
92
A9
81
15
0A
56
69
81
69
01
65
25
16
51
18
18
69
85
05
95
29
A1
21
16
A8
65
90
88
95
65
A5
15
25
46
94
02
A6
85
54
64
41
94
5A
29
52
08
0A
92
0A
08
A4
42
40
04
19
A0
55
86
A6
48
95
68
84
00
8A
49
44
90
A8
64
25
AA
16
28
96
25
16
06
5A
5A
49
59
52
40
99
A1
04
58
02
4A
06
88
28
15
46
15
4A
55
09
14
6A
06
A6
88
05
25
85
24
96
92
61
92
AA
92
82
92
95
9A
55
96
96
69
92
65
65
96
92
AA
9A
92
A2
65
65
96
65
9A
45
96
05
86
65
69
65
65
65
69
96
69
61
55
65
92
51
69
92
61
9A
69
96
69
61
45
28
9A
59
54
AA
51
61
41
8A
92
86
45
8A
41
41
65
82
61
81
92
8A
A6
92
A5
8A
61
61
96
92
52
61
96
29
9A
65
1A
92
69
96
9A
5A
16
A1
56
60
42
54
56
52
14
56
52
90
51
A4
50
61
46
04
98
52
02
66
90
92
48
90
52
28
16
88
22
06
81
A0
09
29
48
48
A9
12
49
20
86
A9
96
95
45
56
25
5A
85
80
0A
22
81
94
99
65
98
14
26
90
11
9A
94
52
40
15
A0
61
45
5A
12
52
64
44
18
62
A5
15
54
01
42
0A
52
98
5A
A1
10
A1
96
56
65
1A
12
40
52
5A
08
00
A2
62
62
1A
51
A4
A4
91
61
02
51
A8
14
85
20
A8
69
96
42
A5
95
94
64
00
08
00
A5
44
89
99
A9
15
94
99
59
14
15
85
15
99
65
59
A5
46
89
62
29
86
89
A5
42
A2
05
59
18
55
41
48
81
26
05
48
69
48
89
80
59
80
99
A6
28
84
50
46
48
09
06
81
66
15
49
90
6A
81
62
95
52
26
A5
42
0A
6A
65
48
28
16
29
88
A9
09
AA
89
09
14
08
A9
15
48
96
45
68
59
98
49
68
A9
56
54
A9
26
A9
A5
A9
54
AA
16
16
16
96
16
16
18
16
16
25
96
A9
15
56
A9
96
A9
16
49
A6
44
95
0A
29
16
45
A9
15
44
64
68
A9
A9
16
99
15
55
06
89
64
6A
88
89
2A
59
4A
29
05
56
29
29
21
96
29
5A
89
96
65
21
66
A9
A9
25
21
42
A4
18
81
95
A1
94
12
A5
2A
22
25
09
18
61
5A
51
45
00
26
6A
64
2A
48
50
61
92
41
80
A5
55
AA
94
86
24
00
02
66
54
98
69
5A
A6
06
A5
21
89
40
A4
51
28
88
55
58
44
61
04
55
A5
22
51
A2
46
81
00
55
04
22
60
92
85
A4
A5
A8
60
A2
4A
06
20
55
82
65
44
44
A6
24
A0
22
09
99
65
1A
55
29
A9
A0
84
04
88
86
A6
44
26
80
A6
5A
8A
94
50
66
55
49
69
18
42
06
A0
54
5A
09
52
56
6A
29
25
06
91
59
9A
86
15
55
22
A5
A6
59
05
65
99
42
11
91
20
9A
16
81
4A
65
21
85
A4
59
52
65
69
01
A1
0A
59
24
A2
11
20
59
19
A1
46
02
51
41
64
24
68
AA
98
46
85
86
42
91
91
42
48
40
95
16
12
9A
80
52
11
41
2A
65
18
69
A4
A1
65
80
50
05
50
10
69
91
52
02
4A
A1
5A
00
A4
52
A9
98
92
A9
81
A9
66
69
15
5A
9A
56
56
96
14
54
60
52
56
6A
56
25
46
6A
A9
12
29
16
69
11
1A
90
44
AA
5A
24
A8
50
4A
0A
A0
65
09
49
A1
96
16
09
28
56
59
21
5A
06
6A
91
48
40
60
65
AA
A8
56
69
12
A9
52
29
61
98
21
A9
29
A1
51
24
52
95
06
A5
A5
41
04
54
49
9A
51
0A
51
2A
5A
18
15
86
48
59
15
A9
9A
59
42
10
48
56
18
65
82
A2
AA
29
2A
AA
5A
2A
2A
A1
A2
14
99
22
65
85
15
2A
55
2A
59
92
8A
16
6A
44
54
AA
64
02
29
54
51
09
54
AA
A6
91
10
08
52
22
01
95
65
66
51
AA
6A
95
96
11
88
55
A6
11
A5
95
11
09
16
59
54
50
28
56
AA
00
6A
44
68
5A
4A
42
54
05
48
42
48
96
82
96
5A
51
4A
29
59
0A
92
42
66
6A
80
6A
5A
88
94
09
92
80
A6
AA
96
91
88
04
09
68
A2
15
68
99
42
A0
55
80
A8
14
2A
40
91
26
68
81
60
90
5A
66
85
9A
6A
95
99
25
42
99
92
40
80
18
A2
90
86
08
91
4A
66
A5
86
62
90
5A
90
51
5A
A1
40
48
40
58

